const unsigned char model_tflite[] = {
  0x20, 0x00, 0x00, 0x00, 0x54, 0x46, 0x4C, 0x33, 0x00, 0x00,
  0x00, 0x00, 0x14, 0x00, 0x20, 0x00, 0x1C, 0x00, 0x18, 0x00,
  0x14, 0x00, 0x10, 0x00, 0x0C, 0x00, 0x00, 0x00, 0x08, 0x00,
  0x04, 0x00, 0x14, 0x00, 0x00, 0x00, 0x1C, 0x00, 0x00, 0x00,
  0x80, 0x00, 0x00, 0x00, 0xD8, 0x00, 0x00, 0x00, 0x0C, 0x0A,
  0x00, 0x00, 0x1C, 0x0A, 0x00, 0x00, 0xF0, 0x22, 0x00, 0x00,
  0x03, 0x00, 0x00, 0x00, 0x01, 0x00, 0x00, 0x00, 0x04, 0x00,
  0x00, 0x00, 0x02, 0xF5, 0xFF, 0xFF, 0x0C, 0x00, 0x00, 0x00,
  0x1C, 0x00, 0x00, 0x00, 0x38, 0x00, 0x00, 0x00, 0x0F, 0x00,
  0x00, 0x00, 0x73, 0x65, 0x72, 0x76, 0x69, 0x6E, 0x67, 0x5F,
  0x64, 0x65, 0x66, 0x61, 0x75, 0x6C, 0x74, 0x00, 0x01, 0x00,
  0x00, 0x00, 0x04, 0x00, 0x00, 0x00, 0x9C, 0xFF, 0xFF, 0xFF,
  0x1D, 0x00, 0x00, 0x00, 0x04, 0x00, 0x00, 0x00, 0x07, 0x00,
  0x00, 0x00, 0x64, 0x65, 0x6E, 0x73, 0x65, 0x5F, 0x31, 0x00,
  0x01, 0x00, 0x00, 0x00, 0x04, 0x00, 0x00, 0x00, 0x7A, 0xF6,
  0xFF, 0xFF, 0x04, 0x00, 0x00, 0x00, 0x07, 0x00, 0x00, 0x00,
  0x69, 0x6E, 0x70, 0x75, 0x74, 0x5F, 0x32, 0x00, 0x02, 0x00,
  0x00, 0x00, 0x34, 0x00, 0x00, 0x00, 0x04, 0x00, 0x00, 0x00,
  0xDC, 0xFF, 0xFF, 0xFF, 0x20, 0x00, 0x00, 0x00, 0x04, 0x00,
  0x00, 0x00, 0x13, 0x00, 0x00, 0x00, 0x43, 0x4F, 0x4E, 0x56,
  0x45, 0x52, 0x53, 0x49, 0x4F, 0x4E, 0x5F, 0x4D, 0x45, 0x54,
  0x41, 0x44, 0x41, 0x54, 0x41, 0x00, 0x08, 0x00, 0x0C, 0x00,
  0x08, 0x00, 0x04, 0x00, 0x08, 0x00, 0x00, 0x00, 0x1F, 0x00,
  0x00, 0x00, 0x04, 0x00, 0x00, 0x00, 0x13, 0x00, 0x00, 0x00,
  0x6D, 0x69, 0x6E, 0x5F, 0x72, 0x75, 0x6E, 0x74, 0x69, 0x6D,
  0x65, 0x5F, 0x76, 0x65, 0x72, 0x73, 0x69, 0x6F, 0x6E, 0x00,
  0x21, 0x00, 0x00, 0x00, 0x30, 0x09, 0x00, 0x00, 0x28, 0x09,
  0x00, 0x00, 0x10, 0x09, 0x00, 0x00, 0xF4, 0x08, 0x00, 0x00,
  0xA4, 0x08, 0x00, 0x00, 0x84, 0x08, 0x00, 0x00, 0xE4, 0x07,
  0x00, 0x00, 0xC4, 0x07, 0x00, 0x00, 0x94, 0x06, 0x00, 0x00,
  0x64, 0x06, 0x00, 0x00, 0x14, 0x04, 0x00, 0x00, 0xE4, 0x03,
  0x00, 0x00, 0x94, 0x01, 0x00, 0x00, 0x64, 0x01, 0x00, 0x00,
  0x0C, 0x01, 0x00, 0x00, 0x04, 0x01, 0x00, 0x00, 0xFC, 0x00,
  0x00, 0x00, 0xF4, 0x00, 0x00, 0x00, 0xEC, 0x00, 0x00, 0x00,
  0xE4, 0x00, 0x00, 0x00, 0xDC, 0x00, 0x00, 0x00, 0xD4, 0x00,
  0x00, 0x00, 0xCC, 0x00, 0x00, 0x00, 0xC4, 0x00, 0x00, 0x00,
  0xBC, 0x00, 0x00, 0x00, 0xB4, 0x00, 0x00, 0x00, 0xAC, 0x00,
  0x00, 0x00, 0xA4, 0x00, 0x00, 0x00, 0x9C, 0x00, 0x00, 0x00,
  0x94, 0x00, 0x00, 0x00, 0x8C, 0x00, 0x00, 0x00, 0x6C, 0x00,
  0x00, 0x00, 0x04, 0x00, 0x00, 0x00, 0x72, 0xF7, 0xFF, 0xFF,
  0x04, 0x00, 0x00, 0x00, 0x58, 0x00, 0x00, 0x00, 0x0C, 0x00,
  0x00, 0x00, 0x08, 0x00, 0x0E, 0x00, 0x08, 0x00, 0x04, 0x00,
  0x08, 0x00, 0x00, 0x00, 0x10, 0x00, 0x00, 0x00, 0x28, 0x00,
  0x00, 0x00, 0x00, 0x00, 0x06, 0x00, 0x08, 0x00, 0x04, 0x00,
  0x06, 0x00, 0x00, 0x00, 0x04, 0x00, 0x00, 0x00, 0x01, 0x00,
  0x00, 0x00, 0xEB, 0x03, 0x00, 0x00, 0x00, 0x00, 0x0A, 0x00,
  0x10, 0x00, 0x0C, 0x00, 0x08, 0x00, 0x04, 0x00, 0x0A, 0x00,
  0x00, 0x00, 0x02, 0x00, 0x00, 0x00, 0x02, 0x00, 0x00, 0x00,
  0x04, 0x00, 0x00, 0x00, 0x06, 0x00, 0x00, 0x00, 0x32, 0x2E,
  0x31, 0x31, 0x2E, 0x30, 0x00, 0x00, 0xD6, 0xF7, 0xFF, 0xFF,
  0x04, 0x00, 0x00, 0x00, 0x10, 0x00, 0x00, 0x00, 0x31, 0x2E,
  0x31, 0x34, 0x2E, 0x30, 0x00, 0x00, 0x00, 0x00, 0x00, 0x00,
  0x00, 0x00, 0x00, 0x00, 0x20, 0xDF, 0xFF, 0xFF, 0x24, 0xDF,
  0xFF, 0xFF, 0x28, 0xDF, 0xFF, 0xFF, 0x2C, 0xDF, 0xFF, 0xFF,
  0x30, 0xDF, 0xFF, 0xFF, 0x34, 0xDF, 0xFF, 0xFF, 0x38, 0xDF,
  0xFF, 0xFF, 0x3C, 0xDF, 0xFF, 0xFF, 0x40, 0xDF, 0xFF, 0xFF,
  0x44, 0xDF, 0xFF, 0xFF, 0x48, 0xDF, 0xFF, 0xFF, 0x4C, 0xDF,
  0xFF, 0xFF, 0x50, 0xDF, 0xFF, 0xFF, 0x54, 0xDF, 0xFF, 0xFF,
  0x58, 0xDF, 0xFF, 0xFF, 0x5C, 0xDF, 0xFF, 0xFF, 0x32, 0xF8,
  0xFF, 0xFF, 0x04, 0x00, 0x00, 0x00, 0x48, 0x00, 0x00, 0x00,
  0x3E, 0xC5, 0x03, 0x1E, 0x3C, 0x81, 0xA5, 0xF8, 0x93, 0x3F,
  0x81, 0xDC, 0x1D, 0xC9, 0x04, 0x03, 0x1F, 0x68, 0x04, 0x5F,
  0xEF, 0x98, 0x81, 0x86, 0x3C, 0x3B, 0x10, 0xA2, 0x45, 0x6F,
  0x51, 0x16, 0x3A, 0x12, 0x88, 0x81, 0x5A, 0xB4, 0x52, 0x98,
  0x21, 0x0A, 0xC9, 0xC5, 0x7F, 0x4A, 0x19, 0x03, 0x19, 0x48,
  0x2D, 0x21, 0xA0, 0x81, 0xE5, 0x70, 0x3C, 0x01, 0xAF, 0xE7,
  0x21, 0xD1, 0x81, 0xEA, 0xDF, 0x0A, 0x27, 0x81, 0x54, 0x6A,
  0x1D, 0x92, 0x86, 0xF8, 0xFF, 0xFF, 0x04, 0x00, 0x00, 0x00,
  0x20, 0x00, 0x00, 0x00, 0x88, 0x15, 0x00, 0x00, 0xB9, 0xFE,
  0xFF, 0xFF, 0x10, 0x14, 0x00, 0x00, 0xB0, 0x2E, 0x00, 0x00,
  0xF0, 0xFF, 0xFF, 0xFF, 0x31, 0x10, 0x00, 0x00, 0xBB, 0x0D,
  0x00, 0x00, 0xEC, 0x13, 0x00, 0x00, 0xB2, 0xF8, 0xFF, 0xFF,
  0x04, 0x00, 0x00, 0x00, 0x40, 0x02, 0x00, 0x00, 0x78, 0x26,
  0x7F, 0x22, 0xEC, 0x08, 0x3C, 0x39, 0x66, 0x26, 0x47, 0x25,
  0x3E, 0xEB, 0x3F, 0xF7, 0x06, 0xD9, 0x47, 0xFC, 0x21, 0x43,
  0x5C, 0x17, 0x5C, 0x3A, 0x01, 0x05, 0xB2, 0xD6, 0x4A, 0xF7,
  0x36, 0x14, 0x40, 0xE3, 0xDB, 0x2A, 0x39, 0xE8, 0x4B, 0x57,
  0x40, 0xF9, 0x34, 0xDC, 0x0E, 0x0E, 0x29, 0x45, 0x09, 0xD8,
  0x19, 0x49, 0xDD, 0x0B, 0x3E, 0x0A, 0x04, 0x15, 0x48, 0xF5,
  0x09, 0xE9, 0xF8, 0x21, 0xEF, 0xC9, 0xFD, 0xB7, 0x62, 0xB3,
  0x4F, 0x37, 0x1A, 0x1A, 0xD4, 0x34, 0x1C, 0x06, 0x48, 0x2B,
  0x30, 0x38, 0x22, 0x0B, 0x69, 0x13, 0x42, 0xED, 0x2A, 0x03,
  0x44, 0xFA, 0x31, 0xB7, 0x43, 0x08, 0x18, 0xDC, 0x12, 0x20,
  0x04, 0xFC, 0x04, 0x63, 0x4D, 0xDE, 0xFA, 0xD6, 0x7F, 0x41,
  0x1A, 0x1F, 0x0E, 0xF1, 0x38, 0xCB, 0x48, 0xF3, 0x1D, 0x13,
  0x20, 0x1E, 0x17, 0x23, 0x2E, 0xF2, 0x34, 0xEF, 0x38, 0x08,
  0xF9, 0x1F, 0x1A, 0x03, 0x42, 0x34, 0x25, 0xAE, 0x1D, 0xC1,
  0x1A, 0xD9, 0x34, 0x18, 0x4A, 0x1D, 0xF3, 0xE2, 0x48, 0xEE,
  0x50, 0x08, 0x1E, 0xEC, 0x13, 0x1A, 0x65, 0x2E, 0x54, 0xBE,
  0x4E, 0xED, 0x54, 0x54, 0x75, 0xDF, 0x37, 0x0F, 0x5A, 0xFE,
  0xD1, 0xF4, 0x22, 0x2E, 0x41, 0x0F, 0x7F, 0xF8, 0x4E, 0xDE,
  0x6C, 0xEA, 0x33, 0x40, 0x5C, 0x3C, 0x42, 0xE3, 0x6F, 0xDB,
  0x1A, 0x18, 0x4E, 0xCE, 0xED, 0x26, 0xF6, 0x30, 0x0D, 0x41,
  0x1B, 0xF2, 0x13, 0x15, 0x2C, 0x2D, 0x42, 0x20, 0x61, 0xBD,
  0xF3, 0x12, 0x4D, 0xD5, 0x43, 0x27, 0x14, 0xCC, 0xBC, 0xED,
  0x44, 0x2E, 0x71, 0xFB, 0x32, 0xFA, 0x12, 0xF0, 0x7F, 0x45,
  0x29, 0xE2, 0x28, 0x00, 0x4B, 0x36, 0x3A, 0x0A, 0x02, 0x08,
  0x5D, 0xC2, 0xBA, 0xE5, 0xFC, 0xEE, 0x6A, 0x39, 0x7A, 0xF7,
  0xCA, 0x10, 0x61, 0x2F, 0x67, 0x52, 0x5E, 0xD7, 0x35, 0xC7,
  0x62, 0x43, 0x47, 0x32, 0x4E, 0xCF, 0xCC, 0x04, 0xC6, 0xE3,
  0x31, 0x53, 0x3C, 0x14, 0xDA, 0xE2, 0xEE, 0xB2, 0x5B, 0x26,
  0xF5, 0xC4, 0x20, 0x10, 0x36, 0xCA, 0x63, 0xE2, 0x07, 0xE7,
  0xE0, 0xFF, 0x65, 0xEB, 0x5F, 0xDE, 0x30, 0x02, 0x43, 0xDC,
  0x42, 0xEC, 0x14, 0xAF, 0x42, 0x35, 0x4E, 0x46, 0x33, 0xEB,
  0x18, 0xE8, 0x7F, 0x23, 0x31, 0xF6, 0x39, 0x41, 0x6E, 0x0D,
  0x3D, 0x1E, 0x11, 0xEE, 0x5B, 0xF6, 0x20, 0x20, 0x5B, 0x2D,
  0x34, 0x20, 0x7B, 0x03, 0x67, 0x36, 0x30, 0xD3, 0x20, 0x12,
  0x36, 0x01, 0x7E, 0x78, 0x62, 0xEA, 0x50, 0xD2, 0x4A, 0x50,
  0x11, 0x44, 0x22, 0x2B, 0x54, 0xE7, 0x6F, 0xD5, 0x07, 0x4A,
  0x52, 0x26, 0x16, 0xF1, 0x2C, 0x50, 0x0D, 0xF0, 0x63, 0x3A,
  0xEF, 0x02, 0x22, 0x1B, 0x46, 0x45, 0x43, 0x03, 0x1C, 0xD0,
  0x44, 0x20, 0x14, 0x33, 0x10, 0xF1, 0x0C, 0xFE, 0x09, 0x36,
  0x05, 0x49, 0x3B, 0xF1, 0x2F, 0xF3, 0x1C, 0x01, 0x79, 0xED,
  0x26, 0x0C, 0xF7, 0xCD, 0x7F, 0x1F, 0x16, 0x1E, 0x2D, 0xD6,
  0x2F, 0xFC, 0x15, 0xB2, 0x18, 0xF9, 0xFC, 0x12, 0xED, 0x27,
  0x1A, 0x2B, 0x59, 0xD8, 0x1D, 0xED, 0x46, 0x36, 0x18, 0xF9,
  0x4A, 0x1F, 0x12, 0x0E, 0x03, 0x01, 0x27, 0x30, 0x1C, 0x17,
  0x10, 0x0C, 0x49, 0xD9, 0x6C, 0xD0, 0x5C, 0x1F, 0x29, 0xD6,
  0x0D, 0x0C, 0x1B, 0xB5, 0x3C, 0x35, 0x33, 0x2E, 0x0B, 0x3E,
  0x23, 0x38, 0x5A, 0x33, 0x22, 0x12, 0x36, 0x28, 0x7F, 0x2D,
  0x2D, 0x2F, 0x2A, 0xC2, 0x3E, 0xB8, 0x3F, 0xDF, 0x12, 0x11,
  0x4C, 0xC8, 0xE9, 0xFA, 0x0A, 0xDE, 0x43, 0x64, 0x27, 0x27,
  0x36, 0x19, 0x26, 0x31, 0x18, 0x0B, 0x10, 0xEB, 0x2C, 0xE2,
  0x5D, 0x2D, 0x36, 0x15, 0x4C, 0x19, 0xAB, 0x13, 0x60, 0x24,
  0x45, 0xD7, 0x63, 0x2C, 0x12, 0x30, 0x5B, 0x42, 0x43, 0xD7,
  0x12, 0xEB, 0xF7, 0x22, 0x67, 0xE5, 0x7F, 0x08, 0x4A, 0x14,
  0xEC, 0x0A, 0x09, 0xE7, 0x59, 0x39, 0x56, 0xFB, 0x1A, 0x21,
  0x67, 0x1B, 0x3F, 0x64, 0x56, 0x19, 0x38, 0xD5, 0x36, 0xE6,
  0x47, 0x4E, 0x5E, 0x0B, 0xF4, 0x20, 0x45, 0x2C, 0x2D, 0x51,
  0x55, 0xC3, 0xF5, 0xD5, 0x33, 0xE0, 0xFE, 0x3E, 0x43, 0xE3,
  0xEE, 0xEB, 0x40, 0xF9, 0xFE, 0xFA, 0xFF, 0xFF, 0x04, 0x00,
  0x00, 0x00, 0x20, 0x00, 0x00, 0x00, 0x45, 0x0A, 0x00, 0x00,
  0x35, 0x09, 0x00, 0x00, 0x9F, 0xF9, 0xFF, 0xFF, 0x53, 0xEF,
  0xFF, 0xFF, 0xDB, 0xEE, 0xFF, 0xFF, 0xDD, 0xF5, 0xFF, 0xFF,
  0xB0, 0x02, 0x00, 0x00, 0x21, 0xF0, 0xFF, 0xFF, 0x2A, 0xFB,
  0xFF, 0xFF, 0x04, 0x00, 0x00, 0x00, 0x40, 0x02, 0x00, 0x00,
  0x3C, 0xE3, 0x5F, 0x7F, 0xFE, 0xDC, 0x00, 0xDD, 0x50, 0x1B,
  0xFA, 0x04, 0x25, 0xF4, 0xFA, 0x66, 0x15, 0xF7, 0xF3, 0x29,
  0x5C, 0x3C, 0x56, 0xDF, 0x10, 0xF4, 0xB9, 0xE4, 0x95, 0xB0,
  0xD0, 0x97, 0xD1, 0x08, 0xC3, 0x10, 0xE2, 0x02, 0xE9, 0x11,
  0x18, 0x70, 0x43, 0x1C, 0x77, 0x3D, 0x37, 0x25, 0xAC, 0xA3,
  0xA9, 0x1C, 0x8E, 0xAE, 0xB5, 0xBF, 0xAF, 0xC9, 0x14, 0x02,
  0x8B, 0xD4, 0x94, 0x05, 0x2E, 0x25, 0xFE, 0x57, 0x4A, 0x26,
  0x51, 0x2F, 0x10, 0x41, 0x10, 0x7F, 0x4C, 0x39, 0x57, 0x72,
  0x56, 0x10, 0x4E, 0x2B, 0x39, 0xF2, 0x69, 0x1D, 0xE2, 0xDA,
  0x17, 0x3E, 0xE1, 0x10, 0x39, 0x42, 0x39, 0x0F, 0x17, 0x7C,
  0x2B, 0x3D, 0x50, 0x63, 0x53, 0xFC, 0x28, 0x2E, 0xF8, 0x43,
  0x32, 0x3B, 0xFA, 0xF4, 0x0B, 0xEA, 0xF3, 0xE7, 0x1B, 0xE0,
  0x2B, 0xE9, 0x0B, 0x14, 0x1F, 0xF2, 0xD2, 0xF6, 0xD3, 0xED,
  0x18, 0xF4, 0xF8, 0x12, 0x11, 0x13, 0xF4, 0xF0, 0x23, 0x26,
  0x06, 0xE4, 0xE7, 0xF3, 0xF5, 0xB7, 0xE2, 0xF8, 0xC1, 0x07,
  0xCD, 0xB8, 0x0E, 0xEE, 0x0F, 0x51, 0x3B, 0x08, 0xEA, 0xEB,
  0x43, 0x61, 0x58, 0x5B, 0x48, 0xE8, 0x4B, 0xE5, 0xC5, 0x07,
  0x09, 0x26, 0xE0, 0xCB, 0x24, 0xD5, 0x55, 0xEB, 0x0D, 0x26,
  0x07, 0x13, 0xEB, 0x2C, 0x62, 0x7F, 0x4D, 0x52, 0x45, 0x3B,
  0x25, 0x31, 0xDF, 0xB2, 0xEC, 0xF3, 0xB9, 0xCC, 0x9F, 0xF9,
  0xC5, 0xC7, 0xC7, 0xF9, 0xCE, 0x1F, 0x09, 0xFC, 0x38, 0xE3,
  0x3D, 0x3D, 0xFB, 0xDC, 0x0C, 0x09, 0x8F, 0x61, 0xF0, 0x38,
  0xC3, 0xE8, 0xE2, 0xDF, 0xC6, 0xC2, 0xF0, 0x32, 0x72, 0xEF,
  0x00, 0x82, 0x89, 0x20, 0x9C, 0xB3, 0x3E, 0xA1, 0x20, 0xF7,
  0x00, 0xC6, 0xC8, 0x2B, 0xFB, 0xA3, 0x58, 0xB9, 0x46, 0xD1,
  0x2B, 0x1A, 0xE4, 0x0E, 0x00, 0xC4, 0xC6, 0x09, 0x0C, 0x22,
  0xAC, 0x13, 0xEF, 0xBD, 0x81, 0x70, 0x99, 0xE4, 0x8C, 0x81,
  0xB0, 0xBC, 0xE8, 0xCC, 0x46, 0x37, 0x99, 0xC6, 0xFB, 0xA9,
  0x61, 0xA3, 0xA5, 0xF4, 0xF3, 0xDA, 0xE7, 0x1D, 0xE8, 0x17,
  0xF4, 0x48, 0x4C, 0xE3, 0x1B, 0x1A, 0x36, 0x0E, 0x41, 0x5D,
  0x4A, 0x28, 0xDA, 0x14, 0xC0, 0xB8, 0xC3, 0x43, 0x10, 0xA7,
  0xAD, 0xD2, 0x3F, 0x23, 0x37, 0x7F, 0xE4, 0x07, 0xF0, 0xF7,
  0x09, 0x73, 0x2C, 0x5D, 0x15, 0x38, 0x53, 0x37, 0x2B, 0x09,
  0x62, 0x52, 0x38, 0xCD, 0xF3, 0x12, 0xB8, 0xF0, 0xA3, 0x1A,
  0xBF, 0xD5, 0x0C, 0xF3, 0x10, 0xF2, 0xE4, 0x5A, 0x29, 0x0F,
  0xD4, 0x2B, 0x02, 0x1E, 0x2E, 0x5A, 0xE5, 0x04, 0x13, 0xD4,
  0x34, 0x0D, 0xD9, 0x27, 0x0C, 0x26, 0x17, 0xCE, 0x46, 0x3E,
  0x4C, 0x16, 0x22, 0x08, 0x4F, 0x35, 0x2D, 0x26, 0x58, 0xFD,
  0xED, 0x07, 0x3A, 0x4E, 0x04, 0xF3, 0xEB, 0xF7, 0x34, 0x01,
  0xCE, 0x01, 0xCE, 0xE5, 0xE3, 0x01, 0x2E, 0xF9, 0xE9, 0xBE,
  0xD3, 0xDE, 0x04, 0x39, 0xA8, 0x09, 0xEA, 0xB5, 0xC4, 0x0C,
  0x15, 0x44, 0x19, 0xFC, 0x4A, 0x3B, 0x1F, 0x1E, 0xF5, 0x1F,
  0x1B, 0x1E, 0xEF, 0x2A, 0xAE, 0x83, 0xB6, 0xEA, 0x81, 0xB2,
  0x8D, 0x8C, 0xD1, 0xBA, 0xB2, 0xA1, 0xFE, 0xEE, 0x15, 0xCD,
  0x84, 0x90, 0x84, 0x14, 0x81, 0xFF, 0xB6, 0x83, 0xC6, 0x16,
  0xFA, 0xD4, 0xB1, 0xE5, 0x06, 0xE5, 0x23, 0xC5, 0x3C, 0x35,
  0x23, 0x0D, 0x17, 0xB8, 0x2B, 0xC5, 0x05, 0x42, 0x3C, 0xDA,
  0xB8, 0x28, 0x20, 0x38, 0x40, 0xEB, 0xEF, 0x00, 0x3C, 0x5A,
  0x0C, 0x62, 0xF6, 0x52, 0x24, 0x12, 0x04, 0x20, 0x2B, 0xF4,
  0x17, 0x45, 0x47, 0x19, 0xFE, 0x38, 0x59, 0x6A, 0xFD, 0x30,
  0x24, 0xE0, 0x03, 0x23, 0xBC, 0xBA, 0xEE, 0xDD, 0x9F, 0xDC,
  0xFA, 0xDA, 0xF8, 0xF7, 0xD8, 0x16, 0xCF, 0xBD, 0xDB, 0xB9,
  0xC6, 0x4B, 0xDA, 0x24, 0x1A, 0xFA, 0xDA, 0x03, 0xD9, 0x0E,
  0x00, 0x2E, 0xC6, 0x06, 0x0F, 0xE4, 0x41, 0x44, 0x04, 0x29,
  0x39, 0x1D, 0x33, 0xF1, 0x47, 0x59, 0x2E, 0xF9, 0x3F, 0x2C,
  0x26, 0x4C, 0xE6, 0xD0, 0xC7, 0x12, 0xED, 0x2B, 0x19, 0xF8,
  0x54, 0x3C, 0x59, 0x5D, 0x51, 0x45, 0x2C, 0x59, 0x12, 0x7F,
  0x62, 0x1B, 0x25, 0x0A, 0x6B, 0x5A, 0x76, 0xFD, 0xFF, 0xFF,
  0x04, 0x00, 0x00, 0x00, 0x20, 0x00, 0x00, 0x00, 0xB7, 0x1A,
  0x00, 0x00, 0xDE, 0xF0, 0xFF, 0xFF, 0xCB, 0xFF, 0xFF, 0xFF,
  0x08, 0xFA, 0xFF, 0xFF, 0xC5, 0xED, 0xFF, 0xFF, 0x7E, 0x0F,
  0x00, 0x00, 0xB6, 0x0C, 0x00, 0x00, 0xD8, 0x05, 0x00, 0x00,
  0xA2, 0xFD, 0xFF, 0xFF, 0x04, 0x00, 0x00, 0x00, 0x20, 0x01,
  0x00, 0x00, 0x0C, 0xF8, 0x21, 0x22, 0xCD, 0x19, 0xCB, 0xB1,
  0x76, 0xAA, 0x3B, 0x23, 0xF1, 0x20, 0xF0, 0x02, 0x79, 0xCA,
  0xF2, 0xEA, 0xE2, 0x16, 0x55, 0x41, 0xF0, 0x12, 0xD4, 0xF4,
  0x9B, 0x28, 0xFA, 0x2F, 0x7F, 0xD0, 0x0C, 0x1F, 0xBA, 0x03,
  0xF2, 0xD1, 0x23, 0x1E, 0x24, 0xD0, 0xE1, 0x46, 0x6A, 0x39,
  0x04, 0xD5, 0xB8, 0x04, 0x2A, 0x4B, 0x45, 0x0D, 0x2B, 0x19,
  0xD5, 0xD5, 0x2B, 0x48, 0x6B, 0x37, 0x23, 0xED, 0x1E, 0xF0,
  0x67, 0x42, 0x5F, 0x5E, 0x59, 0xF7, 0xFD, 0x21, 0x43, 0x19,
  0xFE, 0xBA, 0x77, 0x0F, 0x11, 0xD7, 0x4E, 0x12, 0x07, 0x4B,
  0xD3, 0xBE, 0xE9, 0x24, 0x1D, 0x15, 0x61, 0xC4, 0x4F, 0xD5,
  0xE2, 0x1D, 0x0A, 0x02, 0x19, 0xD4, 0x7F, 0xEC, 0x2D, 0xF7,
  0xF4, 0x40, 0x45, 0x1E, 0x51, 0x50, 0xD1, 0x32, 0x23, 0x6B,
  0x04, 0xD5, 0xD3, 0xC9, 0xFF, 0x2A, 0xD8, 0xE0, 0xFB, 0x2D,
  0x03, 0xFE, 0x22, 0x01, 0x21, 0xD9, 0xD8, 0x13, 0x6B, 0xE0,
  0xB5, 0x25, 0xE7, 0x4C, 0x1A, 0xFD, 0x3A, 0x00, 0xF0, 0x23,
  0xEC, 0xD0, 0xCD, 0xCC, 0x4F, 0xB1, 0x2B, 0xDE, 0x22, 0x32,
  0xED, 0x37, 0x02, 0xD0, 0xC8, 0xDC, 0x00, 0x22, 0x32, 0xD9,
  0x08, 0xC0, 0x01, 0xF9, 0x04, 0xEB, 0xF7, 0x20, 0x3D, 0x0B,
  0x44, 0xE4, 0x40, 0x12, 0x1F, 0x49, 0x0E, 0x34, 0x33, 0x04,
  0x1F, 0x3D, 0x0E, 0x33, 0xFB, 0x11, 0xF0, 0x2F, 0xEE, 0x26,
  0x44, 0x13, 0x66, 0xF7, 0x28, 0xEE, 0x04, 0x70, 0x23, 0x2B,
  0x7F, 0x20, 0x4C, 0x33, 0x03, 0x5C, 0x4B, 0x0D, 0x5E, 0xC0,
  0x4C, 0xC8, 0x58, 0x74, 0x7F, 0x5F, 0x17, 0x1A, 0x31, 0x0F,
  0x4A, 0x22, 0x47, 0x62, 0x52, 0x4C, 0x44, 0x06, 0x44, 0x04,
  0x58, 0x4B, 0x13, 0x19, 0x1C, 0x39, 0xF2, 0x7B, 0xF5, 0x0B,
  0x2B, 0x3B, 0x2E, 0x1E, 0x51, 0x49, 0xB9, 0xCA, 0x71, 0x34,
  0x53, 0x2B, 0x66, 0x31, 0x42, 0x1B, 0xBC, 0x08, 0xC5, 0xF4,
  0xE0, 0xF1, 0x20, 0xFA, 0xFD, 0xD3, 0x93, 0x05, 0xBA, 0xDE,
  0x09, 0xC0, 0x26, 0xF9, 0x0F, 0x0A, 0x15, 0xD0, 0xCB, 0xF2,
  0xCE, 0xFE, 0xFF, 0xFF, 0x04, 0x00, 0x00, 0x00, 0x10, 0x00,
  0x00, 0x00, 0x6A, 0x05, 0x00, 0x00, 0x37, 0xFD, 0xFF, 0xFF,
  0x2A, 0xFF, 0xFF, 0xFF, 0x6A, 0xFF, 0xFF, 0xFF, 0xEA, 0xFE,
  0xFF, 0xFF, 0x04, 0x00, 0x00, 0x00, 0x90, 0x00, 0x00, 0x00,
  0x01, 0x3D, 0x21, 0x94, 0x1A, 0x03, 0x4B, 0xAC, 0x68, 0x5A,
  0x79, 0x49, 0x9F, 0x06, 0x02, 0x37, 0x8A, 0x0C, 0x00, 0xB5,
  0x21, 0xBA, 0x13, 0x6E, 0xC4, 0x93, 0x38, 0xC9, 0xCE, 0xF0,
  0xE2, 0x0B, 0xA2, 0x9B, 0x81, 0xC3, 0x41, 0x69, 0x60, 0x66,
  0xAD, 0x32, 0xC8, 0x5D, 0xD7, 0x57, 0xF0, 0x0E, 0x15, 0xFF,
  0x8A, 0x01, 0x1A, 0xF7, 0xD3, 0x04, 0xB7, 0xC6, 0xDB, 0xCB,
  0x48, 0xB7, 0x4E, 0xB5, 0xF5, 0xAA, 0x41, 0x8D, 0xD2, 0x81,
  0x27, 0xE4, 0xE7, 0x42, 0xF2, 0x85, 0x26, 0xFD, 0x29, 0x29,
  0xAE, 0x3D, 0x90, 0x40, 0x4D, 0x3D, 0xFB, 0x05, 0x4D, 0x40,
  0xB7, 0x33, 0xDB, 0x9F, 0x81, 0xCB, 0x55, 0x10, 0x3B, 0xE7,
  0x58, 0x24, 0x3E, 0xE3, 0xD3, 0xB7, 0x83, 0xFF, 0xAB, 0x06,
  0xB6, 0xBA, 0xFC, 0xDA, 0xA3, 0xE3, 0x16, 0x34, 0xF3, 0x93,
  0xDD, 0xD3, 0x36, 0x02, 0xEA, 0x2E, 0x39, 0x0E, 0x3A, 0x25,
  0x21, 0x0F, 0xB1, 0xEC, 0xC2, 0x62, 0x05, 0x31, 0x19, 0xFF,
  0x21, 0x7F, 0x01, 0x4D, 0x86, 0xFF, 0xFF, 0xFF, 0x04, 0x00,
  0x00, 0x00, 0x10, 0x00, 0x00, 0x00, 0xB3, 0xFD, 0xFF, 0xFF,
  0x1C, 0xFE, 0xFF, 0xFF, 0xDB, 0xFE, 0xFF, 0xFF, 0xA1, 0xFE,
  0xFF, 0xFF, 0xA2, 0xFF, 0xFF, 0xFF, 0x04, 0x00, 0x00, 0x00,
  0x40, 0x00, 0x00, 0x00, 0xD2, 0x31, 0xEE, 0xFD, 0xD3, 0xF0,
  0xAA, 0x23, 0x0E, 0x10, 0xA0, 0x1B, 0x04, 0xD8, 0x06, 0x08,
  0xCA, 0xC1, 0x17, 0xBE, 0xA0, 0xFC, 0xE9, 0xBD, 0x9A, 0xB1,
  0xE8, 0xC5, 0xF7, 0x04, 0x2B, 0x2C, 0xDB, 0xEE, 0x03, 0x26,
  0xA4, 0x93, 0xA8, 0x81, 0xCA, 0x9A, 0x85, 0xC0, 0xB6, 0xB4,
  0x3C, 0x0D, 0xE1, 0xDC, 0xF3, 0xF7, 0xFB, 0xF9, 0xC8, 0x1F,
  0xD7, 0xD3, 0xBB, 0xE8, 0x3D, 0xEF, 0x27, 0xBB, 0xEE, 0xFF,
  0xFF, 0xFF, 0x04, 0x00, 0x00, 0x00, 0x04, 0x00, 0x00, 0x00,
  0xF3, 0x03, 0x00, 0x00, 0x00, 0x00, 0x06, 0x00, 0x08, 0x00,
  0x04, 0x00, 0x06, 0x00, 0x00, 0x00, 0x04, 0x00, 0x00, 0x00,
  0x08, 0x00, 0x00, 0x00, 0xFF, 0xFF, 0xFF, 0xFF, 0x40, 0x00,
  0x00, 0x00, 0x48, 0xE7, 0xFF, 0xFF, 0x4C, 0xE7, 0xFF, 0xFF,
  0x0F, 0x00, 0x00, 0x00, 0x4D, 0x4C, 0x49, 0x52, 0x20, 0x43,
  0x6F, 0x6E, 0x76, 0x65, 0x72, 0x74, 0x65, 0x64, 0x2E, 0x00,
  0x01, 0x00, 0x00, 0x00, 0x14, 0x00, 0x00, 0x00, 0x00, 0x00,
  0x0E, 0x00, 0x18, 0x00, 0x14, 0x00, 0x10, 0x00, 0x0C, 0x00,
  0x08, 0x00, 0x04, 0x00, 0x0E, 0x00, 0x00, 0x00, 0x14, 0x00,
  0x00, 0x00, 0x1C, 0x00, 0x00, 0x00, 0xFC, 0x03, 0x00, 0x00,
  0x00, 0x04, 0x00, 0x00, 0x04, 0x04, 0x00, 0x00, 0x04, 0x00,
  0x00, 0x00, 0x6D, 0x61, 0x69, 0x6E, 0x00, 0x00, 0x00, 0x00,
  0x10, 0x00, 0x00, 0x00, 0xC4, 0x03, 0x00, 0x00, 0x68, 0x03,
  0x00, 0x00, 0x08, 0x03, 0x00, 0x00, 0xC4, 0x02, 0x00, 0x00,
  0x84, 0x02, 0x00, 0x00, 0x40, 0x02, 0x00, 0x00, 0x00, 0x02,
  0x00, 0x00, 0xBC, 0x01, 0x00, 0x00, 0x7C, 0x01, 0x00, 0x00,
  0x38, 0x01, 0x00, 0x00, 0xF8, 0x00, 0x00, 0x00, 0xB8, 0x00,
  0x00, 0x00, 0x90, 0x00, 0x00, 0x00, 0x4C, 0x00, 0x00, 0x00,
  0x28, 0x00, 0x00, 0x00, 0x04, 0x00, 0x00, 0x00, 0x8A, 0xFF,
  0xFF, 0xFF, 0x0C, 0x00, 0x00, 0x00, 0x10, 0x00, 0x00, 0x00,
  0x06, 0x00, 0x00, 0x00, 0x01, 0x00, 0x00, 0x00, 0x1D, 0x00,
  0x00, 0x00, 0x01, 0x00, 0x00, 0x00, 0x1C, 0x00, 0x00, 0x00,
  0xAA, 0xFF, 0xFF, 0xFF, 0x0C, 0x00, 0x00, 0x00, 0x10, 0x00,
  0x00, 0x00, 0x05, 0x00, 0x00, 0x00, 0x01, 0x00, 0x00, 0x00,
  0x1C, 0x00, 0x00, 0x00, 0x01, 0x00, 0x00, 0x00, 0x1B, 0x00,
  0x00, 0x00, 0x22, 0xFD, 0xFF, 0xFF, 0x14, 0x00, 0x00, 0x00,
  0x00, 0x00, 0x00, 0x08, 0x10, 0x00, 0x00, 0x00, 0x14, 0x00,
  0x00, 0x00, 0x04, 0x00, 0x00, 0x00, 0x3C, 0xE8, 0xFF, 0xFF,
  0x01, 0x00, 0x00, 0x00, 0x1B, 0x00, 0x00, 0x00, 0x03, 0x00,
  0x00, 0x00, 0x1A, 0x00, 0x00, 0x00, 0x03, 0x00, 0x00, 0x00,
  0x02, 0x00, 0x00, 0x00, 0x00, 0x00, 0x0A, 0x00, 0x10, 0x00,
  0x0C, 0x00, 0x08, 0x00, 0x04, 0x00, 0x0A, 0x00, 0x00, 0x00,
  0x0C, 0x00, 0x00, 0x00, 0x10, 0x00, 0x00, 0x00, 0x03, 0x00,
  0x00, 0x00, 0x01, 0x00, 0x00, 0x00, 0x1A, 0x00, 0x00, 0x00,
  0x02, 0x00, 0x00, 0x00, 0x19, 0x00, 0x00, 0x00, 0x01, 0x00,
  0x00, 0x00, 0x86, 0xFD, 0xFF, 0xFF, 0x14, 0x00, 0x00, 0x00,
  0x00, 0x00, 0x00, 0x05, 0x20, 0x00, 0x00, 0x00, 0x24, 0x00,
  0x00, 0x00, 0x02, 0x00, 0x00, 0x00, 0xD2, 0xFD, 0xFF, 0xFF,
  0x02, 0x00, 0x00, 0x00, 0x02, 0x00, 0x00, 0x00, 0x02, 0x00,
  0x00, 0x00, 0x02, 0x00, 0x00, 0x00, 0x01, 0x00, 0x00, 0x00,
  0x19, 0x00, 0x00, 0x00, 0x01, 0x00, 0x00, 0x00, 0x18, 0x00,
  0x00, 0x00, 0xC2, 0xFD, 0xFF, 0xFF, 0x14, 0x00, 0x00, 0x00,
  0x00, 0x00, 0x00, 0x05, 0x20, 0x00, 0x00, 0x00, 0x24, 0x00,
  0x00, 0x00, 0x02, 0x00, 0x00, 0x00, 0x0E, 0xFE, 0xFF, 0xFF,
  0x02, 0x00, 0x00, 0x00, 0x02, 0x00, 0x00, 0x00, 0x02, 0x00,
  0x00, 0x00, 0x02, 0x00, 0x00, 0x00, 0x01, 0x00, 0x00, 0x00,
  0x18, 0x00, 0x00, 0x00, 0x01, 0x00, 0x00, 0x00, 0x17, 0x00,
  0x00, 0x00, 0xFE, 0xFD, 0xFF, 0xFF, 0x14, 0x00, 0x00, 0x00,
  0x00, 0x00, 0x00, 0x01, 0x1C, 0x00, 0x00, 0x00, 0x20, 0x00,
  0x00, 0x00, 0x01, 0x00, 0x00, 0x00, 0xF0, 0xFD, 0xFF, 0xFF,
  0x00, 0x00, 0x00, 0x01, 0x01, 0x00, 0x00, 0x00, 0x01, 0x00,
  0x00, 0x00, 0x01, 0x00, 0x00, 0x00, 0x17, 0x00, 0x00, 0x00,
  0x03, 0x00, 0x00, 0x00, 0x16, 0x00, 0x00, 0x00, 0x05, 0x00,
  0x00, 0x00, 0x04, 0x00, 0x00, 0x00, 0x3E, 0xFE, 0xFF, 0xFF,
  0x14, 0x00, 0x00, 0x00, 0x00, 0x00, 0x00, 0x05, 0x20, 0x00,
  0x00, 0x00, 0x24, 0x00, 0x00, 0x00, 0x02, 0x00, 0x00, 0x00,
  0x8A, 0xFE, 0xFF, 0xFF, 0x02, 0x00, 0x00, 0x00, 0x02, 0x00,
  0x00, 0x00, 0x02, 0x00, 0x00, 0x00, 0x02, 0x00, 0x00, 0x00,
  0x01, 0x00, 0x00, 0x00, 0x16, 0x00, 0x00, 0x00, 0x01, 0x00,
  0x00, 0x00, 0x15, 0x00, 0x00, 0x00, 0x7A, 0xFE, 0xFF, 0xFF,
  0x14, 0x00, 0x00, 0x00, 0x00, 0x00, 0x00, 0x01, 0x1C, 0x00,
  0x00, 0x00, 0x20, 0x00, 0x00, 0x00, 0x01, 0x00, 0x00, 0x00,
  0x6C, 0xFE, 0xFF, 0xFF, 0x00, 0x00, 0x00, 0x01, 0x01, 0x00,
  0x00, 0x00, 0x01, 0x00, 0x00, 0x00, 0x01, 0x00, 0x00, 0x00,
  0x15, 0x00, 0x00, 0x00, 0x03, 0x00, 0x00, 0x00, 0x14, 0x00,
  0x00, 0x00, 0x07, 0x00, 0x00, 0x00, 0x06, 0x00, 0x00, 0x00,
  0xBA, 0xFE, 0xFF, 0xFF, 0x14, 0x00, 0x00, 0x00, 0x00, 0x00,
  0x00, 0x05, 0x20, 0x00, 0x00, 0x00, 0x24, 0x00, 0x00, 0x00,
  0x02, 0x00, 0x00, 0x00, 0x06, 0xFF, 0xFF, 0xFF, 0x02, 0x00,
  0x00, 0x00, 0x02, 0x00, 0x00, 0x00, 0x02, 0x00, 0x00, 0x00,
  0x02, 0x00, 0x00, 0x00, 0x01, 0x00, 0x00, 0x00, 0x14, 0x00,
  0x00, 0x00, 0x01, 0x00, 0x00, 0x00, 0x13, 0x00, 0x00, 0x00,
  0xF6, 0xFE, 0xFF, 0xFF, 0x14, 0x00, 0x00, 0x00, 0x00, 0x00,
  0x00, 0x01, 0x1C, 0x00, 0x00, 0x00, 0x20, 0x00, 0x00, 0x00,
  0x01, 0x00, 0x00, 0x00, 0xE8, 0xFE, 0xFF, 0xFF, 0x00, 0x00,
  0x00, 0x01, 0x01, 0x00, 0x00, 0x00, 0x01, 0x00, 0x00, 0x00,
  0x01, 0x00, 0x00, 0x00, 0x13, 0x00, 0x00, 0x00, 0x03, 0x00,
  0x00, 0x00, 0x12, 0x00, 0x00, 0x00, 0x09, 0x00, 0x00, 0x00,
  0x08, 0x00, 0x00, 0x00, 0x36, 0xFF, 0xFF, 0xFF, 0x14, 0x00,
  0x00, 0x00, 0x00, 0x00, 0x00, 0x05, 0x20, 0x00, 0x00, 0x00,
  0x24, 0x00, 0x00, 0x00, 0x02, 0x00, 0x00, 0x00, 0x82, 0xFF,
  0xFF, 0xFF, 0x02, 0x00, 0x00, 0x00, 0x02, 0x00, 0x00, 0x00,
  0x02, 0x00, 0x00, 0x00, 0x02, 0x00, 0x00, 0x00, 0x01, 0x00,
  0x00, 0x00, 0x12, 0x00, 0x00, 0x00, 0x01, 0x00, 0x00, 0x00,
  0x11, 0x00, 0x00, 0x00, 0x72, 0xFF, 0xFF, 0xFF, 0x14, 0x00,
  0x00, 0x00, 0x00, 0x00, 0x00, 0x01, 0x1C, 0x00, 0x00, 0x00,
  0x20, 0x00, 0x00, 0x00, 0x01, 0x00, 0x00, 0x00, 0x64, 0xFF,
  0xFF, 0xFF, 0x00, 0x00, 0x00, 0x01, 0x01, 0x00, 0x00, 0x00,
  0x01, 0x00, 0x00, 0x00, 0x01, 0x00, 0x00, 0x00, 0x11, 0x00,
  0x00, 0x00, 0x03, 0x00, 0x00, 0x00, 0x10, 0x00, 0x00, 0x00,
  0x0B, 0x00, 0x00, 0x00, 0x0A, 0x00, 0x00, 0x00, 0xB2, 0xFF,
  0xFF, 0xFF, 0x24, 0x00, 0x00, 0x00, 0x00, 0x00, 0x00, 0x05,
  0x30, 0x00, 0x00, 0x00, 0x34, 0x00, 0x00, 0x00, 0x02, 0x00,
  0x00, 0x00, 0x00, 0x00, 0x0E, 0x00, 0x14, 0x00, 0x00, 0x00,
  0x10, 0x00, 0x0C, 0x00, 0x08, 0x00, 0x04, 0x00, 0x0E, 0x00,
  0x00, 0x00, 0x02, 0x00, 0x00, 0x00, 0x02, 0x00, 0x00, 0x00,
  0x02, 0x00, 0x00, 0x00, 0x02, 0x00, 0x00, 0x00, 0x01, 0x00,
  0x00, 0x00, 0x10, 0x00, 0x00, 0x00, 0x01, 0x00, 0x00, 0x00,
  0x0F, 0x00, 0x00, 0x00, 0x00, 0x00, 0x0E, 0x00, 0x18, 0x00,
  0x14, 0x00, 0x10, 0x00, 0x0C, 0x00, 0x0B, 0x00, 0x04, 0x00,
  0x0E, 0x00, 0x00, 0x00, 0x20, 0x00, 0x00, 0x00, 0x00, 0x00,
  0x00, 0x01, 0x28, 0x00, 0x00, 0x00, 0x2C, 0x00, 0x00, 0x00,
  0x01, 0x00, 0x00, 0x00, 0x0C, 0x00, 0x10, 0x00, 0x00, 0x00,
  0x0C, 0x00, 0x08, 0x00, 0x07, 0x00, 0x0C, 0x00, 0x00, 0x00,
  0x00, 0x00, 0x00, 0x01, 0x01, 0x00, 0x00, 0x00, 0x01, 0x00,
  0x00, 0x00, 0x01, 0x00, 0x00, 0x00, 0x0F, 0x00, 0x00, 0x00,
  0x03, 0x00, 0x00, 0x00, 0x0E, 0x00, 0x00, 0x00, 0x0D, 0x00,
  0x00, 0x00, 0x0C, 0x00, 0x00, 0x00, 0x00, 0x00, 0x0A, 0x00,
  0x0C, 0x00, 0x00, 0x00, 0x08, 0x00, 0x04, 0x00, 0x0A, 0x00,
  0x00, 0x00, 0x08, 0x00, 0x00, 0x00, 0x0C, 0x00, 0x00, 0x00,
  0x01, 0x00, 0x00, 0x00, 0x0E, 0x00, 0x00, 0x00, 0x01, 0x00,
  0x00, 0x00, 0x00, 0x00, 0x00, 0x00, 0x01, 0x00, 0x00, 0x00,
  0x1D, 0x00, 0x00, 0x00, 0x01, 0x00, 0x00, 0x00, 0x00, 0x00,
  0x00, 0x00, 0x1E, 0x00, 0x00, 0x00, 0x38, 0x14, 0x00, 0x00,
  0xD0, 0x13, 0x00, 0x00, 0x34, 0x13, 0x00, 0x00, 0xC4, 0x12,
  0x00, 0x00, 0x20, 0x12, 0x00, 0x00, 0x84, 0x11, 0x00, 0x00,
  0xE0, 0x10, 0x00, 0x00, 0x44, 0x10, 0x00, 0x00, 0x70, 0x0F,
  0x00, 0x00, 0xA4, 0x0E, 0x00, 0x00, 0xD0, 0x0D, 0x00, 0x00,
  0x04, 0x0D, 0x00, 0x00, 0x30, 0x0C, 0x00, 0x00, 0x64, 0x0B,
  0x00, 0x00, 0xE0, 0x0A, 0x00, 0x00, 0xB4, 0x09, 0x00, 0x00,
  0x18, 0x09, 0x00, 0x00, 0x04, 0x08, 0x00, 0x00, 0x68, 0x07,
  0x00, 0x00, 0x74, 0x06, 0x00, 0x00, 0xD8, 0x05, 0x00, 0x00,
  0xC4, 0x04, 0x00, 0x00, 0x28, 0x04, 0x00, 0x00, 0x34, 0x03,
  0x00, 0x00, 0x98, 0x02, 0x00, 0x00, 0xFC, 0x01, 0x00, 0x00,
  0x78, 0x01, 0x00, 0x00, 0xDC, 0x00, 0x00, 0x00, 0x60, 0x00,
  0x00, 0x00, 0x04, 0x00, 0x00, 0x00, 0x56, 0xEC, 0xFF, 0xFF,
  0x00, 0x00, 0x00, 0x01, 0x14, 0x00, 0x00, 0x00, 0x1C, 0x00,
  0x00, 0x00, 0x1C, 0x00, 0x00, 0x00, 0x1E, 0x00, 0x00, 0x00,
  0x34, 0x00, 0x00, 0x00, 0x02, 0x00, 0x00, 0x00, 0xFF, 0xFF,
  0xFF, 0xFF, 0x01, 0x00, 0x00, 0x00, 0x38, 0xEC, 0xFF, 0xFF,
  0x19, 0x00, 0x00, 0x00, 0x53, 0x74, 0x61, 0x74, 0x65, 0x66,
  0x75, 0x6C, 0x50, 0x61, 0x72, 0x74, 0x69, 0x74, 0x69, 0x6F,
  0x6E, 0x65, 0x64, 0x43, 0x61, 0x6C, 0x6C, 0x3A, 0x30, 0x00,
  0x00, 0x00, 0x02, 0x00, 0x00, 0x00, 0x01, 0x00, 0x00, 0x00,
  0x01, 0x00, 0x00, 0x00, 0xCE, 0xF5, 0xFF, 0xFF, 0x00, 0x00,
  0x00, 0x01, 0x18, 0x00, 0x00, 0x00, 0x20, 0x00, 0x00, 0x00,
  0x3C, 0x00, 0x00, 0x00, 0x1D, 0x00, 0x00, 0x00, 0x00, 0x00,
  0x00, 0x09, 0x50, 0x00, 0x00, 0x00, 0x02, 0x00, 0x00, 0x00,
  0xFF, 0xFF, 0xFF, 0xFF, 0x01, 0x00, 0x00, 0x00, 0xA4, 0xED,
  0xFF, 0xFF, 0x08, 0x00, 0x00, 0x00, 0x10, 0x00, 0x00, 0x00,
  0x01, 0x00, 0x00, 0x00, 0x80, 0xFF, 0xFF, 0xFF, 0xFF, 0xFF,
  0xFF, 0xFF, 0x01, 0x00, 0x00, 0x00, 0x00, 0x00, 0x80, 0x3B,
  0x1A, 0x00, 0x00, 0x00, 0x53, 0x74, 0x61, 0x74, 0x65, 0x66,
  0x75, 0x6C, 0x50, 0x61, 0x72, 0x74, 0x69, 0x74, 0x69, 0x6F,
  0x6E, 0x65, 0x64, 0x43, 0x61, 0x6C, 0x6C, 0x3A, 0x30, 0x31,
  0x00, 0x00, 0x02, 0x00, 0x00, 0x00, 0x01, 0x00, 0x00, 0x00,
  0x01, 0x00, 0x00, 0x00, 0x46, 0xF6, 0xFF, 0xFF, 0x00, 0x00,
  0x00, 0x01, 0x18, 0x00, 0x00, 0x00, 0x20, 0x00, 0x00, 0x00,
  0x3C, 0x00, 0x00, 0x00, 0x1C, 0x00, 0x00, 0x00, 0x00, 0x00,
  0x00, 0x09, 0x70, 0x00, 0x00, 0x00, 0x02, 0x00, 0x00, 0x00,
  0xFF, 0xFF, 0xFF, 0xFF, 0x01, 0x00, 0x00, 0x00, 0x1C, 0xEE,
  0xFF, 0xFF, 0x08, 0x00, 0x00, 0x00, 0x10, 0x00, 0x00, 0x00,
  0x01, 0x00, 0x00, 0x00, 0x71, 0x00, 0x00, 0x00, 0x00, 0x00,
  0x00, 0x00, 0x01, 0x00, 0x00, 0x00, 0xD2, 0x91, 0xEB, 0x3D,
  0x38, 0x00, 0x00, 0x00, 0x73, 0x65, 0x71, 0x75, 0x65, 0x6E,
  0x74, 0x69, 0x61, 0x6C, 0x5F, 0x31, 0x2F, 0x64, 0x65, 0x6E,
  0x73, 0x65, 0x5F, 0x31, 0x2F, 0x4D, 0x61, 0x74, 0x4D, 0x75,
  0x6C, 0x3B, 0x73, 0x65, 0x71, 0x75, 0x65, 0x6E, 0x74, 0x69,
  0x61, 0x6C, 0x5F, 0x31, 0x2F, 0x64, 0x65, 0x6E, 0x73, 0x65,
  0x5F, 0x31, 0x2F, 0x42, 0x69, 0x61, 0x73, 0x41, 0x64, 0x64,
  0x00, 0x00, 0x00, 0x00, 0x02, 0x00, 0x00, 0x00, 0x01, 0x00,
  0x00, 0x00, 0x01, 0x00, 0x00, 0x00, 0xDE, 0xF6, 0xFF, 0xFF,
  0x00, 0x00, 0x00, 0x01, 0x18, 0x00, 0x00, 0x00, 0x20, 0x00,
  0x00, 0x00, 0x40, 0x00, 0x00, 0x00, 0x1B, 0x00, 0x00, 0x00,
  0x00, 0x00, 0x00, 0x09, 0x58, 0x00, 0x00, 0x00, 0x02, 0x00,
  0x00, 0x00, 0xFF, 0xFF, 0xFF, 0xFF, 0x40, 0x00, 0x00, 0x00,
  0xB4, 0xEE, 0xFF, 0xFF, 0x08, 0x00, 0x00, 0x00, 0x14, 0x00,
  0x00, 0x00, 0x01, 0x00, 0x00, 0x00, 0x80, 0xFF, 0xFF, 0xFF,
  0xFF, 0xFF, 0xFF, 0xFF, 0x00, 0x00, 0x00, 0x00, 0x01, 0x00,
  0x00, 0x00, 0xFF, 0xA5, 0x28, 0x3D, 0x1E, 0x00, 0x00, 0x00,
  0x73, 0x65, 0x71, 0x75, 0x65, 0x6E, 0x74, 0x69, 0x61, 0x6C,
  0x5F, 0x31, 0x2F, 0x66, 0x6C, 0x61, 0x74, 0x74, 0x65, 0x6E,
  0x5F, 0x31, 0x2F, 0x52, 0x65, 0x73, 0x68, 0x61, 0x70, 0x65,
  0x00, 0x00, 0x02, 0x00, 0x00, 0x00, 0x01, 0x00, 0x00, 0x00,
  0x40, 0x00, 0x00, 0x00, 0x5E, 0xF7, 0xFF, 0xFF, 0x00, 0x00,
  0x00, 0x01, 0x18, 0x00, 0x00, 0x00, 0x28, 0x00, 0x00, 0x00,
  0x48, 0x00, 0x00, 0x00, 0x1A, 0x00, 0x00, 0x00, 0x00, 0x00,
  0x00, 0x09, 0x68, 0x00, 0x00, 0x00, 0x04, 0x00, 0x00, 0x00,
  0xFF, 0xFF, 0xFF, 0xFF, 0x04, 0x00, 0x00, 0x00, 0x04, 0x00,
  0x00, 0x00, 0x04, 0x00, 0x00, 0x00, 0x3C, 0xEF, 0xFF, 0xFF,
  0x08, 0x00, 0x00, 0x00, 0x14, 0x00, 0x00, 0x00, 0x01, 0x00,
  0x00, 0x00, 0x80, 0xFF, 0xFF, 0xFF, 0xFF, 0xFF, 0xFF, 0xFF,
  0x00, 0x00, 0x00, 0x00, 0x01, 0x00, 0x00, 0x00, 0xFF, 0xA5,
  0x28, 0x3D, 0x25, 0x00, 0x00, 0x00, 0x73, 0x65, 0x71, 0x75,
  0x65, 0x6E, 0x74, 0x69, 0x61, 0x6C, 0x5F, 0x31, 0x2F, 0x6D,
  0x61, 0x78, 0x5F, 0x70, 0x6F, 0x6F, 0x6C, 0x69, 0x6E, 0x67,
  0x32, 0x64, 0x5F, 0x31, 0x31, 0x2F, 0x4D, 0x61, 0x78, 0x50,
  0x6F, 0x6F, 0x6C, 0x00, 0x00, 0x00, 0x04, 0x00, 0x00, 0x00,
  0x01, 0x00, 0x00, 0x00, 0x04, 0x00, 0x00, 0x00, 0x04, 0x00,
  0x00, 0x00, 0x04, 0x00, 0x00, 0x00, 0xF6, 0xF7, 0xFF, 0xFF,
  0x00, 0x00, 0x00, 0x01, 0x18, 0x00, 0x00, 0x00, 0x28, 0x00,
  0x00, 0x00, 0x48, 0x00, 0x00, 0x00, 0x19, 0x00, 0x00, 0x00,
  0x00, 0x00, 0x00, 0x09, 0x68, 0x00, 0x00, 0x00, 0x04, 0x00,
  0x00, 0x00, 0xFF, 0xFF, 0xFF, 0xFF, 0x08, 0x00, 0x00, 0x00,
  0x08, 0x00, 0x00, 0x00, 0x04, 0x00, 0x00, 0x00, 0xD4, 0xEF,
  0xFF, 0xFF, 0x08, 0x00, 0x00, 0x00, 0x14, 0x00, 0x00, 0x00,
  0x01, 0x00, 0x00, 0x00, 0x80, 0xFF, 0xFF, 0xFF, 0xFF, 0xFF,
  0xFF, 0xFF, 0x00, 0x00, 0x00, 0x00, 0x01, 0x00, 0x00, 0x00,
  0xFF, 0xA5, 0x28, 0x3D, 0x25, 0x00, 0x00, 0x00, 0x73, 0x65,
  0x71, 0x75, 0x65, 0x6E, 0x74, 0x69, 0x61, 0x6C, 0x5F, 0x31,
  0x2F, 0x6D, 0x61, 0x78, 0x5F, 0x70, 0x6F, 0x6F, 0x6C, 0x69,
  0x6E, 0x67, 0x32, 0x64, 0x5F, 0x31, 0x30, 0x2F, 0x4D, 0x61,
  0x78, 0x50, 0x6F, 0x6F, 0x6C, 0x00, 0x00, 0x00, 0x04, 0x00,
  0x00, 0x00, 0x01, 0x00, 0x00, 0x00, 0x08, 0x00, 0x00, 0x00,
  0x08, 0x00, 0x00, 0x00, 0x04, 0x00, 0x00, 0x00, 0x8E, 0xF8,
  0xFF, 0xFF, 0x00, 0x00, 0x00, 0x01, 0x18, 0x00, 0x00, 0x00,
  0x28, 0x00, 0x00, 0x00, 0x44, 0x00, 0x00, 0x00, 0x18, 0x00,
  0x00, 0x00, 0x00, 0x00, 0x00, 0x09, 0xC0, 0x00, 0x00, 0x00,
  0x04, 0x00, 0x00, 0x00, 0xFF, 0xFF, 0xFF, 0xFF, 0x10, 0x00,
  0x00, 0x00, 0x10, 0x00, 0x00, 0x00, 0x04, 0x00, 0x00, 0x00,
  0x6C, 0xF0, 0xFF, 0xFF, 0x08, 0x00, 0x00, 0x00, 0x10, 0x00,
  0x00, 0x00, 0x01, 0x00, 0x00, 0x00, 0x80, 0xFF, 0xFF, 0xFF,
  0xFF, 0xFF, 0xFF, 0xFF, 0x01, 0x00, 0x00, 0x00, 0xFF, 0xA5,
  0x28, 0x3D, 0x82, 0x00, 0x00, 0x00, 0x73, 0x65, 0x71, 0x75,
  0x65, 0x6E, 0x74, 0x69, 0x61, 0x6C, 0x5F, 0x31, 0x2F, 0x63,
  0x6F, 0x6E, 0x76, 0x32, 0x64, 0x5F, 0x39, 0x2F, 0x52, 0x65,
  0x6C, 0x75, 0x3B, 0x73, 0x65, 0x71, 0x75, 0x65, 0x6E, 0x74,
  0x69, 0x61, 0x6C, 0x5F, 0x31, 0x2F, 0x63, 0x6F, 0x6E, 0x76,
  0x32, 0x64, 0x5F, 0x39, 0x2F, 0x42, 0x69, 0x61, 0x73, 0x41,
  0x64, 0x64, 0x3B, 0x73, 0x65, 0x71, 0x75, 0x65, 0x6E, 0x74,
  0x69, 0x61, 0x6C, 0x5F, 0x31, 0x2F, 0x63, 0x6F, 0x6E, 0x76,
  0x32, 0x64, 0x5F, 0x39, 0x2F, 0x43, 0x6F, 0x6E, 0x76, 0x32,
  0x44, 0x3B, 0x73, 0x65, 0x71, 0x75, 0x65, 0x6E, 0x74, 0x69,
  0x61, 0x6C, 0x5F, 0x31, 0x2F, 0x63, 0x6F, 0x6E, 0x76, 0x32,
  0x64, 0x5F, 0x39, 0x2F, 0x42, 0x69, 0x61, 0x73, 0x41, 0x64,
  0x64, 0x2F, 0x52, 0x65, 0x61, 0x64, 0x56, 0x61, 0x72, 0x69,
  0x61, 0x62, 0x6C, 0x65, 0x4F, 0x70, 0x00, 0x00, 0x04, 0x00,
  0x00, 0x00, 0x01, 0x00, 0x00, 0x00, 0x10, 0x00, 0x00, 0x00,
  0x10, 0x00, 0x00, 0x00, 0x04, 0x00, 0x00, 0x00, 0x7E, 0xF9,
  0xFF, 0xFF, 0x00, 0x00, 0x00, 0x01, 0x18, 0x00, 0x00, 0x00,
  0x28, 0x00, 0x00, 0x00, 0x48, 0x00, 0x00, 0x00, 0x17, 0x00,
  0x00, 0x00, 0x00, 0x00, 0x00, 0x09, 0x68, 0x00, 0x00, 0x00,
  0x04, 0x00, 0x00, 0x00, 0xFF, 0xFF, 0xFF, 0xFF, 0x10, 0x00,
  0x00, 0x00, 0x10, 0x00, 0x00, 0x00, 0x04, 0x00, 0x00, 0x00,
  0x5C, 0xF1, 0xFF, 0xFF, 0x08, 0x00, 0x00, 0x00, 0x14, 0x00,
  0x00, 0x00, 0x01, 0x00, 0x00, 0x00, 0x80, 0xFF, 0xFF, 0xFF,
  0xFF, 0xFF, 0xFF, 0xFF, 0x00, 0x00, 0x00, 0x00, 0x01, 0x00,
  0x00, 0x00, 0x8A, 0x5E, 0x57, 0x3D, 0x24, 0x00, 0x00, 0x00,
  0x73, 0x65, 0x71, 0x75, 0x65, 0x6E, 0x74, 0x69, 0x61, 0x6C,
  0x5F, 0x31, 0x2F, 0x6D, 0x61, 0x78, 0x5F, 0x70, 0x6F, 0x6F,
  0x6C, 0x69, 0x6E, 0x67, 0x32, 0x64, 0x5F, 0x39, 0x2F, 0x4D,
  0x61, 0x78, 0x50, 0x6F, 0x6F, 0x6C, 0x00, 0x00, 0x00, 0x00,
  0x04, 0x00, 0x00, 0x00, 0x01, 0x00, 0x00, 0x00, 0x10, 0x00,
  0x00, 0x00, 0x10, 0x00, 0x00, 0x00, 0x04, 0x00, 0x00, 0x00,
  0x16, 0xFA, 0xFF, 0xFF, 0x00, 0x00, 0x00, 0x01, 0x18, 0x00,
  0x00, 0x00, 0x28, 0x00, 0x00, 0x00, 0x48, 0x00, 0x00, 0x00,
  0x16, 0x00, 0x00, 0x00, 0x00, 0x00, 0x00, 0x09, 0xE0, 0x00,
  0x00, 0x00, 0x04, 0x00, 0x00, 0x00, 0xFF, 0xFF, 0xFF, 0xFF,
  0x20, 0x00, 0x00, 0x00, 0x20, 0x00, 0x00, 0x00, 0x04, 0x00,
  0x00, 0x00, 0xF4, 0xF1, 0xFF, 0xFF, 0x08, 0x00, 0x00, 0x00,
  0x14, 0x00, 0x00, 0x00, 0x01, 0x00, 0x00, 0x00, 0x80, 0xFF,
  0xFF, 0xFF, 0xFF, 0xFF, 0xFF, 0xFF, 0x00, 0x00, 0x00, 0x00,
  0x01, 0x00, 0x00, 0x00, 0x8A, 0x5E, 0x57, 0x3D, 0x9F, 0x00,
  0x00, 0x00, 0x73, 0x65, 0x71, 0x75, 0x65, 0x6E, 0x74, 0x69,
  0x61, 0x6C, 0x5F, 0x31, 0x2F, 0x63, 0x6F, 0x6E, 0x76, 0x32,
  0x64, 0x5F, 0x38, 0x2F, 0x52, 0x65, 0x6C, 0x75, 0x3B, 0x73,
  0x65, 0x71, 0x75, 0x65, 0x6E, 0x74, 0x69, 0x61, 0x6C, 0x5F,
  0x31, 0x2F, 0x63, 0x6F, 0x6E, 0x76, 0x32, 0x64, 0x5F, 0x38,
  0x2F, 0x42, 0x69, 0x61, 0x73, 0x41, 0x64, 0x64, 0x3B, 0x73,
  0x65, 0x71, 0x75, 0x65, 0x6E, 0x74, 0x69, 0x61, 0x6C, 0x5F,
  0x31, 0x2F, 0x63, 0x6F, 0x6E, 0x76, 0x32, 0x64, 0x5F, 0x39,
  0x2F, 0x43, 0x6F, 0x6E, 0x76, 0x32, 0x44, 0x3B, 0x73, 0x65,
  0x71, 0x75, 0x65, 0x6E, 0x74, 0x69, 0x61, 0x6C, 0x5F, 0x31,
  0x2F, 0x63, 0x6F, 0x6E, 0x76, 0x32, 0x64, 0x5F, 0x38, 0x2F,
  0x43, 0x6F, 0x6E, 0x76, 0x32, 0x44, 0x3B, 0x73, 0x65, 0x71,
  0x75, 0x65, 0x6E, 0x74, 0x69, 0x61, 0x6C, 0x5F, 0x31, 0x2F,
  0x63, 0x6F, 0x6E, 0x76, 0x32, 0x64, 0x5F, 0x38, 0x2F, 0x42,
  0x69, 0x61, 0x73, 0x41, 0x64, 0x64, 0x2F, 0x52, 0x65, 0x61,
  0x64, 0x56, 0x61, 0x72, 0x69, 0x61, 0x62, 0x6C, 0x65, 0x4F,
  0x70, 0x00, 0x04, 0x00, 0x00, 0x00, 0x01, 0x00, 0x00, 0x00,
  0x20, 0x00, 0x00, 0x00, 0x20, 0x00, 0x00, 0x00, 0x04, 0x00,
  0x00, 0x00, 0x26, 0xFB, 0xFF, 0xFF, 0x00, 0x00, 0x00, 0x01,
  0x18, 0x00, 0x00, 0x00, 0x28, 0x00, 0x00, 0x00, 0x48, 0x00,
  0x00, 0x00, 0x15, 0x00, 0x00, 0x00, 0x00, 0x00, 0x00, 0x09,
  0x68, 0x00, 0x00, 0x00, 0x04, 0x00, 0x00, 0x00, 0xFF, 0xFF,
  0xFF, 0xFF, 0x20, 0x00, 0x00, 0x00, 0x20, 0x00, 0x00, 0x00,
  0x08, 0x00, 0x00, 0x00, 0x04, 0xF3, 0xFF, 0xFF, 0x08, 0x00,
  0x00, 0x00, 0x14, 0x00, 0x00, 0x00, 0x01, 0x00, 0x00, 0x00,
  0x80, 0xFF, 0xFF, 0xFF, 0xFF, 0xFF, 0xFF, 0xFF, 0x00, 0x00,
  0x00, 0x00, 0x01, 0x00, 0x00, 0x00, 0xB4, 0x66, 0x8E, 0x3C,
  0x24, 0x00, 0x00, 0x00, 0x73, 0x65, 0x71, 0x75, 0x65, 0x6E,
  0x74, 0x69, 0x61, 0x6C, 0x5F, 0x31, 0x2F, 0x6D, 0x61, 0x78,
  0x5F, 0x70, 0x6F, 0x6F, 0x6C, 0x69, 0x6E, 0x67, 0x32, 0x64,
  0x5F, 0x38, 0x2F, 0x4D, 0x61, 0x78, 0x50, 0x6F, 0x6F, 0x6C,
  0x00, 0x00, 0x00, 0x00, 0x04, 0x00, 0x00, 0x00, 0x01, 0x00,
  0x00, 0x00, 0x20, 0x00, 0x00, 0x00, 0x20, 0x00, 0x00, 0x00,
  0x08, 0x00, 0x00, 0x00, 0xBE, 0xFB, 0xFF, 0xFF, 0x00, 0x00,
  0x00, 0x01, 0x18, 0x00, 0x00, 0x00, 0x28, 0x00, 0x00, 0x00,
  0x44, 0x00, 0x00, 0x00, 0x14, 0x00, 0x00, 0x00, 0x00, 0x00,
  0x00, 0x09, 0xC0, 0x00, 0x00, 0x00, 0x04, 0x00, 0x00, 0x00,
  0xFF, 0xFF, 0xFF, 0xFF, 0x40, 0x00, 0x00, 0x00, 0x40, 0x00,
  0x00, 0x00, 0x08, 0x00, 0x00, 0x00, 0x9C, 0xF3, 0xFF, 0xFF,
  0x08, 0x00, 0x00, 0x00, 0x10, 0x00, 0x00, 0x00, 0x01, 0x00,
  0x00, 0x00, 0x80, 0xFF, 0xFF, 0xFF, 0xFF, 0xFF, 0xFF, 0xFF,
  0x01, 0x00, 0x00, 0x00, 0xB4, 0x66, 0x8E, 0x3C, 0x82, 0x00,
  0x00, 0x00, 0x73, 0x65, 0x71, 0x75, 0x65, 0x6E, 0x74, 0x69,
  0x61, 0x6C, 0x5F, 0x31, 0x2F, 0x63, 0x6F, 0x6E, 0x76, 0x32,
  0x64, 0x5F, 0x37, 0x2F, 0x52, 0x65, 0x6C, 0x75, 0x3B, 0x73,
  0x65, 0x71, 0x75, 0x65, 0x6E, 0x74, 0x69, 0x61, 0x6C, 0x5F,
  0x31, 0x2F, 0x63, 0x6F, 0x6E, 0x76, 0x32, 0x64, 0x5F, 0x37,
  0x2F, 0x42, 0x69, 0x61, 0x73, 0x41, 0x64, 0x64, 0x3B, 0x73,
  0x65, 0x71, 0x75, 0x65, 0x6E, 0x74, 0x69, 0x61, 0x6C, 0x5F,
  0x31, 0x2F, 0x63, 0x6F, 0x6E, 0x76, 0x32, 0x64, 0x5F, 0x37,
  0x2F, 0x43, 0x6F, 0x6E, 0x76, 0x32, 0x44, 0x3B, 0x73, 0x65,
  0x71, 0x75, 0x65, 0x6E, 0x74, 0x69, 0x61, 0x6C, 0x5F, 0x31,
  0x2F, 0x63, 0x6F, 0x6E, 0x76, 0x32, 0x64, 0x5F, 0x37, 0x2F,
  0x42, 0x69, 0x61, 0x73, 0x41, 0x64, 0x64, 0x2F, 0x52, 0x65,
  0x61, 0x64, 0x56, 0x61, 0x72, 0x69, 0x61, 0x62, 0x6C, 0x65,
  0x4F, 0x70, 0x00, 0x00, 0x04, 0x00, 0x00, 0x00, 0x01, 0x00,
  0x00, 0x00, 0x40, 0x00, 0x00, 0x00, 0x40, 0x00, 0x00, 0x00,
  0x08, 0x00, 0x00, 0x00, 0xAE, 0xFC, 0xFF, 0xFF, 0x00, 0x00,
  0x00, 0x01, 0x18, 0x00, 0x00, 0x00, 0x28, 0x00, 0x00, 0x00,
  0x48, 0x00, 0x00, 0x00, 0x13, 0x00, 0x00, 0x00, 0x00, 0x00,
  0x00, 0x09, 0x68, 0x00, 0x00, 0x00, 0x04, 0x00, 0x00, 0x00,
  0xFF, 0xFF, 0xFF, 0xFF, 0x40, 0x00, 0x00, 0x00, 0x40, 0x00,
  0x00, 0x00, 0x08, 0x00, 0x00, 0x00, 0x8C, 0xF4, 0xFF, 0xFF,
  0x08, 0x00, 0x00, 0x00, 0x14, 0x00, 0x00, 0x00, 0x01, 0x00,
  0x00, 0x00, 0x80, 0xFF, 0xFF, 0xFF, 0xFF, 0xFF, 0xFF, 0xFF,
  0x00, 0x00, 0x00, 0x00, 0x01, 0x00, 0x00, 0x00, 0x85, 0xCE,
  0x9A, 0x3B, 0x24, 0x00, 0x00, 0x00, 0x73, 0x65, 0x71, 0x75,
  0x65, 0x6E, 0x74, 0x69, 0x61, 0x6C, 0x5F, 0x31, 0x2F, 0x6D,
  0x61, 0x78, 0x5F, 0x70, 0x6F, 0x6F, 0x6C, 0x69, 0x6E, 0x67,
  0x32, 0x64, 0x5F, 0x37, 0x2F, 0x4D, 0x61, 0x78, 0x50, 0x6F,
  0x6F, 0x6C, 0x00, 0x00, 0x00, 0x00, 0x04, 0x00, 0x00, 0x00,
  0x01, 0x00, 0x00, 0x00, 0x40, 0x00, 0x00, 0x00, 0x40, 0x00,
  0x00, 0x00, 0x08, 0x00, 0x00, 0x00, 0x46, 0xFD, 0xFF, 0xFF,
  0x00, 0x00, 0x00, 0x01, 0x18, 0x00, 0x00, 0x00, 0x28, 0x00,
  0x00, 0x00, 0x48, 0x00, 0x00, 0x00, 0x12, 0x00, 0x00, 0x00,
  0x00, 0x00, 0x00, 0x09, 0xE0, 0x00, 0x00, 0x00, 0x04, 0x00,
  0x00, 0x00, 0xFF, 0xFF, 0xFF, 0xFF, 0x80, 0x00, 0x00, 0x00,
  0x80, 0x00, 0x00, 0x00, 0x08, 0x00, 0x00, 0x00, 0x24, 0xF5,
  0xFF, 0xFF, 0x08, 0x00, 0x00, 0x00, 0x14, 0x00, 0x00, 0x00,
  0x01, 0x00, 0x00, 0x00, 0x80, 0xFF, 0xFF, 0xFF, 0xFF, 0xFF,
  0xFF, 0xFF, 0x00, 0x00, 0x00, 0x00, 0x01, 0x00, 0x00, 0x00,
  0x85, 0xCE, 0x9A, 0x3B, 0x9F, 0x00, 0x00, 0x00, 0x73, 0x65,
  0x71, 0x75, 0x65, 0x6E, 0x74, 0x69, 0x61, 0x6C, 0x5F, 0x31,
  0x2F, 0x63, 0x6F, 0x6E, 0x76, 0x32, 0x64, 0x5F, 0x36, 0x2F,
  0x52, 0x65, 0x6C, 0x75, 0x3B, 0x73, 0x65, 0x71, 0x75, 0x65,
  0x6E, 0x74, 0x69, 0x61, 0x6C, 0x5F, 0x31, 0x2F, 0x63, 0x6F,
  0x6E, 0x76, 0x32, 0x64, 0x5F, 0x36, 0x2F, 0x42, 0x69, 0x61,
  0x73, 0x41, 0x64, 0x64, 0x3B, 0x73, 0x65, 0x71, 0x75, 0x65,
  0x6E, 0x74, 0x69, 0x61, 0x6C, 0x5F, 0x31, 0x2F, 0x63, 0x6F,
  0x6E, 0x76, 0x32, 0x64, 0x5F, 0x37, 0x2F, 0x43, 0x6F, 0x6E,
  0x76, 0x32, 0x44, 0x3B, 0x73, 0x65, 0x71, 0x75, 0x65, 0x6E,
  0x74, 0x69, 0x61, 0x6C, 0x5F, 0x31, 0x2F, 0x63, 0x6F, 0x6E,
  0x76, 0x32, 0x64, 0x5F, 0x36, 0x2F, 0x43, 0x6F, 0x6E, 0x76,
  0x32, 0x44, 0x3B, 0x73, 0x65, 0x71, 0x75, 0x65, 0x6E, 0x74,
  0x69, 0x61, 0x6C, 0x5F, 0x31, 0x2F, 0x63, 0x6F, 0x6E, 0x76,
  0x32, 0x64, 0x5F, 0x36, 0x2F, 0x42, 0x69, 0x61, 0x73, 0x41,
  0x64, 0x64, 0x2F, 0x52, 0x65, 0x61, 0x64, 0x56, 0x61, 0x72,
  0x69, 0x61, 0x62, 0x6C, 0x65, 0x4F, 0x70, 0x00, 0x04, 0x00,
  0x00, 0x00, 0x01, 0x00, 0x00, 0x00, 0x80, 0x00, 0x00, 0x00,
  0x80, 0x00, 0x00, 0x00, 0x08, 0x00, 0x00, 0x00, 0x56, 0xFE,
  0xFF, 0xFF, 0x00, 0x00, 0x00, 0x01, 0x18, 0x00, 0x00, 0x00,
  0x28, 0x00, 0x00, 0x00, 0x48, 0x00, 0x00, 0x00, 0x11, 0x00,
  0x00, 0x00, 0x00, 0x00, 0x00, 0x09, 0x68, 0x00, 0x00, 0x00,
  0x04, 0x00, 0x00, 0x00, 0xFF, 0xFF, 0xFF, 0xFF, 0x80, 0x00,
  0x00, 0x00, 0x80, 0x00, 0x00, 0x00, 0x08, 0x00, 0x00, 0x00,
  0x34, 0xF6, 0xFF, 0xFF, 0x08, 0x00, 0x00, 0x00, 0x14, 0x00,
  0x00, 0x00, 0x01, 0x00, 0x00, 0x00, 0x80, 0xFF, 0xFF, 0xFF,
  0xFF, 0xFF, 0xFF, 0xFF, 0x00, 0x00, 0x00, 0x00, 0x01, 0x00,
  0x00, 0x00, 0x26, 0x56, 0x67, 0x3B, 0x24, 0x00, 0x00, 0x00,
  0x73, 0x65, 0x71, 0x75, 0x65, 0x6E, 0x74, 0x69, 0x61, 0x6C,
  0x5F, 0x31, 0x2F, 0x6D, 0x61, 0x78, 0x5F, 0x70, 0x6F, 0x6F,
  0x6C, 0x69, 0x6E, 0x67, 0x32, 0x64, 0x5F, 0x36, 0x2F, 0x4D,
  0x61, 0x78, 0x50, 0x6F, 0x6F, 0x6C, 0x00, 0x00, 0x00, 0x00,
  0x04, 0x00, 0x00, 0x00, 0x01, 0x00, 0x00, 0x00, 0x80, 0x00,
  0x00, 0x00, 0x80, 0x00, 0x00, 0x00, 0x08, 0x00, 0x00, 0x00,
  0xEE, 0xFE, 0xFF, 0xFF, 0x00, 0x00, 0x00, 0x01, 0x18, 0x00,
  0x00, 0x00, 0x28, 0x00, 0x00, 0x00, 0x48, 0x00, 0x00, 0x00,
  0x10, 0x00, 0x00, 0x00, 0x00, 0x00, 0x00, 0x09, 0xE0, 0x00,
  0x00, 0x00, 0x04, 0x00, 0x00, 0x00, 0xFF, 0xFF, 0xFF, 0xFF,
  0x00, 0x01, 0x00, 0x00, 0x00, 0x01, 0x00, 0x00, 0x08, 0x00,
  0x00, 0x00, 0xCC, 0xF6, 0xFF, 0xFF, 0x08, 0x00, 0x00, 0x00,
  0x14, 0x00, 0x00, 0x00, 0x01, 0x00, 0x00, 0x00, 0x80, 0xFF,
  0xFF, 0xFF, 0xFF, 0xFF, 0xFF, 0xFF, 0x00, 0x00, 0x00, 0x00,
  0x01, 0x00, 0x00, 0x00, 0x26, 0x56, 0x67, 0x3B, 0x9F, 0x00,
  0x00, 0x00, 0x73, 0x65, 0x71, 0x75, 0x65, 0x6E, 0x74, 0x69,
  0x61, 0x6C, 0x5F, 0x31, 0x2F, 0x63, 0x6F, 0x6E, 0x76, 0x32,
  0x64, 0x5F, 0x35, 0x2F, 0x52, 0x65, 0x6C, 0x75, 0x3B, 0x73,
  0x65, 0x71, 0x75, 0x65, 0x6E, 0x74, 0x69, 0x61, 0x6C, 0x5F,
  0x31, 0x2F, 0x63, 0x6F, 0x6E, 0x76, 0x32, 0x64, 0x5F, 0x35,
  0x2F, 0x42, 0x69, 0x61, 0x73, 0x41, 0x64, 0x64, 0x3B, 0x73,
  0x65, 0x71, 0x75, 0x65, 0x6E, 0x74, 0x69, 0x61, 0x6C, 0x5F,
  0x31, 0x2F, 0x63, 0x6F, 0x6E, 0x76, 0x32, 0x64, 0x5F, 0x37,
  0x2F, 0x43, 0x6F, 0x6E, 0x76, 0x32, 0x44, 0x3B, 0x73, 0x65,
  0x71, 0x75, 0x65, 0x6E, 0x74, 0x69, 0x61, 0x6C, 0x5F, 0x31,
  0x2F, 0x63, 0x6F, 0x6E, 0x76, 0x32, 0x64, 0x5F, 0x35, 0x2F,
  0x43, 0x6F, 0x6E, 0x76, 0x32, 0x44, 0x3B, 0x73, 0x65, 0x71,
  0x75, 0x65, 0x6E, 0x74, 0x69, 0x61, 0x6C, 0x5F, 0x31, 0x2F,
  0x63, 0x6F, 0x6E, 0x76, 0x32, 0x64, 0x5F, 0x35, 0x2F, 0x42,
  0x69, 0x61, 0x73, 0x41, 0x64, 0x64, 0x2F, 0x52, 0x65, 0x61,
  0x64, 0x56, 0x61, 0x72, 0x69, 0x61, 0x62, 0x6C, 0x65, 0x4F,
  0x70, 0x00, 0x04, 0x00, 0x00, 0x00, 0x01, 0x00, 0x00, 0x00,
  0x00, 0x01, 0x00, 0x00, 0x00, 0x01, 0x00, 0x00, 0x08, 0x00,
  0x00, 0x00, 0x00, 0x00, 0x16, 0x00, 0x20, 0x00, 0x1C, 0x00,
  0x1B, 0x00, 0x14, 0x00, 0x10, 0x00, 0x0C, 0x00, 0x00, 0x00,
  0x00, 0x00, 0x08, 0x00, 0x07, 0x00, 0x16, 0x00, 0x00, 0x00,
  0x00, 0x00, 0x00, 0x01, 0x18, 0x00, 0x00, 0x00, 0x28, 0x00,
  0x00, 0x00, 0x48, 0x00, 0x00, 0x00, 0x0F, 0x00, 0x00, 0x00,
  0x00, 0x00, 0x00, 0x09, 0x50, 0x00, 0x00, 0x00, 0x04, 0x00,
  0x00, 0x00, 0xFF, 0xFF, 0xFF, 0xFF, 0x00, 0x01, 0x00, 0x00,
  0x00, 0x01, 0x00, 0x00, 0x01, 0x00, 0x00, 0x00, 0xF4, 0xF7,
  0xFF, 0xFF, 0x08, 0x00, 0x00, 0x00, 0x14, 0x00, 0x00, 0x00,
  0x01, 0x00, 0x00, 0x00, 0x80, 0xFF, 0xFF, 0xFF, 0xFF, 0xFF,
  0xFF, 0xFF, 0x00, 0x00, 0x00, 0x00, 0x01, 0x00, 0x00, 0x00,
  0x81, 0x80, 0x80, 0x3B, 0x0C, 0x00, 0x00, 0x00, 0x74, 0x66,
  0x6C, 0x2E, 0x71, 0x75, 0x61, 0x6E, 0x74, 0x69, 0x7A, 0x65,
  0x00, 0x00, 0x00, 0x00, 0x04, 0x00, 0x00, 0x00, 0x01, 0x00,
  0x00, 0x00, 0x00, 0x01, 0x00, 0x00, 0x00, 0x01, 0x00, 0x00,
  0x01, 0x00, 0x00, 0x00, 0xDA, 0xF7, 0xFF, 0xFF, 0x00, 0x00,
  0x00, 0x01, 0x14, 0x00, 0x00, 0x00, 0x84, 0x00, 0x00, 0x00,
  0x0E, 0x00, 0x00, 0x00, 0x00, 0x00, 0x00, 0x09, 0x9C, 0x00,
  0x00, 0x00, 0x5C, 0xF8, 0xFF, 0xFF, 0x08, 0x00, 0x00, 0x00,
  0x48, 0x00, 0x00, 0x00, 0x08, 0x00, 0x00, 0x00, 0x00, 0x00,
  0x00, 0x00, 0x00, 0x00, 0x00, 0x00, 0x00, 0x00, 0x00, 0x00,
  0x00, 0x00, 0x00, 0x00, 0x00, 0x00, 0x00, 0x00, 0x00, 0x00,
  0x00, 0x00, 0x00, 0x00, 0x00, 0x00, 0x00, 0x00, 0x00, 0x00,
  0x00, 0x00, 0x00, 0x00, 0x00, 0x00, 0x00, 0x00, 0x00, 0x00,
  0x00, 0x00, 0x00, 0x00, 0x00, 0x00, 0x00, 0x00, 0x00, 0x00,
  0x00, 0x00, 0x00, 0x00, 0x00, 0x00, 0x00, 0x00, 0x00, 0x00,
  0x00, 0x00, 0x08, 0x00, 0x00, 0x00, 0xE7, 0x90, 0x30, 0x3B,
  0xFF, 0xEE, 0x28, 0x3B, 0x96, 0x7A, 0xE9, 0x3A, 0xF9, 0x2E,
  0x02, 0x3B, 0x65, 0x46, 0xFA, 0x3A, 0xD3, 0xB4, 0x62, 0x3B,
  0x20, 0xFC, 0x25, 0x3B, 0xC3, 0xF3, 0x11, 0x3B, 0x1C, 0x00,
  0x00, 0x00, 0x73, 0x65, 0x71, 0x75, 0x65, 0x6E, 0x74, 0x69,
  0x61, 0x6C, 0x5F, 0x31, 0x2F, 0x63, 0x6F, 0x6E, 0x76, 0x32,
  0x64, 0x5F, 0x35, 0x2F, 0x43, 0x6F, 0x6E, 0x76, 0x32, 0x44,
  0x00, 0x00, 0x00, 0x00, 0x04, 0x00, 0x00, 0x00, 0x08, 0x00,
  0x00, 0x00, 0x03, 0x00, 0x00, 0x00, 0x03, 0x00, 0x00, 0x00,
  0x01, 0x00, 0x00, 0x00, 0xA2, 0xF8, 0xFF, 0xFF, 0x00, 0x00,
  0x00, 0x01, 0x14, 0x00, 0x00, 0x00, 0x88, 0x00, 0x00, 0x00,
  0x0D, 0x00, 0x00, 0x00, 0x00, 0x00, 0x00, 0x02, 0xB0, 0x00,
  0x00, 0x00, 0x24, 0xF9, 0xFF, 0xFF, 0x08, 0x00, 0x00, 0x00,
  0x4C, 0x00, 0x00, 0x00, 0x08, 0x00, 0x00, 0x00, 0x00, 0x00,
  0x00, 0x00, 0x00, 0x00, 0x00, 0x00, 0x00, 0x00, 0x00, 0x00,
  0x00, 0x00, 0x00, 0x00, 0x00, 0x00, 0x00, 0x00, 0x00, 0x00,
  0x00, 0x00, 0x00, 0x00, 0x00, 0x00, 0x00, 0x00, 0x00, 0x00,
  0x00, 0x00, 0x00, 0x00, 0x00, 0x00, 0x00, 0x00, 0x00, 0x00,
  0x00, 0x00, 0x00, 0x00, 0x00, 0x00, 0x00, 0x00, 0x00, 0x00,
  0x00, 0x00, 0x00, 0x00, 0x00, 0x00, 0x00, 0x00, 0x00, 0x00,
  0x00, 0x00, 0x00, 0x00, 0x00, 0x00, 0x08, 0x00, 0x00, 0x00,
  0x2A, 0x42, 0x31, 0x37, 0x98, 0x98, 0x29, 0x37, 0xFC, 0x64,
  0xEA, 0x36, 0xAB, 0xB1, 0x02, 0x37, 0xA8, 0x41, 0xFB, 0x36,
  0x6C, 0x98, 0x63, 0x37, 0xC3, 0xA2, 0x26, 0x37, 0x4A, 0x86,
  0x12, 0x37, 0x2C, 0x00, 0x00, 0x00, 0x73, 0x65, 0x71, 0x75,
  0x65, 0x6E, 0x74, 0x69, 0x61, 0x6C, 0x5F, 0x31, 0x2F, 0x63,
  0x6F, 0x6E, 0x76, 0x32, 0x64, 0x5F, 0x35, 0x2F, 0x42, 0x69,
  0x61, 0x73, 0x41, 0x64, 0x64, 0x2F, 0x52, 0x65, 0x61, 0x64,
  0x56, 0x61, 0x72, 0x69, 0x61, 0x62, 0x6C, 0x65, 0x4F, 0x70,
  0x00, 0x00, 0x00, 0x00, 0x01, 0x00, 0x00, 0x00, 0x08, 0x00,
  0x00, 0x00, 0x72, 0xF9, 0xFF, 0xFF, 0x00, 0x00, 0x00, 0x01,
  0x14, 0x00, 0x00, 0x00, 0x84, 0x00, 0x00, 0x00, 0x0C, 0x00,
  0x00, 0x00, 0x00, 0x00, 0x00, 0x09, 0x9C, 0x00, 0x00, 0x00,
  0xF4, 0xF9, 0xFF, 0xFF, 0x08, 0x00, 0x00, 0x00, 0x48, 0x00,
  0x00, 0x00, 0x08, 0x00, 0x00, 0x00, 0x00, 0x00, 0x00, 0x00,
  0x00, 0x00, 0x00, 0x00, 0x00, 0x00, 0x00, 0x00, 0x00, 0x00,
  0x00, 0x00, 0x00, 0x00, 0x00, 0x00, 0x00, 0x00, 0x00, 0x00,
  0x00, 0x00, 0x00, 0x00, 0x00, 0x00, 0x00, 0x00, 0x00, 0x00,
  0x00, 0x00, 0x00, 0x00, 0x00, 0x00, 0x00, 0x00, 0x00, 0x00,
  0x00, 0x00, 0x00, 0x00, 0x00, 0x00, 0x00, 0x00, 0x00, 0x00,
  0x00, 0x00, 0x00, 0x00, 0x00, 0x00, 0x00, 0x00, 0x00, 0x00,
  0x08, 0x00, 0x00, 0x00, 0x71, 0x2B, 0x58, 0x3B, 0x9E, 0x23,
  0x99, 0x3B, 0x1F, 0x53, 0x67, 0x3B, 0x2A, 0x48, 0x5E, 0x3B,
  0xDB, 0x98, 0x74, 0x3B, 0xD5, 0x49, 0x75, 0x3B, 0x6F, 0x47,
  0x86, 0x3B, 0xDB, 0x41, 0x78, 0x3B, 0x1C, 0x00, 0x00, 0x00,
  0x73, 0x65, 0x71, 0x75, 0x65, 0x6E, 0x74, 0x69, 0x61, 0x6C,
  0x5F, 0x31, 0x2F, 0x63, 0x6F, 0x6E, 0x76, 0x32, 0x64, 0x5F,
  0x36, 0x2F, 0x43, 0x6F, 0x6E, 0x76, 0x32, 0x44, 0x00, 0x00,
  0x00, 0x00, 0x04, 0x00, 0x00, 0x00, 0x08, 0x00, 0x00, 0x00,
  0x03, 0x00, 0x00, 0x00, 0x03, 0x00, 0x00, 0x00, 0x08, 0x00,
  0x00, 0x00, 0x3A, 0xFA, 0xFF, 0xFF, 0x00, 0x00, 0x00, 0x01,
  0x14, 0x00, 0x00, 0x00, 0x88, 0x00, 0x00, 0x00, 0x0B, 0x00,
  0x00, 0x00, 0x00, 0x00, 0x00, 0x02, 0xB0, 0x00, 0x00, 0x00,
  0xBC, 0xFA, 0xFF, 0xFF, 0x08, 0x00, 0x00, 0x00, 0x4C, 0x00,
  0x00, 0x00, 0x08, 0x00, 0x00, 0x00, 0x00, 0x00, 0x00, 0x00,
  0x00, 0x00, 0x00, 0x00, 0x00, 0x00, 0x00, 0x00, 0x00, 0x00,
  0x00, 0x00, 0x00, 0x00, 0x00, 0x00, 0x00, 0x00, 0x00, 0x00,
  0x00, 0x00, 0x00, 0x00, 0x00, 0x00, 0x00, 0x00, 0x00, 0x00,
  0x00, 0x00, 0x00, 0x00, 0x00, 0x00, 0x00, 0x00, 0x00, 0x00,
  0x00, 0x00, 0x00, 0x00, 0x00, 0x00, 0x00, 0x00, 0x00, 0x00,
  0x00, 0x00, 0x00, 0x00, 0x00, 0x00, 0x00, 0x00, 0x00, 0x00,
  0x00, 0x00, 0x00, 0x00, 0x08, 0x00, 0x00, 0x00, 0xF2, 0x57,
  0x43, 0x37, 0xAC, 0x62, 0x8A, 0x37, 0xD9, 0x09, 0x51, 0x37,
  0xEB, 0xDD, 0x48, 0x37, 0x3D, 0x08, 0x5D, 0x37, 0x2A, 0xA8,
  0x5D, 0x37, 0x4A, 0xAF, 0x72, 0x37, 0xF8, 0x56, 0x60, 0x37,
  0x2C, 0x00, 0x00, 0x00, 0x73, 0x65, 0x71, 0x75, 0x65, 0x6E,
  0x74, 0x69, 0x61, 0x6C, 0x5F, 0x31, 0x2F, 0x63, 0x6F, 0x6E,
  0x76, 0x32, 0x64, 0x5F, 0x36, 0x2F, 0x42, 0x69, 0x61, 0x73,
  0x41, 0x64, 0x64, 0x2F, 0x52, 0x65, 0x61, 0x64, 0x56, 0x61,
  0x72, 0x69, 0x61, 0x62, 0x6C, 0x65, 0x4F, 0x70, 0x00, 0x00,
  0x00, 0x00, 0x01, 0x00, 0x00, 0x00, 0x08, 0x00, 0x00, 0x00,
  0x0A, 0xFB, 0xFF, 0xFF, 0x00, 0x00, 0x00, 0x01, 0x14, 0x00,
  0x00, 0x00, 0x84, 0x00, 0x00, 0x00, 0x0A, 0x00, 0x00, 0x00,
  0x00, 0x00, 0x00, 0x09, 0x9C, 0x00, 0x00, 0x00, 0x8C, 0xFB,
  0xFF, 0xFF, 0x08, 0x00, 0x00, 0x00, 0x48, 0x00, 0x00, 0x00,
  0x08, 0x00, 0x00, 0x00, 0x00, 0x00, 0x00, 0x00, 0x00, 0x00,
  0x00, 0x00, 0x00, 0x00, 0x00, 0x00, 0x00, 0x00, 0x00, 0x00,
  0x00, 0x00, 0x00, 0x00, 0x00, 0x00, 0x00, 0x00, 0x00, 0x00,
  0x00, 0x00, 0x00, 0x00, 0x00, 0x00, 0x00, 0x00, 0x00, 0x00,
  0x00, 0x00, 0x00, 0x00, 0x00, 0x00, 0x00, 0x00, 0x00, 0x00,
  0x00, 0x00, 0x00, 0x00, 0x00, 0x00, 0x00, 0x00, 0x00, 0x00,
  0x00, 0x00, 0x00, 0x00, 0x00, 0x00, 0x00, 0x00, 0x08, 0x00,
  0x00, 0x00, 0xE6, 0xD9, 0x42, 0x3B, 0x10, 0xBE, 0x75, 0x3B,
  0xA2, 0xEC, 0x59, 0x3B, 0x02, 0xF1, 0xCD, 0x3A, 0xD3, 0x28,
  0x55, 0x3B, 0xCD, 0x2F, 0x5D, 0x3B, 0x90, 0x49, 0x46, 0x3B,
  0x06, 0xCB, 0x6C, 0x3B, 0x1C, 0x00, 0x00, 0x00, 0x73, 0x65,
  0x71, 0x75, 0x65, 0x6E, 0x74, 0x69, 0x61, 0x6C, 0x5F, 0x31,
  0x2F, 0x63, 0x6F, 0x6E, 0x76, 0x32, 0x64, 0x5F, 0x37, 0x2F,
  0x43, 0x6F, 0x6E, 0x76, 0x32, 0x44, 0x00, 0x00, 0x00, 0x00,
  0x04, 0x00, 0x00, 0x00, 0x08, 0x00, 0x00, 0x00, 0x03, 0x00,
  0x00, 0x00, 0x03, 0x00, 0x00, 0x00, 0x08, 0x00, 0x00, 0x00,
  0xD2, 0xFB, 0xFF, 0xFF, 0x00, 0x00, 0x00, 0x01, 0x14, 0x00,
  0x00, 0x00, 0x88, 0x00, 0x00, 0x00, 0x09, 0x00, 0x00, 0x00,
  0x00, 0x00, 0x00, 0x02, 0xB0, 0x00, 0x00, 0x00, 0x54, 0xFC,
  0xFF, 0xFF, 0x08, 0x00, 0x00, 0x00, 0x4C, 0x00, 0x00, 0x00,
  0x08, 0x00, 0x00, 0x00, 0x00, 0x00, 0x00, 0x00, 0x00, 0x00,
  0x00, 0x00, 0x00, 0x00, 0x00, 0x00, 0x00, 0x00, 0x00, 0x00,
  0x00, 0x00, 0x00, 0x00, 0x00, 0x00, 0x00, 0x00, 0x00, 0x00,
  0x00, 0x00, 0x00, 0x00, 0x00, 0x00, 0x00, 0x00, 0x00, 0x00,
  0x00, 0x00, 0x00, 0x00, 0x00, 0x00, 0x00, 0x00, 0x00, 0x00,
  0x00, 0x00, 0x00, 0x00, 0x00, 0x00, 0x00, 0x00, 0x00, 0x00,
  0x00, 0x00, 0x00, 0x00, 0x00, 0x00, 0x00, 0x00, 0x00, 0x00,
  0x00, 0x00, 0x08, 0x00, 0x00, 0x00, 0x8A, 0xA8, 0x6B, 0x37,
  0x94, 0x9A, 0x94, 0x37, 0x27, 0xC8, 0x83, 0x37, 0x3C, 0x12,
  0xF9, 0x36, 0x85, 0xE6, 0x80, 0x37, 0x31, 0xC1, 0x85, 0x37,
  0x6E, 0xD0, 0x6F, 0x37, 0x28, 0x31, 0x8F, 0x37, 0x2C, 0x00,
  0x00, 0x00, 0x73, 0x65, 0x71, 0x75, 0x65, 0x6E, 0x74, 0x69,
  0x61, 0x6C, 0x5F, 0x31, 0x2F, 0x63, 0x6F, 0x6E, 0x76, 0x32,
  0x64, 0x5F, 0x37, 0x2F, 0x42, 0x69, 0x61, 0x73, 0x41, 0x64,
  0x64, 0x2F, 0x52, 0x65, 0x61, 0x64, 0x56, 0x61, 0x72, 0x69,
  0x61, 0x62, 0x6C, 0x65, 0x4F, 0x70, 0x00, 0x00, 0x00, 0x00,
  0x01, 0x00, 0x00, 0x00, 0x08, 0x00, 0x00, 0x00, 0xA2, 0xFC,
  0xFF, 0xFF, 0x00, 0x00, 0x00, 0x01, 0x14, 0x00, 0x00, 0x00,
  0x54, 0x00, 0x00, 0x00, 0x08, 0x00, 0x00, 0x00, 0x00, 0x00,
  0x00, 0x09, 0x6C, 0x00, 0x00, 0x00, 0x24, 0xFD, 0xFF, 0xFF,
  0x08, 0x00, 0x00, 0x00, 0x28, 0x00, 0x00, 0x00, 0x04, 0x00,
  0x00, 0x00, 0x00, 0x00, 0x00, 0x00, 0x00, 0x00, 0x00, 0x00,
  0x00, 0x00, 0x00, 0x00, 0x00, 0x00, 0x00, 0x00, 0x00, 0x00,
  0x00, 0x00, 0x00, 0x00, 0x00, 0x00, 0x00, 0x00, 0x00, 0x00,
  0x00, 0x00, 0x00, 0x00, 0x04, 0x00, 0x00, 0x00, 0x78, 0x51,
  0x49, 0x3B, 0x58, 0x6A, 0x53, 0x3B, 0x9D, 0x06, 0x8F, 0x3B,
  0x4E, 0x45, 0x80, 0x3B, 0x1C, 0x00, 0x00, 0x00, 0x73, 0x65,
  0x71, 0x75, 0x65, 0x6E, 0x74, 0x69, 0x61, 0x6C, 0x5F, 0x31,
  0x2F, 0x63, 0x6F, 0x6E, 0x76, 0x32, 0x64, 0x5F, 0x38, 0x2F,
  0x43, 0x6F, 0x6E, 0x76, 0x32, 0x44, 0x00, 0x00, 0x00, 0x00,
  0x04, 0x00, 0x00, 0x00, 0x04, 0x00, 0x00, 0x00, 0x03, 0x00,
  0x00, 0x00, 0x03, 0x00, 0x00, 0x00, 0x08, 0x00, 0x00, 0x00,
  0x3A, 0xFD, 0xFF, 0xFF, 0x00, 0x00, 0x00, 0x01, 0x14, 0x00,
  0x00, 0x00, 0x58, 0x00, 0x00, 0x00, 0x07, 0x00, 0x00, 0x00,
  0x00, 0x00, 0x00, 0x02, 0x80, 0x00, 0x00, 0x00, 0xBC, 0xFD,
  0xFF, 0xFF, 0x08, 0x00, 0x00, 0x00, 0x2C, 0x00, 0x00, 0x00,
  0x04, 0x00, 0x00, 0x00, 0x00, 0x00, 0x00, 0x00, 0x00, 0x00,
  0x00, 0x00, 0x00, 0x00, 0x00, 0x00, 0x00, 0x00, 0x00, 0x00,
  0x00, 0x00, 0x00, 0x00, 0x00, 0x00, 0x00, 0x00, 0x00, 0x00,
  0x00, 0x00, 0x00, 0x00, 0x00, 0x00, 0x00, 0x00, 0x00, 0x00,
  0x04, 0x00, 0x00, 0x00, 0xE9, 0xF7, 0x5F, 0x38, 0x9C, 0x33,
  0x6B, 0x38, 0x19, 0x1E, 0x9F, 0x38, 0xCE, 0xB3, 0x8E, 0x38,
  0x2C, 0x00, 0x00, 0x00, 0x73, 0x65, 0x71, 0x75, 0x65, 0x6E,
  0x74, 0x69, 0x61, 0x6C, 0x5F, 0x31, 0x2F, 0x63, 0x6F, 0x6E,
  0x76, 0x32, 0x64, 0x5F, 0x38, 0x2F, 0x42, 0x69, 0x61, 0x73,
  0x41, 0x64, 0x64, 0x2F, 0x52, 0x65, 0x61, 0x64, 0x56, 0x61,
  0x72, 0x69, 0x61, 0x62, 0x6C, 0x65, 0x4F, 0x70, 0x00, 0x00,
  0x00, 0x00, 0x01, 0x00, 0x00, 0x00, 0x04, 0x00, 0x00, 0x00,
  0xDA, 0xFD, 0xFF, 0xFF, 0x00, 0x00, 0x00, 0x01, 0x14, 0x00,
  0x00, 0x00, 0x54, 0x00, 0x00, 0x00, 0x06, 0x00, 0x00, 0x00,
  0x00, 0x00, 0x00, 0x09, 0x6C, 0x00, 0x00, 0x00, 0x5C, 0xFE,
  0xFF, 0xFF, 0x08, 0x00, 0x00, 0x00, 0x28, 0x00, 0x00, 0x00,
  0x04, 0x00, 0x00, 0x00, 0x00, 0x00, 0x00, 0x00, 0x00, 0x00,
  0x00, 0x00, 0x00, 0x00, 0x00, 0x00, 0x00, 0x00, 0x00, 0x00,
  0x00, 0x00, 0x00, 0x00, 0x00, 0x00, 0x00, 0x00, 0x00, 0x00,
  0x00, 0x00, 0x00, 0x00, 0x00, 0x00, 0x04, 0x00, 0x00, 0x00,
  0x59, 0xBB, 0x41, 0x3B, 0x64, 0xA3, 0x3C, 0x3B, 0x64, 0xC5,
  0x56, 0x3B, 0x76, 0xB0, 0x4B, 0x3B, 0x1C, 0x00, 0x00, 0x00,
  0x73, 0x65, 0x71, 0x75, 0x65, 0x6E, 0x74, 0x69, 0x61, 0x6C,
  0x5F, 0x31, 0x2F, 0x63, 0x6F, 0x6E, 0x76, 0x32, 0x64, 0x5F,
  0x39, 0x2F, 0x43, 0x6F, 0x6E, 0x76, 0x32, 0x44, 0x00, 0x00,
  0x00, 0x00, 0x04, 0x00, 0x00, 0x00, 0x04, 0x00, 0x00, 0x00,
  0x03, 0x00, 0x00, 0x00, 0x03, 0x00, 0x00, 0x00, 0x04, 0x00,
  0x00, 0x00, 0x72, 0xFE, 0xFF, 0xFF, 0x00, 0x00, 0x00, 0x01,
  0x14, 0x00, 0x00, 0x00, 0x58, 0x00, 0x00, 0x00, 0x05, 0x00,
  0x00, 0x00, 0x00, 0x00, 0x00, 0x02, 0x80, 0x00, 0x00, 0x00,
  0xF4, 0xFE, 0xFF, 0xFF, 0x08, 0x00, 0x00, 0x00, 0x2C, 0x00,
  0x00, 0x00, 0x04, 0x00, 0x00, 0x00, 0x00, 0x00, 0x00, 0x00,
  0x00, 0x00, 0x00, 0x00, 0x00, 0x00, 0x00, 0x00, 0x00, 0x00,
  0x00, 0x00, 0x00, 0x00, 0x00, 0x00, 0x00, 0x00, 0x00, 0x00,
  0x00, 0x00, 0x00, 0x00, 0x00, 0x00, 0x00, 0x00, 0x00, 0x00,
  0x00, 0x00, 0x04, 0x00, 0x00, 0x00, 0xE3, 0xFB, 0x22, 0x39,
  0xE3, 0xB2, 0x1E, 0x39, 0x17, 0xAF, 0x34, 0x39, 0x6C, 0x5C,
  0x2B, 0x39, 0x2C, 0x00, 0x00, 0x00, 0x73, 0x65, 0x71, 0x75,
  0x65, 0x6E, 0x74, 0x69, 0x61, 0x6C, 0x5F, 0x31, 0x2F, 0x63,
  0x6F, 0x6E, 0x76, 0x32, 0x64, 0x5F, 0x39, 0x2F, 0x42, 0x69,
  0x61, 0x73, 0x41, 0x64, 0x64, 0x2F, 0x52, 0x65, 0x61, 0x64,
  0x56, 0x61, 0x72, 0x69, 0x61, 0x62, 0x6C, 0x65, 0x4F, 0x70,
  0x00, 0x00, 0x00, 0x00, 0x01, 0x00, 0x00, 0x00, 0x04, 0x00,
  0x00, 0x00, 0x12, 0xFF, 0xFF, 0xFF, 0x00, 0x00, 0x00, 0x01,
  0x14, 0x00, 0x00, 0x00, 0x34, 0x00, 0x00, 0x00, 0x04, 0x00,
  0x00, 0x00, 0x00, 0x00, 0x00, 0x09, 0x48, 0x00, 0x00, 0x00,
  0x94, 0xFF, 0xFF, 0xFF, 0x08, 0x00, 0x00, 0x00, 0x14, 0x00,
  0x00, 0x00, 0x01, 0x00, 0x00, 0x00, 0x00, 0x00, 0x00, 0x00,
  0x00, 0x00, 0x00, 0x00, 0x00, 0x00, 0x00, 0x00, 0x01, 0x00,
  0x00, 0x00, 0xCC, 0xC8, 0x8D, 0x3B, 0x1B, 0x00, 0x00, 0x00,
  0x73, 0x65, 0x71, 0x75, 0x65, 0x6E, 0x74, 0x69, 0x61, 0x6C,
  0x5F, 0x31, 0x2F, 0x64, 0x65, 0x6E, 0x73, 0x65, 0x5F, 0x31,
  0x2F, 0x4D, 0x61, 0x74, 0x4D, 0x75, 0x6C, 0x00, 0x02, 0x00,
  0x00, 0x00, 0x01, 0x00, 0x00, 0x00, 0x40, 0x00, 0x00, 0x00,
  0x7E, 0xFF, 0xFF, 0xFF, 0x00, 0x00, 0x00, 0x01, 0x20, 0x00,
  0x00, 0x00, 0x3C, 0x00, 0x00, 0x00, 0x03, 0x00, 0x00, 0x00,
  0x00, 0x00, 0x00, 0x02, 0x60, 0x00, 0x00, 0x00, 0x0C, 0x00,
  0x0C, 0x00, 0x00, 0x00, 0x00, 0x00, 0x08, 0x00, 0x04, 0x00,
  0x0C, 0x00, 0x00, 0x00, 0x08, 0x00, 0x00, 0x00, 0x10, 0x00,
  0x00, 0x00, 0x01, 0x00, 0x00, 0x00, 0x00, 0x00, 0x00, 0x00,
  0x00, 0x00, 0x00, 0x00, 0x01, 0x00, 0x00, 0x00, 0x6B, 0xCF,
  0x3A, 0x39, 0x2B, 0x00, 0x00, 0x00, 0x73, 0x65, 0x71, 0x75,
  0x65, 0x6E, 0x74, 0x69, 0x61, 0x6C, 0x5F, 0x31, 0x2F, 0x64,
  0x65, 0x6E, 0x73, 0x65, 0x5F, 0x31, 0x2F, 0x42, 0x69, 0x61,
  0x73, 0x41, 0x64, 0x64, 0x2F, 0x52, 0x65, 0x61, 0x64, 0x56,
  0x61, 0x72, 0x69, 0x61, 0x62, 0x6C, 0x65, 0x4F, 0x70, 0x00,
  0x01, 0x00, 0x00, 0x00, 0x01, 0x00, 0x00, 0x00, 0x00, 0x00,
  0x16, 0x00, 0x1C, 0x00, 0x18, 0x00, 0x17, 0x00, 0x10, 0x00,
  0x0C, 0x00, 0x08, 0x00, 0x00, 0x00, 0x00, 0x00, 0x00, 0x00,
  0x07, 0x00, 0x16, 0x00, 0x00, 0x00, 0x00, 0x00, 0x00, 0x01,
  0x14, 0x00, 0x00, 0x00, 0x14, 0x00, 0x00, 0x00, 0x02, 0x00,
  0x00, 0x00, 0x00, 0x00, 0x00, 0x02, 0x2C, 0x00, 0x00, 0x00,
  0x88, 0xFF, 0xFF, 0xFF, 0x1C, 0x00, 0x00, 0x00, 0x73, 0x65,
  0x71, 0x75, 0x65, 0x6E, 0x74, 0x69, 0x61, 0x6C, 0x5F, 0x31,
  0x2F, 0x66, 0x6C, 0x61, 0x74, 0x74, 0x65, 0x6E, 0x5F, 0x31,
  0x2F, 0x43, 0x6F, 0x6E, 0x73, 0x74, 0x00, 0x00, 0x00, 0x00,
  0x01, 0x00, 0x00, 0x00, 0x02, 0x00, 0x00, 0x00, 0x00, 0x00,
  0x16, 0x00, 0x1C, 0x00, 0x18, 0x00, 0x00, 0x00, 0x14, 0x00,
  0x10, 0x00, 0x0C, 0x00, 0x00, 0x00, 0x00, 0x00, 0x08, 0x00,
  0x07, 0x00, 0x16, 0x00, 0x00, 0x00, 0x00, 0x00, 0x00, 0x01,
  0x14, 0x00, 0x00, 0x00, 0x28, 0x00, 0x00, 0x00, 0x28, 0x00,
  0x00, 0x00, 0x01, 0x00, 0x00, 0x00, 0x40, 0x00, 0x00, 0x00,
  0x04, 0x00, 0x00, 0x00, 0xFF, 0xFF, 0xFF, 0xFF, 0x00, 0x01,
  0x00, 0x00, 0x00, 0x01, 0x00, 0x00, 0x01, 0x00, 0x00, 0x00,
  0x04, 0x00, 0x04, 0x00, 0x04, 0x00, 0x00, 0x00, 0x19, 0x00,
  0x00, 0x00, 0x73, 0x65, 0x72, 0x76, 0x69, 0x6E, 0x67, 0x5F,
  0x64, 0x65, 0x66, 0x61, 0x75, 0x6C, 0x74, 0x5F, 0x69, 0x6E,
  0x70, 0x75, 0x74, 0x5F, 0x32, 0x3A, 0x30, 0x00, 0x00, 0x00,
  0x04, 0x00, 0x00, 0x00, 0x01, 0x00, 0x00, 0x00, 0x00, 0x01,
  0x00, 0x00, 0x00, 0x01, 0x00, 0x00, 0x01, 0x00, 0x00, 0x00,
  0x07, 0x00, 0x00, 0x00, 0x90, 0x00, 0x00, 0x00, 0x70, 0x00,
  0x00, 0x00, 0x50, 0x00, 0x00, 0x00, 0x40, 0x00, 0x00, 0x00,
  0x2C, 0x00, 0x00, 0x00, 0x18, 0x00, 0x00, 0x00, 0x04, 0x00,
  0x00, 0x00, 0xB4, 0xFF, 0xFF, 0xFF, 0x06, 0x00, 0x00, 0x00,
  0x02, 0x00, 0x00, 0x00, 0x00, 0x00, 0x00, 0x06, 0xC4, 0xFF,
  0xFF, 0xFF, 0x0E, 0x00, 0x00, 0x00, 0x02, 0x00, 0x00, 0x00,
  0x00, 0x00, 0x00, 0x0E, 0xD4, 0xFF, 0xFF, 0xFF, 0x09, 0x00,
  0x00, 0x00, 0x04, 0x00, 0x00, 0x00, 0x00, 0x00, 0x00, 0x09,
  0xC8, 0xFF, 0xFF, 0xFF, 0x16, 0x00, 0x00, 0x00, 0x00, 0x00,
  0x00, 0x16, 0xF0, 0xFF, 0xFF, 0xFF, 0x11, 0x00, 0x00, 0x00,
  0x02, 0x00, 0x00, 0x00, 0x00, 0x00, 0x00, 0x11, 0x0C, 0x00,
  0x10, 0x00, 0x0F, 0x00, 0x00, 0x00, 0x08, 0x00, 0x04, 0x00,
  0x0C, 0x00, 0x00, 0x00, 0x03, 0x00, 0x00, 0x00, 0x03, 0x00,
  0x00, 0x00, 0x00, 0x00, 0x00, 0x03, 0x0C, 0x00, 0x0C, 0x00,
  0x0B, 0x00, 0x00, 0x00, 0x00, 0x00, 0x04, 0x00, 0x0C, 0x00,
  0x00, 0x00, 0x72, 0x00, 0x00, 0x00, 0x00, 0x00, 0x00, 0x72
};
unsigned int model_tflite_len = 9160;