const unsigned char model_tflite[] = {
  0x20, 0x00, 0x00, 0x00, 0x54, 0x46, 0x4C, 0x33, 0x00, 0x00,
  0x00, 0x00, 0x14, 0x00, 0x20, 0x00, 0x1C, 0x00, 0x18, 0x00,
  0x14, 0x00, 0x10, 0x00, 0x0C, 0x00, 0x00, 0x00, 0x08, 0x00,
  0x04, 0x00, 0x14, 0x00, 0x00, 0x00, 0x1C, 0x00, 0x00, 0x00,
  0x90, 0x00, 0x00, 0x00, 0xE8, 0x00, 0x00, 0x00, 0x5C, 0x30,
  0x00, 0x00, 0x6C, 0x30, 0x00, 0x00, 0x24, 0x43, 0x00, 0x00,
  0x03, 0x00, 0x00, 0x00, 0x01, 0x00, 0x00, 0x00, 0x10, 0x00,
  0x00, 0x00, 0x00, 0x00, 0x0A, 0x00, 0x10, 0x00, 0x0C, 0x00,
  0x08, 0x00, 0x04, 0x00, 0x0A, 0x00, 0x00, 0x00, 0x0C, 0x00,
  0x00, 0x00, 0x1C, 0x00, 0x00, 0x00, 0x3C, 0x00, 0x00, 0x00,
  0x0F, 0x00, 0x00, 0x00, 0x73, 0x65, 0x72, 0x76, 0x69, 0x6E,
  0x67, 0x5F, 0x64, 0x65, 0x66, 0x61, 0x75, 0x6C, 0x74, 0x00,
  0x01, 0x00, 0x00, 0x00, 0x04, 0x00, 0x00, 0x00, 0x98, 0xFF,
  0xFF, 0xFF, 0x1B, 0x00, 0x00, 0x00, 0x04, 0x00, 0x00, 0x00,
  0x09, 0x00, 0x00, 0x00, 0x63, 0x6F, 0x6E, 0x76, 0x32, 0x64,
  0x5F, 0x34, 0x39, 0x00, 0x00, 0x00, 0x01, 0x00, 0x00, 0x00,
  0x04, 0x00, 0x00, 0x00, 0x3E, 0xCF, 0xFF, 0xFF, 0x04, 0x00,
  0x00, 0x00, 0x07, 0x00, 0x00, 0x00, 0x69, 0x6E, 0x70, 0x75,
  0x74, 0x5F, 0x38, 0x00, 0x02, 0x00, 0x00, 0x00, 0x34, 0x00,
  0x00, 0x00, 0x04, 0x00, 0x00, 0x00, 0xDC, 0xFF, 0xFF, 0xFF,
  0x1E, 0x00, 0x00, 0x00, 0x04, 0x00, 0x00, 0x00, 0x13, 0x00,
  0x00, 0x00, 0x43, 0x4F, 0x4E, 0x56, 0x45, 0x52, 0x53, 0x49,
  0x4F, 0x4E, 0x5F, 0x4D, 0x45, 0x54, 0x41, 0x44, 0x41, 0x54,
  0x41, 0x00, 0x08, 0x00, 0x0C, 0x00, 0x08, 0x00, 0x04, 0x00,
  0x08, 0x00, 0x00, 0x00, 0x1D, 0x00, 0x00, 0x00, 0x04, 0x00,
  0x00, 0x00, 0x13, 0x00, 0x00, 0x00, 0x6D, 0x69, 0x6E, 0x5F,
  0x72, 0x75, 0x6E, 0x74, 0x69, 0x6D, 0x65, 0x5F, 0x76, 0x65,
  0x72, 0x73, 0x69, 0x6F, 0x6E, 0x00, 0x1F, 0x00, 0x00, 0x00,
  0x70, 0x2F, 0x00, 0x00, 0x68, 0x2F, 0x00, 0x00, 0x50, 0x2F,
  0x00, 0x00, 0xE0, 0x2E, 0x00, 0x00, 0xD0, 0x26, 0x00, 0x00,
  0xC0, 0x1E, 0x00, 0x00, 0x70, 0x1E, 0x00, 0x00, 0x40, 0x1E,
  0x00, 0x00, 0xF0, 0x1D, 0x00, 0x00, 0xC0, 0x1D, 0x00, 0x00,
  0x70, 0x1D, 0x00, 0x00, 0x40, 0x1D, 0x00, 0x00, 0x2C, 0x1D,
  0x00, 0x00, 0x1C, 0x19, 0x00, 0x00, 0x0C, 0x11, 0x00, 0x00,
  0xFC, 0x08, 0x00, 0x00, 0xEC, 0x00, 0x00, 0x00, 0xE4, 0x00,
  0x00, 0x00, 0xDC, 0x00, 0x00, 0x00, 0xD4, 0x00, 0x00, 0x00,
  0xCC, 0x00, 0x00, 0x00, 0xC4, 0x00, 0x00, 0x00, 0xBC, 0x00,
  0x00, 0x00, 0xB4, 0x00, 0x00, 0x00, 0xAC, 0x00, 0x00, 0x00,
  0xA4, 0x00, 0x00, 0x00, 0x9C, 0x00, 0x00, 0x00, 0x94, 0x00,
  0x00, 0x00, 0x8C, 0x00, 0x00, 0x00, 0x6C, 0x00, 0x00, 0x00,
  0x04, 0x00, 0x00, 0x00, 0x2E, 0xD0, 0xFF, 0xFF, 0x04, 0x00,
  0x00, 0x00, 0x58, 0x00, 0x00, 0x00, 0x0C, 0x00, 0x00, 0x00,
  0x08, 0x00, 0x0E, 0x00, 0x08, 0x00, 0x04, 0x00, 0x08, 0x00,
  0x00, 0x00, 0x10, 0x00, 0x00, 0x00, 0x28, 0x00, 0x00, 0x00,
  0x00, 0x00, 0x06, 0x00, 0x08, 0x00, 0x04, 0x00, 0x06, 0x00,
  0x00, 0x00, 0x04, 0x00, 0x00, 0x00, 0x01, 0x00, 0x00, 0x00,
  0xEA, 0x03, 0x00, 0x00, 0x00, 0x00, 0x0A, 0x00, 0x10, 0x00,
  0x0C, 0x00, 0x08, 0x00, 0x04, 0x00, 0x0A, 0x00, 0x00, 0x00,
  0x02, 0x00, 0x00, 0x00, 0x02, 0x00, 0x00, 0x00, 0x04, 0x00,
  0x00, 0x00, 0x06, 0x00, 0x00, 0x00, 0x32, 0x2E, 0x31, 0x31,
  0x2E, 0x30, 0x00, 0x00, 0x92, 0xD0, 0xFF, 0xFF, 0x04, 0x00,
  0x00, 0x00, 0x10, 0x00, 0x00, 0x00, 0x32, 0x2E, 0x34, 0x2E,
  0x30, 0x00, 0x00, 0x00, 0x00, 0x00, 0x00, 0x00, 0x00, 0x00,
  0x00, 0x00, 0xF4, 0xBE, 0xFF, 0xFF, 0xF8, 0xBE, 0xFF, 0xFF,
  0xFC, 0xBE, 0xFF, 0xFF, 0x00, 0xBF, 0xFF, 0xFF, 0x04, 0xBF,
  0xFF, 0xFF, 0x08, 0xBF, 0xFF, 0xFF, 0x0C, 0xBF, 0xFF, 0xFF,
  0x10, 0xBF, 0xFF, 0xFF, 0x14, 0xBF, 0xFF, 0xFF, 0x18, 0xBF,
  0xFF, 0xFF, 0x1C, 0xBF, 0xFF, 0xFF, 0x20, 0xBF, 0xFF, 0xFF,
  0xDE, 0xD0, 0xFF, 0xFF, 0x04, 0x00, 0x00, 0x00, 0x00, 0x08,
  0x00, 0x00, 0xD7, 0x17, 0xA0, 0xCE, 0x1E, 0x2D, 0x26, 0xE1,
  0xB7, 0xB3, 0xBD, 0x1C, 0xD8, 0x14, 0x2A, 0xFC, 0xAE, 0xB5,
  0xE0, 0x1D, 0xC8, 0x39, 0x28, 0xF6, 0xE0, 0xE9, 0xF8, 0x1B,
  0xED, 0x14, 0xDC, 0x1B, 0x34, 0x7F, 0xB8, 0xF9, 0xFD, 0x29,
  0x3A, 0x28, 0xF4, 0x0B, 0x01, 0x19, 0x0C, 0x29, 0x0B, 0x24,
  0xF4, 0x09, 0x24, 0x0D, 0xFA, 0x25, 0x00, 0x39, 0x48, 0x0D,
  0x0B, 0xED, 0xE9, 0xFA, 0x08, 0x14, 0x24, 0x20, 0xD3, 0x17,
  0xFF, 0xFC, 0x37, 0xE0, 0xFB, 0xF3, 0xE5, 0xE6, 0xDD, 0x13,
  0xF5, 0x18, 0xB9, 0xDC, 0x1B, 0x29, 0x09, 0x1D, 0xEE, 0x19,
  0x16, 0x1E, 0xFD, 0x00, 0xEB, 0x06, 0xF6, 0xDD, 0xC5, 0x14,
  0xFA, 0x1B, 0xDC, 0x19, 0xFC, 0x13, 0xD7, 0xFF, 0xF5, 0xF0,
  0xF4, 0xF8, 0x14, 0xEE, 0x85, 0xFD, 0x01, 0xFD, 0xE8, 0x20,
  0xF5, 0xCE, 0xC9, 0x29, 0xF6, 0x08, 0xD3, 0xD9, 0x21, 0xE4,
  0xC6, 0xFA, 0xF0, 0x15, 0xFE, 0xDE, 0x29, 0xF4, 0xBA, 0x1C,
  0x15, 0x35, 0xF7, 0xC0, 0x14, 0xF9, 0xE3, 0x1A, 0xF8, 0xF7,
  0x09, 0x07, 0xFC, 0xD3, 0x18, 0x04, 0xFD, 0x19, 0xF2, 0xDA,
  0x18, 0xED, 0xDB, 0x09, 0xEF, 0xF7, 0x00, 0x81, 0x07, 0xF1,
  0x05, 0xEE, 0xF3, 0x4A, 0xFA, 0xCF, 0x0B, 0xF6, 0xF6, 0x0D,
  0xF8, 0xF3, 0x03, 0x03, 0xF8, 0x0D, 0x16, 0x13, 0xFA, 0x02,
  0x02, 0xC7, 0x0B, 0x24, 0xCC, 0xF1, 0xE8, 0x12, 0xF4, 0xC2,
  0x18, 0xED, 0xFF, 0xD5, 0xEF, 0x23, 0xFB, 0xB5, 0x05, 0xE9,
  0xF5, 0xFC, 0xF8, 0xE9, 0xFB, 0xEB, 0xFE, 0x02, 0x12, 0x1D,
  0xF6, 0xFC, 0xEE, 0xE6, 0x16, 0x03, 0xDD, 0xEA, 0x00, 0xF0,
  0x07, 0x31, 0xF1, 0x34, 0x01, 0xE1, 0xF3, 0x12, 0xF9, 0xE8,
  0x00, 0x22, 0x00, 0x21, 0x00, 0xFF, 0xFA, 0x1D, 0xFA, 0x1E,
  0xF4, 0x15, 0x0D, 0x16, 0xFF, 0x13, 0x0E, 0x1D, 0x81, 0xE6,
  0x0E, 0xF6, 0x38, 0xE4, 0x60, 0xD7, 0xB7, 0x25, 0x35, 0x22,
  0x27, 0xC8, 0x37, 0xFE, 0xE7, 0x0C, 0xF2, 0x0C, 0x16, 0xFC,
  0xFB, 0x0F, 0x08, 0xD8, 0x0E, 0xF9, 0x08, 0xC7, 0x16, 0x1E,
  0x2B, 0x0E, 0xBF, 0x00, 0x19, 0x27, 0xE0, 0x36, 0xFB, 0x2A,
  0x00, 0x16, 0x2F, 0x40, 0x03, 0x17, 0xFD, 0x0F, 0xDA, 0xFD,
  0xFC, 0x2F, 0xDB, 0xE8, 0x21, 0x27, 0xFA, 0xE2, 0xFA, 0xF4,
  0xD1, 0xFA, 0xDC, 0x0F, 0xDB, 0xCF, 0x06, 0x34, 0x03, 0xC7,
  0xF1, 0xFA, 0x23, 0xFE, 0x27, 0xF8, 0xDB, 0xAD, 0xFC, 0x10,
  0x25, 0x02, 0x15, 0x21, 0xFB, 0xE7, 0xE7, 0x08, 0xE8, 0xA6,
  0x0C, 0x0D, 0xE8, 0x04, 0xC1, 0x0C, 0x0F, 0xCA, 0x27, 0xCC,
  0xDF, 0xD9, 0xE5, 0xED, 0x01, 0xE5, 0x1B, 0xFB, 0xEE, 0x9F,
  0xE6, 0x09, 0x18, 0xBE, 0x05, 0xE9, 0xEF, 0xEB, 0x40, 0x03,
  0x03, 0xAC, 0x01, 0xEF, 0xF9, 0xF8, 0xB3, 0x2A, 0x14, 0x81,
  0x33, 0xDA, 0x2E, 0xC6, 0xA9, 0x1A, 0xF2, 0xCF, 0x15, 0x17,
  0x59, 0x16, 0x29, 0x1B, 0xCB, 0x2C, 0x1D, 0x01, 0x24, 0x04,
  0xF4, 0xD8, 0x37, 0xF4, 0x15, 0xF9, 0xFE, 0x37, 0xA0, 0x41,
  0xE6, 0xB9, 0x73, 0xEA, 0x22, 0xDD, 0xCE, 0x01, 0xC9, 0xDE,
  0xFA, 0x19, 0x05, 0x19, 0x12, 0xE1, 0x17, 0x3F, 0x0F, 0x0B,
  0x38, 0x49, 0xF4, 0x17, 0xFB, 0x1E, 0xEF, 0x32, 0xD3, 0x04,
  0xE1, 0x4D, 0xB6, 0xCE, 0x31, 0xE7, 0xFD, 0x1A, 0x06, 0xA6,
  0xE1, 0x0B, 0x3A, 0x04, 0xF0, 0x2B, 0x28, 0xAD, 0xEA, 0x1F,
  0x06, 0xF0, 0x2F, 0xEB, 0xD4, 0xE1, 0x2E, 0x06, 0x26, 0xDE,
  0xDB, 0xAC, 0xD7, 0x30, 0x06, 0x13, 0x17, 0x03, 0xC7, 0x00,
  0xD2, 0x07, 0x17, 0xF8, 0x25, 0x1F, 0xED, 0xEC, 0xCF, 0xF9,
  0x18, 0x0C, 0xEF, 0xF0, 0xD2, 0xC3, 0xC5, 0xD9, 0x0A, 0x1B,
  0xF2, 0x10, 0xA8, 0x8B, 0x5F, 0xD5, 0xFF, 0x48, 0x81, 0x34,
  0x09, 0x24, 0x40, 0xDF, 0x02, 0x14, 0xD5, 0xE8, 0x05, 0x06,
  0x69, 0xE1, 0x0B, 0x09, 0xF5, 0xEC, 0x02, 0xE8, 0x38, 0xDF,
  0xF0, 0x23, 0xE5, 0x04, 0x0F, 0xF2, 0x23, 0xEE, 0x05, 0x3A,
  0xD5, 0x37, 0x19, 0x2D, 0x1B, 0xE2, 0x0D, 0x0D, 0xEC, 0x17,
  0x20, 0x02, 0x4E, 0x05, 0x11, 0x10, 0xFA, 0xF2, 0x16, 0xFC,
  0x24, 0xFA, 0xEF, 0x26, 0xF6, 0xDB, 0x0F, 0x18, 0x4F, 0xF1,
  0x1D, 0x17, 0xE4, 0x20, 0x14, 0x0D, 0x3C, 0xEA, 0xFC, 0x0B,
  0x03, 0x18, 0xFE, 0xF3, 0x3D, 0xEE, 0xFC, 0x1D, 0xFD, 0x02,
  0x03, 0xF5, 0x32, 0xF6, 0x0B, 0x0F, 0xFF, 0xF9, 0x04, 0x0D,
  0x28, 0xF2, 0x0F, 0x1D, 0xCF, 0xF1, 0x23, 0x0B, 0x0E, 0x0E,
  0xFF, 0x07, 0xED, 0xF8, 0x0C, 0xD8, 0x1B, 0xF1, 0xE4, 0x0F,
  0x01, 0xFD, 0xFD, 0xEE, 0x08, 0xF5, 0xF7, 0xFA, 0xDA, 0x0B,
  0x1F, 0x15, 0xE9, 0x05, 0x15, 0xF9, 0x04, 0x81, 0x00, 0xF1,
  0xFC, 0x06, 0x07, 0xF0, 0x11, 0xE8, 0xFC, 0x27, 0x07, 0xCB,
  0xEF, 0xCF, 0x01, 0xEA, 0xF9, 0xE6, 0xF1, 0x16, 0x0D, 0xDA,
  0x0B, 0xD5, 0xF2, 0x06, 0x12, 0x0F, 0x0B, 0x13, 0xFE, 0xE0,
  0x02, 0x00, 0x24, 0xFD, 0x00, 0x0F, 0x11, 0x03, 0x05, 0x21,
  0x01, 0x20, 0xF4, 0xEC, 0x00, 0x04, 0xFD, 0xEC, 0xF8, 0x0A,
  0x05, 0xE9, 0x0D, 0x1C, 0xFF, 0x08, 0x00, 0x0A, 0x15, 0xF6,
  0xF6, 0x0E, 0xF8, 0xF4, 0x17, 0x0D, 0xFF, 0x12, 0xFA, 0x08,
  0xFC, 0x1F, 0x02, 0x1D, 0x07, 0xD9, 0x16, 0xFD, 0xE8, 0x0C,
  0xFB, 0xFF, 0x09, 0xF3, 0x00, 0xF8, 0xEB, 0x01, 0x07, 0xDE,
  0x07, 0xE7, 0xFA, 0x19, 0x08, 0xEE, 0xEA, 0x1A, 0xFB, 0xFA,
  0xEC, 0x21, 0x12, 0x2C, 0xF6, 0x00, 0xF3, 0xE0, 0xF2, 0x07,
  0x02, 0x09, 0xE9, 0xF9, 0xFB, 0x04, 0x02, 0xF9, 0x01, 0xFC,
  0x5F, 0xE7, 0xB3, 0x16, 0xFE, 0x22, 0xE3, 0xD6, 0x60, 0xD5,
  0xED, 0xE3, 0xFC, 0x0A, 0x14, 0x1A, 0x0A, 0x08, 0x12, 0xE9,
  0xF9, 0xD5, 0xEC, 0x02, 0x1C, 0xE9, 0xE0, 0xFC, 0xFC, 0xFE,
  0x02, 0x15, 0x9C, 0x81, 0xDC, 0xE6, 0xC1, 0x04, 0xFD, 0xD9,
  0x2E, 0xCB, 0x16, 0xC6, 0x10, 0x12, 0x41, 0x0D, 0xF7, 0x21,
  0x1A, 0xFD, 0x3E, 0xED, 0x1B, 0x17, 0xF2, 0xDB, 0x00, 0x09,
  0xFD, 0x04, 0xEC, 0x1F, 0xB6, 0xEC, 0xF3, 0xDD, 0xED, 0x20,
  0x1D, 0x34, 0x44, 0x13, 0x19, 0xD1, 0x21, 0x0B, 0x12, 0x3D,
  0xD9, 0x11, 0x15, 0x00, 0xFE, 0x13, 0x15, 0x32, 0x03, 0xE5,
  0x08, 0xF8, 0x01, 0x28, 0xFC, 0x23, 0xD8, 0x03, 0xC3, 0x11,
  0xDE, 0x38, 0x1B, 0x5F, 0xC2, 0x42, 0xE2, 0x0E, 0xEB, 0x13,
  0x08, 0x19, 0xEC, 0x26, 0xF1, 0xF6, 0xEE, 0xED, 0xDD, 0x06,
  0x1D, 0xFF, 0xFF, 0xF8, 0xF7, 0x07, 0x08, 0x03, 0xC7, 0x7F,
  0xF3, 0xFA, 0xFA, 0x21, 0x06, 0xE6, 0x03, 0x27, 0xB5, 0xE6,
  0x08, 0xF2, 0xF6, 0x14, 0xEE, 0xE3, 0xBD, 0x03, 0x06, 0x07,
  0xFF, 0x01, 0xDE, 0x03, 0xE9, 0x36, 0x05, 0x28, 0xF8, 0x04,
  0xFF, 0x2E, 0xEC, 0x2C, 0x00, 0x12, 0x19, 0xC5, 0x1B, 0xDA,
  0xBD, 0x01, 0x00, 0xE0, 0xFE, 0x15, 0xEE, 0xD6, 0xE6, 0xD6,
  0xFF, 0xCE, 0x00, 0xF6, 0x00, 0xF7, 0xEA, 0x24, 0xFD, 0x1F,
  0x16, 0x0E, 0x0B, 0x1A, 0x03, 0x22, 0x01, 0x0F, 0x06, 0xE7,
  0x36, 0xE9, 0xF5, 0x02, 0xF0, 0xE1, 0x29, 0x2C, 0xF0, 0x24,
  0xFB, 0x03, 0x06, 0xD1, 0x06, 0x11, 0xFC, 0x06, 0xEB, 0x04,
  0xEF, 0x15, 0xF3, 0x0F, 0xD3, 0x18, 0xDA, 0x14, 0xEF, 0x12,
  0xED, 0x05, 0x1C, 0xFF, 0xF0, 0xEF, 0xE6, 0xF1, 0x03, 0x1A,
  0x0F, 0xEC, 0x02, 0x0B, 0xF4, 0x18, 0x15, 0x1F, 0xF4, 0xEF,
  0xF9, 0x25, 0xF1, 0x1A, 0xF1, 0x02, 0xBE, 0x2F, 0x03, 0xFC,
  0x76, 0xCC, 0x10, 0x8F, 0xB4, 0x06, 0x18, 0xCC, 0x3D, 0xFD,
  0x1E, 0xB1, 0x97, 0x4F, 0x0F, 0xEC, 0x3E, 0xF5, 0xE1, 0xB4,
  0xAD, 0x18, 0x2F, 0xC9, 0x56, 0x14, 0xB6, 0xDF, 0xDA, 0x1F,
  0xFD, 0xFD, 0x51, 0xA9, 0x02, 0x13, 0xDA, 0x0B, 0x0C, 0x0B,
  0x32, 0x9F, 0xDF, 0x38, 0x81, 0x27, 0xEB, 0xD2, 0x03, 0xDF,
  0xE5, 0x1C, 0x8D, 0x38, 0x03, 0xC6, 0x37, 0x27, 0xF7, 0xFD,
  0xFF, 0x47, 0xE0, 0xDD, 0x00, 0xE1, 0x12, 0x02, 0xB6, 0x49,
  0xCA, 0xE8, 0x0F, 0xD5, 0x28, 0xFB, 0xB2, 0x2B, 0xF5, 0xF0,
  0xFD, 0xEA, 0x0B, 0xD5, 0xBA, 0x11, 0xC8, 0xE5, 0x15, 0x05,
  0x00, 0x25, 0xEA, 0x55, 0xF1, 0xF6, 0x21, 0x15, 0x18, 0x08,
  0xFE, 0x40, 0xF2, 0xD7, 0x1E, 0x00, 0x1D, 0xFE, 0x05, 0x2D,
  0xDB, 0xDB, 0x4B, 0xFD, 0x15, 0x0A, 0xD8, 0xF4, 0xD5, 0x22,
  0x2F, 0x19, 0xE6, 0xFA, 0xE0, 0x10, 0x10, 0x37, 0xFE, 0x1C,
  0x1F, 0xB3, 0x15, 0x22, 0x1B, 0x1B, 0xFD, 0x06, 0x07, 0xDF,
  0x29, 0xD8, 0xF7, 0x21, 0x04, 0x0E, 0x0C, 0xD8, 0x7F, 0xFA,
  0x13, 0x01, 0x10, 0x07, 0x01, 0x36, 0xDA, 0xEF, 0xF8, 0x12,
  0xE7, 0x0B, 0x24, 0xE8, 0xF3, 0xF8, 0xEB, 0x0A, 0x11, 0x1C,
  0x0E, 0xDE, 0xE2, 0xED, 0x02, 0x18, 0xFF, 0x2A, 0x1C, 0x07,
  0x26, 0xF5, 0xE4, 0x0D, 0xFF, 0x09, 0xEC, 0x19, 0xD9, 0x03,
  0x09, 0x12, 0xDA, 0xEF, 0x17, 0xB8, 0x05, 0xFC, 0x05, 0x07,
  0xE8, 0xFF, 0x0A, 0xE6, 0xFA, 0x0E, 0xDE, 0x1A, 0xE8, 0x25,
  0xFC, 0x00, 0xF7, 0xF4, 0xF1, 0xE4, 0xE3, 0xF3, 0xEF, 0x21,
  0x03, 0x0F, 0xF5, 0x21, 0xF1, 0x1E, 0xF1, 0xAC, 0xEF, 0x22,
  0x17, 0x19, 0xC6, 0x0A, 0xE5, 0xF8, 0xEB, 0x17, 0xF4, 0x36,
  0xE3, 0x22, 0x01, 0xDE, 0xEE, 0xFC, 0x18, 0xFF, 0xFA, 0xFB,
  0xF4, 0xCC, 0x07, 0xA2, 0x0E, 0x21, 0xD8, 0x64, 0xFB, 0xEF,
  0xE1, 0xB6, 0x33, 0xD4, 0x1C, 0x13, 0x3D, 0x34, 0xDA, 0xB4,
  0x11, 0x45, 0xF8, 0x16, 0xEE, 0x17, 0xFA, 0xB5, 0xB2, 0x6A,
  0x1A, 0x60, 0xEC, 0x18, 0xA5, 0xF5, 0x33, 0x5E, 0xF4, 0x44,
  0xEA, 0xFE, 0xD7, 0xE5, 0x15, 0x0D, 0x10, 0xB6, 0x11, 0x1A,
  0x81, 0xE6, 0x10, 0x00, 0xB6, 0x0E, 0xB0, 0xED, 0x04, 0xEA,
  0x01, 0x49, 0x1D, 0x34, 0x29, 0x3B, 0xC6, 0xF0, 0x39, 0x47,
  0xD1, 0x0D, 0x39, 0x18, 0xB0, 0xC2, 0x16, 0x19, 0x07, 0xDF,
  0x30, 0x30, 0xE3, 0x90, 0x19, 0xF8, 0x16, 0xEA, 0x08, 0xF8,
  0x0D, 0x21, 0xF9, 0x35, 0x15, 0x36, 0xC3, 0x30, 0x9C, 0xF9,
  0x0B, 0x61, 0xD3, 0x78, 0xF4, 0x6A, 0xCD, 0x0E, 0xCE, 0x1C,
  0xF0, 0x17, 0x4D, 0x0C, 0x89, 0x03, 0xE5, 0x08, 0xB7, 0xFA,
  0xEA, 0xE4, 0xFA, 0xC7, 0xE1, 0x19, 0xE1, 0x1C, 0xAA, 0x50,
  0xF0, 0x7F, 0x30, 0xD6, 0x1C, 0x30, 0xEF, 0xBC, 0x1F, 0xF4,
  0x33, 0xDF, 0xF1, 0xF1, 0x06, 0xEB, 0x28, 0x2E, 0x1D, 0x39,
  0x14, 0x14, 0xFA, 0x22, 0x26, 0xEA, 0xFB, 0x5D, 0xD7, 0x62,
  0x2C, 0x1F, 0x90, 0x65, 0x24, 0xE0, 0x05, 0xCE, 0xD6, 0xDD,
  0xD2, 0xED, 0x14, 0xCE, 0xF1, 0xBC, 0x2D, 0xE8, 0x32, 0x12,
  0x04, 0xED, 0x12, 0xD7, 0x1A, 0x17, 0x0B, 0xDA, 0xF8, 0x38,
  0xDC, 0x15, 0x1D, 0x10, 0xD2, 0x18, 0x20, 0xE0, 0x20, 0x06,
  0xE8, 0x10, 0xF6, 0xB2, 0x16, 0xF9, 0x03, 0xDC, 0xF9, 0xE8,
  0x39, 0x0B, 0xEC, 0xEB, 0x12, 0xFA, 0x1E, 0x1B, 0x12, 0xE6,
  0xE4, 0x35, 0xE8, 0x2B, 0x09, 0xEE, 0xFD, 0xF2, 0x19, 0x19,
  0x10, 0x32, 0x04, 0x1A, 0xDB, 0xE6, 0x0B, 0xFC, 0xD7, 0x0A,
  0xEA, 0xEA, 0x05, 0x12, 0xF7, 0x14, 0x00, 0x12, 0x11, 0xF3,
  0x02, 0xBD, 0xF9, 0x23, 0xD8, 0x16, 0x10, 0xE9, 0x7F, 0xF2,
  0x03, 0x77, 0xB8, 0x05, 0xFC, 0x1B, 0x5F, 0xC5, 0xE6, 0x27,
  0xE4, 0x14, 0xF6, 0xF6, 0x68, 0xDA, 0x01, 0x2A, 0x0D, 0xEB,
  0x44, 0x2A, 0x3F, 0x04, 0xD1, 0x02, 0xE4, 0xFD, 0x17, 0x18,
  0x34, 0x04, 0xF3, 0x37, 0xDA, 0x2A, 0x1F, 0xE2, 0xF9, 0xF3,
  0x09, 0x21, 0xC7, 0x0A, 0x1B, 0xD0, 0x4A, 0x08, 0x07, 0x11,
  0xF4, 0xF0, 0x3D, 0x1C, 0x19, 0x23, 0xEF, 0x13, 0x01, 0x11,
  0x33, 0x2B, 0x1E, 0xF1, 0x03, 0x4C, 0xEC, 0x2D, 0xF6, 0x0C,
  0xF2, 0xFA, 0xD9, 0xFE, 0xEE, 0x27, 0x14, 0xE4, 0x31, 0xE7,
  0xF1, 0xE8, 0x00, 0xF7, 0x05, 0x16, 0x1F, 0xDB, 0x00, 0xF7,
  0xF8, 0x0E, 0x25, 0x15, 0x06, 0x1A, 0xE4, 0x38, 0xD9, 0x15,
  0xFB, 0x0F, 0xF9, 0x0F, 0xE1, 0x29, 0xC6, 0x09, 0xF9, 0x1A,
  0x21, 0xEB, 0xFB, 0x2C, 0xE0, 0x26, 0xFF, 0x2A, 0x21, 0xE4,
  0xD0, 0x1C, 0xF5, 0x16, 0x31, 0x18, 0x81, 0xE7, 0xD9, 0xAF,
  0x49, 0xF4, 0x27, 0x13, 0x8E, 0x11, 0x0E, 0x0F, 0x13, 0x0A,
  0xEC, 0x03, 0xE9, 0x1B, 0xDA, 0xF5, 0x11, 0x15, 0x04, 0xA5,
  0x0A, 0x0A, 0xFC, 0xEA, 0x0A, 0xEE, 0x0C, 0x0D, 0xE8, 0x22,
  0xD0, 0xCA, 0x2C, 0xF0, 0x04, 0x31, 0xC1, 0x14, 0xFA, 0xF4,
  0x06, 0x21, 0xD7, 0xF4, 0xDF, 0x22, 0xE6, 0xD7, 0x0E, 0x23,
  0xFC, 0xCA, 0x07, 0xFB, 0xEB, 0xEF, 0x0C, 0xF1, 0xFE, 0x10,
  0xC4, 0x45, 0xE7, 0xF8, 0x06, 0x03, 0x00, 0x02, 0xA6, 0x1A,
  0x04, 0xD3, 0xFD, 0x05, 0xFE, 0xF4, 0xE2, 0xFA, 0xDD, 0xF6,
  0x07, 0x12, 0x03, 0xEC, 0xDE, 0xEF, 0x04, 0xDD, 0x1C, 0xEE,
  0xF6, 0x19, 0xE7, 0x2C, 0xEA, 0xE3, 0x13, 0xE1, 0x07, 0xF9,
  0xC3, 0x2E, 0x12, 0xDF, 0x20, 0xE5, 0x09, 0xE9, 0xDB, 0xFF,
  0xEF, 0xF2, 0x10, 0x31, 0xE5, 0xFA, 0xFF, 0x12, 0x05, 0xFC,
  0xF1, 0x1C, 0xE4, 0x28, 0x71, 0x81, 0xCD, 0x2C, 0xDA, 0xFE,
  0xF2, 0x1E, 0x4A, 0x0C, 0xE5, 0xF4, 0xD6, 0x23, 0xF9, 0x06,
  0x2D, 0xB7, 0xE7, 0xD3, 0xFC, 0xD3, 0xF4, 0xDC, 0x3F, 0xF4,
  0x0B, 0x26, 0x05, 0x1D, 0x10, 0xFC, 0x00, 0xBF, 0xBA, 0xF8,
  0xF9, 0xE6, 0x11, 0x32, 0x23, 0x1F, 0xCA, 0xEA, 0x0E, 0x21,
  0x25, 0x18, 0x09, 0xEF, 0x18, 0x08, 0x01, 0x04, 0x03, 0xFC,
  0x28, 0x05, 0xF7, 0xEE, 0xFA, 0xF7, 0x23, 0x33, 0xCB, 0x2A,
  0xF0, 0x10, 0xE6, 0xD7, 0x01, 0xF8, 0x0F, 0x24, 0xEF, 0x21,
  0xFA, 0x12, 0x0E, 0x24, 0x0E, 0x00, 0x1A, 0xFA, 0x1F, 0xF7,
  0x1A, 0x0A, 0x1F, 0xF7, 0x15, 0x0C, 0x1F, 0xED, 0x29, 0x14,
  0xF6, 0xFA, 0xE9, 0x06, 0x0B, 0xCF, 0x0B, 0x0A, 0x0E, 0x2D,
  0x11, 0x1D, 0x0D, 0x13, 0x03, 0x2E, 0x04, 0xF6, 0x0E, 0xFB,
  0x26, 0x1D, 0xFE, 0xFC, 0xEA, 0xE4, 0xDC, 0xFE, 0x25, 0x12,
  0xF1, 0xDD, 0xD8, 0x12, 0x12, 0x81, 0x4E, 0xB1, 0x2C, 0x4E,
  0xA0, 0xE8, 0xF4, 0xCE, 0x18, 0x9B, 0xFC, 0xC9, 0xC8, 0xE6,
  0x12, 0xEF, 0x12, 0x0B, 0xBB, 0xAA, 0xD9, 0x0C, 0x1B, 0xC3,
  0x1B, 0x90, 0xDB, 0xE0, 0x48, 0x5D, 0xFA, 0xC8, 0x2D, 0xF1,
  0xE1, 0x31, 0xE6, 0x1A, 0xF4, 0x1F, 0xDB, 0xC8, 0xB7, 0x10,
  0xEB, 0x1A, 0x24, 0x02, 0x06, 0x14, 0xD8, 0x06, 0x02, 0x2C,
  0x25, 0xE5, 0x05, 0x05, 0xE8, 0x05, 0xFC, 0x3E, 0x33, 0x12,
  0x10, 0x0E, 0x1A, 0xDD, 0x19, 0x33, 0x24, 0x0F, 0xD5, 0x0E,
  0xC4, 0xF5, 0x04, 0xED, 0x12, 0xFF, 0xFF, 0x0A, 0x13, 0x13,
  0xD9, 0xFE, 0x0F, 0xE0, 0x12, 0x16, 0xD6, 0x08, 0x03, 0x06,
  0x0F, 0xF5, 0x1A, 0x50, 0x19, 0xCD, 0xF6, 0xE2, 0x33, 0x1C,
  0xF0, 0xF4, 0xF3, 0x97, 0xA4, 0xF5, 0xFE, 0xDA, 0xE4, 0x3D,
  0x14, 0x92, 0xDA, 0x0A, 0xEB, 0x1C, 0xD1, 0x1A, 0x01, 0x09,
  0xEA, 0xD8, 0xFF, 0xFF, 0x04, 0x00, 0x00, 0x00, 0x00, 0x08,
  0x00, 0x00, 0x1F, 0xF8, 0xBC, 0xC8, 0x12, 0xDD, 0xE7, 0x0D,
  0x31, 0xEB, 0xD4, 0xE7, 0x03, 0xC1, 0xF6, 0x00, 0x4F, 0x95,
  0xE4, 0xDE, 0xAD, 0xEE, 0x09, 0xF7, 0x7F, 0x11, 0x1D, 0x26,
  0x3A, 0x15, 0xF6, 0x1D, 0x18, 0x0B, 0xB3, 0xEA, 0xDF, 0xD2,
  0xF7, 0xDD, 0xE8, 0xFF, 0xC5, 0xC5, 0x05, 0x01, 0x1B, 0x00,
  0xD1, 0xB8, 0xEF, 0xD5, 0xDA, 0xF5, 0x24, 0x01, 0xFA, 0xDA,
  0x1E, 0x22, 0x1E, 0x02, 0x11, 0x2F, 0x00, 0xE6, 0x0E, 0xC2,
  0xDE, 0xBF, 0x1C, 0xEE, 0xF7, 0x06, 0x27, 0xEE, 0xF6, 0xDE,
  0x0B, 0xF8, 0xCB, 0xD7, 0x0F, 0x05, 0x0B, 0xEC, 0x06, 0x10,
  0xC8, 0xDC, 0x30, 0x1E, 0xF3, 0x0F, 0xFE, 0x20, 0x11, 0xEB,
  0xFC, 0xE1, 0x0B, 0x10, 0x01, 0xFF, 0x28, 0x13, 0x15, 0xE8,
  0x0C, 0xE2, 0x14, 0x1B, 0xD0, 0xCF, 0x15, 0x15, 0xED, 0xCC,
  0x05, 0x16, 0x96, 0xF9, 0x1C, 0x14, 0x27, 0x20, 0xF9, 0x1C,
  0x7A, 0x96, 0x30, 0x60, 0x0B, 0x03, 0xF1, 0x1C, 0x19, 0xC2,
  0x15, 0xE7, 0xF1, 0x0B, 0xF6, 0xCB, 0xA1, 0xE5, 0x6D, 0xE4,
  0xF9, 0xDD, 0xF7, 0xD1, 0xF8, 0x2A, 0x7F, 0xF1, 0xDF, 0xEB,
  0x21, 0xF5, 0x28, 0xAD, 0x23, 0x2D, 0xB8, 0x16, 0x1C, 0x01,
  0x07, 0xD0, 0xAE, 0xE8, 0xDD, 0x27, 0xEC, 0xC2, 0xD1, 0x00,
  0x03, 0xCF, 0xE6, 0x07, 0xEF, 0xEA, 0x05, 0x19, 0x38, 0x20,
  0xFD, 0xDF, 0x13, 0x25, 0x19, 0xB3, 0x1E, 0x11, 0xC1, 0x11,
  0x16, 0xDD, 0x2E, 0xFF, 0xE6, 0xEA, 0xF9, 0x39, 0x12, 0xDE,
  0x1F, 0x08, 0xEF, 0xEA, 0xEB, 0x0D, 0xF1, 0x00, 0x06, 0x02,
  0x2A, 0x06, 0xD9, 0x0E, 0xF0, 0x16, 0x07, 0xCB, 0x08, 0xF7,
  0x02, 0x09, 0x14, 0xE8, 0x0F, 0xE5, 0x1D, 0x06, 0xF4, 0x02,
  0xFC, 0xCC, 0x10, 0x23, 0x19, 0xDC, 0x01, 0xE3, 0x18, 0xEC,
  0x0D, 0x08, 0xEE, 0xF4, 0xFA, 0xCE, 0x27, 0xED, 0xF3, 0xF1,
  0xE6, 0x05, 0x12, 0x06, 0xFB, 0xEF, 0x26, 0x0E, 0xF6, 0x9F,
  0x1A, 0x14, 0xEF, 0xED, 0x7F, 0xD9, 0x02, 0x22, 0xE3, 0x03,
  0x13, 0x38, 0x65, 0xEC, 0xCF, 0x24, 0xF2, 0x0B, 0x02, 0x12,
  0x12, 0x0A, 0xF8, 0xC7, 0x0B, 0x0C, 0x08, 0xEA, 0xEE, 0x01,
  0x6D, 0xD8, 0x30, 0x01, 0x21, 0xFD, 0x20, 0xEC, 0x48, 0x28,
  0xFF, 0x0B, 0x1D, 0x1D, 0x26, 0xE3, 0x19, 0xFB, 0xE3, 0x18,
  0x0C, 0x06, 0x1D, 0xE5, 0xF4, 0x0C, 0x06, 0xEF, 0xF4, 0x25,
  0xE2, 0xE4, 0x10, 0xED, 0x02, 0x10, 0xFF, 0xDF, 0xE0, 0xF0,
  0x05, 0x11, 0x10, 0x02, 0xDF, 0xE4, 0xC8, 0xEA, 0x02, 0xE0,
  0x10, 0x23, 0x0D, 0xE8, 0x24, 0xF9, 0x2E, 0x08, 0xFE, 0xDD,
  0x07, 0x15, 0x08, 0xD5, 0xE6, 0xE4, 0xEC, 0x00, 0xE3, 0xFE,
  0x0A, 0xD7, 0xB0, 0xF5, 0x1D, 0xE4, 0xD3, 0x08, 0x1F, 0x03,
  0xF8, 0xF3, 0x1D, 0xF8, 0xE8, 0xFF, 0x51, 0xF0, 0x81, 0xED,
  0xF5, 0x35, 0xBE, 0xB4, 0x10, 0x04, 0xD6, 0xFE, 0xF8, 0x2F,
  0xB5, 0x93, 0xB9, 0x1A, 0xE6, 0xF9, 0xEB, 0x3D, 0xE1, 0xC6,
  0xDA, 0x14, 0x17, 0xB2, 0xF3, 0xFB, 0xF8, 0x01, 0xFD, 0x06,
  0xC3, 0xFC, 0x0C, 0x2C, 0xED, 0xF5, 0x18, 0x3C, 0xAB, 0xC0,
  0x08, 0x47, 0xD6, 0xBD, 0x50, 0x06, 0xF4, 0xDF, 0x1C, 0x42,
  0xEF, 0xBD, 0x42, 0x14, 0xE6, 0xCC, 0xF0, 0xF1, 0xDC, 0xE8,
  0x27, 0x3C, 0xC2, 0x02, 0x22, 0x22, 0xEB, 0xF0, 0x32, 0x46,
  0xDC, 0x0E, 0x30, 0x29, 0x11, 0x0B, 0x0E, 0x01, 0x3B, 0xEF,
  0xF4, 0x0E, 0x39, 0xFE, 0x0C, 0x07, 0x05, 0xEE, 0x02, 0xEF,
  0x05, 0x29, 0x51, 0x25, 0x9D, 0xF6, 0x19, 0x1B, 0x10, 0x1A,
  0x2F, 0x26, 0xC2, 0xFC, 0xE6, 0xFF, 0xFF, 0xEA, 0x03, 0x4D,
  0x32, 0x05, 0xE7, 0xE5, 0x15, 0xF2, 0x18, 0x45, 0x38, 0xD3,
  0x0B, 0xDE, 0x06, 0xD8, 0x90, 0x68, 0x06, 0xFB, 0x27, 0x46,
  0xA7, 0xB8, 0xD7, 0x71, 0x25, 0xFF, 0x4E, 0x20, 0xC6, 0xDA,
  0x2F, 0x35, 0x0D, 0x2F, 0x54, 0x23, 0x17, 0x06, 0x32, 0x47,
  0xE9, 0x52, 0x7F, 0x1B, 0x21, 0x03, 0xAB, 0x23, 0x9D, 0xCA,
  0x2F, 0xDA, 0xD6, 0xE3, 0xC7, 0xFB, 0xE9, 0xFF, 0x1D, 0x12,
  0x1E, 0x28, 0xB7, 0xD7, 0xE3, 0x44, 0x00, 0xF4, 0x26, 0xFF,
  0xE3, 0x22, 0x95, 0x21, 0x45, 0xEE, 0x0A, 0x0D, 0x00, 0x42,
  0xD4, 0xCE, 0xF4, 0xCC, 0x0C, 0x03, 0xDE, 0x10, 0xD4, 0x13,
  0x25, 0x30, 0xFB, 0x1D, 0xFA, 0x24, 0xCA, 0x0C, 0x23, 0xEE,
  0x1A, 0xCB, 0x01, 0x20, 0x99, 0x0A, 0x28, 0x1C, 0x14, 0x1E,
  0xEF, 0x3C, 0x45, 0x21, 0xE2, 0xEB, 0xF0, 0x0E, 0xFE, 0x29,
  0x00, 0x31, 0x27, 0x36, 0xEE, 0x02, 0x11, 0x2E, 0xC3, 0xF9,
  0x2E, 0x1F, 0x0C, 0xFA, 0x2C, 0xF7, 0xB9, 0x23, 0x58, 0x21,
  0x2C, 0x20, 0x03, 0x2E, 0x01, 0x01, 0xFA, 0x10, 0xF7, 0x07,
  0x95, 0x02, 0xFA, 0xFB, 0x19, 0x1C, 0xF3, 0x05, 0xFE, 0xF6,
  0x10, 0x1E, 0xFD, 0x0B, 0x0D, 0x22, 0x10, 0xDB, 0xF9, 0xF9,
  0xDE, 0xF5, 0xF8, 0xFD, 0xD0, 0xF4, 0xC2, 0xED, 0xF0, 0xF0,
  0xF6, 0xF1, 0x81, 0x06, 0x07, 0xDE, 0x30, 0x25, 0xE6, 0xF4,
  0xEA, 0x01, 0x49, 0xE6, 0x1B, 0x13, 0x14, 0x3D, 0x00, 0xCD,
  0x10, 0xFC, 0xF0, 0xF1, 0x28, 0x22, 0xE0, 0xDD, 0xA1, 0xFA,
  0xD2, 0xF9, 0xFB, 0xFC, 0xB6, 0x29, 0xBF, 0xF4, 0x2C, 0x1D,
  0xE3, 0xAB, 0xD6, 0x22, 0x38, 0xF7, 0x25, 0x14, 0x16, 0xF1,
  0x06, 0xDC, 0x30, 0x19, 0xD8, 0xE0, 0xFF, 0x0B, 0x10, 0x2A,
  0x06, 0xD0, 0xD5, 0xE4, 0xF6, 0xEA, 0x5A, 0x09, 0xBD, 0xE3,
  0xFA, 0x23, 0xE2, 0xEB, 0x33, 0x1A, 0x10, 0xE5, 0xF5, 0xF3,
  0xF9, 0x0C, 0x1D, 0xF5, 0x31, 0x23, 0xFE, 0xEB, 0x06, 0xD9,
  0xB8, 0x14, 0x81, 0x0F, 0x19, 0xF6, 0x02, 0xF8, 0x02, 0x19,
  0xA6, 0x28, 0x27, 0x14, 0x0A, 0xFB, 0xE9, 0x2B, 0xC7, 0xF4,
  0x02, 0xCC, 0x0C, 0x0B, 0x11, 0x27, 0xC6, 0x1D, 0x2C, 0x10,
  0x08, 0xF0, 0xC2, 0x36, 0xEF, 0xEB, 0x4E, 0x26, 0x00, 0x08,
  0x13, 0x4E, 0x23, 0x27, 0x50, 0xEC, 0x12, 0x1D, 0x18, 0xF2,
  0x1E, 0x1B, 0xF9, 0xC4, 0x19, 0x02, 0x10, 0x1A, 0xDF, 0xFC,
  0xEF, 0xEF, 0x1F, 0x08, 0x00, 0x3B, 0xE1, 0xF9, 0x54, 0xF6,
  0x02, 0xF2, 0xDA, 0x45, 0xF2, 0x0E, 0x25, 0x17, 0x00, 0xF9,
  0xE6, 0x26, 0xED, 0x1E, 0x2A, 0x0F, 0x08, 0xEE, 0xF0, 0x1F,
  0xF1, 0xDB, 0xF4, 0x0E, 0x09, 0x09, 0xFC, 0xFD, 0xE9, 0xFD,
  0xEF, 0xE8, 0x1C, 0xDC, 0xE8, 0x0E, 0xE7, 0x05, 0x11, 0xED,
  0x03, 0xF1, 0x18, 0x1D, 0xD5, 0xE1, 0x1D, 0x0A, 0xF5, 0x25,
  0xF8, 0x0C, 0x11, 0x0A, 0x36, 0x25, 0x0D, 0xFC, 0x23, 0xBF,
  0xF8, 0xF6, 0x0E, 0xF7, 0x01, 0x08, 0x1B, 0x8A, 0xF8, 0xFA,
  0xF1, 0x08, 0xFD, 0xFC, 0xFE, 0xB8, 0xF4, 0xF6, 0xD5, 0x04,
  0x06, 0xEA, 0xFC, 0xEF, 0x1B, 0xFC, 0x0A, 0x04, 0x06, 0xFB,
  0x01, 0xDE, 0x02, 0xED, 0xE2, 0x05, 0x05, 0xFA, 0x0F, 0x81,
  0x09, 0x00, 0xCF, 0xF0, 0x01, 0x03, 0xEC, 0x8B, 0xDD, 0xEF,
  0xE0, 0x13, 0xFA, 0xE1, 0xF8, 0xF8, 0x02, 0x06, 0x07, 0x0C,
  0xFD, 0xF5, 0xE0, 0xBD, 0x17, 0x01, 0xE0, 0x17, 0x0E, 0xFE,
  0xF1, 0x8E, 0xED, 0xF2, 0xF4, 0x0D, 0xF8, 0xF6, 0xD5, 0x91,
  0xF9, 0xEB, 0xF4, 0x0C, 0x07, 0xDB, 0xFD, 0xF4, 0xEE, 0xFC,
  0x18, 0xFF, 0xFF, 0xED, 0x14, 0xC7, 0xFC, 0xF2, 0xEC, 0x04,
  0x0F, 0xFB, 0x0D, 0xDE, 0xEA, 0xEB, 0xF8, 0x1B, 0x05, 0xF7,
  0x08, 0xE4, 0x02, 0xE6, 0xF6, 0x05, 0x17, 0xEF, 0x1D, 0x06,
  0x0F, 0xFE, 0xF1, 0x0C, 0x0F, 0xEE, 0xC2, 0x10, 0xE1, 0x25,
  0x5A, 0x05, 0xF2, 0xE9, 0xD2, 0x24, 0x3F, 0x3C, 0xBA, 0xDC,
  0x20, 0x10, 0xCF, 0x34, 0x39, 0x15, 0xBD, 0xFF, 0xF1, 0xDE,
  0xF2, 0x50, 0xFF, 0x1D, 0x1C, 0xFC, 0x0F, 0xB4, 0xDA, 0x01,
  0xEF, 0x17, 0x07, 0x1F, 0x0C, 0xFA, 0xF1, 0x1E, 0xD3, 0x2B,
  0xD5, 0x18, 0x1C, 0x12, 0xDF, 0x05, 0xCB, 0x45, 0xB2, 0xFA,
  0xF7, 0xD2, 0xFB, 0x3D, 0xCA, 0x1C, 0xDA, 0x49, 0xE5, 0xBE,
  0xF3, 0xF8, 0xA3, 0x4F, 0xFA, 0x37, 0x07, 0x10, 0x7F, 0x2D,
  0x87, 0x0C, 0x00, 0x1E, 0x22, 0x04, 0x43, 0x4F, 0x90, 0x25,
  0xE1, 0x4A, 0xFB, 0xFB, 0x31, 0x36, 0xD2, 0x17, 0xAC, 0x38,
  0x02, 0xE0, 0xF6, 0xFC, 0xD6, 0x27, 0xDE, 0x34, 0x1F, 0xEE,
  0x3A, 0x51, 0xCB, 0x04, 0xFF, 0xCF, 0x11, 0x09, 0x3F, 0x4A,
  0x08, 0x2C, 0xD4, 0x1B, 0x2D, 0xF0, 0xF8, 0x06, 0xDF, 0xFB,
  0xCB, 0xF2, 0x09, 0x05, 0x7F, 0x32, 0x6E, 0x26, 0x1C, 0xE9,
  0x1A, 0xEA, 0x54, 0xCD, 0x29, 0x24, 0xA6, 0x01, 0xF4, 0x06,
  0xFD, 0xC0, 0x37, 0xDE, 0xD3, 0x0B, 0x06, 0x04, 0x8D, 0xE4,
  0x53, 0xE7, 0x19, 0x01, 0xF5, 0x0C, 0x42, 0x23, 0x72, 0x4B,
  0x0E, 0x15, 0x16, 0xFD, 0x6B, 0xAB, 0xCF, 0x50, 0xCD, 0x1F,
  0xCE, 0x0D, 0x26, 0xF8, 0x92, 0xD2, 0x15, 0x49, 0xDE, 0x1E,
  0x06, 0x17, 0x08, 0xB9, 0x41, 0x09, 0xEE, 0x33, 0x26, 0xD4,
  0x4D, 0x43, 0x07, 0xFD, 0xF3, 0xF1, 0x5F, 0xCD, 0xE6, 0x2A,
  0xE6, 0x32, 0xE2, 0xFD, 0x61, 0xF8, 0xF8, 0xF2, 0x04, 0x33,
  0x1D, 0x1E, 0x19, 0x0E, 0x1B, 0x00, 0x1F, 0x21, 0x28, 0x35,
  0xBA, 0xD0, 0xB7, 0x35, 0x06, 0xE2, 0xEF, 0xE7, 0x10, 0x34,
  0xE5, 0xE3, 0x39, 0x10, 0xFC, 0x1C, 0x18, 0x10, 0x0D, 0x0B,
  0xEC, 0x2B, 0xF9, 0xFA, 0x01, 0x36, 0x23, 0x46, 0x2B, 0xF2,
  0x1E, 0xF9, 0x13, 0x22, 0x01, 0x17, 0x1E, 0x1C, 0x00, 0x06,
  0xEF, 0x22, 0x11, 0x0A, 0x1F, 0x07, 0xFA, 0x15, 0xF6, 0x07,
  0x0A, 0x0E, 0x05, 0x05, 0xFF, 0xFD, 0x2D, 0x1B, 0xD8, 0x06,
  0x08, 0x1E, 0x01, 0xED, 0xE2, 0x08, 0xFE, 0xF0, 0x1B, 0x09,
  0xE8, 0xEF, 0xFD, 0xFD, 0xFD, 0x07, 0x1A, 0x07, 0x0F, 0x0E,
  0xE9, 0x01, 0x21, 0x04, 0x0A, 0xF7, 0xF8, 0xF3, 0x00, 0x17,
  0x28, 0xF9, 0xE2, 0xFE, 0xF6, 0xF7, 0xE2, 0xF0, 0xF7, 0xDA,
  0x0B, 0xFD, 0xEE, 0xF0, 0xF7, 0xF7, 0xEC, 0x0F, 0x21, 0xFC,
  0x01, 0x04, 0xE9, 0xF5, 0x02, 0x05, 0x14, 0xE8, 0x04, 0xEE,
  0xFA, 0x8E, 0xE0, 0xC9, 0x81, 0xC8, 0xDE, 0xD3, 0x08, 0x16,
  0xEE, 0xD6, 0x0B, 0xF3, 0x07, 0xFE, 0x1A, 0xF8, 0xEC, 0x11,
  0x21, 0x03, 0x08, 0x06, 0x11, 0x00, 0x09, 0x05, 0x27, 0xFE,
  0xFD, 0x09, 0x17, 0xDA, 0xDC, 0xEA, 0xB5, 0xC7, 0xCF, 0xD6,
  0x9D, 0x11, 0x81, 0xCA, 0x77, 0x47, 0xFD, 0xF7, 0xF5, 0x1B,
  0xE9, 0x08, 0x67, 0x23, 0x20, 0x18, 0x2F, 0x13, 0xEC, 0x07,
  0x30, 0x21, 0x12, 0x2E, 0x1A, 0x28, 0xC9, 0xF8, 0xCF, 0x3C,
  0xE1, 0x1A, 0xC8, 0x32, 0xF4, 0x85, 0x6F, 0xFF, 0x30, 0x09,
  0xD6, 0x14, 0x4C, 0x36, 0x17, 0xE0, 0x24, 0x20, 0x37, 0xDA,
  0xE8, 0x1E, 0xF5, 0x06, 0x2A, 0xFC, 0x34, 0xF2, 0xD6, 0xE8,
  0xEA, 0xFC, 0xCA, 0x12, 0xC1, 0x2C, 0x20, 0xE8, 0x55, 0xE6,
  0x01, 0xF9, 0xC0, 0x22, 0x46, 0x49, 0x20, 0x23, 0x29, 0xFB,
  0x0C, 0xC8, 0x21, 0x32, 0xFA, 0xFA, 0xE9, 0x07, 0xFD, 0xFA,
  0xBB, 0xCE, 0x08, 0xEA, 0xB8, 0xCF, 0xDD, 0x17, 0xD9, 0x3B,
  0x5B, 0x05, 0x2A, 0x0F, 0xEF, 0xD6, 0x02, 0x1D, 0x17, 0x2D,
  0xE3, 0x1D, 0xFA, 0xD6, 0xC5, 0x33, 0x20, 0xE8, 0xDA, 0x18,
  0x03, 0x0E, 0xCE, 0xCB, 0x07, 0x28, 0xB0, 0xC0, 0xDE, 0x7F,
  0x51, 0x20, 0x33, 0x4F, 0xC4, 0xF2, 0xE6, 0x30, 0xE2, 0xD1,
  0xE9, 0x21, 0xE0, 0xE8, 0xC7, 0x20, 0x01, 0xDA, 0xA1, 0xC7,
  0x28, 0x27, 0xC3, 0x06, 0x0C, 0x03, 0x28, 0xF1, 0x1F, 0x15,
  0xFD, 0x22, 0xCC, 0x56, 0x33, 0x10, 0xFE, 0xDA, 0xE0, 0x13,
  0x05, 0x13, 0x10, 0xE9, 0xEB, 0x06, 0xA9, 0xF5, 0xE6, 0x1C,
  0xDA, 0xF3, 0x0B, 0xCC, 0x0A, 0xF9, 0xE5, 0x1F, 0x16, 0x27,
  0x15, 0xFA, 0xCD, 0xC7, 0x94, 0x27, 0xDF, 0xE1, 0xFA, 0xFA,
  0xE9, 0x01, 0xA3, 0x02, 0x0D, 0x12, 0xF9, 0xEE, 0xCF, 0xE1,
  0xFB, 0x31, 0xC5, 0x05, 0xCD, 0x06, 0xFA, 0x23, 0x29, 0x3C,
  0x2A, 0x25, 0xCA, 0xD6, 0x1E, 0x1E, 0xCF, 0x3B, 0xFB, 0xE3,
  0x0F, 0x35, 0x08, 0x16, 0xC8, 0x39, 0xFA, 0x13, 0x01, 0x33,
  0xAA, 0x62, 0x09, 0x21, 0x0E, 0x0E, 0x22, 0xEE, 0xD4, 0x33,
  0x4F, 0x12, 0x3A, 0xF5, 0xE1, 0x13, 0xEF, 0xBF, 0xF0, 0x13,
  0x04, 0xAC, 0x1B, 0x0F, 0xF0, 0xC0, 0x34, 0xE8, 0xE1, 0xF2,
  0x33, 0x1A, 0x12, 0xB1, 0x30, 0xBE, 0xD1, 0xD7, 0x38, 0xDA,
  0xFE, 0x97, 0xFF, 0xA8, 0xF5, 0xDE, 0xFF, 0xFC, 0x25, 0x86,
  0xE7, 0x07, 0x81, 0xB3, 0x33, 0x1D, 0x22, 0x02, 0x20, 0xF6,
  0xFB, 0x30, 0x05, 0xD0, 0x08, 0xF1, 0x22, 0xC2, 0x09, 0xED,
  0x0A, 0xD2, 0xF8, 0xFA, 0xCF, 0xA0, 0x2F, 0xEB, 0x18, 0x00,
  0x31, 0xD8, 0x12, 0xFB, 0xD1, 0xB7, 0x19, 0x03, 0x39, 0xF6,
  0x00, 0xDD, 0xF9, 0xE9, 0x08, 0x03, 0x26, 0x1D, 0x1F, 0xAC,
  0xF9, 0xD4, 0x0E, 0xDD, 0x07, 0x06, 0x11, 0xA4, 0x3D, 0x12,
  0x00, 0xFF, 0x0A, 0xAC, 0xFE, 0xF5, 0x40, 0xE2, 0x0E, 0x05,
  0x39, 0xD1, 0xE5, 0xD8, 0xFB, 0xFF, 0xF7, 0x1F, 0x3D, 0x04,
  0xC0, 0xB8, 0x02, 0xFB, 0x17, 0x18, 0x40, 0xED, 0x07, 0xB0,
  0x09, 0xCD, 0xEA, 0x0E, 0xF2, 0x30, 0xE3, 0xE1, 0x71, 0x0F,
  0xD5, 0xCA, 0xA8, 0x2F, 0xEA, 0x0B, 0x37, 0x05, 0xF9, 0xBB,
  0x9C, 0x0A, 0x1A, 0xEA, 0xD7, 0xE0, 0xD2, 0xC0, 0xF6, 0x2B,
  0xCB, 0x13, 0x0C, 0xE7, 0x9E, 0xF4, 0xEC, 0x3A, 0x12, 0x0F,
  0x63, 0x0C, 0x15, 0xFF, 0x18, 0x15, 0xFC, 0x11, 0x34, 0x10,
  0x10, 0xC0, 0x00, 0xC8, 0x10, 0x07, 0xB6, 0xD3, 0xE2, 0xC8,
  0x26, 0x46, 0xC5, 0x24, 0x1E, 0xEA, 0x96, 0x02, 0xE7, 0x0D,
  0x36, 0xE6, 0x2D, 0x23, 0x1A, 0x1E, 0xDD, 0xC2, 0x1C, 0xFB,
  0x18, 0x21, 0xEB, 0xC0, 0xCF, 0xE3, 0x1F, 0xE1, 0xC0, 0xD1,
  0xB9, 0xE9, 0x52, 0x2A, 0xDD, 0x0D, 0x26, 0xF9, 0x81, 0xB5,
  0xF3, 0x2C, 0x03, 0x10, 0x36, 0x0F, 0xFC, 0x1C, 0xE0, 0x0F,
  0x1B, 0xFD, 0x22, 0x13, 0x08, 0xE4, 0xD1, 0x26, 0x31, 0x06,
  0xD3, 0xF2, 0xBB, 0x08, 0x64, 0x22, 0x20, 0xFF, 0x0B, 0xEF,
  0xA7, 0xCF, 0xCE, 0x35, 0xE8, 0x58, 0x81, 0x27, 0x1A, 0x2F,
  0xB2, 0x72, 0x11, 0x17, 0xF9, 0x04, 0x03, 0x1C, 0xCF, 0x00,
  0xE9, 0xEA, 0xF3, 0x04, 0x1F, 0x10, 0xCC, 0x0C, 0xEA, 0xE1,
  0xD3, 0x1A, 0x21, 0x20, 0xE2, 0xFE, 0xAC, 0x17, 0x8E, 0x23,
  0xFD, 0x2E, 0xF4, 0x25, 0xFE, 0x1E, 0xEC, 0xDE, 0xE2, 0x26,
  0xC5, 0x0C, 0xD2, 0xF0, 0xEE, 0x03, 0x19, 0x14, 0x0B, 0x1D,
  0xD6, 0x23, 0xD4, 0x1E, 0xDB, 0x0D, 0x09, 0xF7, 0xD8, 0x47,
  0xA8, 0xEA, 0xF4, 0x19, 0xD1, 0xF6, 0xF1, 0x0D, 0x1F, 0xF8,
  0x16, 0x10, 0xDD, 0x0F, 0xD0, 0xF5, 0x08, 0x16, 0x08, 0x24,
  0x07, 0x07, 0xAD, 0x05, 0xEA, 0x32, 0x14, 0x0A, 0x06, 0xF4,
  0x3B, 0x0D, 0xFB, 0xD3, 0xEE, 0xF0, 0x18, 0x1B, 0x0F, 0x22,
  0x27, 0xE4, 0x13, 0x3D, 0x02, 0x1E, 0xDE, 0xD3, 0xFD, 0xF7,
  0xE9, 0x0C, 0xFF, 0x1F, 0xDF, 0xE0, 0xC9, 0x35, 0x1F, 0x04,
  0xF6, 0xE0, 0xFF, 0xFF, 0x04, 0x00, 0x00, 0x00, 0x00, 0x08,
  0x00, 0x00, 0x03, 0xD4, 0x58, 0xBE, 0x7A, 0x5E, 0xBC, 0x3E,
  0x3B, 0x0C, 0x1A, 0xBE, 0x82, 0xF7, 0x56, 0x3D, 0xB2, 0x91,
  0x1D, 0xBE, 0xF4, 0x7E, 0x39, 0xBE, 0x52, 0xE2, 0x24, 0x3F,
  0xD4, 0x58, 0x23, 0x3E, 0x3E, 0x65, 0xD9, 0x3E, 0xF1, 0x59,
  0xE6, 0xBE, 0x56, 0x32, 0x35, 0xBE, 0x29, 0xCE, 0xC3, 0xBD,
  0xE7, 0xAA, 0x53, 0xBE, 0x15, 0x02, 0x3F, 0x3D, 0x8D, 0x4C,
  0x1A, 0x3E, 0x68, 0xCE, 0xBA, 0x3D, 0x1D, 0x10, 0x4E, 0xBE,
  0x93, 0xF9, 0x3F, 0xBE, 0x94, 0xE7, 0x14, 0xBE, 0x4A, 0x01,
  0x67, 0x3E, 0xE3, 0xC8, 0xD2, 0xBC, 0x83, 0x89, 0x03, 0xBF,
  0xC9, 0x77, 0x00, 0x3F, 0x53, 0x9C, 0xEE, 0xBD, 0x65, 0x4F,
  0x4B, 0xBD, 0xF8, 0x44, 0xCE, 0xBE, 0x0A, 0xEE, 0x27, 0xBE,
  0x3E, 0x9D, 0x2D, 0xBE, 0xE2, 0xF5, 0x9A, 0xBE, 0x4E, 0x09,
  0x1F, 0xBD, 0xBC, 0xC9, 0x54, 0x3E, 0x0E, 0x61, 0x18, 0xBE,
  0xB4, 0xE8, 0x9A, 0x3E, 0xC2, 0xCC, 0x8B, 0xBE, 0x8D, 0xCC,
  0x43, 0xBD, 0x77, 0xA6, 0xC8, 0xBD, 0x0E, 0x12, 0x96, 0x3D,
  0x38, 0xC0, 0x2E, 0x3E, 0xFF, 0xC1, 0x74, 0x3E, 0x1C, 0x3F,
  0x2C, 0x3E, 0x44, 0x88, 0x15, 0x3F, 0x8C, 0xF0, 0x6A, 0xBD,
  0x1C, 0x21, 0x90, 0x3E, 0x53, 0x78, 0x95, 0x3D, 0x26, 0x30,
  0x8E, 0x3E, 0x2A, 0x85, 0xBB, 0x3D, 0x54, 0xFB, 0x10, 0xBB,
  0xF2, 0xF0, 0x97, 0x3E, 0xED, 0x02, 0xF6, 0x3D, 0x43, 0xDC,
  0xFD, 0xBE, 0xBA, 0xA0, 0x4B, 0x3E, 0x30, 0x91, 0xCB, 0x3A,
  0xD6, 0xFA, 0x90, 0x3D, 0x96, 0x74, 0x54, 0x3E, 0x8C, 0x39,
  0x4B, 0x3E, 0xD4, 0x47, 0x80, 0x3E, 0x5B, 0x53, 0x24, 0x3F,
  0x1C, 0x50, 0x8D, 0xBE, 0xA6, 0x15, 0x89, 0x3D, 0x16, 0x32,
  0x71, 0xBD, 0x90, 0x64, 0x80, 0x3D, 0xC8, 0x74, 0x0E, 0xBD,
  0xDB, 0xA9, 0xE4, 0x3A, 0x5F, 0xDE, 0x6D, 0x3D, 0xB5, 0xE6,
  0xAF, 0x3E, 0xD1, 0x9B, 0xFE, 0x3D, 0x8C, 0xAE, 0x1F, 0x3E,
  0x3E, 0xED, 0x57, 0xBE, 0x62, 0x50, 0x3D, 0x3E, 0xE4, 0xF7,
  0x15, 0x3F, 0xA6, 0x90, 0xAE, 0x3E, 0x5A, 0xA6, 0x09, 0xBE,
  0xA6, 0x41, 0x14, 0x3F, 0x83, 0x6B, 0x0E, 0x3F, 0x6A, 0x12,
  0x2F, 0x3E, 0x6A, 0x64, 0x46, 0xBE, 0x22, 0x60, 0x2F, 0xBE,
  0xBA, 0x2D, 0x07, 0x3F, 0x20, 0x34, 0xE3, 0x3D, 0x66, 0x08,
  0x23, 0x3F, 0x2D, 0x39, 0x01, 0x3F, 0x36, 0x1E, 0x78, 0x3E,
  0xD8, 0xC7, 0xFA, 0xBC, 0xA6, 0x70, 0x88, 0xBE, 0xDA, 0x12,
  0x4A, 0x3E, 0x2C, 0x1C, 0xDB, 0x3E, 0x65, 0x26, 0x31, 0x3C,
  0x65, 0xE0, 0x7C, 0x3D, 0x2B, 0xE8, 0xF1, 0x3E, 0xC3, 0x1D,
  0x41, 0xBD, 0xD0, 0x15, 0x55, 0x3E, 0x2D, 0xE2, 0x7E, 0x3E,
  0xD9, 0x50, 0x60, 0x3E, 0x9A, 0x83, 0xBC, 0x3E, 0x12, 0x9A,
  0x98, 0x3E, 0x0A, 0xDF, 0x12, 0x3F, 0x0E, 0x06, 0xEC, 0x3B,
  0xCE, 0x96, 0x9B, 0xBD, 0x0F, 0x94, 0x05, 0xBE, 0x46, 0xA2,
  0x0B, 0xBE, 0x92, 0x00, 0x4C, 0x3E, 0x70, 0x3C, 0x14, 0x3F,
  0x44, 0x32, 0x38, 0x3E, 0x3F, 0x47, 0x8A, 0xBE, 0x09, 0x15,
  0x32, 0x3F, 0x1F, 0x90, 0x89, 0x3E, 0xB5, 0x4E, 0x03, 0xBE,
  0xDF, 0x83, 0xF5, 0xBD, 0x02, 0xBC, 0xA5, 0x3D, 0xC5, 0xC4,
  0x1D, 0x3E, 0x87, 0xE1, 0x63, 0x3E, 0x12, 0x3A, 0xF9, 0x3E,
  0xCE, 0x70, 0xAE, 0x3E, 0x59, 0x5B, 0x90, 0x3C, 0xC3, 0x91,
  0x8E, 0xBE, 0x1D, 0x9D, 0xB0, 0xBC, 0x51, 0x28, 0xDC, 0xBD,
  0xA9, 0x41, 0xA6, 0x3D, 0xA2, 0x80, 0x3C, 0x3E, 0xBB, 0x2B,
  0xBE, 0x3D, 0xB8, 0x0F, 0xDD, 0x3E, 0x94, 0xC0, 0xA2, 0xBE,
  0x93, 0xF2, 0x56, 0xBD, 0xFB, 0xC7, 0x46, 0xBE, 0xF0, 0x03,
  0x92, 0xBD, 0x2B, 0xE6, 0xE0, 0x3E, 0x44, 0xCB, 0xF7, 0x3D,
  0x94, 0x89, 0x19, 0x3F, 0xE8, 0x44, 0x2C, 0x3E, 0x55, 0x93,
  0x60, 0x3D, 0xB2, 0x53, 0xC0, 0x3E, 0x88, 0x49, 0x6C, 0xBE,
  0x9E, 0xE8, 0x99, 0x3E, 0xB6, 0x8D, 0x39, 0x3F, 0xFF, 0xE7,
  0xD5, 0xBE, 0x38, 0x59, 0x9A, 0x3E, 0xBD, 0x42, 0x11, 0x3F,
  0xA9, 0xAE, 0x6D, 0x3F, 0x84, 0x70, 0x5F, 0x3D, 0x3D, 0x3D,
  0x80, 0x3E, 0x74, 0xB8, 0x05, 0x3E, 0x9E, 0x49, 0xCC, 0x3E,
  0x19, 0xB3, 0x08, 0x3E, 0x4D, 0x21, 0x42, 0x3F, 0xBB, 0x0C,
  0xC8, 0x3E, 0x7E, 0x12, 0xBF, 0xBB, 0x4D, 0x04, 0x7E, 0x3E,
  0x38, 0xAA, 0x86, 0x3D, 0x14, 0xB7, 0xA1, 0xBD, 0x41, 0xCD,
  0x63, 0x3F, 0x50, 0x34, 0x39, 0x3E, 0x6A, 0xD1, 0x99, 0x3D,
  0x75, 0xC7, 0xDF, 0x3E, 0xB0, 0x8C, 0xE5, 0x3E, 0x39, 0xB1,
  0xE8, 0xBD, 0x23, 0x04, 0xA3, 0x3E, 0x20, 0xFE, 0xC7, 0x3E,
  0x9C, 0x45, 0xB5, 0xBC, 0xB7, 0x17, 0x91, 0x3C, 0x6B, 0xFF,
  0x14, 0x3F, 0x46, 0x47, 0xB6, 0x3C, 0xAC, 0xF6, 0x71, 0x3E,
  0x1B, 0xE3, 0xB7, 0xBC, 0x17, 0x45, 0x6B, 0xBE, 0x48, 0xB6,
  0x95, 0x3D, 0x5D, 0xD3, 0x15, 0x3E, 0x29, 0x74, 0x89, 0xBE,
  0x70, 0x04, 0x3D, 0xBE, 0xE9, 0x9A, 0x30, 0x3E, 0x74, 0x67,
  0x36, 0x3E, 0x0B, 0x24, 0xAC, 0x3D, 0x49, 0x34, 0x93, 0xBE,
  0xAE, 0x38, 0x04, 0x3B, 0xAA, 0x9E, 0xFD, 0x3E, 0xD0, 0x53,
  0x97, 0xBE, 0x48, 0x6D, 0xD0, 0x3E, 0x8B, 0x96, 0xA2, 0xBD,
  0x18, 0x0C, 0xE2, 0xBD, 0x7C, 0xAA, 0x9B, 0xBE, 0x4C, 0x28,
  0x71, 0x3E, 0x78, 0xFA, 0x7A, 0xBE, 0xC0, 0x4D, 0x9E, 0x3E,
  0xBF, 0xA9, 0x12, 0xBE, 0xBB, 0xC0, 0x4B, 0xBE, 0xD8, 0x11,
  0x98, 0x3E, 0xDE, 0xF5, 0x27, 0x3E, 0x90, 0x7B, 0x42, 0xBE,
  0x56, 0x06, 0xA6, 0xBD, 0x5B, 0xBE, 0xD4, 0x3C, 0x99, 0xFF,
  0xC7, 0x3E, 0x67, 0x8D, 0x07, 0xBD, 0x90, 0x47, 0xBD, 0x3E,
  0xEF, 0xE4, 0xDF, 0xBD, 0x4A, 0xB7, 0x28, 0xBE, 0xC7, 0xAE,
  0x65, 0x3E, 0x07, 0x88, 0x7A, 0x3E, 0xE8, 0xD7, 0xF7, 0xBC,
  0x2F, 0xCB, 0xBE, 0xBD, 0xEA, 0x22, 0x42, 0xBD, 0x9F, 0x9E,
  0xDF, 0xBD, 0x8E, 0xA8, 0xB0, 0x3E, 0x26, 0xF2, 0x92, 0x3E,
  0x47, 0x49, 0x51, 0xBE, 0xEE, 0x0F, 0x54, 0x3E, 0x56, 0x82,
  0x04, 0x3F, 0x94, 0xDA, 0x1F, 0x3F, 0x51, 0x11, 0x8F, 0x3D,
  0x88, 0x96, 0x03, 0x3E, 0xD2, 0x1B, 0xEB, 0x3E, 0xA1, 0x6F,
  0xD3, 0x3E, 0xA6, 0xFB, 0x5C, 0xBC, 0x86, 0x81, 0x1E, 0xBE,
  0x79, 0xC6, 0x96, 0xBE, 0x9A, 0x3E, 0x86, 0x3D, 0x69, 0x25,
  0x0A, 0xBE, 0xE6, 0xE1, 0x14, 0x3E, 0x2D, 0x03, 0xF8, 0x3D,
  0xD8, 0xA5, 0x0D, 0xBD, 0x0B, 0x40, 0x0C, 0xBE, 0x89, 0xD0,
  0x76, 0xBE, 0x78, 0xCB, 0x3B, 0x3E, 0xA9, 0xC1, 0xB9, 0x3E,
  0x03, 0x0D, 0x9D, 0x3E, 0xD4, 0xC3, 0xA2, 0x3E, 0x5C, 0x1C,
  0x70, 0x3E, 0x72, 0x39, 0x07, 0xBF, 0xAB, 0xA0, 0xFB, 0x3D,
  0x25, 0x29, 0x2D, 0x3E, 0xB6, 0xEA, 0x7C, 0xBD, 0x81, 0x5E,
  0x0E, 0x3E, 0x0D, 0x34, 0x6C, 0x3C, 0x57, 0x33, 0x4D, 0xBC,
  0x3D, 0x97, 0xD6, 0x3D, 0xDF, 0xCE, 0xA0, 0x3E, 0xA9, 0x31,
  0x0F, 0x3E, 0x52, 0x79, 0x04, 0x3E, 0x5C, 0x7A, 0x83, 0x3E,
  0x25, 0x8C, 0xC5, 0x3E, 0x9B, 0x33, 0xB5, 0xBD, 0xF1, 0x0C,
  0xC5, 0x3E, 0x74, 0xEB, 0xCB, 0x3D, 0x66, 0xD8, 0x8A, 0x3E,
  0x0C, 0x53, 0x13, 0x3E, 0x81, 0xB7, 0x1B, 0x3C, 0x94, 0x40,
  0x5C, 0xBE, 0xCB, 0xDC, 0xCD, 0x3E, 0x77, 0xDD, 0x8D, 0x3E,
  0x8A, 0x79, 0xAD, 0xBD, 0xD4, 0x05, 0x45, 0x3E, 0x7C, 0xFC,
  0xD8, 0x3D, 0x77, 0x8B, 0x1B, 0xBE, 0xDF, 0xB0, 0x89, 0xBE,
  0x9C, 0x42, 0xE3, 0x3D, 0xD8, 0xCB, 0x94, 0x3E, 0x38, 0xE9,
  0x9A, 0x3E, 0xDF, 0x2B, 0xEE, 0x3E, 0x75, 0x29, 0x78, 0xBE,
  0x08, 0x52, 0xBB, 0x3E, 0xE2, 0x57, 0xAA, 0x3E, 0x7C, 0xD8,
  0x31, 0x3D, 0x01, 0x2D, 0x36, 0x3E, 0xFB, 0x38, 0xB2, 0x3E,
  0x38, 0xA5, 0x5F, 0x3D, 0xB3, 0x69, 0x91, 0xBE, 0xD4, 0x8A,
  0x9E, 0x3E, 0x5A, 0x12, 0xED, 0x3E, 0x21, 0xE0, 0xBA, 0x3C,
  0x92, 0x15, 0x67, 0xBE, 0x9C, 0x65, 0x8B, 0x3E, 0xE6, 0x49,
  0xDB, 0x3E, 0x0C, 0xA3, 0xF3, 0xBE, 0x25, 0x6C, 0x03, 0xBD,
  0x3D, 0x47, 0x49, 0xBE, 0xC5, 0xA8, 0x68, 0x3E, 0xE3, 0xB2,
  0x12, 0xBE, 0x7E, 0x26, 0x20, 0x3E, 0x36, 0x7F, 0x8A, 0x3E,
  0x0C, 0xE1, 0xD7, 0xBC, 0x90, 0xC0, 0x7F, 0xBE, 0x2B, 0x42,
  0x1C, 0x3E, 0x8D, 0x66, 0x20, 0x3E, 0xD0, 0x89, 0x64, 0xBE,
  0x87, 0xEF, 0xE9, 0xBD, 0xDF, 0xA3, 0x0F, 0xBC, 0x3D, 0x0C,
  0xE5, 0x3E, 0xA5, 0x43, 0xD6, 0x3E, 0x4D, 0x1C, 0x3A, 0x3E,
  0x14, 0x6F, 0xDF, 0x3E, 0x76, 0x95, 0x43, 0x3D, 0x70, 0xAF,
  0x93, 0xBD, 0x7D, 0xFF, 0xBA, 0x3E, 0x80, 0x5A, 0x7B, 0xBE,
  0x01, 0xCA, 0xE8, 0xBC, 0xC9, 0x09, 0xFD, 0xBD, 0x87, 0x9D,
  0x26, 0x3D, 0xA3, 0x8F, 0xEC, 0xBE, 0x5E, 0x65, 0xE0, 0x3E,
  0xCA, 0x9F, 0x8E, 0x3E, 0x23, 0x0F, 0x28, 0x3E, 0x64, 0x90,
  0xA6, 0xBE, 0x8D, 0x72, 0xA0, 0x3E, 0x64, 0x9E, 0x56, 0x3E,
  0xAD, 0xE1, 0x16, 0xBF, 0x8D, 0x20, 0xD3, 0x3E, 0x6E, 0xEC,
  0x48, 0xBE, 0x80, 0xA5, 0xC6, 0x3E, 0x1E, 0x81, 0x3A, 0x3D,
  0xB6, 0xC2, 0x89, 0xBE, 0x12, 0xE1, 0x96, 0x3E, 0x6C, 0xA3,
  0x1E, 0x3E, 0x8E, 0xE8, 0xC8, 0xBB, 0x75, 0x0F, 0xC1, 0x3E,
  0x63, 0x7A, 0x1B, 0x3F, 0xF5, 0xC2, 0xE7, 0xBE, 0x9E, 0xD7,
  0x2D, 0xBD, 0x51, 0x21, 0x63, 0xBE, 0xF4, 0xF5, 0x48, 0x3E,
  0x12, 0xD0, 0x5E, 0x3E, 0x7C, 0x82, 0x73, 0x3D, 0x5F, 0x4F,
  0x11, 0xBE, 0xC0, 0x6B, 0x52, 0x3E, 0xB8, 0x47, 0xC4, 0x3E,
  0xB4, 0x20, 0x29, 0x3E, 0x8A, 0x2C, 0x3F, 0x3E, 0x13, 0x9B,
  0xFB, 0x3D, 0x47, 0xF2, 0x72, 0xBC, 0x22, 0x26, 0xC6, 0xBD,
  0xA9, 0xBB, 0xF2, 0x3E, 0x1D, 0x69, 0xAB, 0x3D, 0xD2, 0xBF,
  0x6C, 0xBF, 0xAC, 0x3F, 0xFE, 0x3D, 0xE3, 0x9D, 0xF7, 0xBD,
  0x56, 0x9B, 0x44, 0x3E, 0x4C, 0xCE, 0x53, 0x3D, 0x2C, 0x3E,
  0x53, 0x3E, 0x6F, 0x6A, 0x43, 0xBD, 0x23, 0x9D, 0x97, 0x3E,
  0x8B, 0xCA, 0x45, 0x3E, 0xE0, 0x6E, 0x4B, 0x3E, 0x3B, 0xE7,
  0x1F, 0xBE, 0x62, 0x0C, 0x5B, 0x3D, 0x8B, 0x28, 0xE1, 0x3C,
  0x68, 0x83, 0x61, 0x3E, 0xCF, 0x2C, 0x84, 0x3E, 0x96, 0x86,
  0xBE, 0x3D, 0x2A, 0x66, 0xBB, 0xBF, 0x0D, 0x38, 0x08, 0xBD,
  0x8F, 0xA0, 0xB1, 0x3D, 0x68, 0x67, 0x08, 0xBE, 0x87, 0x1E,
  0x69, 0xBE, 0x65, 0xFE, 0xFD, 0xBC, 0xB7, 0xF5, 0x2C, 0x3E,
  0x78, 0xA8, 0x9B, 0x3E, 0x41, 0xBC, 0xD0, 0x3E, 0xBF, 0x02,
  0xB7, 0x3D, 0x85, 0x62, 0x32, 0xBE, 0xCA, 0x9B, 0x94, 0x3D,
  0xAB, 0x80, 0x09, 0x3E, 0x05, 0x97, 0xA6, 0xBD, 0xB3, 0xE4,
  0xC9, 0x3E, 0x42, 0x55, 0x12, 0xBC, 0x13, 0x81, 0x0A, 0xBF,
  0x3B, 0x30, 0x65, 0x3C, 0xFE, 0x49, 0x03, 0xBE, 0x3C, 0xED,
  0x19, 0x3E, 0xF4, 0x79, 0xAA, 0xBE, 0x05, 0x28, 0xBD, 0x3D,
  0x3B, 0x0E, 0x21, 0x3E, 0x38, 0x2F, 0x9E, 0x3E, 0x84, 0x00,
  0xDF, 0x3E, 0xBC, 0xA6, 0x93, 0x3E, 0xAA, 0x78, 0x5A, 0xBE,
  0xA5, 0xFC, 0x8B, 0x3D, 0x03, 0x64, 0x94, 0x3E, 0x1E, 0x27,
  0xD8, 0x3E, 0xDF, 0x25, 0xA8, 0x3E, 0xAF, 0xF0, 0x19, 0x3E,
  0x00, 0xB3, 0x96, 0xBF, 0x34, 0x79, 0x51, 0x3E, 0x07, 0xCE,
  0x32, 0xBE, 0x27, 0x91, 0x41, 0x3E, 0x60, 0x02, 0xAC, 0x3D,
  0x96, 0xED, 0x19, 0xBE, 0x83, 0x70, 0xB6, 0x3E, 0x6F, 0xDE,
  0xBD, 0xBE, 0x98, 0xA4, 0xB6, 0x3C, 0x23, 0x6B, 0xDA, 0x3E,
  0xFC, 0x52, 0xA6, 0x3E, 0x43, 0x5E, 0xA4, 0x3D, 0xF7, 0x13,
  0xBC, 0xBC, 0xC9, 0x2E, 0xA1, 0xBE, 0x43, 0xB8, 0x1F, 0xBE,
  0xFD, 0xD7, 0x13, 0x3C, 0x25, 0x42, 0xC3, 0x3E, 0x20, 0x15,
  0x34, 0x3E, 0x2C, 0x75, 0x4B, 0x3E, 0x14, 0x02, 0x15, 0xBD,
  0xED, 0x94, 0xDB, 0xBD, 0x7D, 0xCE, 0xC0, 0xBD, 0xA9, 0x7C,
  0x8E, 0xBD, 0x8B, 0xB9, 0xA4, 0x3D, 0x47, 0x2B, 0x16, 0xBE,
  0x4B, 0x63, 0xAB, 0x3E, 0x75, 0x8B, 0xA7, 0x3E, 0x9C, 0x8B,
  0x7E, 0x3E, 0x07, 0x90, 0xC1, 0xBE, 0xAA, 0x52, 0x08, 0xBF,
  0xFD, 0x95, 0xCB, 0xBE, 0xFD, 0x5C, 0x90, 0x3E, 0x5B, 0xCA,
  0xA8, 0x3E, 0x74, 0xAB, 0x20, 0xBC, 0x45, 0xE6, 0xC8, 0x3E,
  0xC5, 0x1E, 0xFE, 0xBC, 0x6C, 0xB0, 0xBF, 0xBE, 0xE1, 0x09,
  0xD5, 0x3D, 0xAF, 0xF5, 0xC4, 0xBE, 0x51, 0xF0, 0x83, 0xBD,
  0xC1, 0x2E, 0xB8, 0xBE, 0xEB, 0xEE, 0x50, 0x3E, 0x2E, 0x97,
  0x9E, 0xBD, 0xAA, 0x94, 0xD3, 0x3D, 0x95, 0xED, 0x58, 0x3E,
  0x6E, 0xFE, 0x67, 0xBD, 0xDB, 0x0C, 0xB8, 0x3C, 0x18, 0x24,
  0x23, 0xBE, 0xE1, 0xE2, 0x7D, 0x3E, 0x2A, 0x9D, 0xF4, 0x3D,
  0xB0, 0xFE, 0x3F, 0xBD, 0xFF, 0x1B, 0x39, 0xBE, 0xE0, 0x5D,
  0xDB, 0x3D, 0xF5, 0xB2, 0x49, 0x3E, 0x4D, 0x66, 0x37, 0xBE,
  0xEF, 0x7E, 0x63, 0x3E, 0x1C, 0xF0, 0x88, 0xBE, 0x51, 0x0E,
  0x3F, 0x3E, 0x02, 0x25, 0x81, 0x3E, 0x56, 0x0A, 0x72, 0xBD,
  0x3E, 0x4B, 0x1B, 0x3D, 0x5E, 0x45, 0x9A, 0xBD, 0x38, 0xFA,
  0x33, 0xBE, 0x53, 0x0E, 0xC3, 0xBE, 0x11, 0xC7, 0x95, 0xBE,
  0x40, 0x9B, 0xA3, 0x3D, 0xDA, 0xF3, 0x09, 0x3E, 0x72, 0x3A,
  0x94, 0xBE, 0x80, 0x90, 0x67, 0xBE, 0xB7, 0xB2, 0xEA, 0xBC,
  0x60, 0x96, 0xE1, 0x3A, 0x19, 0xD7, 0xDD, 0x3D, 0x2B, 0x4E,
  0x9A, 0x3E, 0x46, 0x63, 0xE5, 0x3E, 0xE7, 0x75, 0x73, 0x3E,
  0x6F, 0x84, 0x40, 0xBC, 0x0F, 0x3B, 0x2B, 0xBD, 0xE6, 0x33,
  0xB2, 0x3E, 0x07, 0xEA, 0xCE, 0xBE, 0x60, 0x84, 0x1E, 0x38,
  0x8D, 0x86, 0x04, 0x3E, 0x35, 0xD3, 0x31, 0xBD, 0x8E, 0xA2,
  0x12, 0x3E, 0xC1, 0xF1, 0x6A, 0xBD, 0x67, 0x93, 0xC3, 0x3E,
  0x89, 0x91, 0x18, 0x3E, 0x46, 0x20, 0x27, 0xBD, 0xBC, 0xBE,
  0x81, 0xBE, 0xC9, 0xFC, 0x0C, 0x3F, 0xB3, 0xFA, 0x4B, 0x3E,
  0xA9, 0x9D, 0xA2, 0x3C, 0x53, 0xF1, 0x41, 0xBE, 0x9C, 0x84,
  0x12, 0xBD, 0xD1, 0xEA, 0xC3, 0x3E, 0x86, 0x00, 0x09, 0xBF,
  0xB8, 0xC6, 0x82, 0x3E, 0xE4, 0x8E, 0x2C, 0xBF, 0x7E, 0xEA,
  0x7E, 0x3C, 0x9C, 0xE1, 0x92, 0x3C, 0xB1, 0x17, 0xF3, 0xBC,
  0x03, 0x65, 0x61, 0x3E, 0x03, 0x2F, 0x4E, 0xBD, 0xC6, 0xFC,
  0xAF, 0x3B, 0x19, 0xBD, 0x86, 0x3D, 0x3C, 0xB8, 0xD4, 0x3E,
  0x89, 0x91, 0x58, 0x3D, 0x6B, 0x05, 0x8C, 0x3E, 0xF1, 0x83,
  0x15, 0xBE, 0xA2, 0xA7, 0xA1, 0x3E, 0x8E, 0x5A, 0x98, 0xBB,
  0x8B, 0x27, 0x29, 0xBE, 0x17, 0x04, 0xDC, 0x3E, 0x18, 0xE5,
  0xEA, 0xBE, 0xC2, 0x70, 0x60, 0xBE, 0xD7, 0x1A, 0xAB, 0x3E,
  0xBA, 0x06, 0xF7, 0xBD, 0x86, 0x67, 0x16, 0x3F, 0x73, 0x3B,
  0x0F, 0x3F, 0x7D, 0xEF, 0xF1, 0xBE, 0xEC, 0xD1, 0x8F, 0x3E,
  0x7D, 0xFD, 0x9F, 0x3E, 0x92, 0x14, 0x14, 0xBE, 0x8E, 0xFF,
  0x4A, 0x3E, 0x31, 0x30, 0x6E, 0x3D, 0x28, 0xC9, 0x63, 0xBD,
  0x24, 0xC7, 0xA1, 0x3D, 0x2E, 0xC3, 0x4C, 0xBF, 0x06, 0xF1,
  0xA3, 0x3E, 0x1C, 0x0F, 0xCF, 0xBF, 0x20, 0x2E, 0x5B, 0x3D,
  0x88, 0xDC, 0x5C, 0x3E, 0x4D, 0xBC, 0x1C, 0xBE, 0x36, 0xE2,
  0xC6, 0x3E, 0xDD, 0x9D, 0x56, 0x3E, 0x87, 0x98, 0x3E, 0xBE,
  0x02, 0xE9, 0xFF, 0xFF, 0x04, 0x00, 0x00, 0x00, 0x00, 0x04,
  0x00, 0x00, 0xFD, 0x38, 0x62, 0x3E, 0x2D, 0x8C, 0x55, 0x3E,
  0x52, 0xEB, 0xEE, 0x3D, 0x77, 0x54, 0x03, 0xBE, 0x12, 0xF2,
  0x15, 0xBE, 0xAC, 0x50, 0xA5, 0xBE, 0x49, 0x47, 0x83, 0x3C,
  0x86, 0x59, 0x48, 0x3D, 0x5B, 0x9B, 0x0D, 0xBE, 0x22, 0x34,
  0x34, 0x3D, 0x0E, 0x5D, 0x68, 0xBE, 0x52, 0x65, 0xF9, 0xBD,
  0x94, 0x1B, 0x10, 0x3E, 0x9A, 0xE1, 0xA2, 0x3D, 0xFB, 0x6D,
  0xDF, 0x3D, 0x7A, 0x11, 0x9C, 0xBD, 0xE7, 0xFC, 0x74, 0xBE,
  0x00, 0x50, 0x80, 0xBD, 0xAA, 0xAE, 0xEF, 0x3C, 0x2C, 0x24,
  0x00, 0x3E, 0x7B, 0x41, 0xEA, 0xBE, 0xF4, 0x66, 0x3C, 0xBE,
  0x73, 0x05, 0x31, 0xBE, 0xF4, 0x17, 0x25, 0x3C, 0xF4, 0xAF,
  0x94, 0xBE, 0xE6, 0xFF, 0x77, 0xBD, 0xAC, 0xDB, 0xC3, 0x3B,
  0x7F, 0x32, 0x44, 0xBD, 0xC1, 0xB2, 0x50, 0xBE, 0xFE, 0x0E,
  0x35, 0xBD, 0xD3, 0x0D, 0x81, 0x3C, 0xE1, 0x7F, 0x3E, 0x3E,
  0x68, 0x91, 0xCB, 0x3C, 0xC4, 0xC8, 0x03, 0xBD, 0x66, 0xE7,
  0x23, 0x3E, 0x69, 0x68, 0x06, 0xBD, 0x06, 0x07, 0x87, 0xBD,
  0xC3, 0xE4, 0x00, 0xBE, 0x5E, 0x35, 0xCC, 0x3D, 0xA0, 0x7D,
  0x20, 0xBE, 0xC3, 0x79, 0xC3, 0xBD, 0x89, 0xD3, 0x76, 0x3E,
  0xD2, 0x10, 0x27, 0x3E, 0xD5, 0x80, 0x85, 0xBE, 0x32, 0xDA,
  0x23, 0x3E, 0x51, 0x4D, 0x4A, 0x3D, 0xF3, 0x36, 0x0F, 0xBD,
  0x11, 0x5D, 0xD8, 0xBD, 0x80, 0x13, 0x9A, 0x3D, 0xE6, 0x4E,
  0x23, 0x3E, 0xB7, 0x43, 0xE9, 0xBD, 0x46, 0x17, 0xCA, 0xBD,
  0x6A, 0x79, 0x43, 0x3E, 0xEB, 0xD5, 0x6B, 0x3E, 0xC2, 0x58,
  0xE6, 0x3D, 0x78, 0xA6, 0x8F, 0xBD, 0x1F, 0xE0, 0x32, 0x3E,
  0x42, 0x23, 0x0E, 0x3E, 0x71, 0x01, 0x0D, 0xBA, 0x03, 0x88,
  0x5F, 0xBD, 0x12, 0xF1, 0xA4, 0xBD, 0xF6, 0x17, 0x9D, 0xBD,
  0x07, 0x9E, 0xCB, 0xBD, 0x9D, 0xE8, 0xAA, 0x3D, 0xF0, 0x08,
  0xDD, 0xBD, 0xFE, 0xF1, 0x1E, 0xBD, 0xFD, 0xB1, 0x73, 0x3D,
  0xB6, 0xAD, 0x3F, 0x3E, 0xEA, 0xCC, 0xED, 0x3D, 0x10, 0x49,
  0xB3, 0x3C, 0xD7, 0x92, 0x31, 0xBD, 0xBA, 0x92, 0x2A, 0x3E,
  0xBB, 0x12, 0x4F, 0xBD, 0xD0, 0xB4, 0xB4, 0xBD, 0x54, 0x22,
  0x39, 0x3E, 0x63, 0x2B, 0x3D, 0x3D, 0xE9, 0x50, 0x0C, 0xBE,
  0x67, 0xA3, 0x9F, 0x3D, 0x40, 0x55, 0x3E, 0x3E, 0xE7, 0xE7,
  0x79, 0xBD, 0x6C, 0x5B, 0x9F, 0x3E, 0xE6, 0xBE, 0x23, 0x3E,
  0x35, 0x6B, 0x56, 0xBE, 0xA7, 0x4F, 0xD5, 0xBD, 0x9D, 0xFA,
  0x95, 0xBE, 0xFA, 0x84, 0x88, 0x3D, 0xF6, 0x85, 0x91, 0xBE,
  0x49, 0x5B, 0x3D, 0x3E, 0x67, 0x26, 0x6D, 0xBD, 0x36, 0xA2,
  0x1D, 0x3E, 0xE3, 0x04, 0x07, 0x3E, 0x2B, 0xEA, 0x5A, 0x3C,
  0xA0, 0x19, 0x29, 0xBC, 0x5B, 0xCE, 0xC7, 0xBD, 0xE7, 0xCF,
  0x29, 0xBD, 0x91, 0xCB, 0xDC, 0x3C, 0xD2, 0x96, 0xDC, 0x3D,
  0xBD, 0x1D, 0x80, 0xBE, 0xF8, 0xF0, 0x15, 0x3C, 0x10, 0x59,
  0x07, 0x3D, 0x8F, 0x4B, 0x8A, 0x3D, 0x53, 0xA3, 0x96, 0xBE,
  0x22, 0xE9, 0xB2, 0xBD, 0xE9, 0x9D, 0x27, 0x3D, 0x60, 0xDF,
  0x15, 0x3E, 0xCC, 0x8F, 0x2F, 0xBE, 0x61, 0x5D, 0x80, 0x3D,
  0xE0, 0x8D, 0x93, 0xBD, 0x1A, 0xBE, 0x5A, 0x3E, 0x62, 0xA5,
  0x45, 0x3E, 0x0E, 0x5B, 0xB8, 0xBB, 0x81, 0x2E, 0xF5, 0x3C,
  0x30, 0xE2, 0x5F, 0xBC, 0x7D, 0x8E, 0x23, 0x3D, 0xDB, 0xA9,
  0x60, 0xBE, 0x36, 0xD5, 0x76, 0xBE, 0xBB, 0x84, 0x94, 0x3D,
  0x60, 0x45, 0x81, 0xBD, 0xCA, 0xCA, 0x9B, 0xBD, 0x10, 0xEB,
  0x99, 0xBE, 0xC1, 0xA3, 0x94, 0xBD, 0x91, 0x0D, 0x34, 0x3E,
  0x17, 0x33, 0x67, 0xBE, 0x2A, 0xE4, 0xC9, 0xBD, 0x00, 0xF1,
  0x1C, 0x3E, 0x39, 0x23, 0x2A, 0x3E, 0xA2, 0x51, 0x38, 0xBD,
  0xE4, 0x03, 0x3F, 0xBE, 0xB5, 0xD3, 0x9B, 0xBE, 0x60, 0xA2,
  0x44, 0xBE, 0x66, 0x9C, 0x81, 0x3D, 0x6E, 0x48, 0xB2, 0x3C,
  0xDD, 0x32, 0xB0, 0xBC, 0xE2, 0x54, 0x59, 0x3E, 0x79, 0x6C,
  0x0B, 0x3E, 0x83, 0x77, 0x93, 0x3D, 0xE6, 0x7B, 0x95, 0x3E,
  0x11, 0xE2, 0x3D, 0xBD, 0xDB, 0xC4, 0x4C, 0xBE, 0xBA, 0x5C,
  0x7E, 0x3B, 0xC4, 0x17, 0x41, 0x3D, 0x78, 0xCA, 0xBD, 0xBC,
  0x73, 0xB3, 0xFF, 0x3A, 0x05, 0x15, 0x91, 0xBD, 0x3D, 0xDB,
  0x34, 0x3E, 0x0D, 0x0D, 0xEA, 0x3D, 0xDB, 0x0D, 0x6C, 0xBE,
  0xAD, 0x28, 0xE4, 0xBE, 0x70, 0x6E, 0x30, 0x3E, 0xF0, 0x6E,
  0x12, 0xBF, 0x78, 0x58, 0x78, 0xBE, 0x3A, 0x42, 0xEE, 0xBE,
  0x4C, 0x01, 0x74, 0x3D, 0xC9, 0xF7, 0x2C, 0xBF, 0xAE, 0x8F,
  0x5D, 0x3D, 0x4F, 0x70, 0xE2, 0xBE, 0xEB, 0x13, 0x51, 0x3E,
  0x31, 0x02, 0xA3, 0x3D, 0x9C, 0xE7, 0x2F, 0xBD, 0x50, 0x4C,
  0x1B, 0xBE, 0xC8, 0x7C, 0x95, 0x3D, 0x33, 0x82, 0x80, 0x3D,
  0xF8, 0x1F, 0x8F, 0x3D, 0xCB, 0xD8, 0x81, 0x3D, 0x55, 0xF1,
  0x05, 0xBE, 0x20, 0x1D, 0x24, 0xBE, 0x32, 0x17, 0xA1, 0xBD,
  0xCA, 0x1C, 0x22, 0x3B, 0x07, 0xEA, 0xAC, 0x3D, 0xFD, 0x28,
  0xA2, 0x3D, 0x8B, 0x7A, 0x82, 0x3D, 0xCC, 0x94, 0x6F, 0xBD,
  0x12, 0xCF, 0xE0, 0x3C, 0x2C, 0x89, 0x9B, 0x3A, 0xC3, 0x96,
  0x05, 0x3D, 0xE3, 0x60, 0xAE, 0x3D, 0x77, 0x5A, 0x27, 0x3E,
  0xBD, 0xF3, 0x28, 0x3E, 0x2A, 0xED, 0x1B, 0xBB, 0x01, 0x69,
  0x48, 0xBE, 0xE2, 0xEA, 0xBC, 0x3D, 0x3D, 0x74, 0x8C, 0x3E,
  0x45, 0xC4, 0x26, 0x3E, 0x1D, 0x15, 0x23, 0x3D, 0x5F, 0xAF,
  0xC6, 0xBC, 0x52, 0x14, 0x6A, 0x3E, 0x8B, 0x3D, 0xD2, 0xBD,
  0x46, 0xDC, 0x86, 0x3D, 0x59, 0xB7, 0xA8, 0x3C, 0x58, 0xC3,
  0x88, 0xBD, 0x45, 0x16, 0x2A, 0xBE, 0x48, 0x57, 0x0B, 0xBB,
  0x04, 0xF0, 0x44, 0xBE, 0x04, 0xEF, 0x2F, 0x3E, 0xAA, 0x7B,
  0xA5, 0xBD, 0xFB, 0x80, 0x2D, 0x3E, 0xE5, 0x4E, 0x71, 0x3D,
  0x1A, 0xC8, 0x00, 0xBE, 0xCD, 0x5B, 0x0B, 0x3C, 0xE0, 0xA2,
  0x4D, 0xBD, 0x11, 0x58, 0x01, 0x3E, 0x1E, 0x86, 0xCA, 0x3D,
  0x25, 0xC5, 0x20, 0xBE, 0x31, 0x62, 0x08, 0x3E, 0x6A, 0x0D,
  0xFF, 0xBD, 0x11, 0x4F, 0x47, 0xBE, 0x2B, 0xAE, 0x0C, 0x3B,
  0x5D, 0xAA, 0xC3, 0x3D, 0xDC, 0xA6, 0xE8, 0x3D, 0xD7, 0xF7,
  0xB5, 0x3B, 0x7C, 0x51, 0xD8, 0x3D, 0x60, 0xB9, 0x53, 0x37,
  0xB1, 0xB2, 0xC9, 0xBD, 0x6D, 0x7E, 0xF5, 0xBE, 0x21, 0x58,
  0xE0, 0x3C, 0x85, 0xF5, 0xCE, 0xBC, 0x6F, 0x93, 0x2D, 0x3E,
  0x97, 0xC1, 0x3F, 0xBE, 0x09, 0x1E, 0xB9, 0xBD, 0xF5, 0x00,
  0x41, 0xBB, 0x9F, 0x7C, 0xDD, 0x3D, 0x08, 0x51, 0x27, 0xBD,
  0xF9, 0xCA, 0x1A, 0xBD, 0xE7, 0xF9, 0x2E, 0x3E, 0x6C, 0x0C,
  0x95, 0xBD, 0x27, 0xD0, 0x02, 0x3E, 0xED, 0xAA, 0x3C, 0xBD,
  0xB9, 0x82, 0x79, 0xBD, 0x4E, 0x2D, 0x45, 0x3D, 0x90, 0xB8,
  0x0A, 0x3F, 0x28, 0x7D, 0xEC, 0x3D, 0xFC, 0x1B, 0xAF, 0x3C,
  0x18, 0x3F, 0xA8, 0xBD, 0xE2, 0x3A, 0x05, 0x3D, 0x87, 0x68,
  0xD2, 0xBC, 0x1A, 0x74, 0x72, 0xBD, 0xAD, 0x7D, 0x07, 0xBD,
  0x88, 0x10, 0x93, 0x3D, 0x19, 0x88, 0x0A, 0xBD, 0x4A, 0xE6,
  0x91, 0xBB, 0xAE, 0xD9, 0xB6, 0x3E, 0xA3, 0x9D, 0xBE, 0xBE,
  0x23, 0x49, 0x07, 0xBE, 0x1F, 0xEE, 0x0B, 0x3E, 0x00, 0x88,
  0xC5, 0x3A, 0xB7, 0x6A, 0x1B, 0xBE, 0x59, 0x0D, 0x82, 0x3D,
  0xBC, 0xE2, 0x0C, 0xBE, 0x8A, 0xD5, 0x68, 0xBD, 0x0F, 0x32,
  0x33, 0x3E, 0xD3, 0x34, 0x24, 0x3E, 0x3D, 0x87, 0x17, 0x3D,
  0xB6, 0x69, 0x40, 0xBD, 0xC7, 0x94, 0x8E, 0xBD, 0x68, 0x2F,
  0x88, 0x3D, 0xB3, 0xA8, 0x26, 0xBD, 0x0E, 0xED, 0xFF, 0xFF,
  0x04, 0x00, 0x00, 0x00, 0x04, 0x00, 0x00, 0x00, 0x78, 0xBB,
  0x01, 0x3E, 0x1E, 0xED, 0xFF, 0xFF, 0x04, 0x00, 0x00, 0x00,
  0x20, 0x00, 0x00, 0x00, 0xDA, 0x4E, 0xF3, 0x3D, 0x11, 0x6E,
  0xA9, 0xBD, 0xB6, 0x53, 0x38, 0x3E, 0xC4, 0xC4, 0x2E, 0x3E,
  0x41, 0x0A, 0x0A, 0x3E, 0x41, 0x6F, 0xA6, 0xBD, 0x5D, 0x3A,
  0x06, 0x3E, 0x88, 0x2C, 0x53, 0x3E, 0x4A, 0xED, 0xFF, 0xFF,
  0x04, 0x00, 0x00, 0x00, 0x40, 0x00, 0x00, 0x00, 0x35, 0x16,
  0x93, 0x3D, 0xC2, 0xB5, 0x02, 0x3E, 0x32, 0x11, 0xD8, 0x3D,
  0x1A, 0x5F, 0x1C, 0x3D, 0xDA, 0x95, 0x04, 0x3E, 0x8F, 0x3C,
  0x07, 0x3E, 0xB7, 0x0C, 0xBB, 0xBD, 0xD7, 0x32, 0xBC, 0x3C,
  0xA1, 0x5E, 0x97, 0x3D, 0xF4, 0xCA, 0x51, 0xBD, 0x6D, 0x5F,
  0x99, 0xBD, 0x68, 0x2B, 0x7C, 0xBC, 0xD5, 0x64, 0xA9, 0x3D,
  0x0F, 0x30, 0x57, 0x3D, 0x36, 0xE4, 0xCB, 0x3E, 0x11, 0x99,
  0x0A, 0x3E, 0x96, 0xED, 0xFF, 0xFF, 0x04, 0x00, 0x00, 0x00,
  0x20, 0x00, 0x00, 0x00, 0x32, 0xA6, 0xF6, 0xBC, 0x80, 0x2D,
  0x06, 0x3D, 0x9F, 0xEE, 0x6A, 0xBE, 0x76, 0x4F, 0x08, 0x3D,
  0x29, 0xB7, 0x1B, 0x3E, 0x0D, 0xBE, 0x3F, 0x3D, 0xC6, 0x03,
  0x6B, 0x3D, 0x9F, 0x16, 0xC2, 0x3D, 0xC2, 0xED, 0xFF, 0xFF,
  0x04, 0x00, 0x00, 0x00, 0x40, 0x00, 0x00, 0x00, 0x30, 0xBA,
  0x7C, 0x3C, 0xC8, 0x43, 0xF2, 0x3D, 0x1B, 0x13, 0xFB, 0xBC,
  0xE3, 0x87, 0xD2, 0x3C, 0x10, 0x88, 0xED, 0xBB, 0x29, 0xE9,
  0xD6, 0x3C, 0x7D, 0x5A, 0x47, 0xBD, 0xA7, 0x6D, 0xFF, 0x3D,
  0x0A, 0x45, 0x01, 0x3E, 0x13, 0x0E, 0x66, 0xBC, 0xD6, 0xBE,
  0xB2, 0x3C, 0xF5, 0x91, 0xE7, 0xBD, 0x7B, 0xAE, 0xEC, 0x3C,
  0x78, 0x62, 0xB2, 0x3D, 0xA9, 0xF7, 0x92, 0xBD, 0x36, 0x2F,
  0x41, 0x3D, 0x0E, 0xEE, 0xFF, 0xFF, 0x04, 0x00, 0x00, 0x00,
  0x20, 0x00, 0x00, 0x00, 0xEF, 0xAC, 0x70, 0xBB, 0x2E, 0x96,
  0x84, 0xBD, 0xEA, 0x61, 0x05, 0xBC, 0x01, 0xA6, 0xA3, 0x3C,
  0x58, 0xEA, 0xD4, 0xBB, 0x2E, 0xE3, 0xA3, 0x3A, 0xEC, 0x46,
  0x86, 0xBD, 0x2B, 0x6D, 0x03, 0xBE, 0x3A, 0xEE, 0xFF, 0xFF,
  0x04, 0x00, 0x00, 0x00, 0x40, 0x00, 0x00, 0x00, 0xDE, 0x87,
  0x1A, 0x3D, 0x85, 0xBC, 0x65, 0x3E, 0x60, 0xA4, 0x22, 0x3C,
  0xFB, 0xCF, 0x8C, 0xBD, 0xF3, 0xEF, 0xB3, 0xBD, 0xB8, 0x9E,
  0x1C, 0xBA, 0x7F, 0x28, 0xA8, 0xBC, 0x9B, 0x12, 0x06, 0x3E,
  0xD2, 0xEA, 0xF0, 0xBB, 0xA2, 0xCA, 0x92, 0x3D, 0x4A, 0x8B,
  0xB0, 0xBB, 0x6E, 0xA2, 0xD5, 0xBD, 0xB1, 0x36, 0xCB, 0x3B,
  0x68, 0xB1, 0x10, 0x3D, 0x4D, 0x0B, 0xBD, 0xBE, 0x30, 0x9B,
  0xF0, 0x3A, 0x86, 0xEE, 0xFF, 0xFF, 0x04, 0x00, 0x00, 0x00,
  0x00, 0x08, 0x00, 0x00, 0x57, 0xBC, 0xDC, 0x3D, 0x6C, 0x1F,
  0x7C, 0x3D, 0x14, 0xB0, 0x08, 0x3E, 0xB8, 0x9D, 0x54, 0xBE,
  0x63, 0x3C, 0x40, 0x3D, 0xC2, 0x67, 0x22, 0xBF, 0x72, 0x38,
  0x9D, 0xBD, 0xA8, 0x1C, 0xD0, 0x3E, 0x49, 0x44, 0x1F, 0x3E,
  0x1D, 0xF1, 0x9C, 0x3E, 0x55, 0x02, 0x50, 0xBF, 0xFF, 0x1C,
  0x96, 0x3E, 0x53, 0xDC, 0xBF, 0xBD, 0x15, 0x45, 0xF5, 0x3C,
  0xC5, 0xDC, 0x67, 0x3D, 0xBE, 0x64, 0x7F, 0xBE, 0x99, 0x6A,
  0x9F, 0x3D, 0x8A, 0xBB, 0x00, 0x3F, 0x83, 0xD6, 0x4D, 0xBF,
  0x60, 0xBE, 0x3C, 0x3E, 0x52, 0x81, 0x03, 0xBF, 0xD1, 0xEE,
  0x46, 0xBE, 0x11, 0x75, 0x89, 0xBE, 0xA9, 0xB3, 0x86, 0xBE,
  0x3B, 0xE9, 0xE7, 0x3D, 0x62, 0x50, 0x91, 0x3E, 0xB2, 0xB7,
  0xAA, 0x3D, 0x26, 0x17, 0x5F, 0xBE, 0x5D, 0x81, 0x2C, 0xBD,
  0x1E, 0x07, 0x16, 0x3E, 0x78, 0xB4, 0xC4, 0xBE, 0xB6, 0x8B,
  0x30, 0x3D, 0x2F, 0xE7, 0x6C, 0xBD, 0x7D, 0xC3, 0x95, 0xBE,
  0x2A, 0x80, 0x24, 0x3E, 0xAB, 0xAC, 0x17, 0x3E, 0x1F, 0xDC,
  0x8C, 0xBE, 0xF2, 0x63, 0x1F, 0x3E, 0xE4, 0x36, 0x43, 0x3E,
  0x4A, 0xBE, 0x4B, 0x3E, 0xAE, 0x13, 0xC7, 0xBA, 0xF4, 0x20,
  0xF8, 0x3D, 0x8B, 0x6B, 0x95, 0xBE, 0xCE, 0x1B, 0x3F, 0x3D,
  0xD5, 0x21, 0xB3, 0xBE, 0x41, 0x38, 0x9A, 0xBD, 0x7A, 0x3F,
  0xFD, 0xBE, 0x92, 0x8F, 0xE0, 0xBC, 0xE8, 0xDA, 0x8B, 0xBE,
  0x8F, 0xCE, 0x12, 0x3E, 0xFA, 0x21, 0x71, 0xBE, 0x4D, 0x65,
  0xC7, 0x3E, 0x86, 0x0F, 0xB6, 0xBC, 0x8C, 0x64, 0x90, 0x3C,
  0xDF, 0x99, 0xEF, 0x3C, 0xB5, 0x75, 0x8C, 0x3D, 0xAB, 0xB5,
  0x4B, 0xBE, 0x3C, 0x48, 0x42, 0xBC, 0x13, 0xE5, 0x47, 0xBD,
  0x69, 0x65, 0x69, 0x3D, 0xA6, 0xDF, 0xF0, 0x3B, 0x14, 0x73,
  0xA7, 0xBE, 0x0F, 0x52, 0x02, 0xBF, 0x51, 0x2E, 0x94, 0x3D,
  0xA8, 0xF4, 0x91, 0xBD, 0xAA, 0x0C, 0x16, 0x3C, 0x76, 0xEE,
  0x2F, 0xBD, 0x8B, 0xD2, 0xDE, 0x3E, 0x39, 0x39, 0x82, 0xBE,
  0x8C, 0x72, 0x01, 0x3E, 0xEE, 0x75, 0xB8, 0xBC, 0x1D, 0x2E,
  0x86, 0x3D, 0x04, 0x28, 0xB2, 0xBD, 0xDA, 0x6B, 0x4E, 0x3E,
  0xAF, 0xA6, 0xCA, 0x3D, 0x27, 0x42, 0x6C, 0x3E, 0x6E, 0xD6,
  0xC2, 0x3E, 0x27, 0xD8, 0xD9, 0xBD, 0xA3, 0xC7, 0x12, 0x3E,
  0xA0, 0x3C, 0x70, 0xBE, 0x78, 0x2E, 0x6B, 0x3E, 0xF7, 0xBE,
  0x9F, 0xBC, 0x86, 0x8B, 0x49, 0x3E, 0x34, 0x63, 0x12, 0x3E,
  0xFC, 0xB5, 0x27, 0xBE, 0x74, 0x96, 0x4E, 0x3E, 0x79, 0xF5,
  0x2A, 0x3E, 0x48, 0x37, 0x51, 0xBE, 0x56, 0xD2, 0xFC, 0xBD,
  0x9E, 0xCC, 0xCF, 0x3C, 0x80, 0xC0, 0x0B, 0x3E, 0x37, 0x6E,
  0x3C, 0x3E, 0x04, 0x03, 0x69, 0x3E, 0xC6, 0xE1, 0xCA, 0xBD,
  0xB3, 0xB8, 0x20, 0xBE, 0x48, 0x6E, 0x39, 0x3C, 0xC6, 0xCC,
  0x06, 0x3D, 0xAB, 0x21, 0xF1, 0x3A, 0x47, 0xD7, 0x56, 0x3D,
  0x1B, 0x25, 0x3E, 0x3E, 0xE9, 0xD4, 0xB9, 0xBC, 0x01, 0x0E,
  0x34, 0x3E, 0x26, 0x68, 0x10, 0x3E, 0x02, 0x9A, 0xF0, 0x3D,
  0x78, 0xF9, 0xBA, 0x3D, 0xF7, 0x87, 0x59, 0x3E, 0x92, 0x64,
  0x2B, 0x3E, 0xB9, 0x7E, 0x8F, 0x3E, 0xEE, 0x3C, 0x35, 0xBD,
  0x3A, 0x07, 0x54, 0x3E, 0xFD, 0x02, 0x93, 0x3E, 0x03, 0x53,
  0x40, 0xBE, 0x4A, 0x3A, 0x2F, 0x3E, 0xF5, 0x3E, 0xE8, 0xBD,
  0x3C, 0xCA, 0xF3, 0x3D, 0x82, 0x9E, 0x2F, 0x3D, 0x88, 0xA6,
  0xBE, 0xBD, 0x8F, 0x98, 0x27, 0x3E, 0x0A, 0x3A, 0x55, 0xBE,
  0x6B, 0x59, 0xB6, 0xBD, 0x67, 0xCF, 0x64, 0xBE, 0xA2, 0x90,
  0x3E, 0xBE, 0xC9, 0xD7, 0x24, 0xBE, 0x37, 0xA5, 0x00, 0xBE,
  0x9F, 0x75, 0xAB, 0xBD, 0x56, 0xDF, 0xC6, 0x3C, 0x13, 0x36,
  0xF7, 0x3D, 0x14, 0x2A, 0xC3, 0xBD, 0xC7, 0xF2, 0x0B, 0xBD,
  0xDB, 0x7E, 0xDA, 0xBD, 0x59, 0x4E, 0xA2, 0x3E, 0x6B, 0xCD,
  0x95, 0x3D, 0x95, 0xD5, 0x94, 0xBC, 0x52, 0x31, 0xB2, 0xBE,
  0xC3, 0xCB, 0x36, 0xBE, 0x07, 0xE5, 0x6B, 0x3E, 0xC4, 0xBE,
  0xE0, 0x3D, 0x15, 0x87, 0x2E, 0xBD, 0x4D, 0x16, 0x0D, 0x3E,
  0xF6, 0xB0, 0x00, 0x3F, 0x13, 0x21, 0x3A, 0x3E, 0xDD, 0x27,
  0x24, 0x3D, 0x43, 0xD7, 0xFC, 0x3D, 0x59, 0x13, 0x05, 0x3E,
  0x3C, 0x79, 0x54, 0xBE, 0x2E, 0x04, 0x08, 0xBC, 0xC2, 0x5D,
  0xAC, 0x3E, 0xB2, 0x59, 0x04, 0x3E, 0x54, 0xFA, 0x14, 0xBD,
  0x3A, 0xBE, 0xD9, 0x3D, 0x5E, 0x78, 0x60, 0x3E, 0x18, 0xAE,
  0xE8, 0xBE, 0xB4, 0x86, 0x1C, 0x3D, 0x29, 0x5B, 0xB1, 0x3D,
  0x83, 0x3E, 0x9E, 0x3E, 0xA2, 0xB4, 0xD0, 0x3D, 0x2D, 0xC7,
  0xE9, 0x3D, 0x53, 0xB3, 0xAA, 0x3D, 0xBD, 0x94, 0x77, 0xBD,
  0xF0, 0xE8, 0xDC, 0x3D, 0xA6, 0x69, 0xAA, 0xBD, 0xEB, 0xD4,
  0x2B, 0xBC, 0x98, 0x95, 0x52, 0x3E, 0x9B, 0x3A, 0xA1, 0xBE,
  0x2F, 0x94, 0x3B, 0xBE, 0xE5, 0x8C, 0x34, 0xBE, 0xF7, 0x1B,
  0xB3, 0x3D, 0x12, 0xA3, 0xB1, 0xBE, 0x94, 0x76, 0x47, 0xBE,
  0x32, 0x26, 0x09, 0x3E, 0x99, 0xFF, 0x4D, 0x3E, 0x0E, 0xBE,
  0xBE, 0x3E, 0xB4, 0x69, 0x9E, 0x3D, 0xB4, 0xBC, 0xE6, 0x3D,
  0xB5, 0x2E, 0x92, 0xBC, 0x0E, 0x6D, 0xCC, 0x3D, 0xA4, 0xD0,
  0x22, 0xBD, 0x42, 0xA0, 0x68, 0xBE, 0x7B, 0xE7, 0xDC, 0x3E,
  0x7B, 0x81, 0x44, 0xBE, 0x45, 0xC3, 0x63, 0x3E, 0x34, 0x92,
  0xC4, 0x3E, 0xA0, 0x7C, 0xA7, 0xBD, 0xB8, 0x6A, 0x01, 0xBF,
  0xB5, 0x31, 0x05, 0xBE, 0x13, 0x31, 0x34, 0x3E, 0x52, 0x6C,
  0x8D, 0x3E, 0xF8, 0x13, 0x3A, 0x3D, 0x6E, 0x6E, 0x24, 0x3D,
  0x44, 0xFF, 0x2D, 0xBE, 0xE3, 0x39, 0x8C, 0x3E, 0xA5, 0x2A,
  0x76, 0x3E, 0xE0, 0x20, 0x92, 0xBF, 0xB0, 0x11, 0x7B, 0x3D,
  0x46, 0x58, 0x77, 0x3D, 0x91, 0xFF, 0x7D, 0x3E, 0x7C, 0x4F,
  0x4F, 0xB9, 0x40, 0xFD, 0x99, 0x3E, 0x5E, 0x1E, 0x57, 0xBE,
  0x37, 0x75, 0xD0, 0x3E, 0xFE, 0x71, 0x6D, 0xBC, 0x2B, 0xEE,
  0x19, 0xBE, 0x39, 0x10, 0xDF, 0xBE, 0x09, 0xFE, 0x8E, 0x3E,
  0xA7, 0xB1, 0x1C, 0x3E, 0xB6, 0x06, 0x14, 0xBF, 0x4D, 0x0F,
  0xC2, 0x3E, 0xCB, 0x3C, 0x20, 0x3E, 0x38, 0x02, 0x80, 0xBF,
  0xB9, 0xB8, 0x23, 0xBD, 0x9C, 0xF0, 0x24, 0x3E, 0xC1, 0xBC,
  0xD7, 0xBA, 0x43, 0x11, 0x60, 0x3D, 0x27, 0xFE, 0xFE, 0xBD,
  0x2B, 0xFE, 0x38, 0xBA, 0xDF, 0x16, 0xF3, 0x3D, 0x81, 0xD6,
  0x79, 0x3E, 0x97, 0x9B, 0xB1, 0xBD, 0x28, 0xE2, 0xE2, 0xBE,
  0x8F, 0x33, 0x23, 0xBE, 0xF6, 0x4E, 0x6D, 0x3E, 0xB0, 0x1F,
  0xBC, 0xBE, 0xF0, 0x37, 0xE6, 0x3C, 0x5B, 0x9B, 0x60, 0xBE,
  0x1E, 0xA1, 0x44, 0xBF, 0x6C, 0x34, 0x36, 0x3E, 0xF1, 0x97,
  0x80, 0x3E, 0x36, 0xA5, 0x15, 0xBE, 0xFB, 0xC9, 0xEE, 0xBC,
  0xF6, 0xA8, 0x91, 0x3E, 0x5E, 0x03, 0x09, 0x3D, 0xB7, 0xF4,
  0xC4, 0x3E, 0x9A, 0x0D, 0x3E, 0xBE, 0x8E, 0x13, 0x7E, 0x3E,
  0x05, 0x1C, 0x5E, 0xBE, 0xE2, 0x53, 0xA2, 0x3D, 0xF3, 0x2B,
  0xC1, 0xBC, 0xF9, 0x46, 0x06, 0xBF, 0xC2, 0x76, 0x9E, 0x3E,
  0x46, 0x71, 0xCA, 0xBD, 0x70, 0x91, 0xF3, 0xBE, 0x99, 0x10,
  0xEA, 0x3D, 0x67, 0x25, 0xA8, 0x3C, 0x02, 0x01, 0x43, 0xBE,
  0x7B, 0x25, 0x21, 0x3E, 0xD4, 0xCC, 0xB6, 0xBD, 0xB3, 0xAA,
  0x69, 0x3D, 0x3A, 0xD9, 0x8D, 0x3E, 0x4D, 0x64, 0x1D, 0x3E,
  0xA9, 0x4C, 0x34, 0x3E, 0x38, 0x56, 0x81, 0xBE, 0xD9, 0xBB,
  0x45, 0xBD, 0xF5, 0x52, 0x58, 0x3E, 0x1A, 0xC3, 0xDF, 0xBE,
  0x65, 0xB0, 0x92, 0x3E, 0x06, 0xF3, 0x2B, 0xBE, 0xE7, 0x42,
  0x4C, 0xBE, 0x9D, 0x65, 0x38, 0x3E, 0x05, 0x87, 0x4B, 0xBF,
  0x60, 0x99, 0x9B, 0xBE, 0xB6, 0xAB, 0x1D, 0x3E, 0xA8, 0xE9,
  0xFF, 0xBE, 0x9F, 0xD9, 0x1B, 0xBE, 0x4E, 0xC8, 0x14, 0xBF,
  0xEE, 0xA3, 0x98, 0x3E, 0x19, 0xBA, 0x08, 0xBE, 0x28, 0x31,
  0x81, 0xBE, 0xDD, 0x9A, 0x37, 0xBE, 0x20, 0x4C, 0x2A, 0x3D,
  0xD7, 0xAD, 0x1C, 0xBE, 0xAB, 0x51, 0x9F, 0xBB, 0x18, 0xD4,
  0x12, 0x3E, 0x6D, 0x8C, 0x05, 0x3D, 0xA6, 0xE8, 0xCA, 0xBA,
  0xFB, 0x04, 0xF4, 0xBE, 0x7A, 0xFC, 0xEE, 0xBD, 0xEA, 0x5F,
  0xAE, 0xBD, 0xD3, 0x04, 0x4E, 0xBE, 0xE7, 0xB0, 0x4E, 0xBE,
  0xB0, 0x74, 0x00, 0xBF, 0xE1, 0xAB, 0xE8, 0xBD, 0xE2, 0xD1,
  0x1B, 0x3E, 0xA7, 0x36, 0xD0, 0xBE, 0x1D, 0x2A, 0x25, 0xBE,
  0xBF, 0x3E, 0xDF, 0x3D, 0x38, 0xF3, 0x6A, 0x3E, 0x7F, 0x64,
  0x79, 0xBE, 0xA5, 0x7C, 0xDE, 0x3D, 0x73, 0x33, 0x2E, 0xBE,
  0x37, 0x62, 0xB3, 0x3E, 0x5A, 0x98, 0x11, 0xBF, 0xE8, 0x92,
  0x05, 0xBD, 0x70, 0x1F, 0xA0, 0xBD, 0x84, 0x3B, 0xEE, 0xBE,
  0xD4, 0x0A, 0x54, 0x3E, 0x70, 0x55, 0x95, 0xBE, 0xC7, 0xA4,
  0x8A, 0x3E, 0x66, 0x92, 0x8A, 0x3D, 0x9D, 0x9D, 0x67, 0xBE,
  0xB6, 0x77, 0x80, 0xBE, 0x60, 0xCB, 0x98, 0x3E, 0x73, 0xA9,
  0x84, 0xBC, 0x57, 0x38, 0x9E, 0x3E, 0x79, 0x67, 0xF6, 0x3D,
  0x94, 0x9D, 0x06, 0xBE, 0x15, 0x5A, 0x23, 0x3E, 0x3C, 0x10,
  0x1B, 0xBF, 0xB2, 0x2F, 0x9C, 0x3D, 0x17, 0x77, 0x60, 0x3E,
  0xAA, 0x32, 0x5D, 0xBE, 0xB9, 0xAD, 0xD7, 0xBD, 0xBE, 0x35,
  0x8C, 0xBD, 0xBA, 0x12, 0x4E, 0x3C, 0x42, 0x5B, 0x8C, 0x3E,
  0xA6, 0xEE, 0x5E, 0x3D, 0x11, 0x6C, 0x5A, 0xBD, 0xC6, 0xAC,
  0x79, 0x3E, 0x8B, 0xED, 0xA8, 0xBD, 0xA0, 0x67, 0x75, 0xBD,
  0x0B, 0x66, 0x3F, 0xBE, 0x1A, 0x60, 0x07, 0x3D, 0x9B, 0xE8,
  0x0D, 0xBE, 0x4A, 0xF8, 0x64, 0x3E, 0x66, 0xA3, 0x24, 0x3F,
  0x31, 0x64, 0x10, 0xBD, 0x67, 0x00, 0x04, 0x3E, 0x95, 0xA5,
  0xC4, 0xBE, 0xAF, 0x40, 0x0C, 0x3F, 0xF7, 0x5E, 0x17, 0x3E,
  0xD3, 0x80, 0x6E, 0xBC, 0x71, 0xFE, 0x2E, 0xBE, 0xDD, 0xDF,
  0x96, 0x3E, 0x2E, 0xE6, 0x0D, 0xBE, 0x77, 0x3A, 0x08, 0xBE,
  0x70, 0x62, 0xC3, 0x3E, 0xF7, 0x67, 0x95, 0xBE, 0xEE, 0x72,
  0xA3, 0xBE, 0x8E, 0x2E, 0x34, 0x3E, 0x79, 0xB5, 0x20, 0x3E,
  0x29, 0x64, 0x2F, 0x3D, 0x9B, 0xD6, 0x98, 0x3E, 0x77, 0x4B,
  0x91, 0x3D, 0x73, 0x5F, 0xED, 0xBE, 0x2F, 0x24, 0x22, 0x3F,
  0xFA, 0x7C, 0x15, 0x3D, 0x27, 0x8B, 0x5C, 0x3E, 0x0A, 0x9A,
  0x74, 0xBE, 0x76, 0x62, 0xFA, 0x3C, 0x79, 0x3E, 0x64, 0xBD,
  0x43, 0xB4, 0x5B, 0xBE, 0x32, 0xD3, 0x6F, 0x3E, 0x2B, 0xCA,
  0x67, 0xBE, 0x09, 0xBF, 0xD8, 0xBE, 0xE1, 0x93, 0xE4, 0xBD,
  0x09, 0xA3, 0xB4, 0x3D, 0x77, 0x57, 0x39, 0x3E, 0x2D, 0xE8,
  0x69, 0x3D, 0xAB, 0xE7, 0x6B, 0x3E, 0xF7, 0x84, 0xC7, 0xBE,
  0xE6, 0x0C, 0xCF, 0x3E, 0x43, 0x5C, 0x18, 0xBD, 0x29, 0xE5,
  0x29, 0x3D, 0x29, 0xEE, 0x0A, 0xBE, 0xFD, 0x1E, 0xA0, 0x3E,
  0xC4, 0x1E, 0x67, 0xBE, 0x5C, 0x0E, 0x01, 0xBE, 0x97, 0x49,
  0x16, 0xBC, 0x9F, 0xD7, 0x2B, 0xBE, 0xDD, 0x51, 0x1F, 0xBF,
  0xA4, 0x5B, 0x44, 0xBE, 0x64, 0xF5, 0x5F, 0xBE, 0x33, 0xD1,
  0x2F, 0x3E, 0x0B, 0x7A, 0x7E, 0x3E, 0x12, 0x91, 0x78, 0x3E,
  0xAC, 0x62, 0x5E, 0xBE, 0x3A, 0xA5, 0xA3, 0x3E, 0x60, 0x95,
  0xA4, 0x3D, 0x84, 0x0B, 0x88, 0x3D, 0xAC, 0x1C, 0x68, 0x3E,
  0x89, 0x7F, 0x50, 0x3E, 0x00, 0xDC, 0x91, 0xBD, 0x0F, 0xC5,
  0x04, 0xBE, 0x42, 0x16, 0xCC, 0x3D, 0x4F, 0xE9, 0xDB, 0xBE,
  0x92, 0xE2, 0xBF, 0x3E, 0x6F, 0x49, 0x62, 0xBE, 0xA8, 0xDC,
  0x46, 0x3E, 0x59, 0x8F, 0x35, 0x3E, 0x7C, 0xFE, 0x7E, 0xBD,
  0xA7, 0x1E, 0xC1, 0xBD, 0x79, 0x7F, 0x27, 0xBD, 0xFF, 0x64,
  0x9C, 0x3D, 0x32, 0x99, 0x5F, 0xBD, 0x9A, 0x08, 0x10, 0x3E,
  0xC3, 0x0B, 0x4B, 0xBF, 0xE3, 0x8D, 0xEC, 0xBD, 0xF6, 0x0E,
  0xE1, 0xBD, 0x9D, 0x81, 0x70, 0x3E, 0x91, 0x9F, 0x3A, 0x3F,
  0xB7, 0x93, 0x9D, 0xBD, 0x4F, 0x0B, 0xD7, 0x3D, 0x0D, 0xED,
  0x89, 0x3D, 0xE8, 0x2A, 0x05, 0x3E, 0xCF, 0x29, 0xCC, 0xBE,
  0xA2, 0xED, 0x98, 0xBE, 0x9D, 0x59, 0x28, 0x3D, 0xC4, 0x1C,
  0x73, 0xBD, 0xAE, 0xE8, 0xE8, 0xBE, 0xAE, 0xD3, 0x5B, 0xBE,
  0x77, 0xF2, 0x27, 0x3E, 0xB4, 0x4C, 0xFD, 0xBE, 0xF7, 0x03,
  0x13, 0x3E, 0xED, 0x52, 0x09, 0xBE, 0xB5, 0x5B, 0xDD, 0x3D,
  0x8D, 0x48, 0x44, 0x3E, 0x2A, 0x9E, 0x5C, 0x3E, 0x72, 0xAD,
  0x03, 0xBE, 0xD8, 0x6A, 0xD1, 0x3C, 0xE4, 0xFD, 0x46, 0x3E,
  0x58, 0x6E, 0xEE, 0x3E, 0xD2, 0xA7, 0xAD, 0xBE, 0xA2, 0x6E,
  0x2D, 0x3D, 0xF6, 0xBD, 0x7C, 0xBD, 0x9C, 0x1D, 0xDD, 0x3D,
  0xD1, 0x4C, 0x50, 0x3E, 0x8D, 0x00, 0x3C, 0xBC, 0x05, 0x28,
  0x7D, 0xBE, 0xA8, 0xBE, 0xE1, 0x3D, 0xEE, 0x39, 0x65, 0xBE,
  0x87, 0x13, 0xD0, 0x3C, 0xB2, 0xAF, 0xBF, 0x3E, 0x5E, 0x59,
  0x26, 0x3E, 0xF6, 0xD9, 0x5C, 0xBE, 0xFD, 0xDE, 0x0D, 0x3E,
  0x6B, 0x3F, 0x20, 0xBE, 0x25, 0xFB, 0xC1, 0xBE, 0x97, 0x47,
  0xE9, 0x3D, 0x84, 0xC6, 0xD9, 0x3D, 0x1D, 0x04, 0x26, 0x3E,
  0x9C, 0xAC, 0x20, 0xBE, 0xEB, 0x0F, 0x09, 0xBE, 0xA5, 0xC5,
  0x35, 0xBE, 0x6B, 0x21, 0xD6, 0xBE, 0xC8, 0xD5, 0xEB, 0x3E,
  0x25, 0xC5, 0x00, 0xBF, 0x1A, 0x52, 0x4A, 0x3E, 0x1C, 0xDD,
  0xC4, 0x3D, 0xC1, 0x42, 0x5A, 0xBE, 0x82, 0x8C, 0xDB, 0xBD,
  0xB8, 0x03, 0x8D, 0x3E, 0x11, 0x15, 0xD5, 0x3E, 0xC8, 0xC2,
  0x4B, 0xBD, 0x10, 0x1B, 0x30, 0xBD, 0x22, 0xBB, 0xFD, 0xBE,
  0xF9, 0xC2, 0x8C, 0xBE, 0x19, 0x50, 0xBD, 0x3D, 0xD6, 0x82,
  0x94, 0x3D, 0x44, 0x93, 0xC8, 0x3E, 0x07, 0x9D, 0x42, 0xBE,
  0x08, 0xCD, 0x15, 0x3D, 0xA9, 0xCD, 0xDC, 0x3D, 0x48, 0x9A,
  0x47, 0x3E, 0x80, 0x10, 0xC7, 0x3D, 0xAC, 0xCA, 0x9A, 0xBD,
  0x2E, 0x8D, 0xDB, 0xBE, 0xA7, 0xE6, 0xA9, 0x3E, 0x4A, 0xA0,
  0xB7, 0x3C, 0x40, 0x75, 0xB6, 0x3E, 0xEB, 0x47, 0xF8, 0xBD,
  0x91, 0x6D, 0x47, 0xBE, 0x4A, 0x14, 0xA0, 0xBE, 0xEF, 0x64,
  0xB6, 0x3E, 0x0C, 0xD2, 0xA3, 0xBD, 0xEE, 0x3A, 0xE6, 0x3A,
  0x44, 0x85, 0x1B, 0x3E, 0x3B, 0x7F, 0x1D, 0xBD, 0x74, 0xC7,
  0xCF, 0xBE, 0x84, 0xAC, 0x43, 0x3E, 0xA4, 0x4F, 0xBC, 0x3C,
  0xE5, 0x9F, 0xF8, 0x3C, 0xF6, 0x3F, 0x2A, 0xBE, 0x3C, 0x2B,
  0x74, 0x3E, 0x63, 0x68, 0x46, 0xBE, 0x53, 0x13, 0x56, 0x3E,
  0x1B, 0x99, 0xD1, 0xBA, 0x0E, 0x8C, 0x6A, 0xBF, 0xB9, 0x55,
  0x05, 0xBE, 0x1D, 0x6B, 0xE7, 0x3D, 0xFC, 0x1D, 0x12, 0x3E,
  0x91, 0x35, 0x0E, 0xBC, 0xCF, 0xF1, 0x5A, 0xBE, 0x45, 0x9C,
  0x03, 0xBF, 0xCB, 0x9D, 0x6E, 0xBE, 0x82, 0x24, 0x3D, 0x3C,
  0xBE, 0x56, 0x22, 0xBE, 0x20, 0x30, 0x73, 0x3D, 0xF3, 0xD0,
  0xC1, 0xBE, 0x2E, 0x13, 0x9B, 0xBD, 0x9A, 0xFF, 0xE7, 0xBA,
  0xAD, 0x8D, 0x5C, 0x3E, 0x87, 0x9E, 0xD6, 0xBE, 0x50, 0x1F,
  0x35, 0xBE, 0x70, 0x5B, 0xA1, 0xBE, 0xC1, 0xF0, 0x33, 0x3E,
  0xC4, 0x36, 0x6E, 0x3E, 0xEF, 0x97, 0x4A, 0xBE, 0x56, 0x08,
  0x36, 0xBD, 0xE4, 0x32, 0xCB, 0x3D, 0x44, 0xDE, 0x8F, 0xBE,
  0xA6, 0x22, 0x8A, 0xBE, 0xC9, 0x88, 0x14, 0xBF, 0xC9, 0xF6,
  0x26, 0x3E, 0x92, 0xF6, 0xFF, 0xFF, 0x04, 0x00, 0x00, 0x00,
  0x00, 0x08, 0x00, 0x00, 0xD5, 0x99, 0xAD, 0x3E, 0x7C, 0x62,
  0x88, 0x3E, 0xF6, 0xF6, 0x22, 0x3E, 0x7E, 0x19, 0x5E, 0x3A,
  0x57, 0xC0, 0xFA, 0xBE, 0x66, 0xF0, 0x9D, 0x3E, 0x06, 0xE7,
  0x07, 0x3E, 0xFE, 0x68, 0xE3, 0x3E, 0x56, 0x27, 0x20, 0x3E,
  0xF1, 0xDF, 0x91, 0xBE, 0xBC, 0x20, 0xE0, 0xBD, 0xD6, 0x4E,
  0xB4, 0x3B, 0x18, 0x1B, 0x07, 0xBF, 0xAA, 0xF1, 0x7E, 0x3E,
  0xA6, 0xDF, 0x02, 0xBE, 0x7D, 0x39, 0xC4, 0x3E, 0xF7, 0x78,
  0x12, 0x3F, 0x82, 0xF7, 0xD4, 0x3D, 0xED, 0x97, 0xC5, 0x3E,
  0x3D, 0x64, 0xE6, 0x3C, 0x2A, 0xF9, 0x76, 0xBE, 0xE0, 0xD6,
  0x3D, 0x3E, 0xAF, 0xAD, 0x7A, 0xBD, 0x84, 0xC5, 0xEB, 0x3D,
  0x8A, 0x74, 0x50, 0x3E, 0x0E, 0x09, 0xA6, 0xBE, 0xD3, 0xB4,
  0xCA, 0xBE, 0x5F, 0x7E, 0xEB, 0xBD, 0x15, 0x10, 0x34, 0xBE,
  0x9C, 0x41, 0x38, 0x3E, 0x1D, 0xB5, 0x14, 0x3E, 0xA2, 0x88,
  0xC5, 0xBC, 0x05, 0x77, 0x8F, 0x3E, 0x04, 0x0D, 0x25, 0xBC,
  0x15, 0x22, 0x66, 0x3D, 0x3F, 0x35, 0xD8, 0x3D, 0x87, 0xEC,
  0x84, 0x3E, 0x89, 0x3B, 0x06, 0x3E, 0xD7, 0x50, 0x4F, 0x3E,
  0x5A, 0x46, 0xA4, 0x3D, 0xD0, 0x4B, 0x1F, 0x3E, 0x32, 0x8E,
  0x95, 0x3C, 0xB5, 0xAE, 0xB0, 0xBD, 0x0E, 0xC0, 0xA4, 0xBC,
  0x4F, 0x72, 0xA5, 0xBE, 0x98, 0x0A, 0x97, 0x3D, 0x82, 0x51,
  0xA6, 0x3E, 0x07, 0xC9, 0x60, 0x3E, 0xBE, 0x12, 0x01, 0x3E,
  0xB7, 0x89, 0x5D, 0x3E, 0xD5, 0x31, 0x7F, 0x3E, 0xCD, 0x97,
  0x17, 0x3A, 0xFC, 0x08, 0x3B, 0x3E, 0x5E, 0x65, 0x81, 0x3E,
  0xC9, 0x5C, 0x7B, 0xBE, 0x7F, 0xC4, 0x84, 0x3C, 0x30, 0xDA,
  0x92, 0x3E, 0x70, 0x2C, 0x17, 0xBF, 0x69, 0x40, 0x98, 0xBE,
  0x48, 0xE1, 0xD9, 0x3D, 0x27, 0x8D, 0x68, 0xBE, 0x54, 0x1A,
  0x8D, 0x3E, 0xFF, 0x22, 0x0A, 0xBE, 0xB9, 0x56, 0x4E, 0x3E,
  0x37, 0x0C, 0xD8, 0xBE, 0xF0, 0x94, 0x9A, 0xBE, 0x7A, 0x94,
  0x56, 0xBD, 0xBB, 0x24, 0x8C, 0x3E, 0x13, 0x9C, 0x35, 0xBD,
  0x38, 0x7A, 0xBB, 0xBD, 0xF8, 0xF6, 0x96, 0xBD, 0xEF, 0xEB,
  0xB2, 0xBE, 0x3A, 0xC0, 0x33, 0x3E, 0xF4, 0x89, 0xAD, 0x3E,
  0xBB, 0xC7, 0x94, 0xBE, 0xC1, 0x5C, 0x49, 0xBE, 0x88, 0x45,
  0xAA, 0x3E, 0xCE, 0x38, 0x32, 0x3E, 0x29, 0x94, 0xDC, 0x3D,
  0x4B, 0x80, 0x90, 0x3E, 0x3A, 0xCB, 0x14, 0xBD, 0xE8, 0xAF,
  0xB4, 0x3D, 0x74, 0x2B, 0x31, 0x3D, 0x02, 0xA7, 0x88, 0x3D,
  0xAA, 0xBE, 0x87, 0xBE, 0x8C, 0xA0, 0x41, 0x3E, 0x0D, 0x2B,
  0x93, 0x3E, 0xEB, 0xDA, 0x91, 0xBE, 0x1B, 0x2E, 0x3B, 0x3E,
  0xE6, 0x01, 0x8D, 0xBD, 0x76, 0x2B, 0x8D, 0x3E, 0x24, 0x5B,
  0x64, 0x3E, 0x8C, 0x30, 0x65, 0xBC, 0x73, 0x36, 0x9A, 0x3E,
  0xA0, 0xC4, 0x69, 0xBE, 0x44, 0x1C, 0x5C, 0x3D, 0x9C, 0x96,
  0x4D, 0xBE, 0x01, 0x6E, 0xF1, 0xBD, 0x4A, 0x89, 0xED, 0x3D,
  0x97, 0x55, 0x9A, 0x3E, 0xF5, 0x01, 0x99, 0xBE, 0xFA, 0xF8,
  0x5F, 0xBE, 0x59, 0xD0, 0xDF, 0x3E, 0x61, 0xFB, 0x52, 0xBE,
  0x86, 0x9A, 0xAA, 0x3E, 0x4C, 0xE8, 0x3D, 0x3E, 0xBC, 0xAA,
  0x92, 0xBE, 0x93, 0x39, 0x22, 0x3E, 0x50, 0x75, 0x3A, 0x3E,
  0x55, 0xF2, 0xA1, 0x3E, 0xDE, 0x6F, 0x7F, 0xBE, 0x6E, 0x0C,
  0xE6, 0x3D, 0xEE, 0xAD, 0xAF, 0x3D, 0x28, 0x62, 0x19, 0x3E,
  0x97, 0x53, 0x91, 0x3E, 0x58, 0xB8, 0x5E, 0xBE, 0x54, 0xBC,
  0xA5, 0xBE, 0xEA, 0x04, 0x0E, 0xBD, 0x99, 0xCD, 0x90, 0x3E,
  0x30, 0x16, 0x12, 0x3E, 0x45, 0x0A, 0x8A, 0x3E, 0x3F, 0x3C,
  0xD7, 0xBD, 0x84, 0xEB, 0x87, 0x3D, 0x69, 0x75, 0x0E, 0x3E,
  0xA2, 0x1F, 0x13, 0xBE, 0xCE, 0x26, 0x99, 0x3E, 0xAE, 0x5D,
  0x85, 0x3D, 0x66, 0x64, 0x95, 0x3E, 0xCE, 0xB7, 0xCB, 0x3D,
  0xCB, 0x58, 0x5D, 0xBE, 0x84, 0x48, 0x80, 0xBE, 0x9F, 0xD3,
  0x5F, 0xBC, 0xAC, 0xD4, 0xAE, 0x3E, 0x06, 0xDB, 0x91, 0xBE,
  0x37, 0xE9, 0xC9, 0x3C, 0xC7, 0x67, 0xBA, 0xBE, 0x30, 0x82,
  0xD6, 0x3D, 0xE7, 0xE2, 0xBD, 0x3E, 0x49, 0x6B, 0x50, 0xBC,
  0xCA, 0xE1, 0xAD, 0xBE, 0xA1, 0xAE, 0xAB, 0x3E, 0x24, 0x41,
  0x73, 0xBF, 0x3A, 0x25, 0x2C, 0x3E, 0x99, 0xB9, 0xFD, 0xBD,
  0x07, 0x29, 0xAA, 0xBE, 0x0A, 0xFB, 0x48, 0xBE, 0x01, 0x5E,
  0x51, 0x3E, 0xEB, 0xCA, 0x79, 0xBE, 0x7B, 0x74, 0xA8, 0x3E,
  0xDF, 0x77, 0x86, 0x3D, 0x73, 0xFF, 0x7F, 0x3E, 0x4A, 0x58,
  0x8C, 0xBE, 0x93, 0x7D, 0xD5, 0xBD, 0x0E, 0xD8, 0x8C, 0x3E,
  0x7F, 0xE6, 0x1E, 0x3E, 0x2B, 0x6A, 0x18, 0x3D, 0x7E, 0x49,
  0x94, 0x3E, 0x70, 0x5C, 0x4D, 0xBF, 0x24, 0x4D, 0x9D, 0x3E,
  0x27, 0x5D, 0xD2, 0xBE, 0x19, 0x90, 0x3B, 0xBE, 0xFC, 0x39,
  0x63, 0xBE, 0x6F, 0x5F, 0x26, 0xBD, 0x5A, 0x55, 0x2A, 0xBE,
  0xDE, 0x78, 0x67, 0xBD, 0xEA, 0xB5, 0x1C, 0xBD, 0xA1, 0x77,
  0x2C, 0xBE, 0x5E, 0xC4, 0xA9, 0xBE, 0xB9, 0x36, 0xFE, 0x3D,
  0xE1, 0x0A, 0x38, 0x3D, 0xF4, 0x05, 0x4E, 0x3D, 0xAB, 0x97,
  0xF0, 0x3C, 0xA6, 0x99, 0xA3, 0x3E, 0x25, 0xEA, 0x59, 0xBF,
  0xCF, 0x03, 0x3B, 0x3E, 0x8C, 0x4F, 0xAD, 0xBE, 0x0B, 0x06,
  0x2C, 0xBE, 0xDE, 0x0A, 0x10, 0xBE, 0x4B, 0x39, 0xC4, 0xBD,
  0xAF, 0x20, 0x8E, 0xBE, 0x7D, 0x68, 0x6C, 0xBE, 0x8B, 0x5F,
  0x15, 0x3E, 0xB4, 0xC2, 0x5F, 0xBD, 0xD0, 0x98, 0x36, 0xBE,
  0xB7, 0x38, 0x17, 0xBD, 0x4D, 0x1E, 0x36, 0x3E, 0x37, 0x2E,
  0x29, 0xBE, 0xAC, 0x07, 0x2F, 0x3E, 0xE9, 0x9A, 0x8D, 0xBD,
  0x10, 0x9F, 0x02, 0xBF, 0x74, 0x63, 0xA6, 0xBD, 0xB2, 0xFE,
  0xE9, 0xBD, 0x55, 0xE7, 0x05, 0x3F, 0xBA, 0xDA, 0x86, 0x3E,
  0x28, 0x85, 0x87, 0xBD, 0xDA, 0x7A, 0x8F, 0x3E, 0xE2, 0x9D,
  0x22, 0xBF, 0x8F, 0x8E, 0x52, 0x3D, 0xFA, 0xFB, 0xB1, 0xBE,
  0x9C, 0x94, 0xED, 0x3E, 0x09, 0xB9, 0x51, 0x3E, 0xC8, 0x23,
  0x9F, 0xBE, 0x53, 0x32, 0xB5, 0xBD, 0x0F, 0x96, 0x75, 0x3E,
  0xEE, 0x24, 0xC5, 0xBE, 0x4A, 0x8C, 0x44, 0xBE, 0xCC, 0x4B,
  0x07, 0x3D, 0x2A, 0x13, 0xD7, 0x3E, 0x0F, 0x99, 0x39, 0x3E,
  0x2D, 0x32, 0xA7, 0x3D, 0xF6, 0x06, 0xB6, 0x3D, 0x84, 0xA9,
  0xED, 0x3A, 0x5E, 0x09, 0x9C, 0xBE, 0xA3, 0xFE, 0x3F, 0x3E,
  0xCC, 0x88, 0xB1, 0xBD, 0x5F, 0xB8, 0x25, 0x3E, 0xE3, 0x78,
  0x8B, 0xBC, 0x97, 0x45, 0xB2, 0xBE, 0x54, 0x4B, 0x34, 0xBD,
  0xC5, 0xD0, 0x87, 0x3C, 0xBF, 0x48, 0x80, 0xBE, 0x3B, 0x86,
  0x3A, 0x3E, 0x5A, 0x18, 0xF4, 0x3D, 0x9E, 0xCA, 0x42, 0x3E,
  0x7A, 0x09, 0xFD, 0x3E, 0x02, 0xD2, 0xCF, 0x3E, 0xD0, 0x88,
  0x89, 0x3E, 0x48, 0xC4, 0xD3, 0x3D, 0x4F, 0xD7, 0x15, 0xBE,
  0x1F, 0x52, 0x37, 0x3D, 0xF7, 0x7C, 0x16, 0xBE, 0x76, 0x7C,
  0xE9, 0x3E, 0x40, 0x60, 0xDC, 0x3D, 0x83, 0x55, 0xB5, 0xBE,
  0x69, 0x8C, 0x1D, 0xBE, 0x5F, 0x79, 0xE4, 0x3D, 0xB9, 0x55,
  0x79, 0xBE, 0x89, 0x8B, 0x95, 0x3E, 0x88, 0x7E, 0x60, 0x3E,
  0x49, 0x00, 0xA0, 0x3E, 0x0D, 0xC8, 0x5F, 0x3D, 0xCF, 0x4C,
  0xE5, 0x3D, 0x4A, 0x3F, 0x81, 0x3E, 0xE2, 0x4F, 0x6C, 0xBD,
  0x50, 0x9B, 0x3A, 0xBE, 0x37, 0x9C, 0x29, 0xBD, 0xB1, 0x4C,
  0x64, 0x3E, 0x7D, 0x65, 0xA4, 0x3E, 0xA1, 0x3F, 0x21, 0x3E,
  0xA1, 0xD6, 0x2F, 0xBE, 0xE0, 0x79, 0x9E, 0xBE, 0x57, 0x47,
  0xF5, 0xBD, 0x32, 0x29, 0x66, 0x3D, 0x14, 0xAB, 0x24, 0xBC,
  0xBE, 0xC1, 0xED, 0xBD, 0x33, 0xB2, 0x6A, 0xBC, 0x70, 0x36,
  0xBA, 0x3D, 0xD7, 0xB6, 0x2D, 0x3E, 0x9E, 0x5D, 0xE2, 0xBD,
  0xF8, 0xE2, 0x45, 0x3E, 0xA1, 0xD8, 0xF3, 0x3D, 0xD9, 0xAF,
  0x05, 0x3D, 0xF8, 0xBD, 0x47, 0xBD, 0x9C, 0x04, 0xD7, 0x3E,
  0x83, 0x56, 0x32, 0x3E, 0x64, 0xC7, 0xB7, 0x3D, 0xF5, 0x3B,
  0x0A, 0xBD, 0xA4, 0x13, 0x10, 0x3F, 0xE2, 0xFF, 0xBF, 0xBD,
  0x62, 0x73, 0x3D, 0x3E, 0x8D, 0xFE, 0x15, 0xBE, 0x89, 0x15,
  0xBE, 0x3E, 0xA5, 0x36, 0x69, 0x3E, 0x2E, 0x42, 0x59, 0xBE,
  0x8D, 0xBC, 0xF6, 0x3C, 0xA6, 0x8D, 0x36, 0xBE, 0x23, 0x04,
  0x1A, 0xBC, 0xC7, 0xE1, 0xB0, 0x3D, 0x28, 0xDF, 0x9D, 0xBE,
  0x1F, 0x12, 0x96, 0xBC, 0x13, 0xAC, 0x8A, 0xBD, 0xD1, 0xB4,
  0x47, 0x3A, 0xA3, 0x91, 0x3F, 0x3D, 0x7F, 0xF4, 0x01, 0xBB,
  0xD8, 0x83, 0x4B, 0x3D, 0x4D, 0xBA, 0x52, 0xBD, 0xA8, 0x61,
  0x1C, 0xBE, 0xAB, 0xC5, 0x3E, 0x3E, 0x89, 0xDD, 0xE6, 0xBD,
  0x75, 0x75, 0xFE, 0x3D, 0x8C, 0xA4, 0x85, 0x3E, 0xEC, 0x27,
  0x06, 0x3E, 0x2C, 0xE3, 0x4E, 0x3E, 0x09, 0x35, 0x34, 0xBE,
  0x5F, 0xF1, 0x1F, 0xBD, 0x20, 0x38, 0x01, 0xBE, 0x6B, 0x46,
  0xB4, 0x3D, 0x20, 0x3D, 0x23, 0xBD, 0xA8, 0x9A, 0x10, 0x3E,
  0x56, 0x14, 0xD8, 0x3E, 0xE1, 0x31, 0xC0, 0xBD, 0x6F, 0x94,
  0x82, 0x3D, 0x84, 0x24, 0x8D, 0x3E, 0x62, 0x36, 0x8F, 0x3E,
  0xAF, 0x80, 0x2A, 0x3E, 0x9E, 0x54, 0x1F, 0xBE, 0x94, 0x08,
  0x1F, 0x3E, 0xD5, 0x3D, 0x98, 0x3E, 0x79, 0x9C, 0x8E, 0xBD,
  0x35, 0xD6, 0xD1, 0xBD, 0xDE, 0xC5, 0x18, 0xBE, 0xCA, 0x59,
  0x7C, 0x3D, 0xE9, 0xF4, 0x50, 0xBD, 0x60, 0xA7, 0x4B, 0x3E,
  0x92, 0x4B, 0x2E, 0x3E, 0xF6, 0x08, 0x84, 0x3E, 0x54, 0x28,
  0xF8, 0x3D, 0x61, 0x19, 0xAF, 0x3E, 0x6F, 0x27, 0x3E, 0x3E,
  0xB5, 0x77, 0x45, 0xBD, 0x7D, 0x9C, 0x63, 0x3E, 0xD9, 0xD4,
  0xBB, 0xBD, 0x86, 0x6E, 0x3E, 0x3F, 0x1F, 0x92, 0x29, 0x3F,
  0xB5, 0x6B, 0x2C, 0x3D, 0xF2, 0x31, 0xBF, 0xBE, 0xD1, 0x11,
  0xCC, 0x3E, 0xA1, 0xBA, 0x6F, 0xBE, 0x9B, 0x80, 0x84, 0xBE,
  0xE0, 0x38, 0x41, 0xBF, 0xAF, 0xE6, 0x24, 0xBF, 0x1A, 0x70,
  0x94, 0xBC, 0x97, 0xF0, 0x1B, 0xBE, 0x6D, 0xCC, 0x3E, 0x3F,
  0xC4, 0xFB, 0x0F, 0xBE, 0xE2, 0x77, 0x95, 0x3E, 0x33, 0x72,
  0x82, 0xBE, 0x13, 0x7D, 0xF9, 0xBE, 0xC6, 0xF3, 0x9F, 0xBE,
  0xBA, 0x1C, 0x37, 0xBE, 0x98, 0x17, 0x84, 0x3D, 0xCC, 0xED,
  0x97, 0xBE, 0x2C, 0x0D, 0x91, 0x3E, 0xDE, 0x75, 0xA0, 0x3E,
  0xF7, 0x62, 0x30, 0xBF, 0x5C, 0x7B, 0x53, 0xBE, 0xCC, 0x53,
  0xFB, 0xBD, 0x57, 0x86, 0x37, 0x3D, 0x51, 0xC6, 0x08, 0x3F,
  0xBE, 0x16, 0xBF, 0xBC, 0xF8, 0x01, 0xBB, 0x3D, 0xD8, 0xF1,
  0xF1, 0xBE, 0x37, 0xE5, 0x88, 0x3E, 0x19, 0xA0, 0x4F, 0xBE,
  0x13, 0x14, 0x97, 0x3D, 0xB4, 0xEE, 0xC4, 0x3E, 0xFB, 0x7F,
  0x59, 0x3E, 0xB3, 0x71, 0x2A, 0xBF, 0x9B, 0x8F, 0x0C, 0x3F,
  0xB0, 0x32, 0x84, 0xBE, 0xB8, 0xDB, 0xC8, 0xBE, 0x30, 0x7A,
  0x52, 0xBF, 0xDB, 0x74, 0xC0, 0xBE, 0xAF, 0x76, 0x3C, 0x3D,
  0xF6, 0x46, 0x03, 0x3E, 0x7E, 0x60, 0x0F, 0x3F, 0x0F, 0x6E,
  0x54, 0xBD, 0x09, 0xA4, 0xD8, 0x3E, 0x7E, 0xB3, 0x86, 0xBC,
  0x0A, 0xAE, 0xCC, 0xBE, 0x33, 0xE9, 0xA9, 0xBE, 0x03, 0x15,
  0xB4, 0xBD, 0x69, 0xD5, 0xD1, 0x3E, 0x9B, 0x29, 0x45, 0xBE,
  0xA9, 0x23, 0x03, 0x3F, 0xC4, 0x2D, 0x1A, 0x3E, 0x9F, 0x8A,
  0x23, 0xBF, 0x30, 0x90, 0x51, 0xBE, 0x55, 0xC9, 0x90, 0xBE,
  0xED, 0xD3, 0xB2, 0x3D, 0x34, 0xBC, 0x9B, 0x3E, 0x45, 0x23,
  0x29, 0x3E, 0xA6, 0xC5, 0xB3, 0x3A, 0x0A, 0x21, 0x27, 0xBF,
  0x69, 0x71, 0xA5, 0xBD, 0x78, 0x44, 0x1A, 0xBE, 0x14, 0xA5,
  0x89, 0x3E, 0x79, 0x3A, 0xE6, 0xBC, 0xF4, 0xF7, 0x8B, 0xBE,
  0xBA, 0x16, 0xCF, 0x3E, 0x2B, 0xB4, 0x3F, 0x3E, 0x3D, 0x09,
  0xD0, 0x3E, 0x1E, 0xC6, 0xF7, 0xBD, 0x9B, 0x53, 0x95, 0xBD,
  0x53, 0x33, 0xAD, 0x3E, 0xAE, 0xE4, 0x07, 0x3F, 0x6B, 0xAF,
  0x1D, 0xBD, 0x4D, 0x13, 0xB3, 0xBC, 0xEA, 0x6B, 0x98, 0x3E,
  0x12, 0x04, 0xC2, 0x3D, 0xE5, 0x6A, 0x22, 0x3E, 0xA8, 0xCB,
  0x7B, 0xBD, 0x09, 0x9F, 0xBE, 0xBC, 0xA3, 0xD3, 0x6A, 0x3D,
  0xE5, 0x27, 0x53, 0x3E, 0xC6, 0x6D, 0x64, 0x3E, 0x58, 0x77,
  0x9A, 0xBC, 0xCF, 0xF9, 0x73, 0x3E, 0x02, 0x76, 0x6C, 0xBC,
  0x09, 0x22, 0x35, 0xBE, 0xD2, 0x71, 0xB0, 0xBD, 0x7A, 0xE5,
  0x97, 0x3E, 0x5E, 0x2B, 0xC3, 0x3C, 0xEE, 0x79, 0x76, 0x3D,
  0xC2, 0x1A, 0x0E, 0xBE, 0x08, 0x52, 0x52, 0x3E, 0x4F, 0x1E,
  0x73, 0xBE, 0x27, 0x7C, 0x4C, 0x3E, 0xE6, 0x7D, 0x42, 0xBE,
  0x44, 0xCD, 0x12, 0xBE, 0x0F, 0x71, 0x87, 0x3D, 0xDA, 0xD6,
  0x52, 0xBE, 0x3A, 0x6E, 0xA5, 0xBD, 0x42, 0x73, 0x43, 0xBE,
  0x98, 0xA0, 0x22, 0xBD, 0x5B, 0x8D, 0x82, 0xBD, 0x55, 0x66,
  0xA7, 0x3E, 0x6B, 0x7E, 0x0E, 0x3E, 0xA9, 0x1F, 0x79, 0x3E,
  0x75, 0xD0, 0x93, 0x3E, 0xFD, 0x2B, 0x48, 0x3D, 0xEA, 0x19,
  0xE3, 0x3C, 0x78, 0x60, 0x92, 0x3D, 0x14, 0x63, 0x5D, 0xBE,
  0x05, 0xA0, 0x91, 0x3E, 0xA1, 0x8B, 0xAB, 0xBC, 0x1F, 0x3D,
  0xCA, 0x3E, 0xBD, 0x2D, 0xD7, 0xBD, 0x08, 0xDD, 0xC1, 0x3D,
  0xF3, 0xAF, 0x0C, 0x3D, 0xBB, 0xC8, 0x02, 0x3E, 0x99, 0x7C,
  0x34, 0x3E, 0x02, 0x7F, 0x0C, 0x3E, 0x4F, 0xDF, 0x3D, 0x3D,
  0x6A, 0xB6, 0x9F, 0x3D, 0x18, 0xF9, 0x2C, 0x3E, 0xB1, 0xD9,
  0x1F, 0x3E, 0x6C, 0xEE, 0xAD, 0x3C, 0x64, 0xD8, 0xE4, 0x3D,
  0x26, 0xC3, 0xEA, 0x3D, 0x36, 0x26, 0x52, 0xBE, 0x59, 0xAA,
  0x38, 0xBE, 0x2F, 0x1D, 0x9F, 0x3E, 0x07, 0xBE, 0x7A, 0x3D,
  0x71, 0xBC, 0xDA, 0xBE, 0x6D, 0x86, 0x27, 0xBE, 0xF5, 0xED,
  0xD5, 0xBE, 0x2D, 0x58, 0xBE, 0xBE, 0x91, 0x43, 0x39, 0x3E,
  0xCF, 0xED, 0x3C, 0xBE, 0xA8, 0xA1, 0x0B, 0xBE, 0xD2, 0xC9,
  0x89, 0xBF, 0xC5, 0x4D, 0xB9, 0x3E, 0x80, 0x5A, 0xFC, 0xBE,
  0x6C, 0xD1, 0x1B, 0x3E, 0x58, 0x0E, 0x3F, 0x3E, 0xF6, 0x9C,
  0x65, 0xBD, 0xCC, 0xF8, 0xE5, 0xBD, 0x81, 0xD1, 0x2A, 0xBC,
  0x91, 0x3F, 0x3C, 0xBE, 0x08, 0xAE, 0x93, 0xBE, 0x4C, 0xB3,
  0x20, 0xBD, 0x6F, 0x85, 0xBC, 0xBE, 0x97, 0x7C, 0xD7, 0xBE,
  0xD9, 0x50, 0x77, 0x3E, 0x3E, 0xCF, 0x27, 0x3D, 0x5F, 0x6D,
  0x7C, 0x3E, 0xB1, 0x1C, 0x95, 0xBF, 0xAD, 0xDB, 0xC9, 0x3E,
  0x45, 0x31, 0x6C, 0xBE, 0x74, 0xEF, 0xC8, 0x3D, 0x43, 0x33,
  0xA1, 0xBE, 0xBE, 0x93, 0x44, 0xBE, 0x38, 0x56, 0x76, 0xBE,
  0xAB, 0x79, 0x24, 0x3D, 0x67, 0xC7, 0x83, 0x3C, 0xCB, 0xF7,
  0x59, 0xBE, 0x80, 0x20, 0x83, 0xBE, 0xE7, 0xC3, 0xD5, 0xBD,
  0x59, 0xDA, 0x8F, 0xBE, 0xD5, 0x4C, 0x5D, 0x3E, 0x5B, 0x96,
  0x0B, 0x3E, 0x25, 0x17, 0x8C, 0xBC, 0xAE, 0xAC, 0x75, 0xBF,
  0xCC, 0xC0, 0x01, 0x3E, 0xEB, 0xC4, 0xBD, 0xBE, 0xBB, 0x55,
  0x27, 0x3E, 0x4D, 0xA2, 0x32, 0xBE, 0xB1, 0x55, 0x97, 0xBE,
  0x07, 0xB1, 0x4A, 0xBE, 0xDD, 0x4B, 0x4B, 0x3B, 0xA8, 0xED,
  0x90, 0x3E, 0xA7, 0x5E, 0xEA, 0xBB, 0xB8, 0xA9, 0x9B, 0x3D,
  0x91, 0xD3, 0x0F, 0x3E, 0xEC, 0xE4, 0x3B, 0x3C, 0x3B, 0xAC,
  0x2F, 0x3E, 0xB5, 0x1C, 0x11, 0x3D, 0xB5, 0x25, 0xD0, 0x3D,
  0x2B, 0xA4, 0x3C, 0xBF, 0x9B, 0xC9, 0x47, 0x3E, 0xDF, 0xBB,
  0x6D, 0x3C, 0x9E, 0xFE, 0xFF, 0xFF, 0x04, 0x00, 0x00, 0x00,
  0x60, 0x00, 0x00, 0x00, 0xE0, 0x94, 0xD0, 0xBC, 0x1D, 0x87,
  0x91, 0xBF, 0xEE, 0xEE, 0xF7, 0xBD, 0x8A, 0x25, 0x88, 0xBE,
  0x60, 0x52, 0xBB, 0xBE, 0x32, 0x9D, 0xF2, 0xBD, 0x35, 0x70,
  0x01, 0x3E, 0x62, 0xD5, 0x84, 0xBE, 0x9C, 0xDB, 0xB0, 0xBE,
  0x1D, 0x89, 0xC5, 0xBF, 0xEB, 0x23, 0x67, 0x3E, 0x5F, 0xB2,
  0x65, 0xBE, 0x61, 0x30, 0x74, 0x3E, 0x43, 0x81, 0x45, 0xBF,
  0x8B, 0x80, 0xDA, 0xBF, 0x9C, 0x4E, 0x6A, 0xBE, 0xE5, 0x69,
  0xB5, 0x3E, 0xEA, 0x95, 0x3D, 0xBF, 0x32, 0xF1, 0x1B, 0xBF,
  0x0D, 0x78, 0x2B, 0x3F, 0x40, 0x9B, 0x8C, 0x3E, 0x8E, 0xD0,
  0x8B, 0x3F, 0xE5, 0x40, 0x6C, 0x3E, 0x44, 0x68, 0x66, 0xBF,
  0x0A, 0xFF, 0xFF, 0xFF, 0x04, 0x00, 0x00, 0x00, 0x08, 0x00,
  0x00, 0x00, 0x40, 0x00, 0x00, 0x00, 0x40, 0x00, 0x00, 0x00,
  0x64, 0xED, 0xFF, 0xFF, 0x68, 0xED, 0xFF, 0xFF, 0x0F, 0x00,
  0x00, 0x00, 0x4D, 0x4C, 0x49, 0x52, 0x20, 0x43, 0x6F, 0x6E,
  0x76, 0x65, 0x72, 0x74, 0x65, 0x64, 0x2E, 0x00, 0x01, 0x00,
  0x00, 0x00, 0x14, 0x00, 0x00, 0x00, 0x00, 0x00, 0x0E, 0x00,
  0x18, 0x00, 0x14, 0x00, 0x10, 0x00, 0x0C, 0x00, 0x08, 0x00,
  0x04, 0x00, 0x0E, 0x00, 0x00, 0x00, 0x14, 0x00, 0x00, 0x00,
  0x1C, 0x00, 0x00, 0x00, 0x5C, 0x03, 0x00, 0x00, 0x60, 0x03,
  0x00, 0x00, 0x64, 0x03, 0x00, 0x00, 0x04, 0x00, 0x00, 0x00,
  0x6D, 0x61, 0x69, 0x6E, 0x00, 0x00, 0x00, 0x00, 0x0C, 0x00,
  0x00, 0x00, 0xF8, 0x02, 0x00, 0x00, 0xA8, 0x02, 0x00, 0x00,
  0x58, 0x02, 0x00, 0x00, 0x08, 0x02, 0x00, 0x00, 0xC8, 0x01,
  0x00, 0x00, 0x88, 0x01, 0x00, 0x00, 0x48, 0x01, 0x00, 0x00,
  0x08, 0x01, 0x00, 0x00, 0xC8, 0x00, 0x00, 0x00, 0x84, 0x00,
  0x00, 0x00, 0x44, 0x00, 0x00, 0x00, 0x04, 0x00, 0x00, 0x00,
  0x46, 0xFD, 0xFF, 0xFF, 0x10, 0x00, 0x00, 0x00, 0x00, 0x00,
  0x00, 0x01, 0x18, 0x00, 0x00, 0x00, 0x1C, 0x00, 0x00, 0x00,
  0x38, 0xFD, 0xFF, 0xFF, 0x00, 0x00, 0x00, 0x01, 0x01, 0x00,
  0x00, 0x00, 0x01, 0x00, 0x00, 0x00, 0x01, 0x00, 0x00, 0x00,
  0x1B, 0x00, 0x00, 0x00, 0x03, 0x00, 0x00, 0x00, 0x1A, 0x00,
  0x00, 0x00, 0x02, 0x00, 0x00, 0x00, 0x0B, 0x00, 0x00, 0x00,
  0x1A, 0xFE, 0xFF, 0xFF, 0x1C, 0x00, 0x00, 0x00, 0x00, 0x00,
  0x00, 0x0A, 0x1C, 0x00, 0x00, 0x00, 0x20, 0x00, 0x00, 0x00,
  0x03, 0x00, 0x00, 0x00, 0x00, 0x00, 0x06, 0x00, 0x08, 0x00,
  0x04, 0x00, 0x06, 0x00, 0x00, 0x00, 0x03, 0x00, 0x00, 0x00,
  0x01, 0x00, 0x00, 0x00, 0x1A, 0x00, 0x00, 0x00, 0x02, 0x00,
  0x00, 0x00, 0x10, 0x00, 0x00, 0x00, 0x19, 0x00, 0x00, 0x00,
  0x56, 0xFE, 0xFF, 0xFF, 0x20, 0x00, 0x00, 0x00, 0x00, 0x00,
  0x00, 0x0F, 0x20, 0x00, 0x00, 0x00, 0x24, 0x00, 0x00, 0x00,
  0x02, 0x00, 0x00, 0x00, 0x0C, 0x00, 0x08, 0x00, 0x00, 0x00,
  0x00, 0x00, 0x00, 0x00, 0x07, 0x00, 0x0C, 0x00, 0x00, 0x00,
  0x00, 0x00, 0x00, 0x01, 0x01, 0x00, 0x00, 0x00, 0x19, 0x00,
  0x00, 0x00, 0x02, 0x00, 0x00, 0x00, 0x18, 0x00, 0x00, 0x00,
  0x01, 0x00, 0x00, 0x00, 0x96, 0xFE, 0xFF, 0xFF, 0x14, 0x00,
  0x00, 0x00, 0x00, 0x00, 0x00, 0x05, 0x20, 0x00, 0x00, 0x00,
  0x24, 0x00, 0x00, 0x00, 0x01, 0x00, 0x00, 0x00, 0x86, 0xFE,
  0xFF, 0xFF, 0x02, 0x00, 0x00, 0x00, 0x02, 0x00, 0x00, 0x00,
  0x02, 0x00, 0x00, 0x00, 0x02, 0x00, 0x00, 0x00, 0x01, 0x00,
  0x00, 0x00, 0x18, 0x00, 0x00, 0x00, 0x01, 0x00, 0x00, 0x00,
  0x17, 0x00, 0x00, 0x00, 0x3A, 0xFE, 0xFF, 0xFF, 0x10, 0x00,
  0x00, 0x00, 0x00, 0x00, 0x00, 0x01, 0x18, 0x00, 0x00, 0x00,
  0x1C, 0x00, 0x00, 0x00, 0x2C, 0xFE, 0xFF, 0xFF, 0x00, 0x00,
  0x00, 0x01, 0x01, 0x00, 0x00, 0x00, 0x01, 0x00, 0x00, 0x00,
  0x01, 0x00, 0x00, 0x00, 0x17, 0x00, 0x00, 0x00, 0x03, 0x00,
  0x00, 0x00, 0x16, 0x00, 0x00, 0x00, 0x03, 0x00, 0x00, 0x00,
  0x0A, 0x00, 0x00, 0x00, 0x76, 0xFE, 0xFF, 0xFF, 0x10, 0x00,
  0x00, 0x00, 0x00, 0x00, 0x00, 0x01, 0x18, 0x00, 0x00, 0x00,
  0x1C, 0x00, 0x00, 0x00, 0x68, 0xFE, 0xFF, 0xFF, 0x00, 0x00,
  0x00, 0x01, 0x01, 0x00, 0x00, 0x00, 0x01, 0x00, 0x00, 0x00,
  0x01, 0x00, 0x00, 0x00, 0x16, 0x00, 0x00, 0x00, 0x03, 0x00,
  0x00, 0x00, 0x15, 0x00, 0x00, 0x00, 0x0F, 0x00, 0x00, 0x00,
  0x09, 0x00, 0x00, 0x00, 0x4A, 0xFF, 0xFF, 0xFF, 0x14, 0x00,
  0x00, 0x00, 0x00, 0x00, 0x00, 0x05, 0x20, 0x00, 0x00, 0x00,
  0x24, 0x00, 0x00, 0x00, 0x01, 0x00, 0x00, 0x00, 0x3A, 0xFF,
  0xFF, 0xFF, 0x02, 0x00, 0x00, 0x00, 0x02, 0x00, 0x00, 0x00,
  0x02, 0x00, 0x00, 0x00, 0x02, 0x00, 0x00, 0x00, 0x01, 0x00,
  0x00, 0x00, 0x15, 0x00, 0x00, 0x00, 0x01, 0x00, 0x00, 0x00,
  0x14, 0x00, 0x00, 0x00, 0xEE, 0xFE, 0xFF, 0xFF, 0x10, 0x00,
  0x00, 0x00, 0x00, 0x00, 0x00, 0x01, 0x18, 0x00, 0x00, 0x00,
  0x1C, 0x00, 0x00, 0x00, 0xE0, 0xFE, 0xFF, 0xFF, 0x00, 0x00,
  0x00, 0x01, 0x01, 0x00, 0x00, 0x00, 0x01, 0x00, 0x00, 0x00,
  0x01, 0x00, 0x00, 0x00, 0x14, 0x00, 0x00, 0x00, 0x03, 0x00,
  0x00, 0x00, 0x13, 0x00, 0x00, 0x00, 0x04, 0x00, 0x00, 0x00,
  0x08, 0x00, 0x00, 0x00, 0x2A, 0xFF, 0xFF, 0xFF, 0x10, 0x00,
  0x00, 0x00, 0x00, 0x00, 0x00, 0x01, 0x18, 0x00, 0x00, 0x00,
  0x1C, 0x00, 0x00, 0x00, 0x1C, 0xFF, 0xFF, 0xFF, 0x00, 0x00,
  0x00, 0x01, 0x01, 0x00, 0x00, 0x00, 0x01, 0x00, 0x00, 0x00,
  0x01, 0x00, 0x00, 0x00, 0x13, 0x00, 0x00, 0x00, 0x03, 0x00,
  0x00, 0x00, 0x12, 0x00, 0x00, 0x00, 0x0E, 0x00, 0x00, 0x00,
  0x07, 0x00, 0x00, 0x00, 0x00, 0x00, 0x0E, 0x00, 0x1A, 0x00,
  0x14, 0x00, 0x10, 0x00, 0x0C, 0x00, 0x0B, 0x00, 0x04, 0x00,
  0x0E, 0x00, 0x00, 0x00, 0x24, 0x00, 0x00, 0x00, 0x00, 0x00,
  0x00, 0x05, 0x30, 0x00, 0x00, 0x00, 0x34, 0x00, 0x00, 0x00,
  0x01, 0x00, 0x00, 0x00, 0x00, 0x00, 0x0E, 0x00, 0x14, 0x00,
  0x00, 0x00, 0x10, 0x00, 0x0C, 0x00, 0x08, 0x00, 0x04, 0x00,
  0x0E, 0x00, 0x00, 0x00, 0x02, 0x00, 0x00, 0x00, 0x02, 0x00,
  0x00, 0x00, 0x02, 0x00, 0x00, 0x00, 0x02, 0x00, 0x00, 0x00,
  0x01, 0x00, 0x00, 0x00, 0x12, 0x00, 0x00, 0x00, 0x01, 0x00,
  0x00, 0x00, 0x11, 0x00, 0x00, 0x00, 0xC2, 0xFF, 0xFF, 0xFF,
  0x10, 0x00, 0x00, 0x00, 0x00, 0x00, 0x00, 0x01, 0x18, 0x00,
  0x00, 0x00, 0x1C, 0x00, 0x00, 0x00, 0xB4, 0xFF, 0xFF, 0xFF,
  0x00, 0x00, 0x00, 0x01, 0x01, 0x00, 0x00, 0x00, 0x01, 0x00,
  0x00, 0x00, 0x01, 0x00, 0x00, 0x00, 0x11, 0x00, 0x00, 0x00,
  0x03, 0x00, 0x00, 0x00, 0x10, 0x00, 0x00, 0x00, 0x0D, 0x00,
  0x00, 0x00, 0x06, 0x00, 0x00, 0x00, 0x00, 0x00, 0x0E, 0x00,
  0x14, 0x00, 0x00, 0x00, 0x10, 0x00, 0x0C, 0x00, 0x0B, 0x00,
  0x04, 0x00, 0x0E, 0x00, 0x00, 0x00, 0x1C, 0x00, 0x00, 0x00,
  0x00, 0x00, 0x00, 0x01, 0x24, 0x00, 0x00, 0x00, 0x28, 0x00,
  0x00, 0x00, 0x0C, 0x00, 0x10, 0x00, 0x00, 0x00, 0x0C, 0x00,
  0x08, 0x00, 0x07, 0x00, 0x0C, 0x00, 0x00, 0x00, 0x00, 0x00,
  0x00, 0x01, 0x01, 0x00, 0x00, 0x00, 0x01, 0x00, 0x00, 0x00,
  0x01, 0x00, 0x00, 0x00, 0x10, 0x00, 0x00, 0x00, 0x03, 0x00,
  0x00, 0x00, 0x00, 0x00, 0x00, 0x00, 0x0C, 0x00, 0x00, 0x00,
  0x05, 0x00, 0x00, 0x00, 0x01, 0x00, 0x00, 0x00, 0x1B, 0x00,
  0x00, 0x00, 0x01, 0x00, 0x00, 0x00, 0x00, 0x00, 0x00, 0x00,
  0x1C, 0x00, 0x00, 0x00, 0xBC, 0x0E, 0x00, 0x00, 0x54, 0x0E,
  0x00, 0x00, 0xE8, 0x0D, 0x00, 0x00, 0x7C, 0x0D, 0x00, 0x00,
  0x28, 0x0D, 0x00, 0x00, 0xD0, 0x0C, 0x00, 0x00, 0x78, 0x0C,
  0x00, 0x00, 0x20, 0x0C, 0x00, 0x00, 0xC8, 0x0B, 0x00, 0x00,
  0x70, 0x0B, 0x00, 0x00, 0x18, 0x0B, 0x00, 0x00, 0xC0, 0x0A,
  0x00, 0x00, 0x6C, 0x0A, 0x00, 0x00, 0x18, 0x0A, 0x00, 0x00,
  0xE4, 0x08, 0x00, 0x00, 0xBC, 0x07, 0x00, 0x00, 0xE0, 0x06,
  0x00, 0x00, 0x04, 0x06, 0x00, 0x00, 0x8C, 0x05, 0x00, 0x00,
  0xB0, 0x04, 0x00, 0x00, 0xD4, 0x03, 0x00, 0x00, 0x5C, 0x03,
  0x00, 0x00, 0x98, 0x02, 0x00, 0x00, 0xD4, 0x01, 0x00, 0x00,
  0x5C, 0x01, 0x00, 0x00, 0xE0, 0x00, 0x00, 0x00, 0x70, 0x00,
  0x00, 0x00, 0x04, 0x00, 0x00, 0x00, 0xCA, 0xF1, 0xFF, 0xFF,
  0x00, 0x00, 0x00, 0x01, 0x14, 0x00, 0x00, 0x00, 0x24, 0x00,
  0x00, 0x00, 0x24, 0x00, 0x00, 0x00, 0x1C, 0x00, 0x00, 0x00,
  0x3C, 0x00, 0x00, 0x00, 0x04, 0x00, 0x00, 0x00, 0xFF, 0xFF,
  0xFF, 0xFF, 0x40, 0x00, 0x00, 0x00, 0x40, 0x00, 0x00, 0x00,
  0x01, 0x00, 0x00, 0x00, 0xB4, 0xF1, 0xFF, 0xFF, 0x19, 0x00,
  0x00, 0x00, 0x53, 0x74, 0x61, 0x74, 0x65, 0x66, 0x75, 0x6C,
  0x50, 0x61, 0x72, 0x74, 0x69, 0x74, 0x69, 0x6F, 0x6E, 0x65,
  0x64, 0x43, 0x61, 0x6C, 0x6C, 0x3A, 0x30, 0x00, 0x00, 0x00,
  0x04, 0x00, 0x00, 0x00, 0x01, 0x00, 0x00, 0x00, 0x40, 0x00,
  0x00, 0x00, 0x40, 0x00, 0x00, 0x00, 0x01, 0x00, 0x00, 0x00,
  0x32, 0xF2, 0xFF, 0xFF, 0x00, 0x00, 0x00, 0x01, 0x14, 0x00,
  0x00, 0x00, 0x24, 0x00, 0x00, 0x00, 0x24, 0x00, 0x00, 0x00,
  0x1B, 0x00, 0x00, 0x00, 0x40, 0x00, 0x00, 0x00, 0x04, 0x00,
  0x00, 0x00, 0xFF, 0xFF, 0xFF, 0xFF, 0x40, 0x00, 0x00, 0x00,
  0x40, 0x00, 0x00, 0x00, 0x18, 0x00, 0x00, 0x00, 0x1C, 0xF2,
  0xFF, 0xFF, 0x1C, 0x00, 0x00, 0x00, 0x6D, 0x6F, 0x64, 0x65,
  0x6C, 0x5F, 0x36, 0x2F, 0x63, 0x6F, 0x6E, 0x63, 0x61, 0x74,
  0x65, 0x6E, 0x61, 0x74, 0x65, 0x5F, 0x36, 0x2F, 0x63, 0x6F,
  0x6E, 0x63, 0x61, 0x74, 0x00, 0x00, 0x00, 0x00, 0x04, 0x00,
  0x00, 0x00, 0x01, 0x00, 0x00, 0x00, 0x40, 0x00, 0x00, 0x00,
  0x40, 0x00, 0x00, 0x00, 0x18, 0x00, 0x00, 0x00, 0x9E, 0xF2,
  0xFF, 0xFF, 0x00, 0x00, 0x00, 0x01, 0x14, 0x00, 0x00, 0x00,
  0x24, 0x00, 0x00, 0x00, 0x24, 0x00, 0x00, 0x00, 0x1A, 0x00,
  0x00, 0x00, 0x4C, 0x00, 0x00, 0x00, 0x04, 0x00, 0x00, 0x00,
  0xFF, 0xFF, 0xFF, 0xFF, 0x40, 0x00, 0x00, 0x00, 0x40, 0x00,
  0x00, 0x00, 0x08, 0x00, 0x00, 0x00, 0x88, 0xF2, 0xFF, 0xFF,
  0x28, 0x00, 0x00, 0x00, 0x6D, 0x6F, 0x64, 0x65, 0x6C, 0x5F,
  0x36, 0x2F, 0x72, 0x65, 0x73, 0x69, 0x7A, 0x69, 0x6E, 0x67,
  0x5F, 0x37, 0x2F, 0x72, 0x65, 0x73, 0x69, 0x7A, 0x65, 0x2F,
  0x52, 0x65, 0x73, 0x69, 0x7A, 0x65, 0x42, 0x69, 0x6C, 0x69,
  0x6E, 0x65, 0x61, 0x72, 0x00, 0x00, 0x00, 0x00, 0x04, 0x00,
  0x00, 0x00, 0x01, 0x00, 0x00, 0x00, 0x40, 0x00, 0x00, 0x00,
  0x40, 0x00, 0x00, 0x00, 0x08, 0x00, 0x00, 0x00, 0x16, 0xF3,
  0xFF, 0xFF, 0x00, 0x00, 0x00, 0x01, 0x14, 0x00, 0x00, 0x00,
  0x24, 0x00, 0x00, 0x00, 0x24, 0x00, 0x00, 0x00, 0x19, 0x00,
  0x00, 0x00, 0x48, 0x00, 0x00, 0x00, 0x04, 0x00, 0x00, 0x00,
  0xFF, 0xFF, 0xFF, 0xFF, 0x08, 0x00, 0x00, 0x00, 0x08, 0x00,
  0x00, 0x00, 0x08, 0x00, 0x00, 0x00, 0x00, 0xF3, 0xFF, 0xFF,
  0x24, 0x00, 0x00, 0x00, 0x6D, 0x6F, 0x64, 0x65, 0x6C, 0x5F,
  0x36, 0x2F, 0x61, 0x76, 0x65, 0x72, 0x61, 0x67, 0x65, 0x5F,
  0x70, 0x6F, 0x6F, 0x6C, 0x69, 0x6E, 0x67, 0x32, 0x64, 0x5F,
  0x32, 0x30, 0x2F, 0x41, 0x76, 0x67, 0x50, 0x6F, 0x6F, 0x6C,
  0x00, 0x00, 0x00, 0x00, 0x04, 0x00, 0x00, 0x00, 0x01, 0x00,
  0x00, 0x00, 0x08, 0x00, 0x00, 0x00, 0x08, 0x00, 0x00, 0x00,
  0x08, 0x00, 0x00, 0x00, 0x8A, 0xF3, 0xFF, 0xFF, 0x00, 0x00,
  0x00, 0x01, 0x14, 0x00, 0x00, 0x00, 0x24, 0x00, 0x00, 0x00,
  0x24, 0x00, 0x00, 0x00, 0x18, 0x00, 0x00, 0x00, 0x94, 0x00,
  0x00, 0x00, 0x04, 0x00, 0x00, 0x00, 0xFF, 0xFF, 0xFF, 0xFF,
  0x10, 0x00, 0x00, 0x00, 0x10, 0x00, 0x00, 0x00, 0x08, 0x00,
  0x00, 0x00, 0x74, 0xF3, 0xFF, 0xFF, 0x72, 0x00, 0x00, 0x00,
  0x6D, 0x6F, 0x64, 0x65, 0x6C, 0x5F, 0x36, 0x2F, 0x63, 0x6F,
  0x6E, 0x76, 0x32, 0x64, 0x5F, 0x34, 0x38, 0x2F, 0x52, 0x65,
  0x6C, 0x75, 0x3B, 0x6D, 0x6F, 0x64, 0x65, 0x6C, 0x5F, 0x36,
  0x2F, 0x63, 0x6F, 0x6E, 0x76, 0x32, 0x64, 0x5F, 0x34, 0x38,
  0x2F, 0x42, 0x69, 0x61, 0x73, 0x41, 0x64, 0x64, 0x3B, 0x6D,
  0x6F, 0x64, 0x65, 0x6C, 0x5F, 0x36, 0x2F, 0x63, 0x6F, 0x6E,
  0x76, 0x32, 0x64, 0x5F, 0x34, 0x38, 0x2F, 0x43, 0x6F, 0x6E,
  0x76, 0x32, 0x44, 0x3B, 0x6D, 0x6F, 0x64, 0x65, 0x6C, 0x5F,
  0x36, 0x2F, 0x63, 0x6F, 0x6E, 0x76, 0x32, 0x64, 0x5F, 0x34,
  0x38, 0x2F, 0x42, 0x69, 0x61, 0x73, 0x41, 0x64, 0x64, 0x2F,
  0x52, 0x65, 0x61, 0x64, 0x56, 0x61, 0x72, 0x69, 0x61, 0x62,
  0x6C, 0x65, 0x4F, 0x70, 0x00, 0x00, 0x04, 0x00, 0x00, 0x00,
  0x01, 0x00, 0x00, 0x00, 0x10, 0x00, 0x00, 0x00, 0x10, 0x00,
  0x00, 0x00, 0x08, 0x00, 0x00, 0x00, 0x4A, 0xF4, 0xFF, 0xFF,
  0x00, 0x00, 0x00, 0x01, 0x14, 0x00, 0x00, 0x00, 0x24, 0x00,
  0x00, 0x00, 0x24, 0x00, 0x00, 0x00, 0x17, 0x00, 0x00, 0x00,
  0x94, 0x00, 0x00, 0x00, 0x04, 0x00, 0x00, 0x00, 0xFF, 0xFF,
  0xFF, 0xFF, 0x10, 0x00, 0x00, 0x00, 0x10, 0x00, 0x00, 0x00,
  0x10, 0x00, 0x00, 0x00, 0x34, 0xF4, 0xFF, 0xFF, 0x72, 0x00,
  0x00, 0x00, 0x6D, 0x6F, 0x64, 0x65, 0x6C, 0x5F, 0x36, 0x2F,
  0x63, 0x6F, 0x6E, 0x76, 0x32, 0x64, 0x5F, 0x34, 0x37, 0x2F,
  0x52, 0x65, 0x6C, 0x75, 0x3B, 0x6D, 0x6F, 0x64, 0x65, 0x6C,
  0x5F, 0x36, 0x2F, 0x63, 0x6F, 0x6E, 0x76, 0x32, 0x64, 0x5F,
  0x34, 0x37, 0x2F, 0x42, 0x69, 0x61, 0x73, 0x41, 0x64, 0x64,
  0x3B, 0x6D, 0x6F, 0x64, 0x65, 0x6C, 0x5F, 0x36, 0x2F, 0x63,
  0x6F, 0x6E, 0x76, 0x32, 0x64, 0x5F, 0x34, 0x37, 0x2F, 0x43,
  0x6F, 0x6E, 0x76, 0x32, 0x44, 0x3B, 0x6D, 0x6F, 0x64, 0x65,
  0x6C, 0x5F, 0x36, 0x2F, 0x63, 0x6F, 0x6E, 0x76, 0x32, 0x64,
  0x5F, 0x34, 0x37, 0x2F, 0x42, 0x69, 0x61, 0x73, 0x41, 0x64,
  0x64, 0x2F, 0x52, 0x65, 0x61, 0x64, 0x56, 0x61, 0x72, 0x69,
  0x61, 0x62, 0x6C, 0x65, 0x4F, 0x70, 0x00, 0x00, 0x04, 0x00,
  0x00, 0x00, 0x01, 0x00, 0x00, 0x00, 0x10, 0x00, 0x00, 0x00,
  0x10, 0x00, 0x00, 0x00, 0x10, 0x00, 0x00, 0x00, 0x0A, 0xF5,
  0xFF, 0xFF, 0x00, 0x00, 0x00, 0x01, 0x14, 0x00, 0x00, 0x00,
  0x24, 0x00, 0x00, 0x00, 0x24, 0x00, 0x00, 0x00, 0x16, 0x00,
  0x00, 0x00, 0x48, 0x00, 0x00, 0x00, 0x04, 0x00, 0x00, 0x00,
  0xFF, 0xFF, 0xFF, 0xFF, 0x10, 0x00, 0x00, 0x00, 0x10, 0x00,
  0x00, 0x00, 0x08, 0x00, 0x00, 0x00, 0xF4, 0xF4, 0xFF, 0xFF,
  0x24, 0x00, 0x00, 0x00, 0x6D, 0x6F, 0x64, 0x65, 0x6C, 0x5F,
  0x36, 0x2F, 0x61, 0x76, 0x65, 0x72, 0x61, 0x67, 0x65, 0x5F,
  0x70, 0x6F, 0x6F, 0x6C, 0x69, 0x6E, 0x67, 0x32, 0x64, 0x5F,
  0x31, 0x39, 0x2F, 0x41, 0x76, 0x67, 0x50, 0x6F, 0x6F, 0x6C,
  0x00, 0x00, 0x00, 0x00, 0x04, 0x00, 0x00, 0x00, 0x01, 0x00,
  0x00, 0x00, 0x10, 0x00, 0x00, 0x00, 0x10, 0x00, 0x00, 0x00,
  0x08, 0x00, 0x00, 0x00, 0x7E, 0xF5, 0xFF, 0xFF, 0x00, 0x00,
  0x00, 0x01, 0x14, 0x00, 0x00, 0x00, 0x24, 0x00, 0x00, 0x00,
  0x24, 0x00, 0x00, 0x00, 0x15, 0x00, 0x00, 0x00, 0xAC, 0x00,
  0x00, 0x00, 0x04, 0x00, 0x00, 0x00, 0xFF, 0xFF, 0xFF, 0xFF,
  0x20, 0x00, 0x00, 0x00, 0x20, 0x00, 0x00, 0x00, 0x08, 0x00,
  0x00, 0x00, 0x68, 0xF5, 0xFF, 0xFF, 0x8B, 0x00, 0x00, 0x00,
  0x6D, 0x6F, 0x64, 0x65, 0x6C, 0x5F, 0x36, 0x2F, 0x63, 0x6F,
  0x6E, 0x76, 0x32, 0x64, 0x5F, 0x34, 0x36, 0x2F, 0x52, 0x65,
  0x6C, 0x75, 0x3B, 0x6D, 0x6F, 0x64, 0x65, 0x6C, 0x5F, 0x36,
  0x2F, 0x63, 0x6F, 0x6E, 0x76, 0x32, 0x64, 0x5F, 0x34, 0x36,
  0x2F, 0x42, 0x69, 0x61, 0x73, 0x41, 0x64, 0x64, 0x3B, 0x6D,
  0x6F, 0x64, 0x65, 0x6C, 0x5F, 0x36, 0x2F, 0x63, 0x6F, 0x6E,
  0x76, 0x32, 0x64, 0x5F, 0x34, 0x38, 0x2F, 0x43, 0x6F, 0x6E,
  0x76, 0x32, 0x44, 0x3B, 0x6D, 0x6F, 0x64, 0x65, 0x6C, 0x5F,
  0x36, 0x2F, 0x63, 0x6F, 0x6E, 0x76, 0x32, 0x64, 0x5F, 0x34,
  0x36, 0x2F, 0x43, 0x6F, 0x6E, 0x76, 0x32, 0x44, 0x3B, 0x6D,
  0x6F, 0x64, 0x65, 0x6C, 0x5F, 0x36, 0x2F, 0x63, 0x6F, 0x6E,
  0x76, 0x32, 0x64, 0x5F, 0x34, 0x36, 0x2F, 0x42, 0x69, 0x61,
  0x73, 0x41, 0x64, 0x64, 0x2F, 0x52, 0x65, 0x61, 0x64, 0x56,
  0x61, 0x72, 0x69, 0x61, 0x62, 0x6C, 0x65, 0x4F, 0x70, 0x00,
  0x04, 0x00, 0x00, 0x00, 0x01, 0x00, 0x00, 0x00, 0x20, 0x00,
  0x00, 0x00, 0x20, 0x00, 0x00, 0x00, 0x08, 0x00, 0x00, 0x00,
  0x56, 0xF6, 0xFF, 0xFF, 0x00, 0x00, 0x00, 0x01, 0x14, 0x00,
  0x00, 0x00, 0x24, 0x00, 0x00, 0x00, 0x24, 0x00, 0x00, 0x00,
  0x14, 0x00, 0x00, 0x00, 0xAC, 0x00, 0x00, 0x00, 0x04, 0x00,
  0x00, 0x00, 0xFF, 0xFF, 0xFF, 0xFF, 0x20, 0x00, 0x00, 0x00,
  0x20, 0x00, 0x00, 0x00, 0x10, 0x00, 0x00, 0x00, 0x40, 0xF6,
  0xFF, 0xFF, 0x8B, 0x00, 0x00, 0x00, 0x6D, 0x6F, 0x64, 0x65,
  0x6C, 0x5F, 0x36, 0x2F, 0x63, 0x6F, 0x6E, 0x76, 0x32, 0x64,
  0x5F, 0x34, 0x35, 0x2F, 0x52, 0x65, 0x6C, 0x75, 0x3B, 0x6D,
  0x6F, 0x64, 0x65, 0x6C, 0x5F, 0x36, 0x2F, 0x63, 0x6F, 0x6E,
  0x76, 0x32, 0x64, 0x5F, 0x34, 0x35, 0x2F, 0x42, 0x69, 0x61,
  0x73, 0x41, 0x64, 0x64, 0x3B, 0x6D, 0x6F, 0x64, 0x65, 0x6C,
  0x5F, 0x36, 0x2F, 0x63, 0x6F, 0x6E, 0x76, 0x32, 0x64, 0x5F,
  0x34, 0x37, 0x2F, 0x43, 0x6F, 0x6E, 0x76, 0x32, 0x44, 0x3B,
  0x6D, 0x6F, 0x64, 0x65, 0x6C, 0x5F, 0x36, 0x2F, 0x63, 0x6F,
  0x6E, 0x76, 0x32, 0x64, 0x5F, 0x34, 0x35, 0x2F, 0x43, 0x6F,
  0x6E, 0x76, 0x32, 0x44, 0x3B, 0x6D, 0x6F, 0x64, 0x65, 0x6C,
  0x5F, 0x36, 0x2F, 0x63, 0x6F, 0x6E, 0x76, 0x32, 0x64, 0x5F,
  0x34, 0x35, 0x2F, 0x42, 0x69, 0x61, 0x73, 0x41, 0x64, 0x64,
  0x2F, 0x52, 0x65, 0x61, 0x64, 0x56, 0x61, 0x72, 0x69, 0x61,
  0x62, 0x6C, 0x65, 0x4F, 0x70, 0x00, 0x04, 0x00, 0x00, 0x00,
  0x01, 0x00, 0x00, 0x00, 0x20, 0x00, 0x00, 0x00, 0x20, 0x00,
  0x00, 0x00, 0x10, 0x00, 0x00, 0x00, 0x2E, 0xF7, 0xFF, 0xFF,
  0x00, 0x00, 0x00, 0x01, 0x14, 0x00, 0x00, 0x00, 0x24, 0x00,
  0x00, 0x00, 0x24, 0x00, 0x00, 0x00, 0x13, 0x00, 0x00, 0x00,
  0x48, 0x00, 0x00, 0x00, 0x04, 0x00, 0x00, 0x00, 0xFF, 0xFF,
  0xFF, 0xFF, 0x20, 0x00, 0x00, 0x00, 0x20, 0x00, 0x00, 0x00,
  0x08, 0x00, 0x00, 0x00, 0x18, 0xF7, 0xFF, 0xFF, 0x24, 0x00,
  0x00, 0x00, 0x6D, 0x6F, 0x64, 0x65, 0x6C, 0x5F, 0x36, 0x2F,
  0x61, 0x76, 0x65, 0x72, 0x61, 0x67, 0x65, 0x5F, 0x70, 0x6F,
  0x6F, 0x6C, 0x69, 0x6E, 0x67, 0x32, 0x64, 0x5F, 0x31, 0x38,
  0x2F, 0x41, 0x76, 0x67, 0x50, 0x6F, 0x6F, 0x6C, 0x00, 0x00,
  0x00, 0x00, 0x04, 0x00, 0x00, 0x00, 0x01, 0x00, 0x00, 0x00,
  0x20, 0x00, 0x00, 0x00, 0x20, 0x00, 0x00, 0x00, 0x08, 0x00,
  0x00, 0x00, 0xA2, 0xF7, 0xFF, 0xFF, 0x00, 0x00, 0x00, 0x01,
  0x14, 0x00, 0x00, 0x00, 0x24, 0x00, 0x00, 0x00, 0x24, 0x00,
  0x00, 0x00, 0x12, 0x00, 0x00, 0x00, 0xAC, 0x00, 0x00, 0x00,
  0x04, 0x00, 0x00, 0x00, 0xFF, 0xFF, 0xFF, 0xFF, 0x40, 0x00,
  0x00, 0x00, 0x40, 0x00, 0x00, 0x00, 0x08, 0x00, 0x00, 0x00,
  0x8C, 0xF7, 0xFF, 0xFF, 0x8B, 0x00, 0x00, 0x00, 0x6D, 0x6F,
  0x64, 0x65, 0x6C, 0x5F, 0x36, 0x2F, 0x63, 0x6F, 0x6E, 0x76,
  0x32, 0x64, 0x5F, 0x34, 0x34, 0x2F, 0x52, 0x65, 0x6C, 0x75,
  0x3B, 0x6D, 0x6F, 0x64, 0x65, 0x6C, 0x5F, 0x36, 0x2F, 0x63,
  0x6F, 0x6E, 0x76, 0x32, 0x64, 0x5F, 0x34, 0x34, 0x2F, 0x42,
  0x69, 0x61, 0x73, 0x41, 0x64, 0x64, 0x3B, 0x6D, 0x6F, 0x64,
  0x65, 0x6C, 0x5F, 0x36, 0x2F, 0x63, 0x6F, 0x6E, 0x76, 0x32,
  0x64, 0x5F, 0x34, 0x38, 0x2F, 0x43, 0x6F, 0x6E, 0x76, 0x32,
  0x44, 0x3B, 0x6D, 0x6F, 0x64, 0x65, 0x6C, 0x5F, 0x36, 0x2F,
  0x63, 0x6F, 0x6E, 0x76, 0x32, 0x64, 0x5F, 0x34, 0x34, 0x2F,
  0x43, 0x6F, 0x6E, 0x76, 0x32, 0x44, 0x3B, 0x6D, 0x6F, 0x64,
  0x65, 0x6C, 0x5F, 0x36, 0x2F, 0x63, 0x6F, 0x6E, 0x76, 0x32,
  0x64, 0x5F, 0x34, 0x34, 0x2F, 0x42, 0x69, 0x61, 0x73, 0x41,
  0x64, 0x64, 0x2F, 0x52, 0x65, 0x61, 0x64, 0x56, 0x61, 0x72,
  0x69, 0x61, 0x62, 0x6C, 0x65, 0x4F, 0x70, 0x00, 0x04, 0x00,
  0x00, 0x00, 0x01, 0x00, 0x00, 0x00, 0x40, 0x00, 0x00, 0x00,
  0x40, 0x00, 0x00, 0x00, 0x08, 0x00, 0x00, 0x00, 0x7A, 0xF8,
  0xFF, 0xFF, 0x00, 0x00, 0x00, 0x01, 0x14, 0x00, 0x00, 0x00,
  0x24, 0x00, 0x00, 0x00, 0x24, 0x00, 0x00, 0x00, 0x11, 0x00,
  0x00, 0x00, 0xAC, 0x00, 0x00, 0x00, 0x04, 0x00, 0x00, 0x00,
  0xFF, 0xFF, 0xFF, 0xFF, 0x40, 0x00, 0x00, 0x00, 0x40, 0x00,
  0x00, 0x00, 0x10, 0x00, 0x00, 0x00, 0x64, 0xF8, 0xFF, 0xFF,
  0x8B, 0x00, 0x00, 0x00, 0x6D, 0x6F, 0x64, 0x65, 0x6C, 0x5F,
  0x36, 0x2F, 0x63, 0x6F, 0x6E, 0x76, 0x32, 0x64, 0x5F, 0x34,
  0x33, 0x2F, 0x52, 0x65, 0x6C, 0x75, 0x3B, 0x6D, 0x6F, 0x64,
  0x65, 0x6C, 0x5F, 0x36, 0x2F, 0x63, 0x6F, 0x6E, 0x76, 0x32,
  0x64, 0x5F, 0x34, 0x33, 0x2F, 0x42, 0x69, 0x61, 0x73, 0x41,
  0x64, 0x64, 0x3B, 0x6D, 0x6F, 0x64, 0x65, 0x6C, 0x5F, 0x36,
  0x2F, 0x63, 0x6F, 0x6E, 0x76, 0x32, 0x64, 0x5F, 0x34, 0x37,
  0x2F, 0x43, 0x6F, 0x6E, 0x76, 0x32, 0x44, 0x3B, 0x6D, 0x6F,
  0x64, 0x65, 0x6C, 0x5F, 0x36, 0x2F, 0x63, 0x6F, 0x6E, 0x76,
  0x32, 0x64, 0x5F, 0x34, 0x33, 0x2F, 0x43, 0x6F, 0x6E, 0x76,
  0x32, 0x44, 0x3B, 0x6D, 0x6F, 0x64, 0x65, 0x6C, 0x5F, 0x36,
  0x2F, 0x63, 0x6F, 0x6E, 0x76, 0x32, 0x64, 0x5F, 0x34, 0x33,
  0x2F, 0x42, 0x69, 0x61, 0x73, 0x41, 0x64, 0x64, 0x2F, 0x52,
  0x65, 0x61, 0x64, 0x56, 0x61, 0x72, 0x69, 0x61, 0x62, 0x6C,
  0x65, 0x4F, 0x70, 0x00, 0x04, 0x00, 0x00, 0x00, 0x01, 0x00,
  0x00, 0x00, 0x40, 0x00, 0x00, 0x00, 0x40, 0x00, 0x00, 0x00,
  0x10, 0x00, 0x00, 0x00, 0xB6, 0xF9, 0xFF, 0xFF, 0x00, 0x00,
  0x00, 0x01, 0x14, 0x00, 0x00, 0x00, 0xE4, 0x00, 0x00, 0x00,
  0x10, 0x00, 0x00, 0x00, 0x00, 0x00, 0x00, 0x09, 0xF8, 0x00,
  0x00, 0x00, 0xDC, 0xFE, 0xFF, 0xFF, 0x08, 0x00, 0x00, 0x00,
  0x88, 0x00, 0x00, 0x00, 0x10, 0x00, 0x00, 0x00, 0x00, 0x00,
  0x00, 0x00, 0x00, 0x00, 0x00, 0x00, 0x00, 0x00, 0x00, 0x00,
  0x00, 0x00, 0x00, 0x00, 0x00, 0x00, 0x00, 0x00, 0x00, 0x00,
  0x00, 0x00, 0x00, 0x00, 0x00, 0x00, 0x00, 0x00, 0x00, 0x00,
  0x00, 0x00, 0x00, 0x00, 0x00, 0x00, 0x00, 0x00, 0x00, 0x00,
  0x00, 0x00, 0x00, 0x00, 0x00, 0x00, 0x00, 0x00, 0x00, 0x00,
  0x00, 0x00, 0x00, 0x00, 0x00, 0x00, 0x00, 0x00, 0x00, 0x00,
  0x00, 0x00, 0x00, 0x00, 0x00, 0x00, 0x00, 0x00, 0x00, 0x00,
  0x00, 0x00, 0x00, 0x00, 0x00, 0x00, 0x00, 0x00, 0x00, 0x00,
  0x00, 0x00, 0x00, 0x00, 0x00, 0x00, 0x00, 0x00, 0x00, 0x00,
  0x00, 0x00, 0x00, 0x00, 0x00, 0x00, 0x00, 0x00, 0x00, 0x00,
  0x00, 0x00, 0x00, 0x00, 0x00, 0x00, 0x00, 0x00, 0x00, 0x00,
  0x00, 0x00, 0x00, 0x00, 0x00, 0x00, 0x00, 0x00, 0x00, 0x00,
  0x00, 0x00, 0x00, 0x00, 0x00, 0x00, 0x10, 0x00, 0x00, 0x00,
  0x98, 0x13, 0x93, 0x3B, 0xA0, 0xBC, 0xE8, 0x3B, 0x6C, 0xBD,
  0x59, 0x3B, 0x41, 0x1F, 0x40, 0x3B, 0xF9, 0x8B, 0xE9, 0x3B,
  0x22, 0x6E, 0x0C, 0x3C, 0xFE, 0x14, 0xB3, 0x3B, 0x49, 0xD9,
  0xCE, 0x3B, 0x64, 0x11, 0x78, 0x3B, 0xC3, 0x1B, 0xB7, 0x3B,
  0x2D, 0x52, 0x3C, 0x3B, 0x59, 0x8A, 0xAD, 0x3B, 0x1F, 0x22,
  0x7F, 0x3B, 0x0A, 0x89, 0xB2, 0x3B, 0x1E, 0x48, 0xB6, 0x3B,
  0xA7, 0x5C, 0x53, 0x3B, 0x18, 0x00, 0x00, 0x00, 0x6D, 0x6F,
  0x64, 0x65, 0x6C, 0x5F, 0x36, 0x2F, 0x63, 0x6F, 0x6E, 0x76,
  0x32, 0x64, 0x5F, 0x34, 0x37, 0x2F, 0x43, 0x6F, 0x6E, 0x76,
  0x32, 0x44, 0x00, 0x00, 0x00, 0x00, 0x04, 0x00, 0x00, 0x00,
  0x10, 0x00, 0x00, 0x00, 0x04, 0x00, 0x00, 0x00, 0x04, 0x00,
  0x00, 0x00, 0x08, 0x00, 0x00, 0x00, 0xDA, 0xFA, 0xFF, 0xFF,
  0x00, 0x00, 0x00, 0x01, 0x20, 0x00, 0x00, 0x00, 0xF0, 0x00,
  0x00, 0x00, 0x0F, 0x00, 0x00, 0x00, 0x00, 0x00, 0x00, 0x09,
  0x04, 0x01, 0x00, 0x00, 0x0C, 0x00, 0x0C, 0x00, 0x00, 0x00,
  0x00, 0x00, 0x08, 0x00, 0x04, 0x00, 0x0C, 0x00, 0x00, 0x00,
  0x08, 0x00, 0x00, 0x00, 0x88, 0x00, 0x00, 0x00, 0x10, 0x00,
  0x00, 0x00, 0x00, 0x00, 0x00, 0x00, 0x00, 0x00, 0x00, 0x00,
  0x00, 0x00, 0x00, 0x00, 0x00, 0x00, 0x00, 0x00, 0x00, 0x00,
  0x00, 0x00, 0x00, 0x00, 0x00, 0x00, 0x00, 0x00, 0x00, 0x00,
  0x00, 0x00, 0x00, 0x00, 0x00, 0x00, 0x00, 0x00, 0x00, 0x00,
  0x00, 0x00, 0x00, 0x00, 0x00, 0x00, 0x00, 0x00, 0x00, 0x00,
  0x00, 0x00, 0x00, 0x00, 0x00, 0x00, 0x00, 0x00, 0x00, 0x00,
  0x00, 0x00, 0x00, 0x00, 0x00, 0x00, 0x00, 0x00, 0x00, 0x00,
  0x00, 0x00, 0x00, 0x00, 0x00, 0x00, 0x00, 0x00, 0x00, 0x00,
  0x00, 0x00, 0x00, 0x00, 0x00, 0x00, 0x00, 0x00, 0x00, 0x00,
  0x00, 0x00, 0x00, 0x00, 0x00, 0x00, 0x00, 0x00, 0x00, 0x00,
  0x00, 0x00, 0x00, 0x00, 0x00, 0x00, 0x00, 0x00, 0x00, 0x00,
  0x00, 0x00, 0x00, 0x00, 0x00, 0x00, 0x00, 0x00, 0x00, 0x00,
  0x00, 0x00, 0x00, 0x00, 0x00, 0x00, 0x00, 0x00, 0x00, 0x00,
  0x10, 0x00, 0x00, 0x00, 0x38, 0x5E, 0x99, 0x3B, 0x33, 0x75,
  0x84, 0x3B, 0x2B, 0xE8, 0xC2, 0x3B, 0x5D, 0xF8, 0x7B, 0x3B,
  0x75, 0xF4, 0x81, 0x3B, 0x85, 0x53, 0xB6, 0x3B, 0x02, 0x6A,
  0x9F, 0x3B, 0xD3, 0x0A, 0xFB, 0x3B, 0x62, 0xDF, 0x77, 0x3B,
  0xA9, 0x34, 0x7B, 0x3B, 0x82, 0xBC, 0x09, 0x3C, 0x25, 0x9B,
  0x65, 0x3B, 0x44, 0xBF, 0x4D, 0x3B, 0x8E, 0xAB, 0x80, 0x3B,
  0xCF, 0x0D, 0xA7, 0x3B, 0x46, 0xB6, 0x67, 0x3B, 0x18, 0x00,
  0x00, 0x00, 0x6D, 0x6F, 0x64, 0x65, 0x6C, 0x5F, 0x36, 0x2F,
  0x63, 0x6F, 0x6E, 0x76, 0x32, 0x64, 0x5F, 0x34, 0x35, 0x2F,
  0x43, 0x6F, 0x6E, 0x76, 0x32, 0x44, 0x00, 0x00, 0x00, 0x00,
  0x04, 0x00, 0x00, 0x00, 0x10, 0x00, 0x00, 0x00, 0x04, 0x00,
  0x00, 0x00, 0x04, 0x00, 0x00, 0x00, 0x08, 0x00, 0x00, 0x00,
  0x72, 0xFC, 0xFF, 0xFF, 0x00, 0x00, 0x00, 0x01, 0x10, 0x00,
  0x00, 0x00, 0x10, 0x00, 0x00, 0x00, 0x0E, 0x00, 0x00, 0x00,
  0x28, 0x00, 0x00, 0x00, 0x78, 0xFB, 0xFF, 0xFF, 0x18, 0x00,
  0x00, 0x00, 0x6D, 0x6F, 0x64, 0x65, 0x6C, 0x5F, 0x36, 0x2F,
  0x63, 0x6F, 0x6E, 0x76, 0x32, 0x64, 0x5F, 0x34, 0x34, 0x2F,
  0x43, 0x6F, 0x6E, 0x76, 0x32, 0x44, 0x00, 0x00, 0x00, 0x00,
  0x04, 0x00, 0x00, 0x00, 0x08, 0x00, 0x00, 0x00, 0x02, 0x00,
  0x00, 0x00, 0x02, 0x00, 0x00, 0x00, 0x10, 0x00, 0x00, 0x00,
  0xC2, 0xFC, 0xFF, 0xFF, 0x00, 0x00, 0x00, 0x01, 0x10, 0x00,
  0x00, 0x00, 0x10, 0x00, 0x00, 0x00, 0x0D, 0x00, 0x00, 0x00,
  0x28, 0x00, 0x00, 0x00, 0xC8, 0xFB, 0xFF, 0xFF, 0x18, 0x00,
  0x00, 0x00, 0x6D, 0x6F, 0x64, 0x65, 0x6C, 0x5F, 0x36, 0x2F,
