const unsigned char model_tflite[] = {
  0x20, 0x00, 0x00, 0x00, 0x54, 0x46, 0x4C, 0x33, 0x00, 0x00,
  0x00, 0x00, 0x14, 0x00, 0x20, 0x00, 0x1C, 0x00, 0x18, 0x00,
  0x14, 0x00, 0x10, 0x00, 0x0C, 0x00, 0x00, 0x00, 0x08, 0x00,
  0x04, 0x00, 0x14, 0x00, 0x00, 0x00, 0x1C, 0x00, 0x00, 0x00,
  0x88, 0x00, 0x00, 0x00, 0xE0, 0x00, 0x00, 0x00, 0x84, 0x40,
  0x00, 0x00, 0x94, 0x40, 0x00, 0x00, 0xF0, 0x5E, 0x00, 0x00,
  0x03, 0x00, 0x00, 0x00, 0x01, 0x00, 0x00, 0x00, 0x04, 0x00,
  0x00, 0x00, 0x06, 0xBF, 0xFF, 0xFF, 0x0C, 0x00, 0x00, 0x00,
  0x1C, 0x00, 0x00, 0x00, 0x3C, 0x00, 0x00, 0x00, 0x0F, 0x00,
  0x00, 0x00, 0x73, 0x65, 0x72, 0x76, 0x69, 0x6E, 0x67, 0x5F,
  0x64, 0x65, 0x66, 0x61, 0x75, 0x6C, 0x74, 0x00, 0x01, 0x00,
  0x00, 0x00, 0x04, 0x00, 0x00, 0x00, 0x94, 0xFF, 0xFF, 0xFF,
  0x1D, 0x00, 0x00, 0x00, 0x04, 0x00, 0x00, 0x00, 0x09, 0x00,
  0x00, 0x00, 0x63, 0x6F, 0x6E, 0x76, 0x32, 0x64, 0x5F, 0x37,
  0x30, 0x00, 0x00, 0x00, 0x01, 0x00, 0x00, 0x00, 0x04, 0x00,
  0x00, 0x00, 0xD2, 0xBE, 0xFF, 0xFF, 0x04, 0x00, 0x00, 0x00,
  0x08, 0x00, 0x00, 0x00, 0x69, 0x6E, 0x70, 0x75, 0x74, 0x5F,
  0x31, 0x31, 0x00, 0x00, 0x00, 0x00, 0x02, 0x00, 0x00, 0x00,
  0x34, 0x00, 0x00, 0x00, 0x04, 0x00, 0x00, 0x00, 0xDC, 0xFF,
  0xFF, 0xFF, 0x20, 0x00, 0x00, 0x00, 0x04, 0x00, 0x00, 0x00,
  0x13, 0x00, 0x00, 0x00, 0x43, 0x4F, 0x4E, 0x56, 0x45, 0x52,
  0x53, 0x49, 0x4F, 0x4E, 0x5F, 0x4D, 0x45, 0x54, 0x41, 0x44,
  0x41, 0x54, 0x41, 0x00, 0x08, 0x00, 0x0C, 0x00, 0x08, 0x00,
  0x04, 0x00, 0x08, 0x00, 0x00, 0x00, 0x1F, 0x00, 0x00, 0x00,
  0x04, 0x00, 0x00, 0x00, 0x13, 0x00, 0x00, 0x00, 0x6D, 0x69,
  0x6E, 0x5F, 0x72, 0x75, 0x6E, 0x74, 0x69, 0x6D, 0x65, 0x5F,
  0x76, 0x65, 0x72, 0x73, 0x69, 0x6F, 0x6E, 0x00, 0x21, 0x00,
  0x00, 0x00, 0xA0, 0x3F, 0x00, 0x00, 0x98, 0x3F, 0x00, 0x00,
  0x80, 0x3F, 0x00, 0x00, 0x6C, 0x3F, 0x00, 0x00, 0x3C, 0x3F,
  0x00, 0x00, 0xEC, 0x3E, 0x00, 0x00, 0xDC, 0x35, 0x00, 0x00,
  0x8C, 0x35, 0x00, 0x00, 0x7C, 0x25, 0x00, 0x00, 0x2C, 0x25,
  0x00, 0x00, 0x1C, 0x1C, 0x00, 0x00, 0xCC, 0x1B, 0x00, 0x00,
  0xBC, 0x0B, 0x00, 0x00, 0x6C, 0x0B, 0x00, 0x00, 0x5C, 0x02,
  0x00, 0x00, 0x0C, 0x02, 0x00, 0x00, 0xFC, 0x00, 0x00, 0x00,
  0xF4, 0x00, 0x00, 0x00, 0xEC, 0x00, 0x00, 0x00, 0xE4, 0x00,
  0x00, 0x00, 0xDC, 0x00, 0x00, 0x00, 0xD4, 0x00, 0x00, 0x00,
  0xCC, 0x00, 0x00, 0x00, 0xC4, 0x00, 0x00, 0x00, 0xBC, 0x00,
  0x00, 0x00, 0xB4, 0x00, 0x00, 0x00, 0xAC, 0x00, 0x00, 0x00,
  0xA4, 0x00, 0x00, 0x00, 0x9C, 0x00, 0x00, 0x00, 0x94, 0x00,
  0x00, 0x00, 0x8C, 0x00, 0x00, 0x00, 0x6C, 0x00, 0x00, 0x00,
  0x04, 0x00, 0x00, 0x00, 0xCE, 0xBF, 0xFF, 0xFF, 0x04, 0x00,
  0x00, 0x00, 0x58, 0x00, 0x00, 0x00, 0x0C, 0x00, 0x00, 0x00,
  0x08, 0x00, 0x0E, 0x00, 0x08, 0x00, 0x04, 0x00, 0x08, 0x00,
  0x00, 0x00, 0x10, 0x00, 0x00, 0x00, 0x28, 0x00, 0x00, 0x00,
  0x00, 0x00, 0x06, 0x00, 0x08, 0x00, 0x04, 0x00, 0x06, 0x00,
  0x00, 0x00, 0x04, 0x00, 0x00, 0x00, 0x01, 0x00, 0x00, 0x00,
  0xEB, 0x03, 0x00, 0x00, 0x00, 0x00, 0x0A, 0x00, 0x10, 0x00,
  0x0C, 0x00, 0x08, 0x00, 0x04, 0x00, 0x0A, 0x00, 0x00, 0x00,
  0x02, 0x00, 0x00, 0x00, 0x02, 0x00, 0x00, 0x00, 0x04, 0x00,
  0x00, 0x00, 0x06, 0x00, 0x00, 0x00, 0x32, 0x2E, 0x31, 0x31,
  0x2E, 0x30, 0x00, 0x00, 0x32, 0xC0, 0xFF, 0xFF, 0x04, 0x00,
  0x00, 0x00, 0x10, 0x00, 0x00, 0x00, 0x32, 0x2E, 0x32, 0x2E,
  0x30, 0x00, 0x00, 0x00, 0x00, 0x00, 0x00, 0x00, 0x00, 0x00,
  0x00, 0x00, 0x28, 0xA3, 0xFF, 0xFF, 0x2C, 0xA3, 0xFF, 0xFF,
  0x30, 0xA3, 0xFF, 0xFF, 0x34, 0xA3, 0xFF, 0xFF, 0x38, 0xA3,
  0xFF, 0xFF, 0x3C, 0xA3, 0xFF, 0xFF, 0x40, 0xA3, 0xFF, 0xFF,
  0x44, 0xA3, 0xFF, 0xFF, 0x48, 0xA3, 0xFF, 0xFF, 0x4C, 0xA3,
  0xFF, 0xFF, 0x50, 0xA3, 0xFF, 0xFF, 0x54, 0xA3, 0xFF, 0xFF,
  0x58, 0xA3, 0xFF, 0xFF, 0x5C, 0xA3, 0xFF, 0xFF, 0x86, 0xC0,
  0xFF, 0xFF, 0x04, 0x00, 0x00, 0x00, 0x00, 0x01, 0x00, 0x00,
  0xF2, 0xF3, 0x72, 0xA5, 0x20, 0xEB, 0xAF, 0xAA, 0x43, 0xA7,
  0x48, 0x02, 0x36, 0x7F, 0x28, 0xDE, 0x8D, 0x2F, 0x55, 0x3D,
  0x4E, 0xF9, 0x1C, 0x32, 0x81, 0xEB, 0x00, 0xFC, 0x46, 0x27,
  0x4D, 0x21, 0xE9, 0x44, 0x18, 0x2F, 0x27, 0x98, 0x81, 0xBD,
  0x7C, 0xE0, 0xC3, 0x3B, 0x10, 0x44, 0x01, 0xD5, 0xE8, 0x68,
  0xB9, 0x3C, 0x2E, 0x65, 0xF2, 0x28, 0x44, 0xFC, 0x5D, 0x81,
  0x22, 0x33, 0x44, 0x90, 0x33, 0xB0, 0xCF, 0x45, 0x34, 0x81,
  0xB3, 0x42, 0x13, 0xCB, 0xB1, 0xEA, 0x25, 0xBE, 0x51, 0x4A,
  0xB5, 0xD1, 0x94, 0xC9, 0x02, 0x21, 0xE7, 0xE1, 0x23, 0xCD,
  0x58, 0x5F, 0x92, 0x1D, 0x59, 0x7F, 0xC3, 0xE4, 0x27, 0xB8,
  0xDC, 0x04, 0x5B, 0xCA, 0xDD, 0x6D, 0x51, 0x55, 0x40, 0x2D,
  0x81, 0x47, 0xC9, 0x2A, 0xCE, 0xA4, 0x07, 0xBC, 0x22, 0x86,
  0x4B, 0x49, 0x04, 0x41, 0xCA, 0xF6, 0x7F, 0x35, 0x53, 0xA7,
  0x0A, 0x40, 0x48, 0x7F, 0x56, 0xBC, 0xD4, 0x4C, 0xD8, 0xE6,
  0x47, 0x37, 0xC1, 0x28, 0x84, 0x53, 0xFA, 0x15, 0x81, 0x62,
  0x4C, 0x68, 0xB2, 0xE2, 0x2A, 0xB8, 0xB3, 0x5D, 0x1B, 0xD6,
  0xA2, 0xC1, 0x2D, 0x94, 0xA3, 0x70, 0x49, 0x45, 0xA6, 0x12,
  0xF3, 0xDC, 0xFD, 0x7F, 0xEA, 0x42, 0x20, 0x63, 0x3D, 0x4F,
  0xC8, 0x24, 0x13, 0xC6, 0x41, 0xC1, 0x81, 0x2D, 0x06, 0x98,
  0x84, 0x47, 0xA8, 0xFA, 0x8B, 0x3D, 0x39, 0xB8, 0xA1, 0x18,
  0x87, 0x8B, 0xF1, 0xC3, 0x81, 0xB3, 0x8E, 0x4D, 0x47, 0x7A,
  0x4B, 0x06, 0xEC, 0x56, 0x5D, 0x4C, 0x0A, 0xA6, 0x0E, 0x51,
  0x3C, 0x81, 0x98, 0xC1, 0x81, 0xC3, 0x49, 0x57, 0xE2, 0x5E,
  0x0C, 0xD4, 0x84, 0xE3, 0x62, 0x35, 0xE2, 0x43, 0xB9, 0x5F,
  0xB9, 0xC0, 0x81, 0x1F, 0x9B, 0x1A, 0x98, 0x0A, 0x65, 0x45,
  0xA6, 0x54, 0x3F, 0xF8, 0x2D, 0x43, 0x92, 0xC1, 0xFF, 0xFF,
  0x04, 0x00, 0x00, 0x00, 0x40, 0x00, 0x00, 0x00, 0xEA, 0x07,
  0x00, 0x00, 0xA2, 0xF8, 0xFF, 0xFF, 0xDE, 0xFD, 0xFF, 0xFF,
  0x16, 0xDE, 0xFF, 0xFF, 0xD6, 0x19, 0x00, 0x00, 0x98, 0xF9,
  0xFF, 0xFF, 0xAA, 0xDB, 0xFF, 0xFF, 0x0F, 0xEC, 0xFF, 0xFF,
  0x42, 0xCC, 0xFF, 0xFF, 0x67, 0x00, 0x00, 0x00, 0x3E, 0xFE,
  0xFF, 0xFF, 0xBE, 0x03, 0x00, 0x00, 0x8B, 0x3F, 0x00, 0x00,
  0x26, 0xD9, 0xFF, 0xFF, 0x86, 0x0B, 0x00, 0x00, 0xDA, 0x0F,
  0x00, 0x00, 0xDE, 0xC1, 0xFF, 0xFF, 0x04, 0x00, 0x00, 0x00,
  0x00, 0x09, 0x00, 0x00, 0xDE, 0xEB, 0x1E, 0x02, 0x17, 0xEF,
  0x25, 0x03, 0xFA, 0xE2, 0x1B, 0x47, 0x7D, 0xC5, 0xBD, 0x34,
  0x1B, 0x17, 0x18, 0xEB, 0x0B, 0xFA, 0x19, 0x3D, 0xC2, 0xF9,
  0x12, 0x5A, 0x40, 0x03, 0x18, 0x28, 0x09, 0x19, 0x4F, 0xB6,
  0x57, 0x2F, 0x06, 0x3C, 0xD0, 0x02, 0x36, 0x32, 0x7E, 0xE6,
  0xC3, 0x13, 0x03, 0x1B, 0x5E, 0xDC, 0x39, 0x33, 0xCA, 0x6B,
  0x34, 0xDB, 0x28, 0x3D, 0x1A, 0xED, 0xA7, 0x18, 0xC4, 0xED,
  0x77, 0x18, 0x3E, 0x7F, 0x37, 0x61, 0xDD, 0x15, 0x39, 0x5E,
  0x3E, 0xF7, 0x01, 0xE6, 0xDC, 0xFC, 0x65, 0xED, 0x3C, 0x79,
  0x26, 0xF3, 0x34, 0xFB, 0x78, 0xFF, 0x7A, 0xB6, 0x22, 0x13,
  0xCC, 0xDC, 0xDE, 0xC9, 0xE9, 0x2B, 0xF5, 0x05, 0xE6, 0xF7,
  0x4B, 0x2E, 0x28, 0xD6, 0xA4, 0x12, 0xC4, 0x37, 0x3B, 0x0D,
  0xFB, 0x59, 0x0B, 0x03, 0x21, 0xD3, 0x5C, 0xDB, 0x50, 0xC5,
  0xFB, 0x1A, 0x32, 0xFD, 0x05, 0xD6, 0x27, 0x21, 0x11, 0xF1,
  0xDD, 0x32, 0x72, 0x39, 0x2D, 0xEC, 0x48, 0x45, 0xE9, 0xE3,
  0xE0, 0x3D, 0xD3, 0x4B, 0x23, 0x3A, 0xEB, 0x19, 0x11, 0xCB,
  0x81, 0x2F, 0xF3, 0xD8, 0x02, 0xE1, 0xCA, 0x22, 0xFB, 0x16,
  0xE1, 0x46, 0xE2, 0x0C, 0x3B, 0x17, 0xE9, 0x35, 0xBE, 0x08,
  0x1F, 0x20, 0x06, 0xEF, 0xCC, 0x53, 0xFF, 0x29, 0x36, 0xD8,
  0x2B, 0xC3, 0xA6, 0x29, 0x03, 0xF7, 0x31, 0x16, 0xE1, 0x36,
  0xFC, 0x35, 0x04, 0x2F, 0x02, 0x14, 0x32, 0x14, 0x07, 0x3D,
  0xE7, 0x24, 0xF0, 0xD5, 0xDD, 0xD7, 0x21, 0x43, 0x18, 0x10,
  0xE0, 0x3C, 0x43, 0x21, 0xC3, 0x1F, 0x27, 0x03, 0xEA, 0xFB,
  0x15, 0xD2, 0xFD, 0xDF, 0xF2, 0xFB, 0x17, 0x31, 0x59, 0xCC,
  0xF4, 0x09, 0xD1, 0x2C, 0x1E, 0x2F, 0xC3, 0x15, 0xD5, 0x3C,
  0x11, 0x34, 0xD7, 0xF3, 0x28, 0x26, 0x91, 0xFB, 0xE9, 0xDA,
  0x2D, 0x15, 0xB9, 0xDC, 0xC3, 0xE8, 0x3B, 0xFE, 0xFF, 0xF9,
  0xFB, 0x21, 0xB5, 0x25, 0x0D, 0x1C, 0x04, 0x2A, 0x14, 0xDD,
  0xF2, 0xE3, 0xCB, 0x4D, 0x25, 0xE8, 0xED, 0xEE, 0xF9, 0x1C,
  0xFE, 0x0B, 0x3B, 0xD4, 0x27, 0xE7, 0x50, 0xC3, 0xAD, 0xA2,
  0xCF, 0xC5, 0xD6, 0xF7, 0x31, 0xC8, 0xED, 0x1C, 0xCF, 0x0E,
  0xCC, 0x81, 0x0F, 0xF7, 0xF0, 0xF6, 0xF8, 0xC6, 0x9D, 0xD9,
  0x57, 0xA1, 0x21, 0x16, 0xC2, 0xCD, 0xAF, 0xC1, 0x21, 0x0B,
  0x37, 0x3A, 0xFE, 0xD9, 0xB2, 0xE6, 0x54, 0xE6, 0x2B, 0x1D,
  0xDC, 0xF6, 0xEC, 0xC1, 0x5A, 0xE7, 0xE9, 0xE1, 0xE5, 0xA1,
  0x8F, 0xF2, 0x77, 0xED, 0xE2, 0xD2, 0xF1, 0x0A, 0xC6, 0x90,
  0x34, 0x07, 0xD4, 0xE0, 0xD0, 0xC7, 0xC4, 0x1D, 0x39, 0xF0,
  0xF0, 0x03, 0xE8, 0xE5, 0xBF, 0xA9, 0x4D, 0xFD, 0x0E, 0xFC,
  0xDA, 0xFE, 0xAC, 0x0E, 0x54, 0xC5, 0x02, 0x27, 0x03, 0xD2,
  0xF2, 0xD9, 0x29, 0xD6, 0xB7, 0xAF, 0x28, 0xDC, 0x93, 0xBE,
  0x30, 0xBF, 0x26, 0xEC, 0x05, 0xBA, 0x1C, 0xC3, 0x24, 0x12,
  0xFB, 0x06, 0xBE, 0xCD, 0xCC, 0xE7, 0x23, 0xED, 0xE7, 0x08,
  0x04, 0xF0, 0xBC, 0xC2, 0x4D, 0x21, 0x1E, 0x03, 0xC4, 0xD3,
  0xAE, 0x01, 0x2F, 0x08, 0xDA, 0x34, 0x0A, 0x20, 0xD4, 0xED,
  0xEC, 0x16, 0xD9, 0x1D, 0xE1, 0xE2, 0x2B, 0xF9, 0xBA, 0xE2,
  0xE1, 0xE4, 0xC5, 0xD1, 0xBB, 0xE9, 0xFC, 0x02, 0x1D, 0x1D,
  0x01, 0xC5, 0xE8, 0xD3, 0xD7, 0x2A, 0xEC, 0x00, 0x16, 0x2F,
  0xF5, 0x43, 0xE4, 0x03, 0x0F, 0x18, 0x1B, 0xFD, 0x41, 0xB2,
  0xD0, 0x2F, 0x3C, 0xF6, 0x1C, 0xF3, 0xD9, 0xD6, 0xCA, 0x23,
  0x1A, 0x26, 0x25, 0xB4, 0xD2, 0xA7, 0xBA, 0xF7, 0x06, 0xD9,
  0xFB, 0xFF, 0xEA, 0x40, 0xDC, 0x13, 0x0F, 0x08, 0x41, 0xFB,
  0x31, 0x81, 0xC0, 0xEF, 0xFE, 0x04, 0x31, 0x2B, 0xD1, 0xE1,
  0xBB, 0xE2, 0x3A, 0xE6, 0xF8, 0xF9, 0x17, 0x8E, 0xFD, 0x10,
  0xD7, 0xE0, 0x03, 0x06, 0xC1, 0x3C, 0xF5, 0x09, 0xDA, 0xF9,
  0xFF, 0xC7, 0xE9, 0xC7, 0xD1, 0xF6, 0xF6, 0xEF, 0xEE, 0x15,
  0xB1, 0xE1, 0xD4, 0xFB, 0x08, 0xCA, 0x14, 0xD8, 0xE6, 0xF9,
  0xE0, 0x2E, 0x2D, 0xB1, 0x2B, 0x2A, 0xA4, 0x46, 0x9A, 0xB6,
  0x31, 0xC8, 0xDB, 0xFE, 0x08, 0xBB, 0xC9, 0xE7, 0xF7, 0xBE,
  0xED, 0x1C, 0x27, 0x32, 0xE0, 0xAD, 0xC7, 0xD1, 0x10, 0xC0,
  0xEE, 0x4F, 0xF1, 0x18, 0xC7, 0xCC, 0xFF, 0xFA, 0xEE, 0xE4,
  0xDC, 0xCB, 0x12, 0xD0, 0xDB, 0x20, 0xEC, 0x40, 0xA2, 0x2B,
  0xED, 0xD9, 0xE6, 0x1C, 0x09, 0x01, 0x29, 0x02, 0xD1, 0x03,
  0xEF, 0x00, 0xF4, 0x09, 0x81, 0x36, 0xF0, 0xB9, 0xF5, 0x23,
  0xFF, 0xE9, 0x07, 0x03, 0xFE, 0x20, 0xF3, 0x0F, 0xB8, 0x36,
  0xD1, 0x13, 0xF2, 0x13, 0xDC, 0xD8, 0x23, 0x15, 0xEB, 0xE3,
  0xC2, 0x33, 0xF7, 0xEE, 0xE5, 0x59, 0xC9, 0x2C, 0x01, 0x0E,
  0xDF, 0xF0, 0x07, 0x0F, 0x14, 0x1B, 0xC2, 0xE5, 0xDF, 0xDC,
  0xEA, 0x3B, 0xA9, 0x24, 0xC8, 0x18, 0xFB, 0x0F, 0x1A, 0xDE,
  0x05, 0xF6, 0x15, 0x29, 0xC4, 0xF8, 0xEA, 0x07, 0xBA, 0x20,
  0xE6, 0x1A, 0xDC, 0x14, 0x13, 0xCA, 0x11, 0x26, 0x1C, 0x38,
  0x13, 0x0B, 0x18, 0x0F, 0xB1, 0xD8, 0xCC, 0x1F, 0xFA, 0xD8,
  0xF2, 0x08, 0xF2, 0x22, 0x02, 0xF6, 0x0B, 0xDA, 0x20, 0x1F,
  0xBB, 0x0D, 0xE1, 0xDF, 0xE9, 0xE8, 0x78, 0xFE, 0x52, 0x03,
  0xF4, 0x39, 0x15, 0x03, 0xEE, 0xED, 0x63, 0x0B, 0xA6, 0x2D,
  0x2B, 0xFB, 0x36, 0xE4, 0xFE, 0x1B, 0x08, 0x3D, 0xDA, 0x13,
  0xDA, 0x42, 0x11, 0x18, 0x14, 0xE7, 0x0B, 0x19, 0x22, 0xD8,
  0x4B, 0x14, 0x2C, 0x1E, 0xCB, 0x3E, 0x21, 0x0D, 0x5A, 0x20,
  0x25, 0x25, 0x2A, 0xD5, 0x4C, 0x0D, 0x25, 0x19, 0x2E, 0x64,
  0x41, 0xC4, 0x98, 0xF6, 0x62, 0x2D, 0xBE, 0xD1, 0x27, 0xCC,
  0x5E, 0xD6, 0x35, 0x06, 0x34, 0xF4, 0x20, 0x1B, 0x17, 0x0E,
  0x09, 0xD6, 0x03, 0xD2, 0x03, 0x01, 0x5B, 0x0E, 0x29, 0x23,
  0xE0, 0x3A, 0x24, 0x11, 0xE4, 0x0B, 0x2A, 0xC2, 0x11, 0xFB,
  0x03, 0xEC, 0x10, 0x0A, 0xEF, 0x05, 0x29, 0x54, 0xDA, 0x17,
  0xE5, 0x37, 0x7F, 0x32, 0xE5, 0xD7, 0x04, 0x15, 0x5C, 0x25,
  0x30, 0x2E, 0xFF, 0x50, 0xE6, 0xFC, 0x38, 0xCF, 0x2A, 0xD1,
  0xD4, 0xDF, 0x34, 0x05, 0x76, 0x0F, 0x17, 0x39, 0x1C, 0x0C,
  0x02, 0x0F, 0x0C, 0x08, 0x35, 0xF6, 0xF7, 0x36, 0x2E, 0x12,
  0xFA, 0x17, 0xA5, 0xA8, 0x04, 0xCC, 0x41, 0x59, 0x01, 0x65,
  0xEE, 0x04, 0xDF, 0x1D, 0x0E, 0xDC, 0x05, 0x34, 0xF5, 0xBB,
  0x22, 0xBE, 0x35, 0xFD, 0x43, 0x75, 0xDC, 0x50, 0x1A, 0xFE,
  0xF2, 0x00, 0x21, 0x16, 0x5D, 0x27, 0x32, 0xEE, 0x2D, 0x26,
  0x0B, 0x08, 0x9F, 0x31, 0xDE, 0xC5, 0x21, 0xD7, 0x15, 0xD9,
  0xDF, 0xEA, 0xFF, 0xB7, 0x33, 0xE7, 0xF7, 0x37, 0x97, 0x32,
  0xD8, 0xD8, 0xE0, 0x1B, 0x0F, 0xD6, 0x5C, 0xE0, 0xA8, 0x0F,
  0x30, 0x29, 0x06, 0x49, 0x9C, 0xDE, 0xBC, 0xC3, 0x18, 0xCE,
  0x16, 0x2B, 0x4B, 0x39, 0xEC, 0xF6, 0xF3, 0x00, 0x01, 0x03,
  0x89, 0x27, 0xEF, 0x24, 0x26, 0xDB, 0x2A, 0xD3, 0xF9, 0x31,
  0x1F, 0xE8, 0xF9, 0x0A, 0x1A, 0xEE, 0xDF, 0xC0, 0x05, 0xF3,
  0xDC, 0xDF, 0x7F, 0xDE, 0x37, 0x2B, 0xDB, 0x08, 0xDD, 0xF7,
  0x3B, 0xE0, 0xE9, 0xB6, 0x1A, 0x26, 0xFB, 0xD4, 0x6F, 0xE9,
  0x2D, 0x48, 0x31, 0x10, 0xD8, 0xE8, 0x45, 0x4D, 0xA1, 0xFA,
  0xC9, 0xDD, 0xE7, 0xC4, 0x4A, 0xF2, 0x1F, 0x75, 0xFF, 0x4C,
  0xFA, 0x78, 0x60, 0x51, 0x7F, 0x20, 0xEE, 0x1E, 0x29, 0x33,
  0xFB, 0x3E, 0xFA, 0x1C, 0xF5, 0x75, 0xBC, 0xD9, 0x5B, 0xF4,
  0x67, 0xB4, 0x2D, 0x4F, 0xE4, 0xE8, 0x15, 0xD2, 0x12, 0xD8,
  0x0A, 0x4A, 0xF5, 0x3A, 0x56, 0xE3, 0x7B, 0xD1, 0xA3, 0xDC,
  0xC4, 0x15, 0xD0, 0x1E, 0xD3, 0x33, 0xED, 0x38, 0x10, 0x63,
  0x3F, 0xF6, 0x58, 0x39, 0x09, 0xD7, 0xE5, 0x15, 0x29, 0x44,
  0xC9, 0x5F, 0x47, 0x04, 0xFD, 0x0C, 0xFD, 0xDC, 0x5C, 0xC3,
  0x32, 0x2E, 0xE8, 0xD8, 0x3A, 0x08, 0xCC, 0x17, 0x19, 0x5D,
  0xF3, 0xE1, 0x14, 0x40, 0x75, 0x1E, 0x12, 0xF3, 0x0B, 0xFE,
  0xE8, 0xD7, 0x10, 0xD7, 0x06, 0xDD, 0x2F, 0x2E, 0x16, 0x62,
  0x1C, 0x1B, 0x0A, 0x10, 0xFF, 0x25, 0xF8, 0xF7, 0x0A, 0x56,
  0x07, 0xF2, 0xF9, 0x00, 0x56, 0x06, 0xE8, 0x13, 0x2D, 0x17,
  0x3D, 0xCC, 0x7A, 0xD5, 0x12, 0xE0, 0x11, 0x53, 0x23, 0xFA,
  0x0D, 0x2F, 0x38, 0x20, 0xAB, 0xC0, 0xD4, 0x35, 0x03, 0xFD,
  0x0F, 0x6F, 0x11, 0x35, 0x18, 0x30, 0x47, 0xDE, 0x86, 0x03,
  0x14, 0x2C, 0x07, 0xFF, 0xE0, 0xC6, 0x1E, 0x45, 0xD4, 0x43,
  0xFC, 0x61, 0x3E, 0xFB, 0x0C, 0xB0, 0x18, 0xFF, 0x07, 0x10,
  0x69, 0xFF, 0x61, 0x77, 0xF2, 0x39, 0xDA, 0x20, 0x64, 0x1A,
  0xE8, 0x03, 0x14, 0xD5, 0x28, 0x07, 0x02, 0x1A, 0x2D, 0x3C,
  0x18, 0x38, 0xE4, 0xF7, 0x44, 0xFF, 0xD2, 0xC1, 0x33, 0xFE,
  0xD2, 0xE9, 0x0D, 0xE0, 0xF5, 0x27, 0xEE, 0x19, 0x15, 0x2B,
  0x14, 0xE5, 0xF4, 0x03, 0xE1, 0xF9, 0xE2, 0xF8, 0x7A, 0xFF,
  0xE9, 0x7F, 0x3C, 0x68, 0x10, 0x58, 0x52, 0x14, 0xF3, 0xEC,
  0xC3, 0xFD, 0xD3, 0x06, 0xFC, 0x23, 0x12, 0x44, 0x23, 0x36,
  0x1C, 0x2D, 0x5E, 0x37, 0x89, 0x06, 0x26, 0x09, 0x10, 0xDD,
  0x06, 0x3C, 0xF4, 0x3B, 0xFF, 0xD8, 0xD9, 0x13, 0x28, 0xF7,
  0xD5, 0x38, 0xF1, 0x18, 0xCA, 0x3A, 0x4D, 0xD6, 0x2B, 0x3B,
  0x2C, 0x4A, 0x15, 0x13, 0x69, 0x35, 0xDF, 0x34, 0x1C, 0xC0,
  0xEE, 0xE0, 0x57, 0x40, 0x09, 0xFF, 0xFB, 0x0E, 0x0F, 0x08,
  0xC7, 0x7F, 0x44, 0xD7, 0xB3, 0x13, 0x02, 0xC7, 0x61, 0x19,
  0x36, 0x33, 0xF6, 0xFF, 0xF8, 0xF4, 0xEF, 0x2F, 0xE7, 0xF4,
  0xD9, 0x38, 0xF3, 0x2B, 0x32, 0x01, 0x01, 0x26, 0xFD, 0x0E,
  0xDF, 0x13, 0x02, 0x28, 0xDD, 0xEB, 0xF0, 0xF6, 0xEE, 0xFA,
  0x17, 0xEE, 0x1A, 0x29, 0x08, 0x4D, 0x31, 0xD4, 0xED, 0x28,
  0x27, 0xEB, 0x04, 0x24, 0x11, 0x12, 0x4C, 0xE2, 0x5E, 0x46,
  0xDA, 0x3D, 0x17, 0xD4, 0x34, 0xE0, 0x2C, 0xCA, 0xB2, 0x1F,
  0x0A, 0x22, 0x53, 0xF5, 0x1F, 0x44, 0x09, 0x19, 0xCE, 0x23,
  0x38, 0x2D, 0xED, 0x2B, 0xE3, 0x40, 0xF0, 0xC5, 0xF6, 0xF4,
  0x2A, 0x20, 0xF4, 0x2B, 0x2A, 0xB5, 0x19, 0xCB, 0x4C, 0xDD,
  0xE2, 0x39, 0xF0, 0x15, 0xEA, 0x1D, 0x2C, 0x04, 0x12, 0x0B,
  0xDB, 0xBF, 0x47, 0xF2, 0x4F, 0xDC, 0xE6, 0x3E, 0x06, 0xD8,
  0x20, 0x2F, 0xE6, 0x17, 0x16, 0xFE, 0x15, 0xF1, 0x16, 0x2A,
  0xF0, 0xEF, 0x1C, 0xD7, 0xF8, 0xF2, 0xDB, 0x0E, 0x30, 0xCD,
  0xBD, 0xC5, 0xCA, 0xF0, 0xBA, 0xF9, 0xFA, 0x2F, 0xE9, 0xE8,
  0xB3, 0x22, 0xCA, 0xE8, 0x18, 0xFA, 0xE7, 0xF1, 0x05, 0x4E,
  0x75, 0x0F, 0x1B, 0xE5, 0x35, 0x14, 0x38, 0xEE, 0xEB, 0x06,
  0xDF, 0xA9, 0x01, 0x50, 0xD3, 0x03, 0xF6, 0xEF, 0x26, 0x1D,
  0xD0, 0x26, 0x3A, 0xE4, 0xA0, 0xD0, 0x1E, 0x0A, 0xF9, 0x91,
  0xF6, 0xBE, 0x8C, 0xF7, 0xB5, 0xE1, 0xD8, 0xFA, 0xAE, 0x23,
  0xA9, 0xEF, 0xB6, 0x1C, 0xEE, 0x11, 0xD0, 0x56, 0x7F, 0xF8,
  0x06, 0xED, 0x31, 0x1E, 0x29, 0xEC, 0xD1, 0xF2, 0xAF, 0xBD,
  0xCF, 0x44, 0x23, 0xE8, 0xE8, 0xE8, 0x19, 0x06, 0xC1, 0xF8,
  0x14, 0xF8, 0xD3, 0xD9, 0x0C, 0xFA, 0xE4, 0xB8, 0xFC, 0xBE,
  0xE1, 0x11, 0xBB, 0x07, 0xE8, 0xE3, 0xF1, 0x38, 0xE1, 0xDF,
  0xCA, 0x34, 0x07, 0x19, 0xF9, 0x39, 0x31, 0x14, 0xD7, 0x28,
  0x25, 0x3C, 0x23, 0xDC, 0xC5, 0x09, 0xFC, 0xA8, 0x02, 0x41,
  0xDB, 0x25, 0xF0, 0xDD, 0xF3, 0xF2, 0xE3, 0xDC, 0xE1, 0xDB,
  0xC2, 0x07, 0xB3, 0xE6, 0xCD, 0x97, 0xE4, 0xF5, 0xB2, 0x8F,
  0x22, 0xDF, 0xD2, 0x51, 0xAA, 0xC1, 0xA7, 0xB8, 0xC2, 0x2C,
  0x2D, 0xC4, 0x49, 0xB9, 0x46, 0xE5, 0xA8, 0x22, 0xB3, 0xE2,
  0xAF, 0xCD, 0x02, 0xE6, 0xEC, 0x08, 0xCD, 0x37, 0xB0, 0x3F,
  0xBB, 0x57, 0x08, 0xA4, 0x28, 0x8F, 0x1D, 0xA1, 0xA0, 0xD4,
  0xE9, 0x42, 0x0B, 0xBA, 0xFE, 0x09, 0x43, 0xA5, 0xC8, 0x3A,
  0x56, 0xDE, 0xFB, 0x2E, 0xA9, 0xA3, 0xCE, 0xA9, 0xB6, 0xD9,
  0x23, 0x87, 0x96, 0xC3, 0x1F, 0xB0, 0x3A, 0x10, 0xE4, 0xD7,
  0xDD, 0xE6, 0xCA, 0xBC, 0x50, 0xA0, 0xDE, 0xD6, 0x3C, 0x2E,
  0xA3, 0x1D, 0x09, 0xA4, 0x42, 0x91, 0xC8, 0xBB, 0xCA, 0xB2,
  0x99, 0xDE, 0x40, 0x0E, 0x1F, 0xE7, 0x9A, 0xB6, 0x08, 0xE3,
  0x26, 0x52, 0x46, 0x24, 0x20, 0x06, 0xFC, 0xA9, 0xD3, 0x8E,
  0x25, 0x41, 0xDD, 0x2A, 0xBC, 0x4C, 0x0B, 0xFE, 0xFC, 0xDD,
  0xF3, 0xC4, 0x29, 0xFA, 0xD6, 0xF0, 0x81, 0x92, 0xBE, 0xDE,
  0xC4, 0x18, 0xE4, 0x14, 0x10, 0xFF, 0x5F, 0x20, 0x11, 0xCC,
  0xED, 0xFE, 0xD3, 0x7F, 0x14, 0x1E, 0x2E, 0x06, 0xC2, 0x0D,
  0x13, 0xCD, 0xF2, 0xF6, 0x30, 0xF9, 0x0F, 0x13, 0x1B, 0x61,
  0xC9, 0xFD, 0x0A, 0xE1, 0xCD, 0xFF, 0x01, 0xE1, 0x1D, 0xE0,
  0x17, 0xFC, 0x0B, 0x0E, 0x0B, 0xF9, 0xEB, 0x18, 0x2C, 0xFB,
  0xE3, 0x04, 0x14, 0xEC, 0x13, 0xE5, 0x29, 0x1D, 0xF4, 0x0D,
  0xDA, 0x33, 0xE8, 0xFE, 0xED, 0xED, 0x24, 0xFC, 0x29, 0xDB,
  0x40, 0x27, 0xDB, 0x20, 0xD3, 0x50, 0x1C, 0x4A, 0xC2, 0x1E,
  0x20, 0xE7, 0xEB, 0x23, 0xE3, 0x03, 0x03, 0x1A, 0x2C, 0x37,
  0xE2, 0x70, 0xF7, 0x48, 0xDB, 0x09, 0x03, 0xD6, 0x10, 0x02,
  0x24, 0xFB, 0x3D, 0x0D, 0xEE, 0xF5, 0xD3, 0x22, 0xFE, 0x35,
  0xB3, 0xEA, 0xBF, 0xF1, 0xF8, 0x09, 0x19, 0x1C, 0x07, 0xED,
  0x2F, 0x1F, 0x0B, 0x23, 0xEF, 0x09, 0x1F, 0x0E, 0xD6, 0xDC,
  0xC5, 0xE0, 0x1C, 0xE8, 0xF4, 0x26, 0x06, 0x3C, 0xFD, 0x53,
  0x29, 0x47, 0xFE, 0x36, 0x39, 0xFA, 0x11, 0xCE, 0x30, 0xB4,
  0x61, 0x05, 0xED, 0x0C, 0x2F, 0x6E, 0x2E, 0x5F, 0x0D, 0xD4,
  0xF6, 0x06, 0xA9, 0x05, 0xD0, 0xAC, 0x0F, 0xFD, 0x24, 0x5C,
  0x00, 0x21, 0xE5, 0x71, 0xCA, 0x45, 0x31, 0xBC, 0xE1, 0x3A,
  0xF4, 0x1D, 0x47, 0xE7, 0x37, 0x53, 0xEF, 0x31, 0x40, 0x08,
  0xCD, 0x4F, 0x05, 0x1F, 0xC0, 0xB7, 0x5F, 0x39, 0x64, 0x31,
  0x2A, 0xE3, 0xC7, 0x2A, 0x2F, 0x37, 0xE4, 0xD8, 0x2A, 0xBB,
  0xCB, 0xF1, 0x7F, 0xD1, 0x1B, 0x2A, 0xCA, 0xE1, 0x21, 0x3D,
  0x2D, 0xFD, 0xD1, 0x0F, 0x32, 0xD9, 0xEC, 0xE5, 0x28, 0xB6,
  0x2B, 0x50, 0xEE, 0x63, 0xDB, 0x0F, 0xFE, 0xC9, 0x0F, 0x35,
  0x3A, 0x23, 0x38, 0xDA, 0x76, 0xC2, 0x2F, 0xEA, 0x2D, 0x64,
  0xBF, 0x73, 0x04, 0xE7, 0xF9, 0xAF, 0x36, 0x2C, 0x24, 0x21,
  0x23, 0xBC, 0x3F, 0x12, 0xDB, 0x02, 0x25, 0x4D, 0x5D, 0x28,
  0xD8, 0xC3, 0x44, 0xD3, 0xFE, 0x26, 0xD3, 0xEF, 0xA8, 0x26,
  0x24, 0xF7, 0x31, 0x5F, 0xEF, 0xE6, 0x42, 0xE1, 0xD6, 0x12,
  0xD1, 0xD0, 0x10, 0x0E, 0x57, 0x2D, 0xEA, 0xED, 0x31, 0x1F,
  0xE0, 0x31, 0x19, 0x25, 0x21, 0x06, 0x0D, 0xF4, 0x55, 0xFB,
  0x35, 0x34, 0xC3, 0x0D, 0xE6, 0x13, 0x3F, 0x25, 0xEC, 0x1B,
  0x1F, 0x1B, 0xD0, 0xEA, 0x6F, 0xDC, 0x4E, 0xFC, 0x03, 0x1B,
  0x24, 0x43, 0x52, 0xEF, 0x22, 0x04, 0xF2, 0xCE, 0x24, 0xF0,
  0x1A, 0xCC, 0x43, 0x1E, 0x08, 0xDE, 0x27, 0x67, 0xFA, 0x68,
  0xEE, 0xFB, 0xDB, 0xCB, 0x26, 0xC6, 0x16, 0x15, 0xFC, 0x03,
  0x1F, 0xF7, 0xD5, 0x5B, 0xDF, 0x3F, 0x5A, 0xF3, 0x01, 0xDB,
  0x1E, 0x2D, 0x58, 0xE9, 0x4C, 0x12, 0xC5, 0x0C, 0xD9, 0x52,
  0x1C, 0x28, 0x23, 0x0A, 0x17, 0x11, 0xED, 0xD7, 0x7F, 0x39,
  0x26, 0x04, 0x11, 0x02, 0x20, 0x54, 0x2B, 0x33, 0x5E, 0xFF,
  0xD9, 0xF2, 0xBB, 0x23, 0x01, 0xFE, 0x18, 0xDC, 0x17, 0x07,
  0xCA, 0x53, 0x2D, 0x0F, 0x1C, 0x13, 0xF0, 0xF3, 0x35, 0x1C,
  0x2B, 0x14, 0x4B, 0xDA, 0xE9, 0xBD, 0xC9, 0x58, 0x26, 0x12,
  0x5F, 0x14, 0xE0, 0xB3, 0x30, 0xE1, 0xF3, 0x09, 0xCB, 0x28,
  0x07, 0x05, 0xD0, 0x4F, 0xB6, 0xC2, 0x21, 0xFE, 0xE8, 0xFC,
  0xC6, 0xE6, 0x17, 0x1F, 0x37, 0x02, 0x13, 0x39, 0xE9, 0xE4,
  0xFD, 0xB6, 0x02, 0xA2, 0xCD, 0xEA, 0x36, 0xC5, 0x56, 0x1D,
  0x64, 0xED, 0xE3, 0xE1, 0xA7, 0xDF, 0xD2, 0x14, 0x07, 0x56,
  0xBA, 0x2B, 0x4F, 0xE0, 0x0D, 0xFD, 0xDE, 0xF3, 0x1C, 0x48,
  0xEF, 0xC5, 0x13, 0x52, 0xBE, 0x21, 0x02, 0x53, 0x00, 0xDD,
  0xE6, 0x33, 0xC0, 0x09, 0xA3, 0x25, 0xD5, 0x33, 0x25, 0xCD,
  0xC2, 0xC4, 0x3B, 0xE6, 0x3C, 0xC2, 0x67, 0x0B, 0x26, 0xF6,
  0x0E, 0x31, 0xEE, 0x50, 0xDA, 0x55, 0x10, 0xEC, 0xF1, 0xED,
  0x07, 0xE4, 0x79, 0xD6, 0x17, 0x0A, 0x27, 0x2C, 0xD9, 0xC8,
  0x4A, 0xE4, 0x81, 0xBE, 0xE8, 0x0A, 0xFB, 0xD7, 0xF4, 0x05,
  0xC2, 0xFF, 0xDB, 0x23, 0xBC, 0x1F, 0xF3, 0x15, 0xBF, 0xEE,
  0xD0, 0x3B, 0x02, 0xB8, 0x17, 0xFB, 0x2A, 0x19, 0x17, 0xF3,
  0xF8, 0x22, 0xEE, 0x6C, 0xDE, 0x21, 0x34, 0x2D, 0xEA, 0xCA,
  0xFF, 0xFF, 0x04, 0x00, 0x00, 0x00, 0x40, 0x00, 0x00, 0x00,
  0x45, 0x02, 0x00, 0x00, 0x5C, 0xFE, 0xFF, 0xFF, 0x11, 0x0A,
  0x00, 0x00, 0xDA, 0xF9, 0xFF, 0xFF, 0x93, 0x04, 0x00, 0x00,
  0x3F, 0x00, 0x00, 0x00, 0x92, 0x00, 0x00, 0x00, 0x22, 0x00,
  0x00, 0x00, 0x23, 0xF7, 0xFF, 0xFF, 0x3F, 0x00, 0x00, 0x00,
  0x11, 0x02, 0x00, 0x00, 0xBF, 0xF5, 0xFF, 0xFF, 0xA6, 0xF9,
  0xFF, 0xFF, 0x08, 0x01, 0x00, 0x00, 0xF3, 0x03, 0x00, 0x00,
  0x20, 0xFE, 0xFF, 0xFF, 0x36, 0xCB, 0xFF, 0xFF, 0x04, 0x00,
  0x00, 0x00, 0x00, 0x10, 0x00, 0x00, 0x37, 0xF1, 0xDC, 0xB2,
  0x14, 0xF6, 0x2B, 0x01, 0xB4, 0xC7, 0x01, 0x27, 0x2E, 0xE8,
  0x43, 0x2B, 0xF9, 0xC6, 0xBF, 0xEC, 0x3C, 0x02, 0xFA, 0xFE,
  0xCE, 0xF0, 0x81, 0x1F, 0xF8, 0xD7, 0x3A, 0xF0, 0xE8, 0xC4,
  0xEC, 0x16, 0x23, 0xE3, 0xB6, 0xD7, 0xE9, 0x19, 0xFF, 0x1F,
  0x26, 0x19, 0xD3, 0x09, 0x0E, 0x35, 0x06, 0x39, 0xF3, 0x2E,
  0xDC, 0xF4, 0xE3, 0xEF, 0xD6, 0xCE, 0x07, 0x16, 0x23, 0x2C,
  0xE3, 0x07, 0xBB, 0xBA, 0xDC, 0xEA, 0xE3, 0x28, 0xBC, 0xCF,
  0xFB, 0x3E, 0xEA, 0xBE, 0xD5, 0x29, 0x21, 0xC6, 0x20, 0xAC,
  0x93, 0x1D, 0xBB, 0x02, 0xDF, 0xE9, 0x97, 0xED, 0xB7, 0xDA,
  0xE4, 0x48, 0xE7, 0xDF, 0x16, 0xC2, 0xC1, 0x12, 0xE7, 0xEA,
  0x00, 0x21, 0x09, 0xFE, 0xF2, 0xEF, 0x11, 0x58, 0x17, 0x13,
  0xF7, 0x3D, 0xE3, 0x03, 0xC3, 0xC9, 0xFD, 0x1F, 0xE7, 0x37,
  0x50, 0x0E, 0x27, 0x3E, 0x39, 0xEB, 0x1C, 0xBD, 0xE4, 0x36,
  0x83, 0x34, 0xB6, 0xD4, 0xF8, 0xD6, 0xB8, 0xBC, 0x1D, 0x57,
  0x10, 0xDC, 0x23, 0x06, 0xEB, 0x11, 0x96, 0x1F, 0xC4, 0xDC,
  0x02, 0x1E, 0xDC, 0x27, 0xD3, 0x1D, 0x15, 0x20, 0xF2, 0x22,
  0xD1, 0xE9, 0x03, 0x0E, 0x1D, 0x09, 0x12, 0xDA, 0xF9, 0x3E,
  0x04, 0x2E, 0x25, 0x23, 0xCB, 0xE1, 0x17, 0x4B, 0xDF, 0x21,
  0x43, 0x3F, 0xF0, 0xCF, 0x21, 0x4F, 0xDE, 0x34, 0x4F, 0xC5,
  0x1F, 0xEE, 0xB5, 0x2F, 0xA6, 0x53, 0xD7, 0x0D, 0xFF, 0xD5,
  0x1E, 0x3D, 0x47, 0x21, 0x39, 0xE5, 0x16, 0xC7, 0xC6, 0x01,
  0xBF, 0xF4, 0x31, 0x53, 0xD3, 0xE5, 0x16, 0xF6, 0xDF, 0x31,
  0x10, 0xF4, 0x08, 0x1D, 0x00, 0xFF, 0xBB, 0x4A, 0x0D, 0x29,
  0x31, 0x3E, 0x1B, 0xFE, 0xFA, 0x4E, 0x5C, 0xDF, 0xA8, 0xF0,
  0x56, 0x14, 0x53, 0x3C, 0xF2, 0x4B, 0x2A, 0x15, 0x57, 0x3C,
  0x0A, 0x43, 0x17, 0xF2, 0x8F, 0x1B, 0xDA, 0xFE, 0x1B, 0xDC,
  0x12, 0x03, 0x3F, 0x05, 0x07, 0x03, 0xDD, 0xFC, 0x2C, 0x1D,
  0xF5, 0x12, 0xEB, 0x11, 0xE5, 0xDC, 0xDD, 0x02, 0x53, 0x1A,
  0xEC, 0x04, 0x07, 0x0E, 0x0B, 0x09, 0xD5, 0x2B, 0xE5, 0x21,
  0xE6, 0x0A, 0xF6, 0x3A, 0x1E, 0xF2, 0xE6, 0x00, 0xE4, 0x00,
  0x15, 0xF5, 0xBE, 0x16, 0x16, 0x1C, 0xEA, 0xF8, 0xE6, 0x10,
  0xD7, 0xE5, 0x03, 0x03, 0xED, 0xEF, 0x0A, 0x15, 0xA3, 0x13,
  0xFC, 0xF1, 0xE0, 0x18, 0xF4, 0x44, 0x20, 0xEE, 0x04, 0x23,
  0x04, 0xAB, 0x2F, 0xEB, 0xA6, 0x02, 0xE7, 0x0F, 0x25, 0x11,
  0x1C, 0x08, 0x3C, 0x19, 0xE8, 0xF5, 0xF0, 0x02, 0x26, 0x13,
  0x13, 0x04, 0xED, 0x0A, 0xF7, 0x01, 0xEC, 0x2D, 0x20, 0xFB,
  0x20, 0x15, 0x1D, 0xC5, 0xE7, 0x0D, 0x96, 0x06, 0xE6, 0xEF,
  0x09, 0xF1, 0xFA, 0x1B, 0xDB, 0xFF, 0xF7, 0xFE, 0xFF, 0xD9,
  0xD8, 0x12, 0x81, 0x31, 0xF0, 0x02, 0xD5, 0x16, 0x22, 0xF0,
  0x34, 0x20, 0xFC, 0xE1, 0x04, 0xEE, 0xDF, 0x23, 0xC5, 0x27,
  0xF5, 0xFF, 0x37, 0xFE, 0x17, 0x33, 0xF3, 0x04, 0xD6, 0x09,
  0xEE, 0xF6, 0x09, 0x1B, 0x15, 0xF0, 0x2B, 0x00, 0xE1, 0x08,
  0x0C, 0x39, 0x1D, 0x22, 0x14, 0x08, 0x15, 0xD8, 0x0D, 0xF4,
  0x9D, 0x16, 0xF5, 0x12, 0xEF, 0x1C, 0xE4, 0x1A, 0xEC, 0x0E,
  0xED, 0xFE, 0xD3, 0xDC, 0xE0, 0x0D, 0x9C, 0x28, 0xE0, 0xFC,
  0x22, 0xF8, 0x1A, 0xD2, 0x4E, 0x0A, 0x01, 0xD1, 0xCA, 0xEA,
  0xEE, 0xF5, 0xB8, 0xF1, 0x12, 0x0D, 0x0E, 0xEE, 0x14, 0x34,
  0x2C, 0xEA, 0x07, 0x00, 0xDC, 0x08, 0xF5, 0x12, 0x1A, 0x0C,
  0x06, 0x07, 0xEF, 0x02, 0xFE, 0x63, 0xEF, 0xDE, 0x31, 0x16,
  0x0A, 0xD1, 0xBC, 0xFD, 0x88, 0x24, 0xCD, 0xDE, 0xC5, 0xF7,
  0xF6, 0x0C, 0xF7, 0x13, 0x00, 0xBD, 0xCE, 0x9D, 0xDB, 0xDA,
  0xF1, 0x00, 0xF0, 0xD2, 0xD9, 0xDB, 0xFC, 0xFB, 0x35, 0xDF,
  0x00, 0xEA, 0x17, 0xAB, 0xFF, 0xEC, 0x09, 0xF9, 0xCC, 0xDA,
  0xDA, 0xE1, 0xB5, 0xC9, 0x31, 0x0F, 0x05, 0x21, 0x1D, 0x47,
  0xE9, 0xF7, 0xFF, 0x03, 0xCC, 0xDF, 0xC6, 0xC0, 0xD6, 0xB9,
  0x15, 0x24, 0xC4, 0xD5, 0xCF, 0x03, 0x02, 0xF6, 0x0F, 0x2B,
  0xD2, 0x94, 0xDE, 0xDD, 0xC6, 0xEA, 0xD9, 0xEE, 0xF8, 0xFB,
  0xDE, 0xD2, 0xD0, 0xD9, 0xFA, 0x17, 0xEF, 0x24, 0x13, 0xD7,
  0xF3, 0x48, 0x3C, 0xE1, 0x05, 0xF9, 0xFB, 0xA1, 0x04, 0xF2,
  0xD0, 0x0E, 0xEA, 0x1F, 0x00, 0xE8, 0xFE, 0xE5, 0x05, 0x1B,
  0x35, 0x20, 0x20, 0xEA, 0xD0, 0x1A, 0x11, 0x21, 0x05, 0xFE,
  0x0D, 0xDB, 0x08, 0xE1, 0x0E, 0xDE, 0xD0, 0x15, 0xF8, 0x10,
  0xCF, 0x20, 0xE9, 0xE2, 0xDB, 0xAA, 0x11, 0xB9, 0xD2, 0xBD,
  0x88, 0xF8, 0xA7, 0xD6, 0xF3, 0xFC, 0xF2, 0x0B, 0xDA, 0xE7,
  0xF0, 0x0B, 0xF4, 0xFB, 0xDC, 0x14, 0xED, 0x00, 0x36, 0x1C,
  0x08, 0xFB, 0xFD, 0x0C, 0xD5, 0xD8, 0x35, 0x23, 0xF2, 0xE2,
  0xED, 0xF4, 0x24, 0x26, 0x1E, 0x36, 0x25, 0xB0, 0xD4, 0xEE,
  0x17, 0x1E, 0x0E, 0xE3, 0xFC, 0xCD, 0x08, 0xD3, 0x2D, 0x1D,
  0x2F, 0x30, 0xFB, 0xF5, 0x19, 0xE8, 0x0B, 0x13, 0x2D, 0xCD,
  0xDA, 0xEE, 0xD2, 0xD2, 0x81, 0xE8, 0xD9, 0xD5, 0xE6, 0x9E,
  0x0C, 0x1F, 0xCE, 0xD4, 0x27, 0x24, 0x14, 0xF8, 0xE9, 0x43,
  0x1F, 0x20, 0x34, 0x1A, 0x51, 0xDF, 0x11, 0xD7, 0xE7, 0xC3,
  0x49, 0x28, 0x41, 0x18, 0xF8, 0x2B, 0x1C, 0x04, 0x3E, 0x40,
  0x11, 0xFF, 0x36, 0x07, 0xE5, 0x11, 0x03, 0x11, 0x16, 0x12,
  0x07, 0x30, 0x12, 0xF9, 0x1E, 0xFF, 0x05, 0xDB, 0xF7, 0x0B,
  0x03, 0x27, 0x0D, 0xCC, 0xCA, 0x04, 0xF9, 0x11, 0xBE, 0xF0,
  0x0D, 0xF1, 0x00, 0xD4, 0x13, 0x81, 0x19, 0x90, 0x3D, 0x9F,
  0x10, 0x9B, 0xAF, 0x08, 0xCA, 0x40, 0x91, 0x33, 0x98, 0x50,
  0x48, 0x9D, 0x60, 0xEC, 0x54, 0xE7, 0x09, 0x9C, 0xAA, 0x62,
  0x2A, 0xA4, 0x8C, 0x2E, 0x34, 0x9C, 0xBE, 0xBA, 0xCD, 0xD8,
  0x49, 0xA5, 0x23, 0xE7, 0x2D, 0x04, 0x42, 0xFC, 0x1F, 0x12,
  0x52, 0x99, 0x54, 0x00, 0x1C, 0xEC, 0xFB, 0x19, 0x57, 0xFE,
  0xA2, 0x40, 0x68, 0xBE, 0xB5, 0x8B, 0x8E, 0x38, 0x41, 0x13,
  0xC6, 0x28, 0xA6, 0x1D, 0x33, 0x13, 0x8D, 0x29, 0xA8, 0xB1,
  0x0D, 0xD7, 0x97, 0x4E, 0x1E, 0x0D, 0x07, 0x58, 0xB9, 0x0B,
  0x2E, 0x15, 0xFA, 0x09, 0x00, 0x9D, 0xAC, 0xC2, 0x2A, 0x63,
  0xB2, 0xBF, 0x14, 0x41, 0xE5, 0xF2, 0xC1, 0x4A, 0xBA, 0xD3,
  0x94, 0xA3, 0x3B, 0xE1, 0x05, 0x69, 0x22, 0xB1, 0x17, 0x9C,
  0x1B, 0x36, 0xC5, 0x18, 0x22, 0x5C, 0x18, 0x4F, 0x27, 0x2A,
  0xA3, 0xB1, 0x9F, 0xF4, 0xFE, 0x08, 0x2E, 0x26, 0x1C, 0xE3,
  0x28, 0x08, 0x4F, 0x00, 0x3C, 0x19, 0x44, 0xC7, 0x49, 0x92,
  0xF3, 0x9A, 0x54, 0xA7, 0x3E, 0x18, 0x29, 0xAB, 0x30, 0x1A,
  0xC3, 0x15, 0x5A, 0x64, 0x97, 0x96, 0x1D, 0x47, 0xEA, 0x1B,
  0xF9, 0x9C, 0x0E, 0xDE, 0x45, 0xFC, 0x43, 0xB6, 0xCF, 0x1D,
  0xC4, 0x22, 0xF3, 0x91, 0x1E, 0xB0, 0x4E, 0x4F, 0x17, 0xA9,
  0x55, 0x14, 0xCD, 0xC1, 0xCC, 0xC9, 0xEC, 0xB7, 0xEC, 0x04,
  0xFA, 0x96, 0xD6, 0x9F, 0x24, 0x24, 0xD7, 0x59, 0x99, 0xFD,
  0xE9, 0x00, 0xFD, 0x96, 0x5C, 0x9D, 0xC9, 0x0E, 0xFF, 0x06,
  0xEF, 0x16, 0x2F, 0x51, 0x57, 0xEF, 0xA5, 0xB3, 0xE6, 0x1D,
  0xEB, 0x26, 0xA0, 0xEA, 0xBD, 0x03, 0x4D, 0xC3, 0x63, 0x97,
  0xBA, 0x30, 0x53, 0x24, 0xFD, 0xBE, 0xA4, 0x63, 0x3E, 0x01,
  0xFC, 0xE4, 0xE0, 0x62, 0x57, 0x0E, 0xB5, 0xE6, 0xDB, 0xF1,
  0xF3, 0x13, 0x1F, 0x13, 0xCF, 0xF5, 0xE8, 0x22, 0x17, 0x0B,
  0xAC, 0xF9, 0xFB, 0xFC, 0x00, 0x17, 0xFB, 0x00, 0x13, 0xDD,
  0xFC, 0x0E, 0x1F, 0x25, 0x0B, 0x09, 0x98, 0xEB, 0xC7, 0xE8,
  0x0D, 0xF5, 0xF0, 0xED, 0x01, 0xE9, 0x17, 0xEC, 0x14, 0xE3,
  0xFE, 0xFB, 0xB2, 0x11, 0xD8, 0xDC, 0xFF, 0xD4, 0xF2, 0x01,
  0xFD, 0xE9, 0x22, 0x08, 0xF9, 0xD7, 0x0A, 0xE5, 0xE9, 0xE5,
  0x0C, 0xEB, 0xF4, 0x0C, 0xF7, 0x12, 0x1A, 0xFA, 0xE4, 0x0D,
  0xFB, 0x32, 0x20, 0x0B, 0x8A, 0xF6, 0xFA, 0xF1, 0xFC, 0xED,
  0xF6, 0x14, 0x00, 0xF7, 0xFB, 0x16, 0x1A, 0xF5, 0xFE, 0x03,
  0x81, 0xE2, 0xE2, 0xC8, 0x11, 0x09, 0xDB, 0xEF, 0x14, 0xF9,
  0x07, 0x12, 0x10, 0x05, 0xE2, 0xE4, 0x9C, 0x06, 0xD8, 0xD6,
  0x13, 0xF0, 0xE9, 0xED, 0xF3, 0x02, 0x0B, 0xEE, 0xFA, 0x07,
  0x02, 0xD6, 0xE8, 0x01, 0xDD, 0xF6, 0xF6, 0xFE, 0xFF, 0x19,
  0x2F, 0x08, 0xE5, 0x01, 0x25, 0x20, 0x2F, 0xF3, 0x89, 0x00,
  0x09, 0xF0, 0x04, 0xE3, 0xF5, 0xEE, 0x0E, 0x02, 0x07, 0x1E,
  0x0F, 0x16, 0x02, 0x12, 0xA6, 0x0C, 0xD8, 0xC3, 0x1F, 0xFC,
  0xF5, 0xEF, 0xF6, 0xF0, 0xE0, 0x01, 0x02, 0xED, 0x03, 0x16,
  0xB7, 0x11, 0xE6, 0xE4, 0x0F, 0x01, 0xF2, 0xF5, 0x09, 0xEB,
  0xF2, 0xFC, 0xDA, 0x09, 0xF3, 0x0C, 0xD1, 0x10, 0xFB, 0xFA,
  0xE2, 0x0A, 0x11, 0xF1, 0x09, 0xF6, 0x04, 0xD9, 0x2D, 0x00,
  0x2A, 0xF6, 0xB2, 0xF3, 0x0B, 0x06, 0x05, 0xE2, 0xFF, 0x10,
  0x06, 0xF5, 0xDF, 0xFE, 0x22, 0x22, 0x13, 0xF5, 0xB3, 0xF9,
  0x1D, 0xFC, 0x22, 0x03, 0xFC, 0xEC, 0x17, 0xF0, 0xDD, 0x18,
  0xFF, 0x06, 0xF8, 0x33, 0x97, 0xEF, 0x09, 0xFA, 0x0E, 0x1E,
  0x14, 0x00, 0x03, 0xDF, 0xCC, 0x06, 0xF4, 0xF0, 0x04, 0x06,
  0xDE, 0x09, 0x07, 0x05, 0xF4, 0x23, 0xFD, 0x1D, 0x04, 0xE3,
  0x0C, 0xE1, 0xB9, 0xD1, 0xDE, 0x52, 0x2D, 0xDF, 0x28, 0x56,
  0x49, 0x14, 0x23, 0x27, 0x11, 0xD0, 0xC5, 0x0B, 0xC8, 0xEA,
  0x06, 0x26, 0x76, 0x1E, 0xED, 0x53, 0x1F, 0x1F, 0x48, 0xD2,
  0x50, 0x08, 0x03, 0xF0, 0xF3, 0x1C, 0x3C, 0x05, 0x7F, 0x1E,
  0x66, 0x18, 0x1D, 0xBC, 0x0F, 0xCA, 0x1F, 0xD2, 0x11, 0x3B,
  0xDF, 0x3B, 0xE3, 0xEC, 0x50, 0x1B, 0xFE, 0x32, 0x24, 0x2B,
  0x31, 0x09, 0x2B, 0xDE, 0x27, 0xDF, 0xEF, 0x3D, 0x42, 0x26,
  0xEF, 0x28, 0x40, 0x08, 0x28, 0xD7, 0x4F, 0x02, 0xF6, 0x05,
  0xDA, 0x4B, 0x2E, 0x2D, 0xCC, 0x3C, 0x3C, 0xD5, 0x18, 0x52,
  0xD1, 0x24, 0xEE, 0xFD, 0x4F, 0xF6, 0x26, 0x2D, 0x02, 0xCB,
  0x05, 0x01, 0x3F, 0x27, 0x29, 0xF6, 0x2A, 0xD4, 0xE8, 0xE1,
  0x7F, 0xEE, 0x16, 0x0C, 0xF2, 0xE7, 0xEE, 0x13, 0x03, 0x19,
  0x0D, 0x69, 0x2B, 0x8C, 0xEB, 0x0C, 0xE9, 0x2C, 0xE0, 0x31,
  0x19, 0xDB, 0x2D, 0x5A, 0xFF, 0x38, 0x14, 0x15, 0x18, 0x0A,
  0x31, 0xDF, 0xFA, 0xFE, 0x00, 0xD9, 0xFB, 0xED, 0x19, 0x44,
  0xE6, 0x3C, 0x2E, 0x5E, 0xF8, 0xFF, 0x20, 0xDD, 0x63, 0xE2,
  0xD9, 0x16, 0x20, 0xCD, 0xD4, 0x0B, 0xF8, 0xE6, 0xF1, 0x36,
  0x3F, 0x9C, 0x48, 0x1C, 0x2F, 0xE1, 0x40, 0x44, 0x15, 0x0A,
  0x40, 0x32, 0xD0, 0xFD, 0xFC, 0x59, 0xED, 0xCA, 0x4F, 0xE6,
  0x00, 0xD3, 0x02, 0xDC, 0xCC, 0x29, 0x24, 0x12, 0xCF, 0x41,
  0xDA, 0x27, 0xFE, 0xED, 0x3C, 0xE3, 0x28, 0x42, 0x47, 0x33,
  0xD9, 0x38, 0x07, 0x36, 0xC9, 0x1A, 0xF2, 0xF7, 0x3E, 0xE9,
  0x5B, 0x40, 0x2B, 0x37, 0x37, 0x18, 0xF3, 0x14, 0xC9, 0x31,
  0xC7, 0xD8, 0x30, 0x2E, 0xDA, 0xEF, 0x33, 0x2A, 0x6B, 0xEA,
  0x3A, 0x20, 0x52, 0xDF, 0x35, 0x58, 0xE5, 0x2D, 0xE6, 0x38,
  0xFC, 0xBE, 0xCC, 0x10, 0x66, 0x2E, 0xF6, 0x34, 0x0B, 0xC5,
  0xCC, 0x36, 0x0D, 0x21, 0x06, 0x22, 0xEB, 0xCD, 0xD4, 0xE7,
  0x1F, 0xCB, 0x2F, 0x40, 0x7D, 0x15, 0x2B, 0x2F, 0xEF, 0xF9,
  0x27, 0x3F, 0x1D, 0xD1, 0xF4, 0xDC, 0xCF, 0xEC, 0x5A, 0x4B,
  0x50, 0xB3, 0xCF, 0x3D, 0x53, 0x02, 0xEE, 0xFB, 0x20, 0x29,
  0xF2, 0x32, 0xE4, 0xC1, 0x54, 0xE5, 0x57, 0xE3, 0x03, 0x5A,
  0x24, 0xF1, 0x01, 0x12, 0x06, 0x10, 0xEF, 0x1D, 0x49, 0xF3,
  0x3E, 0x00, 0x4F, 0xF0, 0x0B, 0x04, 0x6F, 0xFB, 0x21, 0x1A,
  0xEC, 0xDD, 0xC3, 0x2A, 0x0B, 0xF3, 0xEC, 0x00, 0x36, 0x04,
  0x07, 0x54, 0xE6, 0xCB, 0x1C, 0x45, 0x04, 0xBF, 0x1A, 0xD4,
  0xD8, 0xF6, 0x55, 0x40, 0x38, 0x22, 0xE7, 0x55, 0x1E, 0x22,
  0x2A, 0x19, 0x0F, 0x03, 0x1A, 0xF9, 0x91, 0x18, 0xFE, 0x1F,
  0x41, 0xF7, 0xF0, 0x4E, 0x4A, 0x28, 0x38, 0x38, 0xFB, 0xD6,
  0xCA, 0xCA, 0x49, 0x18, 0x39, 0xCF, 0x59, 0xE9, 0x25, 0xFE,
  0x7F, 0x1D, 0x2A, 0x06, 0x42, 0x8C, 0xFD, 0xBF, 0xFA, 0xC7,
  0xD9, 0x46, 0x57, 0x27, 0xD5, 0x12, 0xF9, 0xCF, 0xFB, 0xF5,
  0xF9, 0xC4, 0xFF, 0xD6, 0x15, 0xFF, 0x43, 0x51, 0x4F, 0x2C,
  0xFC, 0x08, 0x53, 0x22, 0x12, 0xFC, 0x58, 0xA3, 0xF9, 0xC7,
  0xF2, 0xF2, 0x10, 0x3B, 0x2B, 0xCA, 0xF2, 0x5E, 0x36, 0x31,
  0x3C, 0x10, 0x27, 0x23, 0xFF, 0x14, 0x7F, 0x17, 0xDE, 0xE3,
  0x4B, 0xE5, 0xF4, 0x1B, 0x33, 0x39, 0xEF, 0x19, 0x0B, 0xEA,
  0x36, 0x14, 0x02, 0xCB, 0x29, 0x1C, 0x20, 0xEC, 0xE5, 0x06,
  0xF3, 0x2A, 0x24, 0x4D, 0xEE, 0x16, 0xE4, 0xDD, 0xBD, 0xFD,
  0xE8, 0x3D, 0x2D, 0x2B, 0xC7, 0xF7, 0xEB, 0xD6, 0x24, 0x34,
  0x47, 0xC7, 0x57, 0xF1, 0xA9, 0x0E, 0x20, 0x3D, 0x14, 0x00,
  0xDF, 0x25, 0x2B, 0x04, 0x0A, 0x0D, 0x17, 0xA9, 0x24, 0x12,
  0xF4, 0x05, 0x21, 0x02, 0x12, 0xFF, 0x0C, 0x0E, 0xDE, 0xF0,
  0xDD, 0xFD, 0xF2, 0x13, 0x06, 0xEE, 0xEB, 0x12, 0x2B, 0x02,
  0xFB, 0x25, 0x1B, 0xFD, 0xDF, 0xF5, 0xF9, 0xFA, 0x07, 0x28,
  0x18, 0xFC, 0x09, 0xF9, 0x12, 0xFB, 0xFF, 0x0D, 0x1B, 0x2C,
  0xA6, 0xF9, 0x08, 0x02, 0x1F, 0xFD, 0x28, 0xFA, 0x1E, 0xFF,
  0xFB, 0x08, 0x09, 0x1F, 0x0D, 0x17, 0xF0, 0x07, 0xF3, 0x0A,
  0x1B, 0x14, 0x19, 0x1D, 0x18, 0x1D, 0x30, 0x00, 0x1D, 0x1A,
  0xFE, 0x16, 0xEC, 0xEB, 0x0C, 0x26, 0x1D, 0xE9, 0x09, 0x17,
  0xEA, 0x1C, 0x21, 0x19, 0x0C, 0x15, 0xF9, 0x0F, 0xE2, 0xF8,
  0xFA, 0xFC, 0xF1, 0xE6, 0xF4, 0xF8, 0xFE, 0xF8, 0x16, 0x05,
  0xF5, 0x14, 0x06, 0xFB, 0xC0, 0xF4, 0xED, 0xF6, 0xFD, 0x08,
  0x1B, 0x10, 0x17, 0x0A, 0xF3, 0x1C, 0x26, 0x07, 0x1E, 0x19,
  0x27, 0xF3, 0x20, 0x17, 0x29, 0x03, 0xF7, 0xEE, 0x06, 0xEC,
  0x13, 0xEF, 0x14, 0xFA, 0xFE, 0xFC, 0xF7, 0xFB, 0x04, 0x19,
  0x16, 0xC7, 0x05, 0xEB, 0xEA, 0xFA, 0xE4, 0xD0, 0xF5, 0xFA,
  0xF3, 0xDF, 0x47, 0xF8, 0x0F, 0xFA, 0xEA, 0xF1, 0xDF, 0x05,
  0x03, 0xEE, 0xEF, 0xF0, 0xF2, 0x20, 0x09, 0xE0, 0x04, 0x16,
  0x10, 0xD5, 0xEC, 0xFD, 0x06, 0xE6, 0x11, 0x06, 0xEC, 0xF2,
  0xF1, 0x08, 0xF2, 0x17, 0x58, 0xF9, 0x0A, 0xF8, 0x0D, 0x2C,
  0xF0, 0xF8, 0xE0, 0x07, 0xA9, 0xF4, 0xE0, 0xF2, 0xD9, 0xEE,
  0xF7, 0x05, 0xDF, 0xFA, 0xEC, 0x3C, 0xC1, 0xDE, 0xAA, 0xE5,
  0x83, 0xB1, 0x9D, 0xE5, 0xF4, 0x81, 0x51, 0x08, 0xD4, 0xE9,
  0xD2, 0x1C, 0xCE, 0xD5, 0xAB, 0xE4, 0x99, 0xB5, 0xAA, 0xD9,
  0xCD, 0xA0, 0x39, 0x13, 0xA0, 0xE0, 0xCB, 0xEB, 0xE1, 0xD9,
  0xF8, 0xD7, 0xA7, 0xD8, 0xB3, 0xFA, 0xE3, 0xFE, 0x70, 0xEB,
  0xE9, 0xDC, 0xFC, 0xF9, 0x16, 0xF1, 0xB2, 0x1F, 0x01, 0x2C,
  0x31, 0x22, 0x4A, 0x11, 0x07, 0xF6, 0x3B, 0x36, 0x00, 0xFF,
  0xF3, 0x2A, 0xCC, 0x2C, 0x2D, 0x1F, 0x48, 0x28, 0x27, 0xE9,
  0x13, 0xF8, 0x40, 0x04, 0x08, 0x06, 0xFF, 0xEE, 0xB9, 0xFC,
  0x11, 0x35, 0x08, 0x3F, 0x3D, 0xDA, 0x15, 0x27, 0x12, 0x07,
  0x33, 0x1D, 0xED, 0x28, 0xBC, 0x06, 0x32, 0x22, 0x29, 0x2A,
  0x45, 0x42, 0x12, 0xF2, 0x21, 0xE1, 0x3E, 0xC7, 0xE0, 0x06,
  0xAF, 0x1A, 0x1C, 0xE7, 0x3B, 0xEB, 0x0E, 0xC8, 0xD7, 0xFF,
  0x2C, 0xF9, 0x0B, 0x3C, 0xE9, 0x22, 0xD5, 0xF8, 0x3F, 0xDA,
  0x19, 0x0B, 0xF1, 0xB1, 0x05, 0xE3, 0x34, 0xE2, 0x1B, 0x4A,
  0xD8, 0x31, 0xDA, 0xD9, 0x29, 0xF0, 0x38, 0xE1, 0xFB, 0xCD,
  0x00, 0x1F, 0x42, 0x1B, 0x1B, 0x23, 0xD3, 0x02, 0xD6, 0x04,
  0x13, 0x15, 0x0B, 0x3F, 0xEA, 0xE3, 0x2D, 0x31, 0x0B, 0xDB,
  0x1B, 0x17, 0xD9, 0xDF, 0xCB, 0x0B, 0xFC, 0xDE, 0x26, 0x0D,
  0xF5, 0xBB, 0xF6, 0xE2, 0x39, 0x12, 0x35, 0x42, 0x0B, 0x10,
  0xED, 0xFF, 0x32, 0xCD, 0x0D, 0xFC, 0x0F, 0x81, 0x17, 0x16,
  0x27, 0xF6, 0xF3, 0x35, 0xFA, 0xE1, 0x33, 0xF5, 0x0A, 0xEA,
  0x27, 0xDA, 0x09, 0xD8, 0xDA, 0x04, 0xEC, 0x2B, 0xEF, 0x1C,
  0xD5, 0xE5, 0xFA, 0xDD, 0x18, 0xF2, 0x24, 0x09, 0xF0, 0xF2,
  0x1D, 0x20, 0xF0, 0xEA, 0x27, 0x2A, 0x14, 0xC5, 0xEF, 0xFA,
  0xFD, 0xDD, 0x1B, 0xE7, 0xC2, 0xB7, 0xAA, 0x02, 0x1A, 0x1E,
  0xF1, 0x73, 0xCF, 0xE1, 0x10, 0xDE, 0xF3, 0x00, 0xF1, 0xED,
  0x01, 0xAC, 0xD7, 0xFA, 0xF1, 0xF6, 0xF0, 0x5D, 0xEA, 0xEE,
  0x23, 0xBE, 0xC7, 0xE7, 0xEC, 0xB1, 0xE6, 0xEF, 0xF9, 0x25,
  0xE3, 0x0D, 0x0E, 0x26, 0xE4, 0xD7, 0xEF, 0xDF, 0x02, 0xFF,
  0xEA, 0xFF, 0x10, 0x03, 0x2C, 0xF1, 0xF5, 0x30, 0xE5, 0x67,
  0x20, 0xF3, 0x4C, 0xFE, 0xFF, 0xEB, 0x18, 0xF4, 0x14, 0x08,
  0x3C, 0x0E, 0x02, 0x30, 0xF6, 0xD5, 0xFF, 0x07, 0x43, 0xE6,
  0xE2, 0xEA, 0xE2, 0x2C, 0x23, 0x1E, 0x1E, 0x22, 0xF3, 0xF0,
  0xFF, 0xC8, 0xFD, 0x0A, 0x47, 0x0C, 0x02, 0x18, 0x0C, 0x11,
  0xFA, 0x0A, 0xD5, 0x1C, 0x24, 0x22, 0xFA, 0xDD, 0xEE, 0xDE,
  0x31, 0xF8, 0x0C, 0xEA, 0x0C, 0x09, 0xFD, 0x0A, 0xC4, 0x11,
  0x13, 0x09, 0x0C, 0x04, 0x08, 0x03, 0x6C, 0x14, 0x06, 0x1B,
  0x0A, 0x24, 0x22, 0x1C, 0x07, 0xEE, 0x20, 0xF8, 0x13, 0x15,
  0x0E, 0x09, 0x7F, 0xDF, 0xE6, 0x03, 0xDE, 0x03, 0x10, 0x15,
  0x1A, 0x09, 0x09, 0xE2, 0x04, 0xE7, 0xD2, 0x09, 0x24, 0x0A,
  0xEC, 0x0A, 0xE4, 0x1D, 0xF8, 0xE5, 0xD2, 0x18, 0xEE, 0xF0,
  0x08, 0xF9, 0xED, 0x0C, 0x00, 0xDC, 0xF7, 0x04, 0xE8, 0x01,
  0xDD, 0xEE, 0xE7, 0xEF, 0xF9, 0xDE, 0x0C, 0xD6, 0xF5, 0x15,
  0x69, 0x07, 0x02, 0x0B, 0x0C, 0x00, 0xFD, 0xFE, 0x19, 0xF9,
  0x08, 0x10, 0x10, 0x2C, 0x07, 0xE7, 0x50, 0x19, 0xE2, 0x0E,
  0xF7, 0x16, 0x1C, 0x00, 0xF7, 0x1F, 0xEB, 0x1A, 0x15, 0xFB,
  0xE9, 0xDE, 0x32, 0x02, 0x2B, 0xE1, 0x08, 0xF6, 0x04, 0xE0,
  0xC5, 0x23, 0xF1, 0x19, 0x1C, 0xEB, 0x01, 0x0E, 0x1C, 0x0C,
  0x16, 0x0E, 0x03, 0xEA, 0xDA, 0x09, 0xC9, 0x15, 0x0D, 0xEC,
  0x12, 0xDC, 0xED, 0x06, 0x4C, 0xE4, 0x16, 0x18, 0x0A, 0x04,
  0x0D, 0x00, 0x00, 0x05, 0xFC, 0xF7, 0xEC, 0x23, 0x00, 0xE1,
  0x4A, 0x18, 0xF5, 0xDA, 0x01, 0xF9, 0x08, 0xEC, 0xFF, 0x0E,
  0xF3, 0xF5, 0x0A, 0x1E, 0x00, 0x05, 0xEF, 0xF0, 0x13, 0xE3,
  0x1B, 0xF0, 0xF1, 0xE7, 0xC3, 0xEF, 0x06, 0x21, 0xDA, 0xF5,
  0xF9, 0xF7, 0xDD, 0xE5, 0xEA, 0x12, 0x01, 0xE0, 0xE3, 0xF9,
  0xAF, 0x1D, 0xF9, 0x13, 0xD8, 0xE2, 0x00, 0x14, 0x65, 0xEC,
  0x2A, 0x0B, 0x2A, 0xC6, 0xFE, 0x07, 0x09, 0xE9, 0xFD, 0xE9,
  0x17, 0xCE, 0x25, 0x1A, 0x25, 0xEC, 0x0E, 0x10, 0x48, 0xFD,
  0xFB, 0x19, 0x42, 0x07, 0x29, 0xF5, 0x12, 0xD1, 0x0F, 0xDD,
  0x07, 0x14, 0x28, 0xF1, 0x19, 0xE6, 0xE6, 0x06, 0x13, 0x0A,
  0x0E, 0x13, 0x0F, 0x12, 0xE0, 0xF5, 0x17, 0xE2, 0x22, 0xE4,
  0x22, 0xD4, 0xE8, 0x0F, 0x93, 0x1E, 0xF4, 0x06, 0xED, 0x0C,
  0x2B, 0x10, 0x35, 0x24, 0x27, 0xFE, 0x30, 0x0F, 0x0A, 0x2F,
  0xF1, 0x15, 0xF6, 0xFB, 0xFB, 0xAB, 0x11, 0xE8, 0x1F, 0xE3,
  0x1D, 0x2A, 0x37, 0x44, 0xEF, 0xFF, 0x2B, 0xE3, 0x18, 0x24,
  0x11, 0xE8, 0x01, 0x10, 0xED, 0xF6, 0x31, 0xF9, 0x0A, 0x47,
  0x18, 0x22, 0x24, 0x13, 0x11, 0xEF, 0x35, 0xD4, 0x09, 0xE4,
  0xF9, 0x1C, 0x0E, 0xD1, 0x1F, 0x25, 0x12, 0xF5, 0xC1, 0xE9,
  0x07, 0x11, 0xE3, 0xF8, 0x1A, 0x00, 0x26, 0xF4, 0x16, 0x15,
  0x3A, 0xF1, 0x0A, 0x04, 0x37, 0xFD, 0xF3, 0xFA, 0x30, 0xE1,
  0xFB, 0xF5, 0x16, 0x06, 0xF5, 0x12, 0x1B, 0x22, 0xFE, 0x21,
  0x08, 0xF2, 0xF3, 0x08, 0x38, 0xF5, 0xDE, 0x13, 0xD1, 0xDE,
  0x07, 0x16, 0x11, 0x1E, 0x0C, 0x07, 0x17, 0xDC, 0xF5, 0x15,
  0xE2, 0xF3, 0xE8, 0xD6, 0xC2, 0x13, 0x07, 0xD3, 0xFA, 0xE5,
  0xFD, 0x1D, 0xBC, 0xF8, 0x09, 0xD4, 0x0C, 0xFD, 0xF2, 0x10,
  0x18, 0xEF, 0xE9, 0x04, 0x29, 0xF5, 0xEB, 0xDC, 0x3E, 0xFA,
  0xE8, 0xEF, 0xEB, 0xC8, 0xDE, 0x13, 0xFA, 0x03, 0xD8, 0xEE,
  0xDE, 0x18, 0xEF, 0xC6, 0x1D, 0xFD, 0x15, 0xE1, 0xFA, 0xDE,
  0xB4, 0x09, 0x81, 0x1A, 0xF0, 0xD2, 0xAD, 0xDB, 0xD6, 0xC7,
  0x5B, 0x03, 0xC4, 0x01, 0xD6, 0xE8, 0xE4, 0x0A, 0xAA, 0x04,
  0xE6, 0xF2, 0xC9, 0x0E, 0xFC, 0x12, 0xF7, 0xE2, 0xF3, 0xE4,
  0xF1, 0x14, 0x2F, 0xE8, 0xF6, 0xCF, 0xC6, 0xFE, 0xC3, 0xF8,
  0xEE, 0xE3, 0xD8, 0x02, 0xD4, 0x24, 0x0E, 0x16, 0xF8, 0xC9,
  0x0D, 0xF5, 0xC4, 0x2D, 0xBE, 0xED, 0x21, 0x10, 0xF7, 0xF7,
  0xFE, 0x0D, 0x09, 0x57, 0x1D, 0xFC, 0x18, 0xEA, 0x05, 0x27,
  0xE9, 0x0C, 0xFF, 0x18, 0xDB, 0x0E, 0x0F, 0xE6, 0x1E, 0x4A,
  0xFE, 0xD9, 0x26, 0xD5, 0xE9, 0x2C, 0x0B, 0x11, 0xFB, 0x04,
  0xDF, 0xED, 0xE3, 0x05, 0x2D, 0x3D, 0x2F, 0xDF, 0x08, 0xE5,
  0xB9, 0x2E, 0xE7, 0x2F, 0x20, 0x04, 0xCD, 0xEE, 0x10, 0xF4,
  0x0C, 0x31, 0x13, 0xEB, 0x08, 0xDA, 0xB1, 0x26, 0xC5, 0xF2,
  0xF3, 0xFB, 0xD5, 0x26, 0x14, 0x0B, 0x03, 0x25, 0xF1, 0xFD,
  0xF5, 0xED, 0xC9, 0x1F, 0xC0, 0xE0, 0xE9, 0x1D, 0x0D, 0xEB,
  0xF0, 0x0B, 0x05, 0x24, 0x0A, 0xE9, 0xF3, 0xEF, 0xF1, 0x2B,
  0xDF, 0xDE, 0xF3, 0xE1, 0xFB, 0xEF, 0xF2, 0xF8, 0x29, 0x59,
  0x38, 0x1A, 0xE7, 0xC5, 0xCD, 0xF8, 0xC4, 0x19, 0x14, 0xF6,
  0xF2, 0x07, 0x0F, 0x33, 0x01, 0x32, 0x05, 0xD9, 0x04, 0xD4,
  0xB7, 0xED, 0xBA, 0xEE, 0x1E, 0xFD, 0xF7, 0x13, 0x0C, 0xF8,
  0xF9, 0x3A, 0xF6, 0xDD, 0x20, 0x03, 0xD7, 0xFD, 0xF4, 0xF2,
  0xE7, 0x1B, 0x1A, 0x0C, 0xE1, 0x34, 0x13, 0x51, 0xFC, 0x0E,
  0xF5, 0xEB, 0xF1, 0x0A, 0x0B, 0xE4, 0xEE, 0x1E, 0xFE, 0x29,
  0x0A, 0xE7, 0x03, 0x7F, 0x1E, 0x0B, 0xD7, 0xC6, 0x0A, 0x03,
  0xF9, 0x1E, 0xFF, 0xEB, 0xE4, 0xF7, 0x31, 0x03, 0xFF, 0x0D,
  0x10, 0xE9, 0x22, 0x0A, 0xED, 0x19, 0xE9, 0x1E, 0xF3, 0xF4,
  0xFC, 0x1E, 0xE1, 0x2B, 0xF6, 0x27, 0x0B, 0xF4, 0x22, 0xF0,
  0xD6, 0x01, 0x16, 0x16, 0xE7, 0xFB, 0xFC, 0xF0, 0x1E, 0xFF,
  0x11, 0x47, 0x21, 0xD0, 0x00, 0xE0, 0x10, 0x25, 0x32, 0x13,
  0xDA, 0x15, 0x2B, 0x35, 0x1A, 0xF7, 0x1C, 0x66, 0x15, 0x11,
  0x7F, 0xFF, 0x0D, 0x2B, 0x35, 0x07, 0xF8, 0x17, 0xFB, 0xE5,
  0x1D, 0x35, 0x33, 0xE0, 0x04, 0x1D, 0x3C, 0x1E, 0x1B, 0x03,
  0x0D, 0x04, 0x34, 0x18, 0x10, 0xF5, 0x11, 0x13, 0x20, 0xD4,
  0xE8, 0x02, 0x2B, 0x1C, 0xFF, 0x25, 0x27, 0x39, 0x13, 0x29,
  0xE2, 0xE5, 0xE8, 0xFF, 0xEA, 0xD0, 0xDF, 0x04, 0xF2, 0x18,
  0x0D, 0x10, 0x20, 0x2F, 0x17, 0xFE, 0xA0, 0xE7, 0xCF, 0xEA,
  0xDB, 0x02, 0xF3, 0x0A, 0x4E, 0xF6, 0xFE, 0x30, 0x23, 0x15,
  0x2F, 0x0F, 0xE6, 0xE7, 0x17, 0xF9, 0x0A, 0xFF, 0xED, 0xEB,
  0x44, 0xED, 0x1B, 0x2A, 0x33, 0x22, 0xFF, 0x25, 0xD4, 0x05,
  0x1C, 0xEA, 0x1D, 0xF2, 0x11, 0x06, 0xED, 0xE2, 0xE2, 0x03,
  0x00, 0x23, 0xE1, 0xEA, 0xBA, 0x1F, 0xE6, 0x05, 0x10, 0xFA,
  0x01, 0xD6, 0xDF, 0x0B, 0x22, 0xF4, 0x1F, 0x0D, 0x08, 0x14,
  0x90, 0xE2, 0xD9, 0xDF, 0xC9, 0xD1, 0x0F, 0xE5, 0x50, 0xEA,
  0xF2, 0x1D, 0x2F, 0x1C, 0xFD, 0xF1, 0xF5, 0x20, 0x1F, 0x07,
  0x22, 0xF3, 0xEC, 0x07, 0x3F, 0x05, 0xE2, 0xFC, 0x29, 0x27,
  0xE6, 0xE3, 0xE7, 0xF1, 0x31, 0xF4, 0x28, 0xE0, 0x17, 0xF0,
  0x03, 0xF9, 0x19, 0x16, 0x2B, 0x1D, 0xF2, 0x0D, 0xB2, 0xF0,
  0x23, 0xDE, 0xE7, 0xE0, 0xD6, 0xFB, 0xEC, 0xF4, 0x29, 0x07,
  0x05, 0x03, 0xF0, 0x14, 0xB5, 0xEF, 0x13, 0x01, 0xC8, 0xE4,
  0xDF, 0x19, 0x27, 0x0E, 0xCC, 0xFC, 0xE5, 0x29, 0x12, 0xE3,
  0xDC, 0x05, 0x26, 0xDC, 0xF4, 0x1F, 0xDB, 0xEE, 0x25, 0x02,
  0xCE, 0x20, 0xEE, 0xF5, 0x0E, 0x14, 0xE5, 0x0E, 0x18, 0x0C,
  0xE0, 0xF9, 0xD7, 0xEE, 0xED, 0xF1, 0x17, 0x1C, 0x0A, 0x1D,
  0xE4, 0x2D, 0xC9, 0xFB, 0x04, 0xEE, 0xF9, 0x07, 0xC9, 0x01,
  0xB7, 0xDE, 0xF1, 0xFB, 0xFD, 0x00, 0xEB, 0x18, 0x8E, 0x15,
  0xE4, 0xEC, 0xF5, 0xD5, 0xFE, 0xDF, 0x12, 0x0A, 0xBF, 0x02,
  0xFC, 0x35, 0x03, 0x03, 0x1E, 0xEF, 0xFE, 0x06, 0x18, 0xF4,
  0xEB, 0x08, 0x13, 0xF8, 0xDB, 0xFC, 0x14, 0x15, 0x0C, 0xEF,
  0xC5, 0xF4, 0xE3, 0xE6, 0xF0, 0x04, 0xFD, 0x04, 0x55, 0xDE,
  0xEA, 0x22, 0x06, 0x12, 0xEE, 0x04, 0x81, 0xFE, 0xFE, 0xE0,
  0x28, 0x14, 0x0E, 0xD9, 0x79, 0xF4, 0xDF, 0x26, 0xD7, 0x1D,
  0x02, 0x03, 0x8C, 0x22, 0x2C, 0x1F, 0x01, 0xF8, 0xF4, 0x19,
  0x02, 0xF5, 0xEA, 0x04, 0xDA, 0x18, 0x25, 0xEA, 0x24, 0xEB,
  0x15, 0x0D, 0xFC, 0x2D, 0xF3, 0xE1, 0x39, 0xFB, 0xC6, 0x0A,
  0x13, 0xF8, 0xED, 0xC5, 0xD6, 0xE3, 0xEA, 0xF7, 0x03, 0x1A,
  0x1E, 0xD1, 0x64, 0xE5, 0x05, 0xF7, 0xDA, 0x12, 0xF0, 0x05,
  0xC0, 0xF2, 0x02, 0x04, 0x21, 0x35, 0x12, 0xED, 0x4D, 0xDF,
  0xD1, 0xEC, 0xC3, 0xFA, 0x18, 0xF1, 0xB9, 0xEA, 0x1C, 0x14,
  0xE9, 0x32, 0xFE, 0x03, 0x1A, 0xDE, 0xEA, 0x19, 0x07, 0x13,
  0x07, 0xF6, 0x05, 0xF7, 0xFE, 0xDE, 0x24, 0x06, 0x08, 0x0B,
  0x1C, 0xEF, 0x09, 0xF5, 0xF2, 0xEC, 0xEE, 0xEA, 0xC1, 0xF8,
  0xF2, 0xEC, 0x16, 0x61, 0x19, 0xFF, 0x3C, 0xDD, 0xEC, 0xFB,
  0xDA, 0xE4, 0xE6, 0x12, 0xC3, 0xF5, 0xE7, 0x0F, 0x14, 0x3E,
  0xF5, 0xF9, 0x75, 0xE5, 0xD5, 0xFE, 0xE6, 0x32, 0x0B, 0x12,
  0xA7, 0xF6, 0xE9, 0x12, 0xE7, 0x11, 0x19, 0xE2, 0xF3, 0x0B,
  0xF9, 0xFB, 0x23, 0x14, 0xEF, 0xE2, 0x12, 0xE3, 0x11, 0xE6,
  0x16, 0xE5, 0xF1, 0xE2, 0x16, 0xDA, 0xE9, 0xF1, 0x12, 0x1D,
  0xE0, 0xFB, 0xA2, 0xF3, 0x11, 0xD9, 0x1F, 0x2A, 0xF5, 0xF0,
  0x3D, 0xED, 0xEC, 0xF0, 0xEB, 0x10, 0x00, 0xED, 0xCE, 0xE2,
  0x10, 0x11, 0x11, 0x44, 0x24, 0x02, 0x2B, 0xEE, 0xD3, 0x07,
  0xE4, 0xF9, 0x17, 0x1F, 0xC5, 0x09, 0xEE, 0x05, 0x15, 0x34,
  0xCB, 0x25, 0xE9, 0xEE, 0x28, 0xDB, 0x26, 0x04, 0xF7, 0x97,
  0x33, 0xF1, 0x2A, 0xE7, 0x04, 0x00, 0xFF, 0x22, 0x22, 0x1C,
  0x07, 0x0D, 0xED, 0x33, 0x07, 0x97, 0xEB, 0xFA, 0x03, 0x0C,
  0x20, 0xFB, 0xD2, 0x00, 0x2B, 0xEA, 0x12, 0x18, 0x1D, 0x37,
  0x3D, 0xD7, 0xB9, 0xF3, 0x26, 0xE9, 0x19, 0x41, 0x0B, 0xE7,
  0x30, 0x0C, 0x19, 0x23, 0xF8, 0x3D, 0x1C, 0xC2, 0xAB, 0xE3,
  0x05, 0xC3, 0xF9, 0x48, 0xD1, 0xE5, 0xE6, 0xE6, 0x0F, 0x07,
  0x0E, 0xEC, 0xFE, 0x81, 0x29, 0x18, 0x23, 0xE2, 0x11, 0x42,
  0xCF, 0x0F, 0x00, 0xD9, 0x28, 0xFE, 0x02, 0xFE, 0xF5, 0xA0,
  0x1C, 0xDA, 0x21, 0x18, 0x18, 0x02, 0xB8, 0x19, 0x07, 0x16,
  0x03, 0xE7, 0x2C, 0x21, 0x0B, 0x90, 0xC3, 0xF3, 0x16, 0x15,
  0x13, 0x2E, 0xC7, 0x0A, 0x3F, 0x00, 0xF9, 0x04, 0x23, 0x03,
  0xF3, 0xB1, 0xB0, 0xFA, 0x0F, 0x0D, 0xDE, 0x47, 0xE6, 0xE3,
  0x0A, 0xDD, 0xF8, 0xEE, 0xEC, 0xFF, 0xDC, 0xB8, 0x37, 0xF8,
  0xEE, 0x02, 0xD4, 0x79, 0xE0, 0xDB, 0xFD, 0xF8, 0x13, 0x17,
  0x2D, 0xDC, 0xED, 0xBB, 0x0D, 0x03, 0x24, 0x01, 0x1A, 0x0E,
  0xC7, 0xEE, 0x06, 0xF7, 0x0F, 0xDD, 0xF1, 0x13, 0xE0, 0xA8,
  0xFA, 0x05, 0xF6, 0x0D, 0x1C, 0x35, 0x06, 0xF3, 0xEE, 0xD7,
  0x06, 0x04, 0x03, 0x0F, 0x07, 0xBD, 0xAD, 0xF0, 0xFB, 0x2B,
  0x1B, 0x52, 0x22, 0x0F, 0xF2, 0xEB, 0xC8, 0xFF, 0x06, 0x0C,
  0xEA, 0xF9, 0x2E, 0xE5, 0xD9, 0x02, 0xD8, 0x37, 0x21, 0xF7,
  0xE0, 0xE6, 0xE7, 0xEC, 0x08, 0x27, 0x0E, 0xDE, 0xFB, 0x1B,
  0x14, 0xF0, 0xE1, 0x21, 0xF6, 0x18, 0x0C, 0xDA, 0xEC, 0x26,
  0x0B, 0xE9, 0xFD, 0xD2, 0xE9, 0xF2, 0xF1, 0x29, 0x05, 0x31,
  0xF6, 0x1B, 0xE2, 0x14, 0xBC, 0xFB, 0xCC, 0x1D, 0x14, 0xF3,
  0xD3, 0xDE, 0xF5, 0x12, 0xF3, 0x79, 0x27, 0x15, 0x03, 0x07,
  0x07, 0x13, 0xFB, 0xEE, 0xEB, 0x4C, 0x81, 0x26, 0x32, 0x1A,
  0x21, 0xFF, 0xE6, 0xF5, 0xDD, 0x0F, 0x05, 0x0C, 0x15, 0xC6,
  0xDF, 0x2A, 0x26, 0xDC, 0x30, 0xF5, 0xE2, 0xD5, 0xFC, 0xD5,
  0xFB, 0x05, 0x2B, 0xE5, 0xE9, 0x17, 0x22, 0x08, 0x7E, 0xD0,
  0x03, 0x26, 0x48, 0x0F, 0xE2, 0x18, 0x34, 0xD7, 0xE3, 0xD9,
  0xE8, 0xE8, 0xD5, 0x21, 0xFA, 0xDF, 0x25, 0x10, 0x37, 0x46,
  0xD9, 0x14, 0x07, 0xD7, 0xE1, 0xEB, 0x29, 0x0F, 0x22, 0x01,
  0xC8, 0x3B, 0x28, 0x21, 0xD3, 0x1F, 0xEA, 0xFC, 0x0C, 0x0B,
  0x23, 0x06, 0x08, 0x17, 0x08, 0x54, 0x45, 0x27, 0x3A, 0x35,
  0xEC, 0xC7, 0x11, 0x10, 0x10, 0x20, 0xF7, 0x31, 0xF2, 0xD5,
  0x08, 0x26, 0x75, 0xF0, 0x3D, 0x00, 0x37, 0xF5, 0x12, 0xD5,
  0x2D, 0x08, 0xF0, 0x24, 0xFC, 0xEE, 0xE7, 0xE6, 0x14, 0x17,
  0x2D, 0x66, 0xEA, 0x58, 0x03, 0x2B, 0x15, 0xD0, 0x14, 0x15,
  0xF6, 0x14, 0x1E, 0x55, 0x8D, 0x23, 0x2E, 0x33, 0xFF, 0xA6,
  0xE7, 0x2D, 0x3D, 0xE8, 0x35, 0x35, 0x16, 0x0E, 0x03, 0x08,
  0x29, 0xD8, 0x1D, 0xEC, 0x19, 0xDF, 0x2D, 0x19, 0xF6, 0x1D,
  0xC8, 0x36, 0x22, 0x29, 0x29, 0x17, 0x6E, 0xD7, 0xFF, 0x28,
  0x1A, 0xAF, 0x3F, 0x0E, 0x44, 0x2C, 0xFA, 0x0B, 0x32, 0xDA,
  0xEE, 0x32, 0x2F, 0xE0, 0x46, 0x4B, 0x1F, 0x1A, 0x05, 0xF3,
  0xDF, 0xEC, 0x23, 0x24, 0x2E, 0xEF, 0x0A, 0x41, 0xE0, 0xD5,
  0xE5, 0x2B, 0xF0, 0xAB, 0x02, 0x13, 0x48, 0xE2, 0xF7, 0x11,
  0xD6, 0x2B, 0xE9, 0xEB, 0x1B, 0xD7, 0x14, 0x07, 0x17, 0xC6,
  0x15, 0xF5, 0x22, 0x2D, 0xE8, 0x1A, 0x0E, 0xDA, 0x21, 0x46,
  0x62, 0xF5, 0x49, 0x4E, 0xF2, 0xDF, 0x44, 0xDD, 0x3A, 0xFE,
  0xE8, 0xEE, 0x3B, 0xF8, 0x20, 0xE7, 0xF7, 0xDD, 0x1A, 0x3D,
  0x20, 0xB1, 0x42, 0xDB, 0xFF, 0xFF, 0x04, 0x00, 0x00, 0x00,
  0x40, 0x00, 0x00, 0x00, 0xF7, 0xF0, 0xFF, 0xFF, 0x5A, 0xE2,
  0xFF, 0xFF, 0x9E, 0x0B, 0x00, 0x00, 0xEC, 0xD5, 0xFF, 0xFF,
  0xEF, 0x06, 0x00, 0x00, 0x7C, 0x0C, 0x00, 0x00, 0xBF, 0x00,
  0x00, 0x00, 0xA8, 0x09, 0x00, 0x00, 0xCE, 0xF7, 0xFF, 0xFF,
  0x5A, 0x15, 0x00, 0x00, 0xCD, 0xF9, 0xFF, 0xFF, 0x39, 0x0F,
  0x00, 0x00, 0xFD, 0x02, 0x00, 0x00, 0x78, 0xEF, 0xFF, 0xFF,
  0x82, 0x16, 0x00, 0x00, 0x15, 0x03, 0x00, 0x00, 0x8E, 0xDB,
  0xFF, 0xFF, 0x04, 0x00, 0x00, 0x00, 0x00, 0x09, 0x00, 0x00,
  0xE3, 0x14, 0x50, 0xD1, 0xC7, 0x36, 0xFD, 0x0A, 0xC2, 0xEA,
  0xDC, 0xED, 0x03, 0x10, 0xD9, 0x23, 0xDB, 0xFC, 0x34, 0x39,
  0xD6, 0x2C, 0x2D, 0xD8, 0x0D, 0x19, 0xC5, 0x9F, 0x20, 0xDA,
  0x24, 0x22, 0x13, 0x1D, 0xDF, 0x2A, 0x81, 0x29, 0xEC, 0x09,
  0xAF, 0x16, 0xED, 0x9D, 0x31, 0x02, 0xEF, 0x2B, 0xD1, 0xFC,
  0x59, 0xFC, 0xBC, 0x01, 0x45, 0xF8, 0x03, 0x2E, 0x00, 0xEA,
  0xD1, 0x31, 0xE6, 0x3F, 0xA5, 0x3C, 0xFC, 0xFC, 0x90, 0x38,
  0xDD, 0x26, 0x18, 0x14, 0xD0, 0xEB, 0x3C, 0x26, 0x27, 0x15,
  0x0D, 0xDF, 0x38, 0x21, 0x82, 0xF2, 0xC8, 0xE3, 0xF5, 0x33,
  0x0E, 0xBC, 0x1F, 0xD0, 0x05, 0x13, 0xDB, 0xE3, 0x1C, 0x40,
  0xCF, 0xF6, 0x01, 0x1F, 0xA0, 0x08, 0xEB, 0xEB, 0x33, 0x34,
  0xCF, 0xF1, 0x21, 0xC7, 0x13, 0xFC, 0xAE, 0x01, 0x22, 0x07,
  0xCD, 0x33, 0x22, 0xC8, 0x36, 0xC7, 0xCC, 0x11, 0xBA, 0x00,
  0x26, 0xCA, 0x0C, 0x4C, 0x38, 0xF4, 0x15, 0xD7, 0x0B, 0x8B,
  0x07, 0xE6, 0xEC, 0x3D, 0xFB, 0xC6, 0xF5, 0x06, 0xD3, 0x20,
  0xE8, 0xF4, 0xF0, 0xF2, 0xEE, 0xD2, 0xF0, 0xD8, 0x1C, 0xE1,
  0x00, 0xC8, 0xE3, 0x0A, 0x81, 0x0F, 0xDC, 0x14, 0xF7, 0x18,
  0x05, 0x18, 0xD5, 0xE1, 0x09, 0x18, 0x0C, 0xDD, 0x22, 0xE5,
  0xBF, 0xF2, 0x0D, 0xDD, 0xF4, 0xE8, 0xF5, 0x1C, 0xC8, 0x21,
  0xCD, 0x28, 0x10, 0xFE, 0x26, 0x11, 0xE0, 0x16, 0xF1, 0xBC,
  0xFF, 0xF2, 0xDD, 0x0B, 0x01, 0x0C, 0xDB, 0x25, 0xD5, 0xBB,
  0xE3, 0xE4, 0xB4, 0xEB, 0xF6, 0xD0, 0xE3, 0xEB, 0xDA, 0xE6,
  0xE0, 0xEE, 0xF8, 0xFB, 0xF9, 0xF6, 0x0D, 0xFD, 0xDA, 0x21,
  0x2E, 0x1B, 0xD8, 0xE4, 0x17, 0x1B, 0xDC, 0xF5, 0x0C, 0x36,
  0xFB, 0xE2, 0x33, 0xFE, 0x0B, 0x3B, 0x0B, 0x39, 0xA1, 0x16,
  0x33, 0x0F, 0xD6, 0xEC, 0xD4, 0xEB, 0xFF, 0x08, 0xF4, 0x07,
  0xC5, 0x3D, 0xFB, 0x23, 0xB1, 0x04, 0x14, 0xD7, 0xDB, 0xFE,
  0x09, 0x0B, 0x40, 0x0F, 0x3D, 0xF3, 0xD2, 0x2A, 0x03, 0x69,
  0xE9, 0x2D, 0x35, 0xE1, 0xF8, 0x0B, 0xC9, 0x1C, 0x2A, 0xD7,
  0x03, 0xFB, 0x61, 0x07, 0x00, 0xA9, 0x45, 0xE3, 0xD1, 0xFE,
  0x1C, 0x3F, 0x05, 0x08, 0x2C, 0x0B, 0xD4, 0xDB, 0x2A, 0xFF,
  0xE2, 0xA0, 0x1E, 0x31, 0xB4, 0x09, 0xEF, 0x1F, 0x3D, 0x1F,
  0x40, 0xC6, 0xF6, 0xE7, 0x7F, 0x15, 0x28, 0xAD, 0x17, 0x30,
  0xE7, 0xE4, 0x11, 0x35, 0x22, 0xD0, 0x21, 0xCD, 0xDC, 0xFF,
  0x39, 0x12, 0x00, 0xA4, 0x2A, 0xE1, 0xAB, 0x04, 0x2C, 0x3A,
  0x29, 0x29, 0xF5, 0xC0, 0xBD, 0x0A, 0x53, 0x0D, 0x1A, 0xB3,
  0x58, 0x2C, 0xD0, 0x38, 0x20, 0xE3, 0x04, 0xDF, 0x0C, 0xD9,
  0xDE, 0x1B, 0x3D, 0x0A, 0xE3, 0x9D, 0x4C, 0xF7, 0xAE, 0x3D,
  0xEA, 0x0E, 0x49, 0xDC, 0x24, 0xBE, 0xF2, 0xE3, 0x3D, 0x02,
  0xCB, 0xC2, 0x64, 0x01, 0xD5, 0x0C, 0xDA, 0x40, 0x2E, 0x18,
  0x1E, 0xD8, 0xEE, 0x17, 0x40, 0x16, 0xE1, 0x9C, 0x2D, 0x2E,
  0xFA, 0x41, 0x01, 0xF1, 0x62, 0xCA, 0x1C, 0xA5, 0xFD, 0xF4,
  0x0E, 0xEC, 0x2F, 0xA4, 0x1A, 0xFF, 0x11, 0x29, 0x16, 0xF3,
  0x06, 0xCE, 0xF5, 0xA5, 0x5F, 0x06, 0x96, 0x1C, 0xE3, 0xF8,
  0x82, 0x07, 0xD4, 0x0D, 0xB9, 0x5A, 0x88, 0xF6, 0x43, 0xE2,
  0xF9, 0x06, 0xB1, 0x47, 0xC4, 0xBE, 0xEF, 0x26, 0x02, 0x01,
  0xE1, 0xFB, 0xB6, 0x33, 0x18, 0xFC, 0x4D, 0xF3, 0x0F, 0x36,
  0x10, 0xE0, 0xF9, 0x33, 0xEE, 0xC0, 0x4C, 0x62, 0xCC, 0x22,
  0x10, 0x1E, 0x69, 0xBF, 0xE5, 0x1F, 0xE0, 0xB5, 0xC6, 0xEF,
  0x37, 0xEF, 0xDC, 0x31, 0xDD, 0xBC, 0x33, 0x10, 0x37, 0xC5,
  0xDF, 0x4A, 0xD2, 0xEC, 0x02, 0xFF, 0xBD, 0xB0, 0xC5, 0x18,
  0xB8, 0x25, 0x13, 0x14, 0x4D, 0xE4, 0xBB, 0x33, 0xBA, 0x85,
  0x81, 0x1F, 0x00, 0x11, 0x16, 0xE7, 0xE2, 0xE2, 0x24, 0x24,
  0x59, 0x10, 0x04, 0xF8, 0xE4, 0x6B, 0x90, 0x2D, 0x0C, 0xC6,
  0x08, 0x17, 0xD0, 0x2C, 0x21, 0x1F, 0xEE, 0x25, 0xB9, 0x49,
  0xD2, 0x6B, 0xDE, 0xE1, 0x37, 0xE9, 0x10, 0x1E, 0xAE, 0x39,
  0xEF, 0xB0, 0x17, 0xFC, 0xD7, 0xDD, 0xB7, 0xFC, 0xBC, 0x3E,
  0x19, 0xB7, 0x28, 0x2D, 0xE1, 0xE2, 0x4B, 0x13, 0x1D, 0x0F,
  0x49, 0xED, 0x16, 0xA0, 0xF0, 0xD0, 0xFE, 0x41, 0x25, 0xE0,
  0xFF, 0x07, 0x24, 0xF8, 0xE7, 0x22, 0x2A, 0xF9, 0xE6, 0xF2,
  0x1E, 0xDD, 0x12, 0x22, 0x0A, 0x0D, 0x1B, 0x08, 0x4A, 0x15,
  0x22, 0xFF, 0x18, 0x14, 0xEB, 0xDB, 0xEF, 0xED, 0xF5, 0x14,
  0xE4, 0xFC, 0xD9, 0x16, 0x23, 0xF5, 0xF5, 0x28, 0x7F, 0x09,
  0xF1, 0xF9, 0x19, 0x0A, 0xF7, 0x33, 0xD5, 0x11, 0xB7, 0x01,
  0x1B, 0x11, 0xFF, 0x1D, 0x49, 0xF7, 0xDE, 0xFD, 0xC4, 0xE4,
  0x0E, 0x28, 0xD6, 0x07, 0xB4, 0xF9, 0xED, 0x24, 0x28, 0x1A,
  0x11, 0x11, 0xED, 0xDD, 0xEE, 0x07, 0xFA, 0x1D, 0x10, 0x23,
  0xF5, 0x27, 0x13, 0x25, 0x10, 0xE3, 0x31, 0x18, 0x1A, 0xDF,
  0xDA, 0xF2, 0xD9, 0xFB, 0xDF, 0x40, 0xBA, 0x01, 0x25, 0x19,
  0x04, 0xDD, 0xF4, 0x00, 0x01, 0x02, 0xC5, 0x1E, 0x0A, 0x0A,
  0x0B, 0x30, 0xDA, 0x2E, 0x0A, 0x12, 0xE2, 0xE4, 0x0A, 0xE8,
  0x17, 0xFD, 0xB4, 0x01, 0xE6, 0x18, 0xFC, 0x2F, 0xBB, 0x1A,
  0xD8, 0x12, 0xE2, 0xF7, 0x81, 0xE1, 0x0D, 0x09, 0xD7, 0xE2,
  0x13, 0xD8, 0x2A, 0xFB, 0xFA, 0x2B, 0xC2, 0x0D, 0xEA, 0xD3,
  0x92, 0x01, 0x20, 0xD9, 0xE8, 0xE1, 0x1A, 0xEE, 0xFC, 0x1F,
  0x31, 0x28, 0xC0, 0xE3, 0x29, 0x0B, 0x82, 0xDB, 0x31, 0x03,
  0x21, 0xDE, 0x16, 0xFA, 0xFB, 0xE3, 0x04, 0x2C, 0xCB, 0xE0,
  0x38, 0xF4, 0xAA, 0xF1, 0xF0, 0x2A, 0xD6, 0x27, 0xE4, 0x02,
  0x0F, 0xE8, 0x05, 0xF3, 0xD8, 0xE9, 0x0F, 0xD9, 0xA8, 0x2B,
  0x1A, 0xEB, 0xF3, 0xFE, 0xF4, 0xB7, 0x1B, 0xE8, 0x09, 0xDC,
  0xEA, 0xD9, 0xF2, 0x0F, 0xBB, 0x2A, 0xD6, 0xE2, 0xC6, 0x09,
  0xE1, 0xEA, 0xE9, 0xE0, 0x2D, 0x1C, 0xF3, 0x02, 0x2B, 0x00,
  0xE0, 0x25, 0x07, 0xE1, 0xAD, 0x19, 0xF6, 0x06, 0x0B, 0xFF,
  0xD8, 0x0D, 0xE3, 0xD9, 0x18, 0xD8, 0xE0, 0xEC, 0x2F, 0xE5,
  0xD1, 0xEF, 0xE4, 0x05, 0xED, 0x06, 0xDD, 0x2B, 0xC4, 0x18,
  0x15, 0x2F, 0x8E, 0xEB, 0xF9, 0xD1, 0xDD, 0xF0, 0xF4, 0xC4,
  0xED, 0x0F, 0xF0, 0x0D, 0xDE, 0xF2, 0xE6, 0x2D, 0xF3, 0x02,
  0xFA, 0x29, 0xD7, 0x00, 0x1B, 0xC6, 0x1E, 0xCF, 0xF1, 0x14,
  0xC8, 0xEC, 0x02, 0x2B, 0x81, 0x30, 0x1F, 0x48, 0x08, 0x2F,
  0x01, 0xD8, 0xFA, 0xF4, 0xE6, 0x1E, 0xBE, 0xD0, 0x10, 0xD8,
  0x96, 0x1A, 0x0B, 0x2A, 0x12, 0xF6, 0xE7, 0xD1, 0xE8, 0xC8,
  0x0D, 0x18, 0xE8, 0x1B, 0xE8, 0x1A, 0x10, 0x31, 0xF0, 0x41,
  0xDC, 0x23, 0x28, 0xF9, 0x1F, 0xF7, 0xD8, 0xFB, 0xD4, 0xF9,
  0x17, 0x17, 0xE3, 0x1F, 0x0E, 0x37, 0xB7, 0xE9, 0xFE, 0xE5,
  0x14, 0xD2, 0xFD, 0xE7, 0x0E, 0xD8, 0xE7, 0x1E, 0x85, 0xEA,
  0x29, 0x20, 0x08, 0xFD, 0x09, 0xB9, 0x17, 0x18, 0xDD, 0xE3,
  0xB3, 0xED, 0x30, 0xDA, 0x0F, 0x11, 0x29, 0x0D, 0xDA, 0x19,
  0x11, 0xA9, 0x0B, 0x05, 0xCC, 0xE4, 0xB3, 0x1E, 0x2D, 0xE6,
  0xC8, 0xE0, 0xF6, 0x28, 0xCD, 0xF8, 0xE3, 0xD4, 0x16, 0xD1,
  0x09, 0x21, 0xEE, 0xF8, 0x34, 0x08, 0xDB, 0x01, 0xF4, 0x10,
  0xCF, 0x09, 0xFE, 0xC2, 0xD5, 0x0F, 0xF7, 0xD1, 0xF0, 0x00,
  0x24, 0xEE, 0x94, 0x1B, 0x1F, 0x22, 0xFA, 0xF7, 0x09, 0xFA,
  0x1A, 0xE3, 0xDD, 0xFA, 0xD1, 0xE4, 0x07, 0xF0, 0xB7, 0x0E,
  0x1A, 0x06, 0xEE, 0x05, 0xE6, 0xDC, 0xE5, 0xEB, 0xF4, 0xE1,
  0xFD, 0x1A, 0x32, 0x1D, 0xC8, 0x04, 0x22, 0x41, 0xFB, 0x1B,
  0xEF, 0xDE, 0xF6, 0x1A, 0x00, 0x21, 0xEF, 0xDA, 0x2C, 0x1B,
  0x81, 0x22, 0xFA, 0xFD, 0xE3, 0x04, 0x0F, 0x01, 0xE5, 0x15,
  0xF6, 0x17, 0x06, 0x06, 0x10, 0x1C, 0xDC, 0x07, 0xFB, 0xDF,
  0xF7, 0x09, 0x0D, 0xFB, 0xF0, 0xFF, 0xCE, 0xF0, 0xE2, 0xFC,
  0xF6, 0xEB, 0xB5, 0xF2, 0xFB, 0x10, 0xC7, 0x0D, 0x15, 0xD3,
  0x1F, 0x17, 0x04, 0x1D, 0xD5, 0xF6, 0x32, 0x23, 0xBF, 0x09,
  0x09, 0xDF, 0xCF, 0xFC, 0x14, 0xD5, 0x06, 0xE5, 0xFF, 0x08,
  0xFB, 0x06, 0x22, 0xE8, 0xAD, 0x03, 0xE4, 0xF6, 0xBA, 0x06,
  0x0F, 0xC7, 0xF2, 0xFE, 0xFA, 0xDF, 0xEA, 0x0F, 0xF7, 0x03,
  0xD9, 0x28, 0x04, 0xEC, 0xB4, 0xFA, 0x04, 0xC6, 0xEF, 0x10,
  0x12, 0xFA, 0x07, 0x04, 0x0E, 0xE8, 0x3F, 0xCB, 0xDB, 0xFE,
  0x29, 0x08, 0xBD, 0x09, 0x03, 0xFD, 0x29, 0x07, 0xFF, 0x2F,
  0x13, 0xE3, 0x22, 0xD1, 0x18, 0x03, 0x26, 0x10, 0xCA, 0xF9,
  0x10, 0x03, 0x29, 0x0C, 0x03, 0x2D, 0x1C, 0x10, 0x21, 0xE6,
  0xF5, 0x40, 0x62, 0xE4, 0xC3, 0xF9, 0x06, 0x06, 0x1C, 0xE2,
  0x6C, 0x0F, 0x06, 0x0E, 0x3B, 0x02, 0xF5, 0xBD, 0x4F, 0x08,
  0xCE, 0xBF, 0xD5, 0xE3, 0x42, 0xFC, 0x1A, 0xFB, 0x31, 0xE6,
  0x04, 0xDA, 0xF6, 0xBE, 0x52, 0x1F, 0xE8, 0xE5, 0x18, 0x0F,
  0x3E, 0xFC, 0x1F, 0xEA, 0x3E, 0xF1, 0x3A, 0xF9, 0x0C, 0xEB,
  0x2E, 0xF6, 0xC9, 0xC9, 0x1A, 0xD0, 0x1D, 0x25, 0x33, 0x15,
  0x8B, 0xE4, 0x53, 0xF0, 0x23, 0x81, 0x25, 0x0C, 0x1F, 0xF3,
  0x1C, 0x30, 0x17, 0xDE, 0x1B, 0x02, 0xD3, 0xFB, 0x12, 0xD8,
  0xE0, 0xB7, 0x41, 0x24, 0xF0, 0xD5, 0xEC, 0xF8, 0x41, 0xEA,
  0xF6, 0x2B, 0xE9, 0xDB, 0xE2, 0xCE, 0xF6, 0xCC, 0x3A, 0xF2,
  0xF6, 0xC9, 0x2B, 0x14, 0x2B, 0x1D, 0x11, 0xFF, 0xDF, 0x19,
  0xFF, 0xCE, 0xFA, 0xE6, 0xF2, 0xC4, 0xCC, 0xEB, 0xF5, 0x16,
  0xBA, 0xD0, 0x1D, 0xD1, 0x30, 0xF7, 0xF8, 0x21, 0xFB, 0xD3,
  0xF9, 0x09, 0xE8, 0x03, 0xEB, 0x2C, 0x1A, 0xE3, 0x38, 0x09,
  0xF1, 0xF7, 0xE1, 0xEE, 0xE6, 0xD6, 0xF5, 0x10, 0x81, 0x3F,
  0x10, 0x06, 0x01, 0xEE, 0x3D, 0x13, 0x2B, 0xE6, 0xF2, 0xFB,
  0xD8, 0x14, 0xA8, 0xE7, 0x57, 0xDA, 0xE0, 0x0C, 0xD2, 0xE9,
  0x17, 0x04, 0x61, 0xF2, 0xFA, 0x17, 0xFD, 0x42, 0x29, 0xEF,
  0x34, 0x0F, 0xDA, 0x09, 0x20, 0xF7, 0x0A, 0xE1, 0x13, 0x11,
  0x20, 0xEC, 0x06, 0x14, 0x45, 0x1E, 0x4B, 0x31, 0xEC, 0x18,
  0xF6, 0xF3, 0x1C, 0xE5, 0x11, 0x0F, 0xF2, 0xCC, 0x21, 0xF6,
  0xFA, 0xF7, 0xC8, 0xFB, 0xD6, 0xFF, 0xDB, 0xDB, 0x06, 0x16,
  0x4F, 0x02, 0xEC, 0x1B, 0xEE, 0xEB, 0x0B, 0xF2, 0xE8, 0x26,
  0x0F, 0x22, 0x11, 0x15, 0x22, 0xFC, 0xEA, 0x0B, 0x0F, 0xE2,
  0xE4, 0xCE, 0x12, 0x1B, 0xCB, 0x2F, 0x16, 0x19, 0xEB, 0x10,
  0xC4, 0x25, 0xD9, 0xEC, 0xFC, 0xEF, 0xBF, 0x63, 0x31, 0xDA,
  0x0F, 0xFC, 0xDC, 0xAF, 0xF8, 0x0F, 0xEA, 0x00, 0x37, 0x3F,
  0xC2, 0xE1, 0x20, 0xFB, 0xD9, 0x19, 0x25, 0x7F, 0xEB, 0xED,
  0x00, 0x30, 0x0A, 0xFC, 0x0C, 0x34, 0xBF, 0x3D, 0xF2, 0x56,
  0x3B, 0x18, 0xFD, 0x2A, 0xFB, 0x3D, 0x16, 0x03, 0x01, 0xD1,
  0xA9, 0xD7, 0xB5, 0xA0, 0xFD, 0x10, 0x29, 0xD8, 0x2A, 0x1E,
  0xEE, 0xD5, 0x17, 0xD5, 0xDC, 0xE9, 0x0D, 0xFB, 0xEB, 0x27,
  0x2B, 0x0A, 0x37, 0xFA, 0x2D, 0x69, 0xD9, 0xD8, 0x04, 0x11,
  0x1E, 0xE7, 0x06, 0x06, 0xEB, 0x02, 0x05, 0x49, 0xDD, 0xE0,
  0x1E, 0x3B, 0x1E, 0x30, 0x4A, 0x33, 0xDB, 0xBC, 0xAF, 0x06,
  0x8B, 0xCE, 0xEC, 0x0D, 0xF4, 0x2B, 0xF7, 0xDD, 0xAB, 0x94,
  0x28, 0xB8, 0x07, 0xDE, 0xE2, 0xDE, 0x87, 0xC4, 0x3C, 0xFC,
  0x39, 0xFD, 0x24, 0x54, 0xA0, 0xFA, 0x28, 0xD8, 0x0F, 0x10,
  0x49, 0x10, 0xF4, 0xF0, 0x23, 0x04, 0x0D, 0x09, 0x41, 0x65,
  0x0A, 0x25, 0x16, 0x13, 0x59, 0x44, 0xDB, 0x35, 0x58, 0x39,
  0x2F, 0xE0, 0x2E, 0xC4, 0xF6, 0x22, 0xFC, 0xD7, 0x9E, 0x1D,
  0x65, 0x2C, 0x0D, 0x34, 0x25, 0xBA, 0x02, 0xC3, 0x66, 0x35,
  0x1B, 0x44, 0xD6, 0xCB, 0x92, 0x0C, 0x03, 0x2D, 0xD6, 0x0B,
  0x2B, 0xDC, 0x5C, 0x43, 0x5F, 0x12, 0x0A, 0xE0, 0xFB, 0xD2,
  0x81, 0x21, 0xE5, 0xFC, 0xD8, 0x0A, 0x68, 0xC2, 0x12, 0x43,
  0x23, 0x2C, 0xCA, 0x06, 0x21, 0x22, 0x09, 0x33, 0x65, 0x3F,
  0xEA, 0x1F, 0x66, 0xD2, 0x0D, 0x46, 0x71, 0xB1, 0x2E, 0x11,
  0x21, 0xDF, 0xD6, 0x4A, 0x38, 0xD1, 0x34, 0xD5, 0x44, 0xE6,
  0x33, 0x1C, 0x4B, 0xB9, 0xEE, 0x65, 0x0F, 0xD7, 0xC6, 0x08,
  0x21, 0x00, 0xBA, 0x39, 0x47, 0x0A, 0xED, 0xE1, 0x4A, 0xBC,
  0xC2, 0x41, 0x00, 0xD2, 0xC6, 0xFA, 0x76, 0xE3, 0xC6, 0xC7,
  0x1A, 0x19, 0x39, 0xAF, 0x65, 0xE9, 0x32, 0x0D, 0x28, 0x4A,
  0x03, 0xE9, 0x3E, 0x35, 0x3A, 0x43, 0x40, 0xF2, 0x46, 0xC4,
  0x20, 0xBF, 0x2C, 0x4B, 0xE8, 0xD6, 0xE2, 0xE9, 0xC1, 0x18,
  0xEA, 0xDF, 0xE2, 0x08, 0xEB, 0x24, 0xE7, 0x0D, 0x3B, 0xA5,
  0x45, 0xF4, 0xBC, 0x19, 0xC9, 0x15, 0xF4, 0xD3, 0xBD, 0xE2,
  0x37, 0x0B, 0x0E, 0x02, 0xE3, 0xF5, 0x1F, 0x32, 0xEF, 0xE4,
  0xE2, 0x01, 0x26, 0x10, 0x81, 0xE7, 0x23, 0x39, 0xC6, 0x1B,
  0xFA, 0x00, 0xF2, 0x27, 0xEF, 0xE0, 0xED, 0x23, 0xDF, 0x1E,
  0xBA, 0x2F, 0xF6, 0x17, 0xCE, 0x2C, 0xD6, 0xDD, 0x19, 0x1C,
  0xF0, 0x2C, 0xC2, 0x20, 0x10, 0xFD, 0x1A, 0xED, 0x1E, 0xC4,
  0xCB, 0x11, 0x1B, 0xB6, 0xD8, 0xE5, 0xEC, 0x02, 0x1D, 0x0C,
  0xD9, 0x0E, 0xA4, 0x2A, 0xDA, 0x09, 0xC0, 0xE3, 0xEF, 0xC3,
  0xF3, 0x16, 0xD9, 0x0F, 0xE4, 0xFE, 0x2A, 0xDD, 0xD3, 0x11,
  0x11, 0xF1, 0x98, 0xF1, 0x09, 0x9B, 0x01, 0xEF, 0xF4, 0x1C,
  0xEC, 0x00, 0xEC, 0x08, 0xE7, 0xEA, 0xE3, 0x12, 0xC7, 0xDB,
  0xF3, 0xE6, 0xD4, 0x2A, 0x26, 0xD6, 0x13, 0x1C, 0x1B, 0xFD,
  0xC1, 0x2C, 0x2E, 0xE5, 0xE7, 0x10, 0xE8, 0x1F, 0xED, 0x13,
  0x0E, 0xED, 0x05, 0xDB, 0x0F, 0x20, 0xBE, 0xCD, 0xF2, 0x09,
  0xB1, 0xF9, 0xBE, 0x19, 0xC6, 0xA3, 0x3A, 0xF1, 0xDC, 0xE4,
  0x38, 0xF4, 0x28, 0xFF, 0xD0, 0x21, 0x92, 0x23, 0xB6, 0xFF,
  0xCE, 0xC7, 0x2A, 0xD5, 0x17, 0xC1, 0x3F, 0xF7, 0x0F, 0x1C,
  0x0F, 0x12, 0xCD, 0x50, 0xA2, 0x46, 0xE2, 0x24, 0x2D, 0x09,
  0xF2, 0xEE, 0x2D, 0xF2, 0xED, 0x0D, 0xE7, 0x40, 0xF0, 0x0B,
  0xE1, 0xCE, 0xD9, 0xB7, 0x33, 0x0A, 0xA1, 0xE4, 0x06, 0xE9,
  0x5C, 0xE5, 0xEC, 0x41, 0x0C, 0xDF, 0xE5, 0x11, 0xC8, 0x11,
  0x27, 0x07, 0x02, 0x08, 0xF6, 0x2E, 0xEE, 0xE3, 0x0F, 0x20,
  0xC7, 0x07, 0x8B, 0x18, 0xBE, 0x31, 0xFA, 0x0C, 0xE5, 0xCA,
  0xE3, 0xE0, 0x11, 0xD4, 0xD2, 0x25, 0x20, 0x2E, 0xC5, 0xC8,
  0xA5, 0xD1, 0x40, 0xCE, 0xF9, 0xE8, 0x22, 0xD5, 0x28, 0xDE,
  0x1D, 0xC6, 0xD9, 0x0F, 0xBE, 0x22, 0xE2, 0x24, 0x3B, 0xE2,
  0x11, 0xEE, 0x39, 0x23, 0x29, 0x3F, 0x39, 0xFD, 0xAB, 0x15,
  0x81, 0x4A, 0xB9, 0x35, 0xBE, 0x1A, 0xA0, 0xD2, 0xF4, 0x1D,
  0xC8, 0x29, 0x41, 0x15, 0xE2, 0x31, 0x25, 0x12, 0x41, 0x02,
  0xF0, 0xDF, 0xEF, 0xFD, 0xE8, 0x23, 0xA4, 0x06, 0x2F, 0x28,
  0x9F, 0x31, 0x41, 0x20, 0x12, 0xDD, 0xFF, 0x0C, 0xC9, 0xED,
  0x2B, 0xDC, 0xFE, 0x01, 0xC5, 0xFA, 0xB3, 0xF8, 0x35, 0xFE,
  0x29, 0x29, 0x0B, 0x23, 0xBA, 0xFD, 0xED, 0x34, 0xE2, 0x14,
  0x10, 0x0F, 0x93, 0x31, 0x3A, 0x1E, 0x1D, 0x0C, 0xDC, 0x22,
  0xE7, 0xD3, 0x22, 0xFF, 0xC6, 0xEB, 0x2A, 0xF7, 0xF0, 0xCA,
  0x1D, 0xFD, 0xF5, 0xFD, 0x06, 0x0B, 0xDF, 0xE1, 0x3D, 0x13,
  0xB8, 0xF3, 0xC5, 0x18, 0xDE, 0xD0, 0xF3, 0xD8, 0x24, 0xE9,
  0x10, 0xD6, 0xDD, 0xF5, 0x02, 0xCD, 0xB3, 0xEA, 0x37, 0xDB,
  0xB9, 0x1F, 0x2A, 0xF8, 0x0D, 0xF7, 0xE3, 0xC7, 0xD6, 0xDE,
  0x01, 0x26, 0xD2, 0x28, 0x1E, 0xF3, 0x81, 0xE3, 0xE0, 0xDC,
  0x33, 0xDF, 0xD1, 0xF3, 0xC2, 0xF5, 0x22, 0xE6, 0xFA, 0xC9,
  0x29, 0x2C, 0xD8, 0x01, 0x19, 0xE9, 0xD4, 0xE4, 0x06, 0xFB,
  0x1F, 0xF8, 0xE4, 0x09, 0x32, 0x29, 0xF4, 0x2B, 0x35, 0xF0,
  0x30, 0x36, 0xF8, 0x40, 0xF1, 0x1A, 0xD6, 0x18, 0xEE, 0xF2,
  0x3B, 0x12, 0x08, 0x2E, 0x3C, 0x1A, 0x00, 0x12, 0x19, 0x05,
  0xE3, 0xF9, 0xBD, 0x21, 0xF7, 0xFA, 0x34, 0xEF, 0xFF, 0xEE,
  0x3B, 0xEC, 0x0F, 0x1C, 0xFE, 0xBA, 0xFF, 0xE1, 0x0D, 0x27,
  0x0C, 0x1F, 0x34, 0xF8, 0xFD, 0x18, 0x3A, 0x0D, 0xF4, 0x10,
  0x01, 0xE7, 0xDA, 0xF9, 0xF8, 0xFD, 0x1F, 0x01, 0x0C, 0xF3,
  0x18, 0x04, 0x2C, 0xD9, 0x06, 0xF6, 0x1D, 0xED, 0xD3, 0xE8,
  0xF7, 0x21, 0x09, 0xF2, 0x2E, 0x06, 0xEA, 0xE4, 0x09, 0x00,
  0xF5, 0xDC, 0xF4, 0x81, 0xF4, 0x15, 0x0C, 0x0D, 0xF5, 0xE3,
  0x18, 0x13, 0x30, 0xF7, 0x0B, 0x07, 0xFF, 0x0E, 0x1E, 0xD9,
  0xF4, 0xFA, 0x01, 0x0B, 0x17, 0x0B, 0x2B, 0xEC, 0x1B, 0xEF,
  0x33, 0x06, 0xEF, 0x00, 0xFB, 0xD1, 0xD9, 0xF8, 0xE6, 0xF3,
  0x00, 0x16, 0x1F, 0x1C, 0x09, 0xD8, 0xFC, 0x05, 0x14, 0xD7,
  0x03, 0x98, 0xD5, 0x06, 0x9A, 0xE4, 0xFF, 0xFF, 0x04, 0x00,
  0x00, 0x00, 0x40, 0x00, 0x00, 0x00, 0x7E, 0x08, 0x00, 0x00,
  0x93, 0xFF, 0xFF, 0xFF, 0xC3, 0x05, 0x00, 0x00, 0x70, 0xFA,
  0xFF, 0xFF, 0x33, 0xF5, 0xFF, 0xFF, 0x0C, 0x0A, 0x00, 0x00,
  0xFB, 0x07, 0x00, 0x00, 0xAD, 0x03, 0x00, 0x00, 0x8A, 0x06,
  0x00, 0x00, 0x19, 0x01, 0x00, 0x00, 0x32, 0x06, 0x00, 0x00,
  0xE9, 0xEA, 0xFF, 0xFF, 0x88, 0x0A, 0x00, 0x00, 0xCB, 0x1C,
  0x00, 0x00, 0xD1, 0x05, 0x00, 0x00, 0xE5, 0xF1, 0xFF, 0xFF,
  0xE6, 0xE4, 0xFF, 0xFF, 0x04, 0x00, 0x00, 0x00, 0x00, 0x10,
  0x00, 0x00, 0xFC, 0xF1, 0x07, 0x02, 0xDD, 0xF4, 0x0A, 0xF5,
  0xFF, 0x04, 0xAD, 0x11, 0x18, 0x0E, 0xFC, 0x23, 0xE1, 0xC8,
  0x06, 0x9E, 0xEB, 0xE6, 0x0B, 0xD6, 0x16, 0xEE, 0xD4, 0x11,
  0x15, 0x27, 0xE2, 0x12, 0xF5, 0xD5, 0xF5, 0xAA, 0x19, 0xDD,
  0xE7, 0xDB, 0xE5, 0xD7, 0xD2, 0x06, 0x1A, 0x2B, 0x12, 0x16,
  0x11, 0xD7, 0xF8, 0xE5, 0x02, 0xCF, 0xE9, 0xC5, 0x08, 0xC6,
  0xDC, 0x20, 0xF2, 0x14, 0x23, 0x0B, 0xF8, 0xAA, 0x20, 0x0F,
  0xF0, 0x07, 0x01, 0x14, 0x1D, 0x19, 0x18, 0x20, 0x32, 0x91,
  0xE2, 0xF4, 0x07, 0xB1, 0xFC, 0x94, 0x03, 0x01, 0xDF, 0xD0,
  0x13, 0x2D, 0x06, 0xFC, 0x00, 0xAE, 0xCC, 0xFA, 0x09, 0xA3,
  0xEF, 0x81, 0x03, 0x12, 0xE8, 0xF8, 0x19, 0x27, 0x08, 0xEE,
  0xFE, 0xEA, 0xE2, 0xFC, 0xFB, 0xEF, 0xFC, 0xC8, 0x22, 0xE9,
  0xFE, 0xDF, 0x13, 0x06, 0xF9, 0x0B, 0xFE, 0xF2, 0xF1, 0xF6,
  0xDE, 0xC9, 0xEF, 0xF9, 0x1A, 0x1D, 0xF0, 0x15, 0x06, 0x41,
  0x1E, 0x0A, 0x2D, 0xC2, 0x05, 0x08, 0xDF, 0xE7, 0xCB, 0xF6,
  0x20, 0x0F, 0xFC, 0xF3, 0xEF, 0x32, 0x0E, 0xF3, 0x05, 0xD6,
  0x1E, 0x18, 0xCE, 0xFD, 0xE8, 0xE5, 0xFC, 0xEF, 0xF4, 0xFF,
  0x0D, 0x15, 0x24, 0x0F, 0xE6, 0xF6, 0x38, 0x10, 0xE6, 0x1B,
  0xD4, 0xEA, 0x0B, 0xF3, 0x04, 0x02, 0xFE, 0x2C, 0x0B, 0xF8,
  0x00, 0xFE, 0x14, 0x10, 0xF0, 0xF4, 0xDD, 0x1F, 0xF2, 0xFF,
  0xF8, 0x26, 0xF3, 0x24, 0xF3, 0xED, 0x23, 0x05, 0xEA, 0xE5,
  0xE9, 0x01, 0xE8, 0x15, 0xF0, 0x02, 0xFD, 0xFA, 0xF8, 0x4E,
  0xF4, 0xEB, 0x03, 0x04, 0xF6, 0x02, 0xEF, 0x02, 0xF1, 0xE7,
  0xFB, 0xE4, 0xE7, 0xF3, 0x03, 0x18, 0xEB, 0x01, 0x03, 0x08,
  0xD7, 0x01, 0xDD, 0x1F, 0xEB, 0xE2, 0x19, 0xC2, 0xC9, 0xD5,
  0xF5, 0x05, 0x08, 0x17, 0xE1, 0x1C, 0x02, 0xE2, 0x0A, 0x24,
  0x45, 0x0F, 0x19, 0xFB, 0x25, 0x2B, 0x2A, 0x53, 0x3D, 0x34,
  0xE3, 0x9F, 0xDE, 0x23, 0xE9, 0xD3, 0x30, 0xF2, 0x24, 0xF1,
  0x2B, 0x08, 0xDD, 0x4F, 0xDD, 0xE3, 0xFE, 0xAB, 0xE9, 0xDE,
  0x3B, 0xFF, 0xFB, 0x13, 0xEE, 0x00, 0xE8, 0x2B, 0xF7, 0xED,
  0xBD, 0x08, 0x28, 0xE3, 0x32, 0xE0, 0xE4, 0x3E, 0x07, 0x2C,
  0xF9, 0xF1, 0xF9, 0x1C, 0xE3, 0xF0, 0x81, 0xED, 0x1D, 0xFE,
  0x38, 0xEE, 0x0E, 0x2A, 0x23, 0xE3, 0xCA, 0xE4, 0x31, 0xF1,
  0xED, 0x36, 0x0B, 0xF1, 0xE9, 0xE9, 0x09, 0xF3, 0xF6, 0xDD,
  0xEB, 0xFF, 0xEA, 0xDF, 0x07, 0x4B, 0x05, 0x41, 0x28, 0x24,
  0xE7, 0xC1, 0xFB, 0x0E, 0x0E, 0xFD, 0x0A, 0x09, 0x16, 0xFC,
  0x15, 0x07, 0x26, 0xF9, 0xA5, 0x2F, 0x19, 0xF7, 0x00, 0xD3,
  0x1C, 0x39, 0xE7, 0x05, 0x24, 0xDB, 0x08, 0xFB, 0x09, 0xC3,
  0x93, 0x05, 0x29, 0x0A, 0x33, 0xB1, 0xE9, 0x45, 0x05, 0xF9,
  0xDE, 0x29, 0x18, 0x4B, 0xFE, 0x52, 0xFA, 0x0D, 0xFA, 0x2C,
  0x12, 0x50, 0xDD, 0x50, 0x34, 0xFC, 0xDB, 0xEF, 0xFA, 0x0A,
  0x15, 0x65, 0x3E, 0x27, 0x19, 0xE1, 0x08, 0x07, 0xEF, 0x25,
  0x03, 0xDB, 0xE9, 0xF2, 0x2D, 0x1C, 0xF8, 0x02, 0x08, 0xDB,
  0xFD, 0xDB, 0xFF, 0xD6, 0x09, 0x26, 0x10, 0xF6, 0x04, 0xE3,
  0xEB, 0x05, 0xD3, 0xB9, 0xE4, 0xE4, 0xC9, 0x2C, 0x41, 0xEA,
  0xDF, 0x4A, 0x45, 0x0D, 0xC6, 0x0F, 0xE4, 0x10, 0x1C, 0x4E,
  0x1B, 0xDC, 0xCF, 0x27, 0x0C, 0x69, 0xDA, 0x13, 0x27, 0xE9,
  0xDC, 0x01, 0x30, 0x0B, 0xFD, 0x56, 0x1B, 0xDC, 0x1B, 0x4F,
  0x38, 0x17, 0xFA, 0xF2, 0x11, 0x2B, 0xF4, 0xEA, 0x0A, 0x2F,
  0x2B, 0xE1, 0xE4, 0xF7, 0xE1, 0x1E, 0x1B, 0xF8, 0x2A, 0x2A,
  0x08, 0xEF, 0x0E, 0xEC, 0x2C, 0xE0, 0xDC, 0x13, 0xE0, 0x01,
  0xF7, 0x2F, 0x2E, 0xC0, 0xED, 0x08, 0xDB, 0xFB, 0xC5, 0x27,
  0x24, 0x01, 0x03, 0x9F, 0xF8, 0xF6, 0x28, 0xEE, 0x0B, 0x05,
  0xEE, 0x00, 0xC6, 0xF4, 0xCB, 0x17, 0x28, 0xF9, 0x18, 0xB3,
  0x2E, 0x19, 0x1A, 0x01, 0x25, 0x12, 0x17, 0xF9, 0xEE, 0xEC,
  0xD1, 0x07, 0x00, 0x0A, 0xFA, 0x81, 0x24, 0xF0, 0xED, 0x04,
  0x1C, 0x0A, 0x19, 0xE5, 0xED, 0x01, 0xF0, 0x16, 0x1C, 0x0B,
  0xDF, 0xAA, 0x36, 0x0D, 0x03, 0x32, 0xFE, 0xDF, 0x19, 0xED,
  0xB5, 0xF7, 0xF0, 0x13, 0xF5, 0xE7, 0xD7, 0xD0, 0x14, 0x1A,
  0x17, 0xF5, 0x00, 0xF3, 0x0C, 0x09, 0xEA, 0xEE, 0x0E, 0xF8,
  0xF2, 0xE8, 0xDA, 0xBD, 0x07, 0x1F, 0x0E, 0x07, 0x14, 0x19,
  0x02, 0x17, 0xEB, 0xFA, 0x08, 0xFC, 0xF3, 0x13, 0x01, 0xD3,
  0x09, 0xFB, 0xE2, 0xF8, 0x12, 0xEF, 0x1C, 0x04, 0xF0, 0xE8,
  0xE3, 0x1C, 0x0F, 0x10, 0xD3, 0xD3, 0xFF, 0xEB, 0x0F, 0x03,
  0xDF, 0x12, 0xF5, 0xE4, 0xB6, 0xE9, 0x12, 0x19, 0x14, 0x0D,
  0x04, 0xF4, 0xF7, 0x20, 0x16, 0xF7, 0x08, 0x13, 0xFA, 0xFD,
  0xFD, 0xF0, 0x1C, 0x15, 0x0F, 0xE3, 0x01, 0xF6, 0xE6, 0x21,
  0xED, 0xE7, 0xF8, 0x1C, 0xFF, 0x14, 0xC4, 0xEE, 0xFE, 0xF3,
  0x19, 0xE4, 0xD6, 0x15, 0x12, 0x03, 0x08, 0x22, 0x0B, 0x17,
  0x03, 0x03, 0xC3, 0xF2, 0x01, 0x05, 0xEF, 0x1B, 0xF6, 0x19,
  0x27, 0x03, 0xDE, 0x27, 0xF5, 0x1D, 0x09, 0x0F, 0xC2, 0x13,
  0xFE, 0xFC, 0x0E, 0x03, 0xDE, 0xEC, 0xDD, 0xF1, 0xFA, 0xDB,
  0x17, 0x1F, 0x1E, 0xF6, 0xDB, 0x17, 0xFB, 0xFB, 0x19, 0xFC,
  0xC2, 0xCF, 0xF3, 0xF2, 0xFB, 0x0C, 0x02, 0x07, 0xF0, 0x11,
  0xD8, 0x0B, 0xFF, 0xF1, 0xF4, 0x07, 0xE6, 0xFC, 0x0B, 0xF9,
  0xDF, 0x17, 0x07, 0x22, 0xEE, 0x21, 0xDA, 0x1D, 0x05, 0x1D,
  0xF6, 0x1B, 0xC3, 0x1F, 0xE0, 0xEF, 0x10, 0x0F, 0x00, 0x1B,
  0xF2, 0xE4, 0xCE, 0xDD, 0xEC, 0xE9, 0xF5, 0xFE, 0x09, 0xAD,
  0x0F, 0xD5, 0x17, 0x01, 0x15, 0x04, 0x1B, 0x0A, 0xF8, 0xEA,
  0xFA, 0x0B, 0x05, 0x12, 0x03, 0x03, 0xF5, 0xD6, 0xFE, 0xF1,
  0xF4, 0xE1, 0xFD, 0x0E, 0x0A, 0xF1, 0xEB, 0x1A, 0x08, 0xD9,
  0x12, 0x81, 0xEC, 0x0C, 0xFB, 0xDF, 0xF0, 0x10, 0x0F, 0xF7,
  0xE7, 0xE8, 0x06, 0xF2, 0xE1, 0x04, 0x1F, 0xB2, 0x13, 0xD0,
  0xE2, 0xF6, 0xDC, 0xD6, 0xFC, 0xE6, 0xF5, 0x00, 0xE2, 0x27,
  0xE8, 0x17, 0xEA, 0xD5, 0xFF, 0xC5, 0x09, 0xFE, 0x16, 0xDA,
  0x05, 0x1D, 0x13, 0xE4, 0x09, 0x1C, 0xEA, 0xEA, 0x05, 0xE9,
  0x29, 0xE8, 0x11, 0xE4, 0x27, 0xEF, 0x19, 0x0E, 0x0E, 0xE5,
  0xE2, 0xF1, 0x04, 0x09, 0x2B, 0xB7, 0xE0, 0xF0, 0x15, 0xFE,
  0x0D, 0x14, 0xE5, 0x1B, 0xF7, 0x0D, 0xDF, 0x11, 0xDF, 0x01,
  0xEE, 0xB5, 0xDE, 0xD2, 0x02, 0x0A, 0xF5, 0xFB, 0xF5, 0xE9,
  0xC3, 0xE1, 0xE7, 0x00, 0x06, 0x0C, 0xFB, 0xE3, 0x31, 0xD7,
  0xF7, 0x12, 0x1E, 0xFA, 0x02, 0x12, 0x02, 0x05, 0xE5, 0x18,
  0x00, 0x1D, 0xFE, 0x1E, 0x10, 0xDD, 0xFA, 0x10, 0x02, 0xE7,
  0xEB, 0x15, 0x08, 0x0E, 0xFD, 0x0B, 0x06, 0x08, 0x22, 0xEB,
  0xFF, 0x17, 0x1B, 0xD3, 0xF4, 0x16, 0xF0, 0xE7, 0xF9, 0x0D,
  0xBE, 0x0C, 0xEF, 0xF9, 0xF6, 0xE9, 0x16, 0x0A, 0x00, 0xE3,
  0xF7, 0x19, 0x21, 0x07, 0xE9, 0x09, 0xE0, 0x17, 0x10, 0x17,
  0xB2, 0xE9, 0x14, 0xC6, 0x20, 0x21, 0x26, 0xC8, 0x22, 0x12,
  0xD0, 0x11, 0x14, 0x03, 0x07, 0xF2, 0xDD, 0x0F, 0x13, 0xEA,
  0x19, 0xF8, 0xF8, 0xE6, 0x1B, 0xF3, 0x20, 0xEF, 0xF8, 0xFF,
  0xFA, 0xF2, 0x08, 0x32, 0x07, 0xE3, 0xF6, 0xDE, 0x13, 0x38,
  0xF3, 0x15, 0xDB, 0xD7, 0xB6, 0x0B, 0xE5, 0xDB, 0xEE, 0x06,
  0x04, 0xCB, 0x11, 0xF3, 0x0F, 0x0B, 0x04, 0x1B, 0x2B, 0xFD,
  0x26, 0xD1, 0xE1, 0xA8, 0x27, 0x7F, 0x13, 0x17, 0xEB, 0x00,
  0xA5, 0x05, 0x10, 0x20, 0x13, 0xDC, 0x16, 0x1E, 0x26, 0xFA,
  0xF6, 0x26, 0x08, 0xFC, 0x22, 0x06, 0xF7, 0xF3, 0x13, 0x0C,
  0xF5, 0xBA, 0xF4, 0xE6, 0xE0, 0xBE, 0x18, 0x45, 0xF1, 0x08,
  0x01, 0x1E, 0xBF, 0x06, 0x05, 0x20, 0x0D, 0xE8, 0xE5, 0x06,
  0xF1, 0xE0, 0x05, 0x5A, 0xF7, 0x04, 0xE7, 0x12, 0xD9, 0xF9,
  0x09, 0x10, 0xE6, 0xED, 0x0C, 0xFA, 0x15, 0xF5, 0x25, 0x4D,
  0xFB, 0xF2, 0x0E, 0x15, 0x06, 0x00, 0x04, 0x1B, 0xDD, 0xF2,
  0x02, 0x05, 0x1C, 0x23, 0xF0, 0x2A, 0xFE, 0xC9, 0x36, 0x11,
  0x06, 0xDB, 0xEF, 0xF0, 0xFF, 0xF0, 0xE8, 0xFE, 0x05, 0x10,
  0xF0, 0x45, 0xFC, 0x03, 0x0C, 0x18, 0xC8, 0x00, 0x14, 0xFD,
  0xF8, 0xEA, 0xD3, 0x0A, 0x06, 0x1B, 0xED, 0x33, 0xFA, 0xEB,
  0x0E, 0x31, 0x1B, 0xFA, 0x13, 0xF5, 0xF8, 0xCB, 0x1E, 0xF0,
  0x18, 0xB6, 0x0F, 0x2F, 0xFD, 0x0A, 0x2C, 0x1D, 0xF4, 0xF1,
  0xF9, 0x16, 0x03, 0xEF, 0xDF, 0xF1, 0xEC, 0xE6, 0xF3, 0xF7,
  0x08, 0xF9, 0x26, 0x0E, 0xD6, 0xDF, 0xF0, 0xF6, 0x00, 0xF3,
  0xDF, 0xF9, 0xF2, 0xE7, 0x04, 0x03, 0x01, 0x0D, 0x07, 0x11,
  0xC4, 0xF6, 0xFB, 0xF9, 0xFA, 0x08, 0xEB, 0x05, 0x0F, 0xF3,
  0xF2, 0xF3, 0x0A, 0xE9, 0x00, 0x38, 0x10, 0x06, 0xF2, 0x01,
  0xEF, 0xE3, 0x08, 0xDA, 0xF7, 0xC2, 0x00, 0x24, 0x2F, 0x1A,
  0x0B, 0x0D, 0xCF, 0x02, 0x05, 0x15, 0xF5, 0xF8, 0xEB, 0x09,
  0xF6, 0x21, 0xDD, 0x08, 0x07, 0x1C, 0x11, 0xFE, 0x10, 0xFE,
  0x17, 0xFE, 0xE8, 0x17, 0xD9, 0xFE, 0x0C, 0x0C, 0xE2, 0xC7,
  0xFE, 0xFC, 0x14, 0x29, 0x11, 0x1B, 0xED, 0x25, 0xCE, 0xEC,
  0x0A, 0x11, 0xF7, 0x05, 0xD8, 0xE3, 0x1F, 0xF2, 0x16, 0x69,
  0x1E, 0x0E, 0xEB, 0xEE, 0xD8, 0x0A, 0xCA, 0xF8, 0x2F, 0x17,
  0x0A, 0x81, 0x1F, 0xD7, 0x1B, 0x00, 0x18, 0x13, 0x1C, 0x1B,
  0xFC, 0x0E, 0xED, 0x14, 0x21, 0x10, 0x04, 0xA3, 0x14, 0x0C,
  0xE9, 0x08, 0xFA, 0xF2, 0x04, 0xE8, 0x12, 0x07, 0xE3, 0x03,
  0xF9, 0x17, 0xF4, 0xA4, 0x29, 0xFF, 0x13, 0x29, 0x25, 0xF8,
  0x01, 0xF1, 0x15, 0xEB, 0x13, 0x01, 0xFE, 0xFF, 0xF8, 0xB4,
  0x2E, 0xFE, 0x14, 0x09, 0xFE, 0xF4, 0x06, 0xF8, 0xB4, 0xF2,
  0xFA, 0x14, 0x02, 0xF3, 0xFA, 0x8C, 0x0D, 0xD9, 0x1F, 0x29,
  0x12, 0xD5, 0xF2, 0xE9, 0xEA, 0x0F, 0xEA, 0xE9, 0xF8, 0xF2,
  0x03, 0xE6, 0x0E, 0xDE, 0x07, 0xFC, 0xF2, 0x0D, 0x06, 0xEF,
  0x04, 0xEF, 0x07, 0x01, 0xF8, 0x0F, 0x0B, 0xF5, 0x03, 0xEC,
  0xEA, 0x27, 0xF8, 0xEF, 0x00, 0xF8, 0x05, 0x10, 0xF8, 0x1F,
  0x15, 0x16, 0xF8, 0x0F, 0x17, 0x09, 0x0F, 0x02, 0x16, 0x09,
  0x0B, 0x1B, 0xE2, 0xF2, 0xEC, 0x0A, 0x1B, 0x16, 0xCB, 0xA6,
  0xFC, 0x01, 0xFB, 0xF9, 0x1C, 0xC2, 0x0B, 0x1D, 0xCD, 0xF4,
  0x0D, 0x0F, 0x22, 0xE1, 0xF3, 0xFC, 0x08, 0xDD, 0xF6, 0xFA,
  0xFF, 0xEF, 0x00, 0x0B, 0xF6, 0x0B, 0x15, 0x04, 0x17, 0x08,
  0xDB, 0x12, 0x11, 0xDB, 0x0D, 0x03, 0x05, 0xE6, 0xE9, 0x28,
  0x20, 0x0E, 0x04, 0x1A, 0x17, 0xF3, 0xE1, 0xEC, 0x15, 0xF1,
  0x12, 0x11, 0x18, 0x04, 0x11, 0x2A, 0xDA, 0x02, 0xEC, 0x0D,
  0xF9, 0x2D, 0xCD, 0xD1, 0x02, 0x08, 0xF6, 0x25, 0x05, 0xC6,
  0xF4, 0x08, 0xDF, 0x1C, 0x1A, 0xEE, 0x10, 0x13, 0x08, 0xC6,
  0x08, 0xE1, 0x04, 0x20, 0x08, 0xEC, 0xF8, 0x06, 0x18, 0x13,
  0x29, 0x1C, 0x10, 0x21, 0xEB, 0xF9, 0x12, 0xE3, 0xF1, 0xF8,
  0xF3, 0x0F, 0x11, 0x1B, 0x12, 0xEF, 0x0A, 0x1C, 0xF6, 0x09,
  0xF0, 0xF9, 0xED, 0x17, 0x11, 0x00, 0xF3, 0x01, 0xD0, 0xDD,
  0xF5, 0x0E, 0x07, 0xE0, 0xC6, 0x09, 0x10, 0x77, 0xDF, 0x19,
  0x0B, 0xE0, 0x26, 0xD8, 0x06, 0xE0, 0x22, 0x00, 0xF1, 0xF3,
  0xF5, 0xF5, 0x16, 0x34, 0x06, 0x16, 0xFC, 0x05, 0x0D, 0xFD,
  0xF9, 0xF6, 0x0E, 0x14, 0xF5, 0x1D, 0x00, 0x22, 0x3A, 0x54,
  0x38, 0xF7, 0x0A, 0x1D, 0x27, 0xEA, 0x10, 0xDB, 0x02, 0x12,
  0x02, 0x0B, 0x23, 0x18, 0x2E, 0x4F, 0x21, 0xE0, 0xFF, 0x03,
  0xF6, 0xE1, 0xF9, 0xF8, 0x36, 0x0D, 0x0B, 0xEA, 0xF7, 0xE1,
  0x1D, 0x53, 0xBE, 0x1A, 0xFE, 0xB7, 0x3C, 0x0B, 0xFD, 0xE9,
  0x12, 0xF1, 0x0A, 0xD2, 0xE2, 0xCE, 0x14, 0x50, 0xEC, 0xF6,
  0xED, 0x12, 0x0D, 0x1E, 0x02, 0x0F, 0xFA, 0x19, 0x22, 0xF0,
  0x02, 0xF3, 0x10, 0xDB, 0x00, 0x14, 0xE1, 0x40, 0xF8, 0xE2,
  0x04, 0x02, 0xFF, 0xF2, 0x0E, 0x15, 0x04, 0x27, 0x0D, 0xFC,
  0x1F, 0x09, 0xE8, 0x1D, 0x07, 0xFA, 0xDB, 0xDE, 0x04, 0x00,
  0x1F, 0xCD, 0xF5, 0xCE, 0xE5, 0x5A, 0xCD, 0xFF, 0x16, 0xE3,
  0x15, 0x29, 0xD9, 0x08, 0xF7, 0x13, 0x0D, 0x06, 0xF8, 0xFF,
  0xEE, 0x63, 0x1C, 0xEE, 0xD8, 0x11, 0x1F, 0x1F, 0x12, 0xFC,
  0xE8, 0xEE, 0x11, 0x0B, 0x1F, 0x18, 0x09, 0xF5, 0x04, 0x0B,
  0xFD, 0x26, 0x0D, 0x28, 0x18, 0xF5, 0xFA, 0x19, 0xE9, 0x07,
  0x12, 0x02, 0x01, 0xE8, 0x3D, 0xF3, 0x18, 0x1B, 0x0A, 0xE5,
  0x0A, 0xE3, 0x22, 0xEF, 0x2D, 0xD5, 0xE4, 0x03, 0xDC, 0x44,
  0xE0, 0x1D, 0x0F, 0xA9, 0x07, 0x0A, 0x04, 0xDB, 0x12, 0x17,
  0x20, 0x0C, 0x0E, 0xE8, 0xCC, 0x7F, 0x27, 0xFD, 0xDB, 0x02,
  0xFB, 0x29, 0x0C, 0x0B, 0xF4, 0x0B, 0xFC, 0xE3, 0x18, 0x12,
  0xFE, 0x06, 0x11, 0xFA, 0x1D, 0x13, 0x0E, 0x27, 0xFB, 0xDA,
  0xEA, 0xE8, 0xE5, 0x13, 0xF7, 0xE0, 0xEB, 0x07, 0x2A, 0xC2,
  0xEE, 0xFB, 0xF1, 0xB2, 0x36, 0xF7, 0x9A, 0x11, 0xE0, 0x30,
  0x12, 0xDF, 0x36, 0xA6, 0x28, 0xE2, 0x02, 0x1B, 0x41, 0xF1,
  0xD8, 0x24, 0xB3, 0xFD, 0xB5, 0x24, 0x26, 0x06, 0x37, 0x98,
  0x21, 0xF0, 0xEA, 0xEE, 0xF4, 0xEF, 0x3A, 0xE9, 0xC8, 0x1D,
  0x18, 0x16, 0x0F, 0xD8, 0xE6, 0x81, 0x12, 0xF8, 0x39, 0x39,
  0x10, 0xFF, 0x31, 0x00, 0x9A, 0x34, 0xD5, 0x3E, 0xF4, 0x0E,
  0x26, 0xBB, 0xE3, 0x09, 0xFF, 0xEB, 0x30, 0xD7, 0x2B, 0xD6,
  0xAB, 0x15, 0x12, 0x11, 0x0D, 0xF5, 0xD9, 0xA5, 0x39, 0x2F,
  0xE2, 0x1F, 0xFF, 0xF8, 0x15, 0xD4, 0xF0, 0xF4, 0xDE, 0xF5,
  0xFD, 0x2D, 0x00, 0xC5, 0x13, 0xF2, 0x21, 0x07, 0xE3, 0x20,
  0x28, 0x07, 0xEB, 0xE0, 0xCE, 0x17, 0x2A, 0xFB, 0x01, 0xDE,
  0x19, 0x1B, 0xD8, 0xF6, 0xEB, 0x0E, 0x19, 0xDF, 0xC4, 0xD3,
  0xE2, 0x1F, 0x23, 0xE5, 0xEB, 0xAC, 0xCD, 0xDF, 0x29, 0xE1,
  0xF3, 0x31, 0x0F, 0xDC, 0xA7, 0xEF, 0xD1, 0x24, 0xF4, 0x30,
  0xEB, 0xF7, 0x32, 0xCA, 0x06, 0x10, 0xD5, 0xDF, 0x23, 0xEC,
  0xF8, 0xDE, 0xEA, 0x0A, 0xD9, 0xFD, 0x02, 0xE5, 0xE8, 0x0F,
  0xED, 0x01, 0x1F, 0x04, 0x25, 0xE4, 0xD1, 0xDB, 0x16, 0x09,
  0xFE, 0x1C, 0xEE, 0x56, 0x20, 0xD0, 0x25, 0xDA, 0xFC, 0x24,
  0x30, 0xEE, 0xC3, 0x20, 0x21, 0x34, 0x2F, 0x06, 0x1F, 0x59,
  0xD9, 0xDD, 0xFD, 0xC0, 0x24, 0x0D, 0xE9, 0xF6, 0xE4, 0x16,
  0x0F, 0x06, 0x27, 0x07, 0x03, 0xC0, 0x26, 0xF5, 0x25, 0xFC,
  0x30, 0x3A, 0x02, 0x3F, 0xDF, 0x0C, 0xF5, 0xE8, 0xED, 0x1C,
  0xC7, 0xFA, 0x02, 0xF7, 0x02, 0xF4, 0x01, 0x27, 0x3A, 0x08,
  0xA3, 0x11, 0xDB, 0x22, 0x15, 0xDF, 0xF2, 0x1A, 0xF8, 0x26,
  0x11, 0xC5, 0x13, 0x33, 0x35, 0x01, 0xB9, 0x02, 0x0D, 0xF0,
  0xD9, 0x11, 0xF8, 0x44, 0x2E, 0x01, 0xFB, 0x14, 0xD6, 0x08,
  0x07, 0x19, 0xCF, 0xEC, 0x9F, 0xE3, 0x08, 0xF4, 0x13, 0x0F,
  0x4D, 0xFC, 0x7A, 0xF5, 0x76, 0x5A, 0x21, 0xF1, 0xD2, 0x17,
  0xD3, 0xDC, 0x10, 0x30, 0x59, 0xBC, 0x61, 0xE6, 0x0B, 0xE5,
  0x39, 0x1E, 0x14, 0xF4, 0x49, 0xFE, 0xEE, 0xFC, 0xC2, 0xF4,
  0x69, 0x51, 0x17, 0xFF, 0x11, 0xE3, 0x1F, 0xE4, 0xF5, 0xBB,
  0x13, 0x13, 0x07, 0xCC, 0xB5, 0xFE, 0x35, 0x54, 0x36, 0xE6,
  0xF4, 0xA5, 0xE6, 0xA1, 0xE1, 0x26, 0xEA, 0xE4, 0xBF, 0x1C,
  0x0A, 0x3A, 0xFD, 0xAB, 0xE7, 0x1F, 0x4E, 0x2D, 0x24, 0x19,
  0xE4, 0x12, 0x44, 0xD4, 0x1C, 0xF3, 0xE1, 0xF8, 0x23, 0xB6,
  0x0F, 0x00, 0x39, 0x2B, 0x1F, 0xFE, 0xF5, 0x23, 0x52, 0x0E,
  0x1A, 0xDE, 0xDA, 0x0F, 0x01, 0xDC, 0x24, 0x48, 0x22, 0x35,
  0xCB, 0xFF, 0xF7, 0xE4, 0xF1, 0xEC, 0xC6, 0xCF, 0xC1, 0xF4,
  0x52, 0x0C, 0x0B, 0xDA, 0xDA, 0xC7, 0xD0, 0x24, 0xEB, 0xE7,
  0xD6, 0x18, 0xC9, 0xD7, 0xCB, 0x34, 0xC1, 0xF3, 0xB9, 0xFF,
  0xE9, 0x29, 0xD9, 0xFC, 0xC8, 0x2E, 0x04, 0x37, 0xD8, 0x11,
  0x2D, 0x0C, 0x21, 0xD4, 0xDB, 0xF9, 0x23, 0xFC, 0xF7, 0x08,
  0xE8, 0x16, 0x29, 0x02, 0xE3, 0xF7, 0xF8, 0x10, 0x13, 0xF0,
  0xEC, 0xFD, 0xFA, 0x2D, 0x2C, 0x5D, 0x12, 0xCE, 0xED, 0xDB,
  0xCD, 0xD6, 0xD8, 0xE9, 0xE5, 0xD8, 0xDF, 0xDE, 0xF0, 0xCA,
  0x99, 0x29, 0xDE, 0xF0, 0xB4, 0xAA, 0xF2, 0xCB, 0xCE, 0xF1,
  0x07, 0xB9, 0xC9, 0xA7, 0xE8, 0x2F, 0x1E, 0x3F, 0xE2, 0x2F,
  0xF6, 0x0F, 0xCD, 0x22, 0xFD, 0xE2, 0xC8, 0x81, 0x18, 0xB9,
  0xCE, 0x0A, 0x23, 0x22, 0x17, 0xCD, 0x2E, 0x1F, 0xEC, 0x16,
  0x0A, 0xDD, 0x0B, 0xA7, 0x2C, 0x14, 0xFB, 0xFC, 0xD8, 0x6E,
  0x0B, 0xB4, 0x13, 0xC2, 0xEB, 0xDE, 0x16, 0xEC, 0xDC, 0x8F,
  0x1F, 0xCA, 0xE3, 0x10, 0xBB, 0xDC, 0x1B, 0xA5, 0x47, 0xDE,
  0xF4, 0x05, 0xED, 0xB8, 0x2A, 0x56, 0xFD, 0xE7, 0xCB, 0x30,
  0xD4, 0xE2, 0xF2, 0xE6, 0x2A, 0x91, 0x1D, 0xF3, 0xED, 0x8B,
  0x37, 0x74, 0x0D, 0x2F, 0x07, 0x48, 0xDB, 0x0A, 0xF6, 0x17,
  0x13, 0xB2, 0xF2, 0x19, 0x17, 0x88, 0xEF, 0x33, 0xD9, 0xFA,
  0x00, 0x45, 0xE9, 0x0E, 0x07, 0xC3, 0x21, 0xAA, 0x2C, 0xE3,
  0xCD, 0x81, 0x1E, 0x16, 0xB1, 0x0E, 0xE4, 0x36, 0xEA, 0xF8,
  0x0C, 0xFA, 0x14, 0xD3, 0x0C, 0xFB, 0xF0, 0x05, 0xDF, 0x53,
  0xE5, 0xE0, 0xF2, 0x4B, 0x0F, 0xFB, 0xDA, 0x08, 0x1F, 0xD8,
  0x11, 0x21, 0x31, 0x2E, 0xE5, 0x70, 0x12, 0xD9, 0x18, 0x0B,
  0xD0, 0xF8, 0x00, 0x1D, 0x0E, 0xDF, 0x10, 0x17, 0xEE, 0x05,
  0x14, 0x59, 0xF1, 0xCD, 0x09, 0x47, 0x13, 0xE3, 0x1A, 0xB0,
  0xDF, 0xC2, 0x05, 0x1B, 0x16, 0x01, 0x1F, 0x67, 0x23, 0x11,
  0xDA, 0x2A, 0x28, 0x46, 0x12, 0xF4, 0x19, 0xE6, 0x03, 0x13,
  0x17, 0xC7, 0xEE, 0x55, 0x04, 0x11, 0x2A, 0x25, 0xF3, 0xCF,
  0xE0, 0xC2, 0xF4, 0xE8, 0xE7, 0x16, 0x04, 0xEA, 0xF4, 0x4F,
  0xE3, 0xED, 0x31, 0x13, 0xCD, 0xF7, 0xF1, 0xE4, 0x14, 0xE3,
  0x10, 0xDB, 0x20, 0x29, 0x0A, 0x5A, 0xEF, 0x1E, 0x0E, 0x35,
  0x18, 0x01, 0x00, 0xAE, 0xE4, 0xD6, 0xF1, 0xD2, 0x1C, 0x06,
  0x08, 0x6F, 0x1E, 0xE4, 0xFB, 0x2F, 0x1B, 0x30, 0x21, 0xCD,
  0x1A, 0xD9, 0xE4, 0xD3, 0xF4, 0x9A, 0x20, 0x1F, 0x03, 0x01,
  0x0E, 0x04, 0xC3, 0xF2, 0xFE, 0xAF, 0x43, 0xBF, 0x09, 0xCC,
  0xE4, 0xF3, 0x1D, 0x31, 0xF2, 0x2F, 0xF3, 0xF9, 0xBE, 0x41,
  0xF8, 0xD0, 0x23, 0xF4, 0xD7, 0xE8, 0x15, 0xEF, 0x2D, 0x3F,
  0x06, 0x12, 0xF4, 0xEF, 0x05, 0x06, 0xEC, 0x8F, 0xC9, 0xDE,
  0xDC, 0xF3, 0xF3, 0xF0, 0xF3, 0x6E, 0xD8, 0xEB, 0x08, 0xCC,
  0xD6, 0x0B, 0x1B, 0xD2, 0x1D, 0x25, 0x08, 0x1D, 0x30, 0x04,
  0x1F, 0xA0, 0xEC, 0xF7, 0x3D, 0xF3, 0x70, 0xF5, 0x34, 0x0A,
  0x36, 0xDC, 0xD4, 0x29, 0x2F, 0x37, 0x0F, 0xD7, 0x2D, 0x18,
  0xF5, 0xEA, 0x40, 0xEB, 0xC4, 0xC9, 0x22, 0xCC, 0x0F, 0x24,
  0x24, 0x0A, 0x15, 0xF0, 0xD9, 0x0B, 0x21, 0xCE, 0x47, 0xE8,
  0xE9, 0xE3, 0x19, 0x0A, 0xDF, 0xDF, 0x09, 0x41, 0xE8, 0xF5,
  0x73, 0xEA, 0x18, 0xD6, 0x23, 0x1A, 0xDB, 0xEF, 0x3C, 0x1A,
  0x07, 0xDB, 0x0D, 0xEF, 0xE7, 0xB6, 0xD7, 0x36, 0x06, 0x4E,
  0xF7, 0xCB, 0xEE, 0xF7, 0x14, 0x1B, 0xEF, 0xFD, 0xF5, 0xD2,
  0x2A, 0xE9, 0x39, 0x1E, 0x0B, 0xD5, 0x42, 0xE5, 0xE6, 0x9F,
  0x0E, 0x14, 0xAE, 0xD8, 0x1A, 0xDB, 0xE9, 0xE6, 0xEF, 0x0D,
  0x18, 0xE9, 0xF6, 0xEE, 0xFA, 0xC8, 0xCB, 0xE7, 0xF7, 0xDB,
  0xE6, 0xBD, 0xFB, 0x20, 0x5C, 0xB4, 0xD6, 0x51, 0xC9, 0x10,
  0xF6, 0xF8, 0xF3, 0xED, 0xF7, 0x32, 0xE4, 0xF5, 0xF5, 0x0A,
  0x03, 0x1B, 0x26, 0x07, 0x3F, 0xD0, 0xF3, 0xFC, 0x13, 0xF6,
  0xD8, 0xD9, 0xE0, 0x09, 0x05, 0x7F, 0x4B, 0x1D, 0xD6, 0xCF,
  0x1C, 0x01, 0xEC, 0xC3, 0xD8, 0xD5, 0xB8, 0x1C, 0xD4, 0xD8,
  0x1C, 0x07, 0x24, 0xC3, 0x0A, 0x3A, 0xEA, 0x03, 0xC5, 0x00,
  0xD0, 0xF7, 0x93, 0xE8, 0xE9, 0xCE, 0x12, 0xFE, 0x06, 0xC0,
  0x0A, 0x29, 0x1A, 0x01, 0x17, 0xF7, 0x54, 0xD4, 0xFA, 0x0C,
  0x2A, 0x2F, 0xC2, 0xFE, 0xC7, 0x29, 0x2D, 0xF1, 0x29, 0xD1,
  0x27, 0x08, 0x21, 0xEC, 0x21, 0x24, 0x1A, 0xBD, 0xE6, 0x2A,
  0x17, 0xD5, 0xF1, 0x07, 0xEA, 0x16, 0x1B, 0xCE, 0x3F, 0xE0,
  0xEA, 0xEC, 0xE3, 0xF9, 0xCC, 0xEA, 0x60, 0xF5, 0xD1, 0x19,
  0xF7, 0x59, 0xC6, 0xF5, 0x3D, 0xC8, 0xD5, 0x0B, 0x0F, 0xC4,
  0x2A, 0xEE, 0x44, 0xC3, 0xE4, 0xEE, 0xF3, 0x3A, 0xE1, 0xE7,
  0xF8, 0xD0, 0xE9, 0xF2, 0x09, 0x09, 0xFD, 0xCC, 0xEB, 0xF9,
  0xEE, 0xE7, 0x22, 0x13, 0xE0, 0x06, 0xE8, 0xED, 0xE8, 0x05,
  0xFC, 0xFD, 0x1E, 0xC2, 0x0F, 0xEF, 0x0F, 0x01, 0x0B, 0xD3,
  0x0E, 0x0A, 0xE3, 0xE3, 0xE9, 0x13, 0xF2, 0x16, 0x1A, 0xEA,
  0x0F, 0x02, 0x0D, 0x1D, 0x13, 0xD7, 0xF2, 0x15, 0x03, 0xF2,
  0x12, 0xF7, 0x0A, 0x20, 0x0A, 0xFD, 0x3D, 0xF8, 0x18, 0x34,
  0x15, 0xDD, 0x04, 0x09, 0xEA, 0xE2, 0xF4, 0x0C, 0xFF, 0xF4,
  0x0D, 0xA6, 0x09, 0x00, 0xE0, 0xE3, 0xFB, 0x0C, 0xE4, 0x14,
  0xE6, 0xF9, 0xE1, 0xFF, 0xED, 0xEE, 0xFE, 0x99, 0x30, 0xFB,
  0xF5, 0xEC, 0xF7, 0xF5, 0x0A, 0x0E, 0xFF, 0x1B, 0xE8, 0xE9,
  0xFC, 0x0C, 0x0C, 0xF4, 0x22, 0x09, 0xEE, 0x1A, 0x0C, 0x01,
  0xEC, 0x1D, 0xF4, 0x07, 0xFF, 0xE8, 0x09, 0xF8, 0xFE, 0xE0,
  0x07, 0xEB, 0x02, 0x28, 0x06, 0xEE, 0x0A, 0x08, 0xED, 0xF6,
  0x14, 0xEE, 0x07, 0xD2, 0x0E, 0xAF, 0x19, 0x0B, 0xEB, 0xDF,
  0x11, 0x22, 0x06, 0x11, 0xD9, 0x0D, 0x11, 0xEC, 0x19, 0xF3,
  0x17, 0x9C, 0x22, 0x10, 0x04, 0xF1, 0x04, 0x08, 0x0E, 0x0D,
  0xF4, 0x00, 0x09, 0xF4, 0xF5, 0xED, 0xFD, 0xD7, 0xF9, 0xFE,
  0xF6, 0x07, 0x0F, 0xFB, 0x0D, 0x04, 0x07, 0x1D, 0x13, 0xE6,
  0xF7, 0x03, 0x01, 0xD1, 0x2A, 0xE7, 0x1C, 0x15, 0xFA, 0x03,
  0xF7, 0xF8, 0x10, 0xE6, 0xF9, 0xFC, 0xFA, 0x03, 0x19, 0x9A,
  0x07, 0xF8, 0xF6, 0xC2, 0xE9, 0x0D, 0xFE, 0x13, 0x06, 0xFA,
  0xFA, 0x05, 0x02, 0xE3, 0x0D, 0x81, 0xE9, 0x0B, 0xFB, 0xDE,
  0x07, 0xF7, 0xE8, 0xEF, 0x08, 0xFA, 0x14, 0x08, 0x02, 0x0A,
  0x20, 0xCE, 0x14, 0xED, 0x08, 0x0E, 0xFA, 0xF5, 0xEE, 0x12,
  0x13, 0x21, 0x18, 0xF8, 0x05, 0x15, 0x15, 0xC6, 0x0A, 0x0F,
  0x02, 0xF4, 0x07, 0xD9, 0x12, 0x1D, 0xCF, 0x05, 0x17, 0x16,
  0x29, 0xF5, 0xDD, 0xEA, 0xF7, 0x07, 0x0F, 0x39, 0x28, 0xE9,
  0x00, 0xFA, 0x16, 0x05, 0x1F, 0x02, 0xEE, 0x05, 0xD0, 0x46,
  0x2D, 0xF0, 0xEA, 0x5E, 0x17, 0x16, 0xEC, 0x06, 0x12, 0x12,
  0x28, 0x0B, 0xEC, 0xF3, 0xDA, 0x6D, 0x2E, 0x08, 0xE8, 0x4C,
  0xF7, 0xC7, 0xE7, 0xEF, 0x05, 0x01, 0x20, 0xF8, 0xE3, 0xCF,
  0x05, 0x7F, 0xAB, 0x04, 0xE9, 0x15, 0xDB, 0xEF, 0x05, 0xDB,
  0xDF, 0x01, 0x22, 0x0D, 0x27, 0xF0, 0xD6, 0xD3, 0xE4, 0x1E,
  0x37, 0x2F, 0xEB, 0xFA, 0x1A, 0xEE, 0xFA, 0x1B, 0x23, 0xE6,
  0x16, 0xDA, 0xF5, 0x19, 0x3C, 0x03, 0xF4, 0x1A, 0x1C, 0x1A,
  0x10, 0xF6, 0x1D, 0xFF, 0x0E, 0xE8, 0x0D, 0xF8, 0xFF, 0x22,
  0x11, 0x0A, 0x04, 0x1F, 0xF5, 0xF3, 0x0C, 0x0D, 0xFF, 0x22,
  0x12, 0xDD, 0xF7, 0xF0, 0x41, 0x4B, 0xDB, 0x23, 0x0C, 0xC9,
  0xD2, 0x00, 0x1C, 0xE8, 0xFB, 0xE3, 0x14, 0x1A, 0xFF, 0x08,
  0xEF, 0xD1, 0xCE, 0x00, 0x21, 0x0C, 0x14, 0x0B, 0xF7, 0x11,
  0x16, 0xFF, 0x08, 0x0A, 0xE7, 0xEA, 0x13, 0xE0, 0x15, 0x16,
  0x0E, 0x0D, 0x0A, 0x0C, 0x02, 0xEA, 0xF4, 0xF2, 0x0C, 0xF5,
  0x09, 0xEE, 0x1A, 0xE1, 0xF9, 0xFB, 0x07, 0x03, 0x0A, 0xF9,
  0xEB, 0xF0, 0x29, 0x15, 0x06, 0xDC, 0xF5, 0xD4, 0x1A, 0x27,
  0xFA, 0xED, 0xF8, 0xB0, 0xDE, 0xF3, 0xF8, 0xF9, 0xFD, 0xEA,
  0xF3, 0x15, 0x06, 0x18, 0x0F, 0xBD, 0x08, 0xFE, 0x1D, 0x28,
  0xFD, 0x0C, 0xEF, 0xF6, 0x02, 0x14, 0x0A, 0x1C, 0x15, 0xFE,
  0x28, 0x06, 0x2E, 0x06, 0xFF, 0x1A, 0xF5, 0x14, 0x0A, 0x02,
  0xF5, 0xF8, 0x1F, 0x11, 0xE8, 0xFF, 0x03, 0x10, 0x02, 0xF8,
  0x16, 0x16, 0xF9, 0x14, 0xEF, 0xE7, 0xF7, 0x01, 0x17, 0x02,
  0x13, 0xED, 0x46, 0x17, 0x1B, 0x15, 0xED, 0xB3, 0xD9, 0x2E,
  0x14, 0xD1, 0xB7, 0xCA, 0xA9, 0x2E, 0x2A, 0x14, 0x39, 0xAC,
  0x23, 0xB2, 0x29, 0xEA, 0x0F, 0x22, 0xD5, 0x1C, 0xE1, 0x01,
  0xB3, 0x12, 0x20, 0x04, 0x21, 0x9C, 0x0F, 0xE8, 0xFF, 0xE9,
  0x43, 0xCD, 0x28, 0xF2, 0xC8, 0x02, 0xB5, 0x34, 0x05, 0x01,
  0x00, 0x81, 0x53, 0xEA, 0x0A, 0x03, 0x26, 0xBA, 0x11, 0x13,
  0x1F, 0x02, 0x15, 0x08, 0xE0, 0x37, 0xC1, 0x81, 0x43, 0xFA,
  0xF2, 0x2B, 0xF7, 0xA7, 0xD7, 0xE1, 0xD9, 0xD6, 0xEF, 0xD8,
  0x31, 0x1F, 0x00, 0xA2, 0x1C, 0xF1, 0xDC, 0x01, 0xEC, 0xE2,
  0x29, 0x28, 0xF6, 0xDB, 0x28, 0xF9, 0x1D, 0xE2, 0x0F, 0xAC,
  0xF8, 0xAD, 0x05, 0x14, 0x24, 0x0A, 0xEE, 0x3B, 0xC4, 0x20,
  0x2F, 0x3D, 0xD6, 0x3D, 0xFC, 0xE8, 0x50, 0xCD, 0xC9, 0xDB,
  0xF8, 0xC2, 0x26, 0xE8, 0xDE, 0xE6, 0xE9, 0x1A, 0x2E, 0x4C,
  0xCD, 0xF9, 0x53, 0xA5, 0x0E, 0xFC, 0x07, 0xD2, 0x32, 0x1A,
  0x0D, 0x0C, 0x15, 0x1E, 0x47, 0xCC, 0xDA, 0xC8, 0x48, 0xF9,
  0x17, 0xE0, 0x26, 0x06, 0xDA, 0xE3, 0xFE, 0xF2, 0x2F, 0x0B,
  0x08, 0x05, 0x0B, 0xBD, 0x53, 0xF0, 0xC6, 0xEF, 0x0A, 0xFB,
  0xEA, 0xF6, 0xE0, 0x35, 0x1C, 0xF2, 0x2F, 0x03, 0xFF, 0x57,
  0xE1, 0xAF, 0xFB, 0x18, 0xF6, 0xC6, 0xF5, 0x4F, 0xC3, 0x14,
  0x01, 0x01, 0x17, 0x32, 0xE9, 0x0C, 0x1C, 0xD9, 0x35, 0x51,
  0x0C, 0x22, 0x02, 0x23, 0x90, 0x2D, 0x00, 0x25, 0xE1, 0xDF,
  0xD3, 0xC0, 0xDA, 0xEE, 0x2D, 0xCE, 0x43, 0x0E, 0xF3, 0x19,
  0xFA, 0x2A, 0x32, 0xE2, 0x44, 0x16, 0xE8, 0xEA, 0xE9, 0xB1,
  0xED, 0xF0, 0x0D, 0xF9, 0xFE, 0x14, 0x97, 0xF3, 0x05, 0x04,
  0x19, 0xED, 0xE2, 0x1A, 0xB8, 0xB8, 0xF5, 0x04, 0x3C, 0x10,
  0x1C, 0x58, 0xCB, 0x49, 0x10, 0x16, 0x0F, 0x20, 0x9B, 0xE7,
  0xF4, 0xDE, 0x11, 0x53, 0x3C, 0xBB, 0x19, 0x04, 0xCD, 0xC4,
  0xC1, 0x16, 0xD1, 0xCE, 0xF4, 0xFF, 0x00, 0xDB, 0xFC, 0xCF,
  0xF9, 0xB2, 0x05, 0x08, 0xC3, 0xE8, 0xBB, 0x05, 0x12, 0xF0,
  0xF3, 0xC8, 0xFE, 0xE1, 0x38, 0x14, 0x08, 0xB4, 0x18, 0xFB,
  0x12, 0x0A, 0xCD, 0x1B, 0xEF, 0x32, 0xF3, 0xD9, 0x08, 0xF7,
  0x21, 0x17, 0x25, 0xDF, 0x33, 0x17, 0xE8, 0xF3, 0xEC, 0x2F,
  0x35, 0x43, 0xCD, 0xCD, 0x20, 0x07, 0x34, 0x31, 0x1F, 0xC9,
  0x1C, 0xF1, 0x27, 0xFB, 0xCC, 0x25, 0x0A, 0xE8, 0x0E, 0xC0,
  0xE7, 0xF1, 0x09, 0xF8, 0x17, 0x12, 0x14, 0xF2, 0xF3, 0xF6,
  0xE0, 0xFE, 0x07, 0x01, 0x0D, 0xB2, 0xED, 0xE6, 0xF1, 0xF2,
  0x1D, 0xDF, 0xF8, 0xF8, 0x16, 0xDD, 0x11, 0xF2, 0x17, 0xF5,
  0xE4, 0x99, 0xEE, 0xE5, 0x30, 0xE5, 0xF8, 0x07, 0xF5, 0xFF,
  0x29, 0xED, 0xEE, 0xFB, 0x31, 0x1B, 0x08, 0x98, 0x25, 0xD7,
  0x0C, 0x37, 0xFE, 0x09, 0x01, 0xE1, 0x0A, 0xD8, 0xFE, 0xEC,
  0xE1, 0xE9, 0x22, 0xEA, 0x18, 0xCB, 0xDE, 0xE3, 0x0C, 0xD3,
  0x10, 0xDF, 0x0F, 0x07, 0xE7, 0x00, 0x1F, 0xFA, 0xD6, 0xD4,
  0x0B, 0xEC, 0xE5, 0x00, 0xF9, 0x00, 0x22, 0x11, 0x1C, 0x12,
  0x05, 0xD6, 0xF5, 0xF7, 0xD2, 0xBB, 0xD4, 0xBE, 0x2B, 0x13,
  0x20, 0xDD, 0x14, 0xE6, 0x1B, 0xE6, 0xF0, 0x14, 0xE9, 0xFA,
  0xDA, 0x81, 0xF1, 0xFB, 0xFE, 0x1C, 0xEE, 0xBF, 0xDD, 0xE5,
  0x34, 0xDB, 0xFB, 0x0F, 0xEE, 0xBD, 0x05, 0xCE, 0x0F, 0x06,
  0xEC, 0xCD, 0xE1, 0xF2, 0x25, 0x16, 0x31, 0x11, 0xEA, 0xE8,
  0xF9, 0xBC, 0x1E, 0xD9, 0xEB, 0x10, 0xFA, 0xB1, 0xF0, 0x12,
  0xF4, 0xE1, 0x1E, 0x14, 0x08, 0xDB, 0x13, 0xCB, 0xF6, 0xCA,
  0x20, 0x0E, 0xF9, 0xF4, 0x08, 0xEE, 0x1B, 0x20, 0x23, 0xEE,
  0xEF, 0x09, 0x28, 0x01, 0xE3, 0xAF, 0xF2, 0x01, 0xF5, 0x14,
  0xF1, 0xDD, 0xF4, 0xB3, 0x03, 0x30, 0xF4, 0xE9, 0xD0, 0xA6,
  0xC5, 0x98, 0x0A, 0xFF, 0x1D, 0xAD, 0xCE, 0xE4, 0xDF, 0xEF,
  0x13, 0x09, 0x1C, 0x0C, 0xC7, 0xDC, 0xE8, 0x59, 0x77, 0xE9,
  0xEE, 0x0F, 0xDF, 0xE8, 0xFC, 0xF3, 0xFF, 0xFD, 0x18, 0x02,
  0xC4, 0xDC, 0x0E, 0xE6, 0x3A, 0x24, 0xE7, 0xEB, 0xD2, 0xD4,
  0xF9, 0x26, 0x26, 0x22, 0x16, 0x09, 0xF9, 0x08, 0x10, 0x19,
  0x1F, 0xF6, 0x04, 0xF6, 0x15, 0xF5, 0xEB, 0xB8, 0x09, 0x0B,
  0x1A, 0xFA, 0xE5, 0xCA, 0xED, 0x93, 0x14, 0xEF, 0x12, 0xFE,
  0x02, 0x59, 0xFF, 0xBC, 0x1E, 0xDD, 0x20, 0xF6, 0x07, 0xFD,
  0x01, 0x79, 0x6A, 0xEC, 0xE5, 0x11, 0x18, 0x4E, 0xE7, 0x01,
  0x25, 0xD2, 0x16, 0x01, 0xD5, 0xF3, 0x1E, 0x00, 0xE2, 0x03,
  0xF1, 0x17, 0xE1, 0xE7, 0x24, 0x1A, 0x21, 0x0E, 0xE8, 0xFC,
  0xE7, 0x31, 0xF8, 0xF8, 0x2B, 0xE7, 0xE4, 0xFE, 0xE0, 0xD9,
  0xCC, 0xD2, 0xD6, 0xE0, 0xED, 0xF8, 0xCC, 0x9A, 0xED, 0xB8,
  0x16, 0xF4, 0x0A, 0x1E, 0xB9, 0x3C, 0xDF, 0xEF, 0x10, 0xF2,
  0x05, 0xED, 0xCB, 0xEA, 0xFD, 0x55, 0x7F, 0xE3, 0xDD, 0x0A,
  0xE0, 0xE2, 0x16, 0xF8, 0xFE, 0x09, 0x1A, 0x15, 0xD6, 0xF1,
  0x1C, 0xE5, 0xC3, 0x02, 0xDB, 0xF1, 0x96, 0xE8, 0xFE, 0xEB,
  0x11, 0x1B, 0xE5, 0x1B, 0xC9, 0x38, 0x1C, 0xE6, 0xCB, 0xF9,
  0x11, 0xEF, 0xAF, 0xED, 0xCE, 0xD8, 0x04, 0xC4, 0xC8, 0x1D,
  0xCF, 0xE1, 0x1A, 0xC5, 0x31, 0xC0, 0x07, 0xF5, 0xE2, 0xEA,
  0x12, 0x07, 0x21, 0xD2, 0xE6, 0xE5, 0xFE, 0x03, 0x10, 0x74,
  0x4C, 0xFF, 0x05, 0x3E, 0xD5, 0x98, 0x1F, 0x0A, 0x1E, 0xCE,
  0x07, 0xF7, 0xB0, 0xC5, 0x09, 0xC4, 0xE0, 0x35, 0x08, 0xCD,
  0xB6, 0xDF, 0x07, 0x07, 0x2D, 0xD5, 0x1E, 0x18, 0x03, 0x1C,
  0xFE, 0xD5, 0xC7, 0x02, 0x1A, 0xF9, 0xA6, 0x0E, 0xF2, 0xF4,
  0xFF, 0xFF, 0x04, 0x00, 0x00, 0x00, 0x40, 0x00, 0x00, 0x00,
  0x6E, 0x01, 0x00, 0x00, 0xCA, 0xF1, 0xFF, 0xFF, 0xD0, 0x02,
  0x00, 0x00, 0x56, 0x0C, 0x00, 0x00, 0x73, 0x0B, 0x00, 0x00,
  0xF0, 0x04, 0x00, 0x00, 0x78, 0x03, 0x00, 0x00, 0xC6, 0x0C,
  0x00, 0x00, 0x18, 0xFF, 0xFF, 0xFF, 0x7D, 0x09, 0x00, 0x00,
  0x97, 0x06, 0x00, 0x00, 0x5C, 0x03, 0x00, 0x00, 0xFF, 0x11,
  0x00, 0x00, 0x64, 0x0F, 0x00, 0x00, 0x4D, 0x0F, 0x00, 0x00,
  0x20, 0x06, 0x00, 0x00, 0x3E, 0xF5, 0xFF, 0xFF, 0x04, 0x00,
  0x00, 0x00, 0x00, 0x09, 0x00, 0x00, 0x08, 0xFE, 0xCD, 0xE7,
  0x6B, 0x03, 0x14, 0x03, 0xB4, 0x02, 0xD0, 0x98, 0xFF, 0xB5,
  0x0C, 0xE9, 0x4A, 0x2A, 0xE6, 0xF4, 0x1F, 0x17, 0x27, 0x38,
  0x18, 0xEB, 0xF1, 0xDB, 0x1F, 0xF7, 0xC5, 0xE0, 0x7F, 0xDD,
  0xFF, 0xD1, 0x25, 0x0A, 0x0C, 0xE9, 0xE2, 0x2F, 0xE8, 0xB0,
  0x24, 0xB9, 0xEE, 0xEE, 0xDB, 0x2B, 0xD1, 0xE7, 0x2B, 0x04,
  0xF9, 0xDC, 0xDF, 0xD0, 0xCC, 0xEB, 0xFF, 0xBD, 0xF6, 0xFE,
  0x2C, 0x0D, 0x25, 0xE3, 0x12, 0x1B, 0x15, 0x1F, 0x1F, 0x18,
  0x07, 0xDC, 0x1E, 0xDB, 0x07, 0x18, 0x27, 0xEF, 0xEF, 0x0B,
  0x1F, 0x01, 0xED, 0x23, 0xE2, 0x0D, 0x06, 0x02, 0xF6, 0xCF,
  0x18, 0xD3, 0x1A, 0x26, 0xF5, 0xA3, 0x29, 0xD0, 0x11, 0xE3,
  0x0E, 0xDD, 0xEA, 0xB1, 0xDE, 0xFB, 0x04, 0x32, 0x02, 0xFE,
  0xCB, 0xDA, 0x02, 0x12, 0x23, 0xDC, 0x1B, 0x2F, 0x10, 0x12,
  0x05, 0xC2, 0x08, 0x00, 0xE3, 0xF5, 0xDF, 0xDE, 0xDE, 0xD6,
  0xFE, 0x0A, 0xEC, 0x0E, 0x2C, 0xC5, 0x39, 0xFF, 0x22, 0xFD,
  0x07, 0x06, 0x44, 0x11, 0xBC, 0x37, 0x14, 0xCA, 0x4A, 0xE2,
  0xF7, 0xFD, 0x46, 0x0A, 0xEF, 0xF0, 0x4E, 0xD8, 0x0C, 0x0A,
  0xB7, 0x2A, 0xAC, 0x21, 0x35, 0x26, 0x4A, 0x07, 0x33, 0x30,
  0x1B, 0xAB, 0xF6, 0x2A, 0xDA, 0xC0, 0x05, 0x41, 0x23, 0x1B,
  0xD7, 0xDF, 0x2C, 0x6C, 0xBC, 0xFC, 0xEA, 0xEA, 0x1C, 0xEA,
  0xE9, 0x69, 0x87, 0x3E, 0xDB, 0x39, 0x04, 0xDE, 0x06, 0xEC,
  0xEF, 0x01, 0x20, 0xE4, 0xED, 0xFF, 0x45, 0x43, 0xD4, 0xF6,
  0x16, 0xFF, 0xD8, 0x97, 0x04, 0x4C, 0xD5, 0x12, 0x02, 0xB5,
  0xD5, 0x18, 0x1E, 0xD6, 0x21, 0xF8, 0x30, 0xEA, 0xC2, 0xE7,
  0xE6, 0x1F, 0x00, 0x31, 0x34, 0xC1, 0x57, 0x4B, 0xD1, 0x74,
  0x02, 0x16, 0xFB, 0xE9, 0x3D, 0x81, 0xF3, 0x13, 0xE0, 0x1B,
  0xB7, 0xF9, 0x06, 0x1D, 0x15, 0x27, 0xE2, 0x55, 0x1D, 0xFE,
  0x1D, 0xE8, 0xF0, 0x27, 0xCE, 0x25, 0x3B, 0x1E, 0x32, 0xC9,
  0xE4, 0x13, 0x45, 0x1B, 0x28, 0x24, 0xDC, 0xB7, 0x2D, 0x17,
  0xDB, 0xE9, 0x25, 0xEC, 0x50, 0xCE, 0x09, 0x1F, 0xD1, 0x4E,
  0x03, 0xE8, 0x5C, 0xC6, 0x11, 0x3E, 0xFD, 0x17, 0x69, 0x13,
  0xEF, 0xD2, 0x42, 0xE4, 0xDD, 0xF4, 0xF7, 0xDE, 0x58, 0xD1,
  0xE6, 0x40, 0x49, 0x24, 0xFD, 0xEA, 0xDF, 0xE9, 0xF3, 0x55,
  0x06, 0xCC, 0x4D, 0x00, 0x29, 0xC3, 0x0C, 0x5A, 0xFC, 0x0A,
  0x08, 0x20, 0x40, 0xC4, 0xDB, 0x51, 0xDB, 0x07, 0x81, 0x0B,
  0x0F, 0xC6, 0xFE, 0x45, 0x2C, 0x39, 0x04, 0xDF, 0xDE, 0xF9,
  0xE9, 0x2E, 0xA3, 0xC2, 0xB1, 0x0F, 0xD1, 0x20, 0x0B, 0xFB,
  0x1A, 0xD6, 0xC1, 0x2A, 0xFD, 0xD6, 0xD6, 0xEC, 0xDB, 0xE0,
  0x12, 0x2E, 0x4B, 0x2F, 0x13, 0x0A, 0x3F, 0xD6, 0x2F, 0x0D,
  0x04, 0xC1, 0x29, 0x7D, 0x1F, 0x19, 0xD0, 0xF2, 0x1D, 0x27,
  0xF1, 0xF3, 0xF2, 0x00, 0xE6, 0x05, 0xEE, 0xC5, 0x1D, 0xEE,
  0xFF, 0xE2, 0xE3, 0xC9, 0x1A, 0x24, 0xC4, 0xE1, 0xF4, 0xD5,
  0x0B, 0x05, 0xFB, 0xDB, 0x17, 0x30, 0x24, 0xEF, 0xC9, 0x0F,
  0x15, 0x1D, 0x27, 0xD3, 0x4D, 0xE3, 0xFA, 0x14, 0xE5, 0xF5,
  0xF8, 0xD2, 0x2F, 0xD8, 0xC0, 0x25, 0xE4, 0x49, 0xE3, 0xF9,
  0xE0, 0xDF, 0xD1, 0xFD, 0x7F, 0xD8, 0x33, 0xE0, 0x06, 0x28,
  0x03, 0xDF, 0x0F, 0x42, 0x27, 0xE6, 0x07, 0x2D, 0x09, 0xD2,
  0x60, 0x31, 0x18, 0xF4, 0x05, 0x2F, 0x0D, 0xE2, 0xCB, 0xF4,
  0xDA, 0xCD, 0x32, 0xD4, 0xD4, 0xBB, 0xA7, 0x1A, 0x12, 0xDD,
  0x16, 0x2A, 0xF5, 0x11, 0xED, 0x19, 0x1F, 0xEE, 0x38, 0xDD,
  0xD3, 0x1F, 0x2A, 0x10, 0x22, 0xFB, 0x10, 0x46, 0x32, 0x14,
  0x00, 0x1F, 0xFD, 0xFE, 0xFA, 0x2F, 0xE4, 0x03, 0xAE, 0x18,
  0xF6, 0xE4, 0x2F, 0x11, 0x0A, 0xFA, 0xC1, 0xFF, 0x16, 0xFF,
  0x00, 0xF5, 0xF2, 0x16, 0x14, 0x1E, 0x01, 0xEA, 0x23, 0x36,
  0xEB, 0x20, 0xE0, 0x36, 0xF2, 0xD7, 0x22, 0xF4, 0x23, 0x1E,
  0xE3, 0x01, 0x36, 0xD0, 0xEE, 0xFE, 0x20, 0x10, 0xCC, 0x3D,
  0x0D, 0x08, 0xFB, 0x04, 0x1A, 0x1B, 0xB3, 0xFE, 0xEA, 0x15,
  0xCD, 0x08, 0xD6, 0xC7, 0x8E, 0x49, 0x0A, 0xF4, 0xEA, 0x46,
  0x07, 0x2D, 0x12, 0xE7, 0x11, 0x3D, 0xD4, 0xD5, 0x50, 0xD3,
  0x16, 0xD2, 0x22, 0x5E, 0x20, 0x1F, 0x12, 0xAA, 0xEF, 0x01,
  0xF2, 0xF9, 0xFF, 0xE1, 0x52, 0x41, 0x19, 0xA3, 0x0B, 0xEC,
  0xF3, 0x1D, 0x35, 0xBB, 0x08, 0xC3, 0xF0, 0x0F, 0x44, 0x48,
  0x00, 0xF5, 0x15, 0x81, 0xF1, 0x5A, 0xC3, 0xEC, 0x70, 0x50,
  0xAD, 0xBA, 0xDA, 0xE1, 0x0A, 0x36, 0x5C, 0x23, 0x1C, 0xDA,
  0x24, 0xEE, 0xDA, 0x2A, 0x42, 0x06, 0x95, 0x2F, 0x15, 0x25,
  0xDD, 0xD9, 0x34, 0x31, 0x05, 0xAF, 0xDC, 0x14, 0xF8, 0xF0,
  0x2A, 0xC5, 0xC8, 0x1A, 0x25, 0x60, 0xEA, 0xC1, 0x42, 0x07,
  0x21, 0xF9, 0x24, 0x1E, 0xB1, 0x1F, 0x37, 0x45, 0xE3, 0xAA,
  0xE9, 0x42, 0x38, 0xC0, 0x41, 0x4E, 0xC0, 0xDE, 0x29, 0xD3,
  0xF2, 0x37, 0xDA, 0xD9, 0xB8, 0xCF, 0xF3, 0x36, 0x44, 0x2A,
  0xD5, 0x1E, 0xF2, 0xD8, 0xF8, 0x3E, 0xF7, 0xE4, 0xE7, 0xBD,
  0xB3, 0x2A, 0x05, 0x5F, 0x49, 0xEA, 0x08, 0xCA, 0x62, 0xCF,
  0xBF, 0x4D, 0xFD, 0x05, 0x07, 0xD8, 0xD7, 0x0F, 0xEA, 0xD6,
  0x7F, 0xD2, 0xE6, 0xEC, 0x0D, 0x3D, 0x14, 0xDF, 0x0C, 0x91,
  0xEC, 0xB3, 0x3E, 0x20, 0xC5, 0x0B, 0x26, 0xF5, 0xDC, 0xF5,
  0x1D, 0x1A, 0x14, 0x16, 0xD2, 0xDC, 0xBE, 0x05, 0x63, 0x23,
  0xC6, 0x4D, 0xF8, 0xC8, 0xED, 0xF1, 0x09, 0x10, 0x34, 0xFB,
  0xF6, 0xAE, 0xAE, 0xDE, 0xED, 0x37, 0xEF, 0xCC, 0x64, 0xE6,
  0x40, 0xE9, 0x28, 0xE3, 0x07, 0x0B, 0xC9, 0xB3, 0xF8, 0xED,
  0x3A, 0xD2, 0x03, 0x3D, 0x71, 0x14, 0xF3, 0x3D, 0x3F, 0xF3,
  0x0E, 0x0B, 0x10, 0x39, 0xF7, 0x01, 0x4D, 0x1F, 0xEE, 0x35,
  0xD7, 0x1D, 0x2A, 0x1F, 0x19, 0xFF, 0x00, 0xF9, 0x51, 0x00,
  0x1B, 0xD6, 0x27, 0x47, 0xCA, 0xA6, 0xE7, 0xA8, 0x05, 0x30,
  0x10, 0x3D, 0xF7, 0x30, 0xD9, 0x93, 0xEC, 0xE4, 0x07, 0xEB,
  0x0A, 0xAD, 0xE3, 0xB0, 0x34, 0xEC, 0x0B, 0xF8, 0x28, 0x0E,
  0x0A, 0xD9, 0xD2, 0x2C, 0xBF, 0xC5, 0xAF, 0xB3, 0xFC, 0x95,
  0x45, 0x20, 0xD3, 0x0C, 0xF3, 0x2E, 0x71, 0xA7, 0xD1, 0x17,
  0xFE, 0xC9, 0x4B, 0xEB, 0xC1, 0x3E, 0x3B, 0x3B, 0x5E, 0xC3,
  0x38, 0x5B, 0xF1, 0xFF, 0x56, 0xEE, 0xCC, 0x2E, 0x3D, 0xE4,
  0xD7, 0xD1, 0x20, 0x2F, 0x3C, 0xAD, 0x22, 0x47, 0xCE, 0x04,
  0x1C, 0xE3, 0xE4, 0xFA, 0x2C, 0x40, 0x1B, 0x34, 0x44, 0xF3,
  0x0B, 0x87, 0xE3, 0xF2, 0xF6, 0xF3, 0x3B, 0x25, 0xBB, 0xCC,
  0x16, 0x01, 0xEE, 0x37, 0x07, 0x2C, 0x31, 0xE2, 0xD6, 0x16,
  0xF8, 0xE1, 0xF8, 0xF7, 0xCC, 0xD5, 0x2A, 0xF5, 0x10, 0x1D,
  0x43, 0x20, 0x0F, 0x13, 0xCC, 0xD3, 0xF8, 0x02, 0x13, 0xE6,
  0xB7, 0xFF, 0xFB, 0xED, 0x15, 0xD7, 0xD0, 0x0E, 0x04, 0xC9,
  0xD8, 0xF4, 0x1C, 0x15, 0x1A, 0x0E, 0x13, 0xD3, 0xF4, 0x7F,
  0xEF, 0x16, 0xEA, 0xE5, 0xFB, 0xFE, 0x15, 0xDD, 0xFE, 0xE1,
  0xE3, 0xB7, 0xDD, 0xDE, 0x12, 0x05, 0xF9, 0x00, 0x06, 0xEC,
  0xEA, 0xBA, 0x32, 0x34, 0x1F, 0x38, 0x04, 0x1C, 0xD5, 0xD7,
  0xFF, 0x40, 0x34, 0x39, 0x04, 0xE3, 0x38, 0x8D, 0x2C, 0xF9,
  0x3D, 0x2C, 0x4B, 0xE7, 0x48, 0x09, 0x4B, 0x08, 0xA7, 0x01,
  0x44, 0x3F, 0x26, 0xB3, 0x2C, 0x4A, 0x30, 0xF5, 0x16, 0x29,
  0xB1, 0x1F, 0xE7, 0xF2, 0xF7, 0xE8, 0xFD, 0x35, 0xFB, 0xD2,
  0x39, 0xFA, 0x31, 0x3E, 0x0F, 0x36, 0xC6, 0x3F, 0x2D, 0x59,
  0xD0, 0x05, 0x2C, 0x3C, 0x56, 0xE6, 0x40, 0x17, 0xDB, 0x1B,
  0x5A, 0x61, 0xFB, 0xF6, 0xD9, 0x24, 0xD7, 0xDB, 0x3C, 0xD5,
  0x2C, 0x26, 0x16, 0x31, 0x54, 0x40, 0xEF, 0x21, 0x08, 0xEF,
  0x1C, 0xFF, 0xE1, 0xF6, 0xD6, 0x1C, 0x0F, 0x2B, 0x27, 0xEA,
  0x1C, 0xEF, 0x35, 0x34, 0xA9, 0x26, 0x3B, 0x43, 0x2B, 0x1E,
  0x1C, 0xD5, 0x21, 0x03, 0xD8, 0xE1, 0x31, 0x0A, 0x0D, 0x51,
  0xEA, 0xC8, 0xD6, 0x7F, 0x0D, 0x31, 0x40, 0x42, 0x0D, 0xFD,
  0x49, 0x3A, 0x2D, 0xFA, 0x49, 0x10, 0xC9, 0x01, 0x07, 0xFC,
  0x0E, 0xE8, 0x0F, 0xDE, 0xEB, 0xD1, 0xE2, 0xD9, 0x1B, 0xDA,
  0xE8, 0xE6, 0x2E, 0x32, 0x25, 0x29, 0x1D, 0xCB, 0x36, 0x03,
  0x44, 0xD3, 0x25, 0x0B, 0x03, 0x1C, 0x23, 0xF6, 0xF0, 0xF0,
  0xEE, 0x65, 0xDE, 0x46, 0x0D, 0xF9, 0x7F, 0x00, 0xF2, 0x4B,
  0xEC, 0xF1, 0x15, 0x01, 0xCD, 0xD8, 0xFF, 0x1B, 0x03, 0x11,
  0x10, 0x3E, 0x2D, 0xCB, 0xF9, 0x04, 0x0A, 0x2F, 0x18, 0x0D,
  0xBE, 0x07, 0x01, 0x2A, 0xE7, 0x09, 0x16, 0xEF, 0x05, 0x9A,
  0x04, 0x45, 0xD7, 0x53, 0x42, 0x07, 0xC4, 0xFB, 0x3D, 0x6A,
  0x25, 0x32, 0x2B, 0x29, 0x3A, 0x14, 0x34, 0x2F, 0x48, 0xEF,
  0x5E, 0xD9, 0xB5, 0xE1, 0xD8, 0x47, 0xDE, 0xEE, 0x29, 0xD1,
  0xE1, 0x00, 0xE3, 0xF6, 0xE8, 0xFD, 0x32, 0x31, 0x98, 0x0B,
  0xE1, 0x19, 0x39, 0xAE, 0xFC, 0x00, 0x13, 0xB6, 0xD5, 0xF7,
  0xB8, 0xEF, 0xF2, 0x28, 0xD6, 0xC1, 0xF6, 0x5A, 0xDF, 0x3B,
  0x31, 0x08, 0x54, 0xA1, 0x31, 0x3F, 0x45, 0xED, 0x00, 0xF9,
  0xC6, 0x0F, 0x2A, 0x61, 0x06, 0xE9, 0x23, 0xFE, 0xFA, 0xB0,
  0x2D, 0xD6, 0xC9, 0x37, 0x02, 0x05, 0xC9, 0x26, 0xE8, 0x06,
  0x6F, 0xE1, 0x15, 0xCE, 0x2E, 0x93, 0x32, 0x62, 0xFF, 0x3C,
  0x63, 0xD0, 0xF7, 0x44, 0xF7, 0x0A, 0xAD, 0x4F, 0xE6, 0x2F,
  0x15, 0x32, 0xD3, 0x5D, 0x36, 0x12, 0x2C, 0xD2, 0xB7, 0x24,
  0xDE, 0x1E, 0x01, 0x2F, 0x2B, 0x29, 0x2B, 0x1D, 0x4F, 0xEE,
  0x0E, 0xC7, 0x65, 0x55, 0x81, 0xC2, 0xD4, 0x52, 0x48, 0x24,
  0x3D, 0x0B, 0x48, 0x8E, 0x2F, 0xD6, 0xE5, 0x2E, 0xEF, 0x49,
  0xC1, 0x02, 0x4B, 0x1E, 0xEA, 0x14, 0x4D, 0x1E, 0x60, 0xC6,
  0x47, 0xF6, 0x30, 0x29, 0xE2, 0x1D, 0x8F, 0x17, 0x23, 0xB0,
  0x30, 0x09, 0xF3, 0x30, 0xF3, 0x03, 0x1B, 0x21, 0x29, 0x26,
  0x46, 0x16, 0xFD, 0xD9, 0x3E, 0x48, 0x24, 0xE0, 0xEA, 0x3F,
  0xE1, 0xD1, 0xBC, 0x59, 0xFD, 0x48, 0xE8, 0xFD, 0xC5, 0xD1,
  0x58, 0x24, 0xF2, 0x19, 0x38, 0x4A, 0x15, 0xD1, 0xEF, 0x2D,
  0x36, 0x09, 0x37, 0xF3, 0xED, 0x0C, 0xCC, 0x1B, 0x42, 0x15,
  0x36, 0x50, 0xE4, 0xFE, 0x39, 0x46, 0xDC, 0x0C, 0x0B, 0x09,
  0xB9, 0x3F, 0x0B, 0x40, 0x41, 0xEA, 0xD5, 0xDB, 0x1E, 0xF5,
  0xDE, 0x4A, 0xFB, 0x54, 0x03, 0xFD, 0xE5, 0xD7, 0x34, 0x42,
  0x07, 0x37, 0x49, 0x0C, 0x5B, 0xA3, 0x38, 0xFC, 0x3A, 0x15,
  0x2D, 0xD6, 0xA1, 0xE2, 0x1C, 0xDE, 0x0B, 0x1B, 0x09, 0x24,
  0x44, 0xC5, 0x1C, 0x19, 0x0A, 0xCC, 0x30, 0x3F, 0xC3, 0xB2,
  0x1D, 0x3F, 0xF1, 0xE5, 0x34, 0xE5, 0x3F, 0xEC, 0xD9, 0x46,
  0xC6, 0xF3, 0x4B, 0x75, 0xD2, 0xD9, 0xEC, 0x29, 0x14, 0xDE,
  0x4E, 0xD5, 0xE9, 0xC5, 0x0B, 0xE7, 0x07, 0xFA, 0xFC, 0x81,
  0xC6, 0xD0, 0xDB, 0xED, 0xE7, 0x0D, 0xD1, 0x25, 0x15, 0xC0,
  0xF0, 0x20, 0x0E, 0x05, 0x34, 0xCF, 0xDC, 0xD8, 0xF5, 0x1D,
  0x18, 0xDB, 0xCB, 0xF3, 0x12, 0xE9, 0xE8, 0x4A, 0xD4, 0xCE,
  0x14, 0x54, 0xE9, 0xBD, 0xE2, 0x68, 0xF3, 0x05, 0x4F, 0x19,
  0xF4, 0xBD, 0x38, 0x1F, 0x26, 0x23, 0x18, 0xBD, 0xC7, 0xB3,
  0xEB, 0x3F, 0xFC, 0x02, 0xC2, 0xF2, 0xDF, 0xF8, 0xD5, 0x24,
  0x19, 0xF7, 0xF1, 0xD5, 0x14, 0xD7, 0x12, 0x2F, 0x3F, 0xCF,
  0xD7, 0xD9, 0x28, 0xBA, 0x1B, 0x09, 0x03, 0x07, 0x37, 0x09,
  0xEB, 0xE0, 0x3F, 0x36, 0xE0, 0xD7, 0x52, 0xFE, 0x7F, 0xCD,
  0x4F, 0x5D, 0x1B, 0xFA, 0x03, 0x05, 0xDD, 0xC9, 0xF5, 0xF7,
  0xF9, 0x39, 0xED, 0x48, 0x4B, 0xE5, 0xE4, 0x67, 0xF9, 0x24,
  0xE9, 0x42, 0xA6, 0x25, 0x16, 0x31, 0x21, 0xC3, 0x03, 0x46,
  0x41, 0x8E, 0x0D, 0x0E, 0x02, 0x11, 0xF9, 0x2F, 0xCD, 0x06,
  0xE8, 0x2C, 0x04, 0x1C, 0xED, 0x19, 0x1D, 0x17, 0x19, 0xFC,
  0x4B, 0x20, 0xF2, 0xB7, 0x9C, 0x41, 0xC4, 0x1C, 0xE5, 0x1C,
  0x11, 0xF0, 0xD2, 0xA2, 0xC5, 0xDF, 0x43, 0x0A, 0x3C, 0xFE,
  0xA8, 0xFB, 0xF4, 0x36, 0x31, 0xFF, 0x39, 0xF4, 0x33, 0xE4,
  0x26, 0x28, 0xFF, 0x28, 0x34, 0x55, 0xD6, 0xB1, 0x33, 0x5D,
  0xC5, 0x42, 0x04, 0xDA, 0x0C, 0xE1, 0xDC, 0x09, 0x64, 0x28,
  0xCE, 0xB0, 0x00, 0x16, 0xD3, 0xED, 0x18, 0x2A, 0xE1, 0x39,
  0xCF, 0xBF, 0x13, 0x0D, 0x07, 0x34, 0x23, 0xB9, 0xE7, 0x22,
  0x3B, 0x26, 0x4C, 0x24, 0xE6, 0x32, 0xEC, 0xD9, 0xCD, 0x3C,
  0xCA, 0x28, 0x1E, 0x06, 0xBD, 0xE0, 0xE5, 0xF4, 0x6B, 0xA6,
  0xF6, 0x0E, 0xCC, 0x03, 0xBB, 0xCD, 0xEE, 0xB8, 0xCC, 0x13,
  0xFC, 0x04, 0xF5, 0x26, 0x1C, 0x04, 0x0E, 0x13, 0xED, 0x02,
  0xEF, 0xC6, 0x0E, 0x04, 0xD1, 0x34, 0x42, 0xF8, 0xCE, 0xFC,
  0x30, 0xFB, 0x16, 0x10, 0x23, 0x1C, 0xD8, 0xA4, 0x0F, 0xBF,
  0xDD, 0xE7, 0xCB, 0xDC, 0xD1, 0x01, 0x4C, 0xC3, 0x04, 0x0B,
  0xAD, 0xEC, 0xF4, 0xED, 0x1D, 0xFA, 0xF8, 0xF3, 0xE1, 0x0E,
  0xEB, 0x30, 0x0B, 0x33, 0x36, 0x09, 0x16, 0x12, 0xED, 0x00,
  0x06, 0xF5, 0x23, 0x37, 0x07, 0xFB, 0xED, 0xF8, 0xFD, 0x19,
  0x1D, 0x20, 0x0A, 0x07, 0xF6, 0xE3, 0xEB, 0xE4, 0x03, 0x26,
  0x81, 0xF9, 0xB6, 0xD4, 0x0F, 0xBD, 0x2A, 0xD8, 0xED, 0xF4,
  0xDD, 0xAE, 0x1E, 0xAE, 0xFA, 0xF6, 0xD4, 0xF8, 0x09, 0xEE,
  0x15, 0x07, 0x0B, 0x23, 0xFA, 0x14, 0x20, 0x0A, 0x1F, 0xDB,
  0x12, 0x27, 0xAE, 0x1F, 0xE9, 0x11, 0xF8, 0xC7, 0x01, 0xF2,
  0xD0, 0x02, 0xEF, 0xCF, 0x2C, 0xC8, 0xDC, 0xFA, 0x22, 0x03,
  0x33, 0x44, 0xD2, 0x34, 0x31, 0x40, 0x4B, 0x95, 0x2A, 0x0A,
  0x0A, 0x16, 0x2E, 0xCE, 0xAC, 0xF5, 0xEF, 0x2D, 0x0F, 0xF0,
  0x20, 0xF4, 0x1A, 0xC3, 0x08, 0x44, 0xE3, 0x33, 0x57, 0x50,
  0xB0, 0xD2, 0x23, 0x56, 0x06, 0x2D, 0x2A, 0xF3, 0x1A, 0x81,
  0x34, 0x3F, 0xD5, 0x2A, 0x05, 0x67, 0xD0, 0xF5, 0x28, 0x49,
  0xE1, 0x3A, 0x50, 0x07, 0x16, 0xBB, 0x2E, 0xF1, 0x4E, 0x14,
  0x0C, 0xB1, 0x84, 0xCC, 0x2E, 0xF8, 0x18, 0xBD, 0x30, 0x03,
  0x23, 0xA6, 0x1F, 0x28, 0x14, 0x16, 0x34, 0xCE, 0xB5, 0xEA,
  0xFC, 0x37, 0xFC, 0xE8, 0xB2, 0x44, 0x0A, 0xF1, 0xDF, 0x02,
  0xDD, 0xEC, 0xF1, 0x1B, 0xD1, 0x00, 0xF9, 0x3D, 0xD2, 0x16,
  0xFE, 0x1F, 0x0B, 0x91, 0x33, 0x02, 0x4C, 0x0B, 0x05, 0x99,
  0x9F, 0xF4, 0x10, 0x55, 0x09, 0xFD, 0xFA, 0x02, 0xFE, 0xBC,
  0xC4, 0xEE, 0xF5, 0x17, 0x13, 0xD7, 0x16, 0xE5, 0xE5, 0x1B,
  0x70, 0x03, 0xE0, 0x08, 0x0D, 0xD9, 0xE8, 0x32, 0xE8, 0x25,
  0x2D, 0xCC, 0xA7, 0x10, 0xEF, 0x23, 0xE1, 0xDB, 0x37, 0xB6,
