const unsigned char model_tflite[] = {
  0x1C, 0x00, 0x00, 0x00, 0x54, 0x46, 0x4C, 0x33, 0x14, 0x00,
  0x20, 0x00, 0x1C, 0x00, 0x18, 0x00, 0x14, 0x00, 0x10, 0x00,
  0x0C, 0x00, 0x00, 0x00, 0x08, 0x00, 0x04, 0x00, 0x14, 0x00,
  0x00, 0x00, 0x1C, 0x00, 0x00, 0x00, 0x84, 0x00, 0x00, 0x00,
  0xDC, 0x00, 0x00, 0x00, 0x18, 0x2D, 0x00, 0x00, 0x28, 0x2D,
  0x00, 0x00, 0xA4, 0x48, 0x00, 0x00, 0x03, 0x00, 0x00, 0x00,
  0x01, 0x00, 0x00, 0x00, 0x04, 0x00, 0x00, 0x00, 0x72, 0xD2,
  0xFF, 0xFF, 0x0C, 0x00, 0x00, 0x00, 0x1C, 0x00, 0x00, 0x00,
  0x3C, 0x00, 0x00, 0x00, 0x0F, 0x00, 0x00, 0x00, 0x73, 0x65,
  0x72, 0x76, 0x69, 0x6E, 0x67, 0x5F, 0x64, 0x65, 0x66, 0x61,
  0x75, 0x6C, 0x74, 0x00, 0x01, 0x00, 0x00, 0x00, 0x04, 0x00,
  0x00, 0x00, 0x98, 0xFF, 0xFF, 0xFF, 0x1D, 0x00, 0x00, 0x00,
  0x04, 0x00, 0x00, 0x00, 0x08, 0x00, 0x00, 0x00, 0x63, 0x6F,
  0x6E, 0x76, 0x32, 0x64, 0x5F, 0x37, 0x00, 0x00, 0x00, 0x00,
  0x01, 0x00, 0x00, 0x00, 0x04, 0x00, 0x00, 0x00, 0x3E, 0xD2,
  0xFF, 0xFF, 0x04, 0x00, 0x00, 0x00, 0x07, 0x00, 0x00, 0x00,
  0x69, 0x6E, 0x70, 0x75, 0x74, 0x5F, 0x32, 0x00, 0x02, 0x00,
  0x00, 0x00, 0x34, 0x00, 0x00, 0x00, 0x04, 0x00, 0x00, 0x00,
  0xDC, 0xFF, 0xFF, 0xFF, 0x20, 0x00, 0x00, 0x00, 0x04, 0x00,
  0x00, 0x00, 0x13, 0x00, 0x00, 0x00, 0x43, 0x4F, 0x4E, 0x56,
  0x45, 0x52, 0x53, 0x49, 0x4F, 0x4E, 0x5F, 0x4D, 0x45, 0x54,
  0x41, 0x44, 0x41, 0x54, 0x41, 0x00, 0x08, 0x00, 0x0C, 0x00,
  0x08, 0x00, 0x04, 0x00, 0x08, 0x00, 0x00, 0x00, 0x1F, 0x00,
  0x00, 0x00, 0x04, 0x00, 0x00, 0x00, 0x13, 0x00, 0x00, 0x00,
  0x6D, 0x69, 0x6E, 0x5F, 0x72, 0x75, 0x6E, 0x74, 0x69, 0x6D,
  0x65, 0x5F, 0x76, 0x65, 0x72, 0x73, 0x69, 0x6F, 0x6E, 0x00,
  0x21, 0x00, 0x00, 0x00, 0x38, 0x2C, 0x00, 0x00, 0x30, 0x2C,
  0x00, 0x00, 0x18, 0x2C, 0x00, 0x00, 0x04, 0x2C, 0x00, 0x00,
  0xDC, 0x2B, 0x00, 0x00, 0xAC, 0x2B, 0x00, 0x00, 0x9C, 0x23,
  0x00, 0x00, 0x4C, 0x23, 0x00, 0x00, 0x3C, 0x1B, 0x00, 0x00,
  0x0C, 0x1B, 0x00, 0x00, 0xFC, 0x12, 0x00, 0x00, 0xAC, 0x12,
  0x00, 0x00, 0x9C, 0x0A, 0x00, 0x00, 0x6C, 0x0A, 0x00, 0x00,
  0x5C, 0x02, 0x00, 0x00, 0x0C, 0x02, 0x00, 0x00, 0xFC, 0x00,
  0x00, 0x00, 0xF4, 0x00, 0x00, 0x00, 0xEC, 0x00, 0x00, 0x00,
  0xE4, 0x00, 0x00, 0x00, 0xDC, 0x00, 0x00, 0x00, 0xD4, 0x00,
  0x00, 0x00, 0xCC, 0x00, 0x00, 0x00, 0xC4, 0x00, 0x00, 0x00,
  0xBC, 0x00, 0x00, 0x00, 0xB4, 0x00, 0x00, 0x00, 0xAC, 0x00,
  0x00, 0x00, 0xA4, 0x00, 0x00, 0x00, 0x9C, 0x00, 0x00, 0x00,
  0x94, 0x00, 0x00, 0x00, 0x8C, 0x00, 0x00, 0x00, 0x6C, 0x00,
  0x00, 0x00, 0x04, 0x00, 0x00, 0x00, 0x36, 0xD3, 0xFF, 0xFF,
  0x04, 0x00, 0x00, 0x00, 0x58, 0x00, 0x00, 0x00, 0x0C, 0x00,
  0x00, 0x00, 0x08, 0x00, 0x0E, 0x00, 0x08, 0x00, 0x04, 0x00,
  0x08, 0x00, 0x00, 0x00, 0x10, 0x00, 0x00, 0x00, 0x28, 0x00,
  0x00, 0x00, 0x00, 0x00, 0x06, 0x00, 0x08, 0x00, 0x04, 0x00,
  0x06, 0x00, 0x00, 0x00, 0x04, 0x00, 0x00, 0x00, 0x01, 0x00,
  0x00, 0x00, 0xEB, 0x03, 0x00, 0x00, 0x00, 0x00, 0x0A, 0x00,
  0x10, 0x00, 0x0C, 0x00, 0x08, 0x00, 0x04, 0x00, 0x0A, 0x00,
  0x00, 0x00, 0x02, 0x00, 0x00, 0x00, 0x02, 0x00, 0x00, 0x00,
  0x04, 0x00, 0x00, 0x00, 0x06, 0x00, 0x00, 0x00, 0x32, 0x2E,
  0x31, 0x31, 0x2E, 0x30, 0x00, 0x00, 0x9A, 0xD3, 0xFF, 0xFF,
  0x04, 0x00, 0x00, 0x00, 0x10, 0x00, 0x00, 0x00, 0x32, 0x2E,
  0x32, 0x2E, 0x30, 0x00, 0x00, 0x00, 0x00, 0x00, 0x00, 0x00,
  0x00, 0x00, 0x00, 0x00, 0x70, 0xB9, 0xFF, 0xFF, 0x74, 0xB9,
  0xFF, 0xFF, 0x78, 0xB9, 0xFF, 0xFF, 0x7C, 0xB9, 0xFF, 0xFF,
  0x80, 0xB9, 0xFF, 0xFF, 0x84, 0xB9, 0xFF, 0xFF, 0x88, 0xB9,
  0xFF, 0xFF, 0x8C, 0xB9, 0xFF, 0xFF, 0x90, 0xB9, 0xFF, 0xFF,
  0x94, 0xB9, 0xFF, 0xFF, 0x98, 0xB9, 0xFF, 0xFF, 0x9C, 0xB9,
  0xFF, 0xFF, 0xA0, 0xB9, 0xFF, 0xFF, 0xA4, 0xB9, 0xFF, 0xFF,
  0xEE, 0xD3, 0xFF, 0xFF, 0x04, 0x00, 0x00, 0x00, 0x00, 0x01,
  0x00, 0x00, 0x60, 0xDD, 0x3E, 0x39, 0x5D, 0x61, 0xFB, 0x81,
  0x46, 0xB8, 0xA6, 0x37, 0x37, 0xE9, 0x59, 0x51, 0xE0, 0x2C,
  0xCF, 0x81, 0x22, 0x3B, 0x53, 0xBA, 0xF3, 0x3B, 0x51, 0x45,
  0x8A, 0x4B, 0x11, 0x65, 0x4A, 0x08, 0xEB, 0xD2, 0x76, 0xDF,
  0x50, 0x94, 0x68, 0x50, 0xBD, 0xBD, 0x7F, 0x96, 0x96, 0x13,
  0xBA, 0x47, 0xA8, 0xD2, 0xBC, 0xEF, 0xEE, 0xE7, 0xDC, 0xA5,
  0x3C, 0x24, 0x44, 0xE9, 0x7F, 0x73, 0x57, 0x81, 0x86, 0x1F,
  0xDF, 0xB0, 0xC5, 0x4B, 0x0B, 0xDE, 0x3A, 0x0A, 0x53, 0x22,
  0x45, 0xF2, 0xFD, 0x7B, 0x35, 0xB9, 0xA0, 0x53, 0x2E, 0x81,
  0x21, 0x7C, 0x3D, 0xE1, 0x07, 0xE6, 0xBA, 0x90, 0x2A, 0x1F,
  0xE7, 0xDB, 0xF9, 0xF7, 0x91, 0x81, 0x3D, 0x4F, 0xF3, 0xF4,
  0x5D, 0x01, 0x2D, 0xC5, 0x7F, 0x1B, 0xED, 0xED, 0x26, 0xA2,
  0xB1, 0xCC, 0x0E, 0xC7, 0xEA, 0x02, 0x07, 0xDD, 0x0A, 0x04,
  0x81, 0x4C, 0xE4, 0x84, 0xA4, 0x47, 0x44, 0x1F, 0xBD, 0x0A,
  0x4B, 0x51, 0x84, 0x3A, 0xE6, 0x47, 0xEA, 0xDB, 0xFD, 0x3C,
  0xDD, 0xB3, 0x8F, 0x5C, 0xA8, 0x81, 0xB0, 0xDF, 0xD5, 0xE2,
  0xAE, 0xEF, 0x2B, 0x7F, 0x32, 0x2D, 0x4C, 0x3F, 0x46, 0xCA,
  0x44, 0x34, 0xFE, 0xD7, 0xA8, 0xD0, 0x01, 0x0E, 0x18, 0xEF,
  0x17, 0x37, 0x09, 0x2F, 0x42, 0x75, 0x0A, 0x12, 0x10, 0x03,
  0xB9, 0x81, 0xAA, 0xBA, 0xD1, 0xE9, 0x21, 0x45, 0x18, 0xCF,
  0xEF, 0x3C, 0xFA, 0xA6, 0x9C, 0xE9, 0x7F, 0x27, 0x1C, 0xD5,
  0xD0, 0xDA, 0x17, 0x3D, 0xA8, 0x0C, 0x5F, 0xDD, 0xB7, 0xC3,
  0x7F, 0x6C, 0x0F, 0xB6, 0xDA, 0x22, 0xF4, 0xFB, 0xDF, 0xDE,
  0x4B, 0x7F, 0x4A, 0x33, 0x2E, 0x2F, 0x02, 0xC4, 0x1A, 0xCC,
  0xD8, 0xD6, 0xFE, 0x35, 0xA8, 0x81, 0x35, 0xB1, 0x0C, 0xBE,
  0xBC, 0x1B, 0x68, 0x4A, 0xD9, 0x56, 0x34, 0xC2, 0xFA, 0xD4,
  0xFF, 0xFF, 0x04, 0x00, 0x00, 0x00, 0x40, 0x00, 0x00, 0x00,
  0x1B, 0xC8, 0xFF, 0xFF, 0xBD, 0xB5, 0xFF, 0xFF, 0x5F, 0xFD,
  0xFF, 0xFF, 0xFF, 0x00, 0x00, 0x00, 0x62, 0xFC, 0xFF, 0xFF,
  0x2B, 0x01, 0x00, 0x00, 0x6F, 0x13, 0x00, 0x00, 0x6B, 0x18,
  0x00, 0x00, 0xE9, 0x1A, 0x00, 0x00, 0x04, 0x2B, 0x00, 0x00,
  0x61, 0x3A, 0xFF, 0xFF, 0x9C, 0xFC, 0xFF, 0xFF, 0x69, 0xFD,
  0xFF, 0xFF, 0xB8, 0xF9, 0xFF, 0xFF, 0x4C, 0xC8, 0xFF, 0xFF,
  0xA8, 0xFA, 0xFF, 0xFF, 0x46, 0xD5, 0xFF, 0xFF, 0x04, 0x00,
  0x00, 0x00, 0x00, 0x08, 0x00, 0x00, 0xEB, 0xE9, 0xE2, 0x2A,
  0xCC, 0x0B, 0xF2, 0xC5, 0x07, 0x1F, 0x2B, 0x3E, 0x6C, 0x1C,
  0xDB, 0x9B, 0xF3, 0x1F, 0xF3, 0x22, 0x17, 0x4B, 0x32, 0x0E,
  0xBC, 0x10, 0x38, 0x01, 0x46, 0xFF, 0xFB, 0x3A, 0x25, 0x2B,
  0xFC, 0x4B, 0x0E, 0x1D, 0x30, 0x49, 0xD7, 0x4B, 0x0B, 0x45,
  0x47, 0x24, 0x03, 0x08, 0x00, 0x21, 0xE8, 0x0D, 0x5A, 0xB6,
  0x06, 0x12, 0x03, 0x5E, 0x1F, 0x0C, 0x49, 0x1E, 0x03, 0x42,
  0x27, 0x11, 0xDD, 0x3C, 0x03, 0x28, 0xDA, 0x16, 0xFF, 0x4B,
  0xF0, 0x0A, 0x36, 0x52, 0xE2, 0xCB, 0x29, 0xE0, 0xFC, 0x2F,
  0x11, 0x42, 0x41, 0x02, 0xD1, 0x5A, 0x35, 0x12, 0x21, 0x1D,
  0xEC, 0x35, 0xFF, 0x0F, 0xEC, 0x10, 0x1B, 0xD6, 0x1B, 0x04,
  0xF9, 0x4A, 0x36, 0x4D, 0x26, 0x0B, 0x29, 0x1F, 0x07, 0xEC,
  0x02, 0x00, 0x46, 0xF8, 0xFC, 0xF4, 0xD8, 0x36, 0x0E, 0x40,
  0x25, 0xF4, 0x0B, 0x47, 0xF0, 0x07, 0x09, 0x3D, 0x4A, 0x2B,
  0xC4, 0xF7, 0x04, 0x50, 0x0B, 0x11, 0x37, 0xF5, 0xFB, 0x3A,
  0x1D, 0xEC, 0x00, 0x31, 0x2D, 0xE9, 0x16, 0x18, 0x22, 0x14,
  0xF9, 0x2D, 0x20, 0xD3, 0x25, 0x66, 0xEF, 0x2F, 0xF8, 0x04,
  0x17, 0xEB, 0xD1, 0x19, 0x29, 0x3F, 0x0F, 0x3F, 0xE5, 0x35,
  0x02, 0x7A, 0xF8, 0x41, 0xFA, 0x11, 0x43, 0xBD, 0xFE, 0x45,
  0x4A, 0x4C, 0x43, 0x0A, 0xED, 0x1E, 0x13, 0x67, 0x21, 0xE1,
  0xFB, 0xF6, 0x24, 0x1D, 0xFB, 0x45, 0xCC, 0x32, 0xFE, 0xE2,
  0xC1, 0x2F, 0x23, 0xFE, 0x06, 0x02, 0x0B, 0xCE, 0xB9, 0x1A,
  0x32, 0x3A, 0xEE, 0x16, 0xFC, 0x11, 0xE6, 0xEB, 0x01, 0x22,
  0x18, 0x1B, 0x2C, 0xE2, 0xB2, 0xC1, 0x13, 0x34, 0x0B, 0x4F,
  0x21, 0xC0, 0xFA, 0x11, 0xF6, 0x56, 0x19, 0xEA, 0xED, 0xE9,
  0x04, 0xBC, 0x28, 0x50, 0x2D, 0x39, 0x08, 0x10, 0xE2, 0x14,
  0x24, 0x7F, 0xEE, 0xD9, 0x0A, 0xD7, 0x20, 0x21, 0x47, 0x5B,
  0xE1, 0x18, 0x36, 0x3D, 0x47, 0x18, 0x17, 0xC8, 0xED, 0xD6,
  0xEC, 0xDF, 0xFE, 0xFC, 0x1A, 0x56, 0xE9, 0x0C, 0x0A, 0x16,
  0x33, 0x1A, 0x34, 0xDF, 0xDB, 0xE2, 0xFD, 0xE9, 0xEC, 0xFF,
  0xE1, 0x19, 0x07, 0xD7, 0x19, 0x1D, 0x1B, 0x30, 0xFA, 0xE2,
  0xF1, 0xE5, 0xDA, 0x06, 0xF9, 0xE7, 0xED, 0x19, 0xFD, 0xBE,
  0x0F, 0x0D, 0x23, 0x33, 0x07, 0xE8, 0xDF, 0x0F, 0x06, 0x02,
  0x21, 0x1B, 0x4D, 0x4B, 0xE9, 0xFA, 0x21, 0x15, 0x31, 0xE3,
  0x0D, 0xC6, 0xE2, 0xF0, 0xE7, 0x18, 0x00, 0xC3, 0xFD, 0x35,
  0x07, 0xF4, 0xE4, 0xF6, 0x3C, 0xDB, 0xF4, 0xE9, 0x0A, 0xEA,
  0xDD, 0x06, 0x01, 0xC6, 0xF9, 0x20, 0xED, 0xDD, 0xF5, 0x03,
  0x2A, 0x2B, 0x04, 0x18, 0x0B, 0x03, 0x02, 0x15, 0x0E, 0xEC,
  0xD7, 0x17, 0x1D, 0xED, 0xFA, 0x12, 0x0C, 0x11, 0xDF, 0xEF,
  0xF0, 0x1A, 0xE4, 0x29, 0x0B, 0xD6, 0x1A, 0x52, 0x0E, 0xF1,
  0x16, 0x0F, 0x0F, 0xF1, 0x2B, 0xEB, 0x0A, 0x17, 0xE2, 0x18,
  0x2C, 0x81, 0x09, 0x42, 0xEA, 0x0D, 0xE0, 0xF4, 0x17, 0xDB,
  0x0C, 0x0E, 0xF3, 0x17, 0xF1, 0x36, 0x16, 0x96, 0xFB, 0xFA,
  0xFE, 0xE6, 0xFE, 0xD9, 0xF7, 0x07, 0xE7, 0x25, 0x0B, 0x12,
  0xE7, 0x0B, 0x1A, 0xE7, 0x01, 0x04, 0x0B, 0xE4, 0xE5, 0xFD,
  0x0E, 0xFF, 0xEF, 0x05, 0xD8, 0x0C, 0xE9, 0x1D, 0xFD, 0xE5,
  0x2E, 0x34, 0x1A, 0x34, 0xF0, 0x18, 0xD4, 0xE9, 0x09, 0x13,
  0x09, 0x1E, 0xEB, 0x29, 0x37, 0x8D, 0xEC, 0x18, 0x06, 0x21,
  0xF3, 0xDF, 0xF7, 0xFC, 0xFF, 0x14, 0xE5, 0xFD, 0xF7, 0x17,
  0x09, 0x8B, 0xE4, 0xC7, 0x15, 0x14, 0xD9, 0x0D, 0xF9, 0x23,
  0x12, 0xF1, 0xDF, 0xF8, 0xD0, 0x1D, 0x32, 0xF9, 0xDA, 0xB5,
  0xF8, 0x02, 0xF7, 0x10, 0x13, 0x1F, 0xFA, 0xFD, 0xEB, 0x10,
  0xEE, 0x0D, 0x3A, 0x19, 0x9F, 0x14, 0x07, 0x8B, 0x1D, 0x27,
  0x26, 0xFD, 0xFF, 0x1E, 0xF5, 0x0A, 0xFE, 0x0B, 0xEB, 0x26,
  0xEA, 0x05, 0x0B, 0xAB, 0x18, 0x31, 0x17, 0x0C, 0x14, 0x32,
  0x0B, 0x08, 0x01, 0xDE, 0xC3, 0xFD, 0xF8, 0xFE, 0xD6, 0x11,
  0x20, 0x15, 0xE6, 0xEA, 0x04, 0x32, 0x01, 0x04, 0xEF, 0x08,
  0xE7, 0xC3, 0xA6, 0x44, 0xF8, 0x7F, 0x23, 0x1B, 0xC9, 0xF6,
  0xF2, 0xDC, 0xF9, 0xE9, 0xF7, 0x16, 0xE0, 0x06, 0xF3, 0x54,
  0x20, 0xCC, 0xE2, 0xED, 0x36, 0x21, 0xD8, 0xEB, 0x03, 0x17,
  0xF4, 0x18, 0x99, 0xFC, 0xF8, 0x26, 0x1B, 0xE9, 0x0A, 0x09,
  0x06, 0x26, 0x0E, 0x2C, 0xFC, 0x0C, 0x0C, 0xF4, 0xD7, 0xFF,
  0x15, 0x23, 0xCE, 0xCF, 0xEF, 0xFF, 0x01, 0xDE, 0x0F, 0x1F,
  0x10, 0xFF, 0x08, 0xF8, 0xF7, 0xCA, 0xC8, 0x3F, 0xF2, 0x7E,
  0x07, 0x0F, 0xE4, 0x19, 0xF1, 0x24, 0xF4, 0xE0, 0xF6, 0x2E,
  0xF0, 0x0A, 0x0C, 0x11, 0x2D, 0x8D, 0xC1, 0xF9, 0x12, 0x21,
  0xC5, 0xE3, 0x09, 0x12, 0xF2, 0x29, 0xC7, 0x12, 0xF5, 0x1C,
  0x17, 0xD3, 0xF3, 0xFB, 0x31, 0x12, 0xED, 0xF5, 0x13, 0xF8,
  0xFE, 0xE6, 0xED, 0x04, 0x04, 0xF5, 0xDD, 0xB7, 0xE7, 0x1A,
  0xE1, 0x07, 0x0C, 0xE5, 0x01, 0x11, 0xEC, 0x00, 0xDC, 0xC2,
  0xB9, 0x21, 0xF6, 0x8D, 0x08, 0x17, 0xF6, 0x2C, 0xEC, 0xAE,
  0xEA, 0xFC, 0x05, 0x06, 0x14, 0x10, 0xF8, 0x15, 0x2C, 0x8D,
  0xA8, 0xDA, 0xF6, 0x10, 0xEA, 0xB7, 0xF7, 0xF4, 0xF2, 0xFC,
  0xE3, 0xF7, 0xE2, 0x10, 0x26, 0xEE, 0x02, 0x0A, 0x16, 0x01,
  0xF4, 0xD0, 0xED, 0xEE, 0xF5, 0xF7, 0xF9, 0x12, 0x03, 0xC8,
  0x02, 0xFC, 0xF6, 0xF7, 0xFF, 0x06, 0x00, 0xD7, 0xF4, 0x0F,
  0xEC, 0x0C, 0xE9, 0xB0, 0xD7, 0x03, 0xED, 0xDA, 0xF0, 0x0A,
  0x0B, 0x30, 0xFA, 0xBA, 0x06, 0x08, 0xFA, 0x0E, 0xFA, 0x00,
  0xE6, 0xEC, 0x0A, 0x70, 0xF2, 0xF0, 0xE2, 0x08, 0xF2, 0xE4,
  0x08, 0x01, 0xF7, 0x0D, 0x04, 0x16, 0x02, 0xE7, 0x0D, 0x22,
  0xF7, 0xF0, 0xE0, 0x15, 0xFC, 0xFB, 0x07, 0x03, 0x0A, 0x0B,
  0xEE, 0x13, 0x14, 0xDE, 0x0C, 0x48, 0x09, 0xF9, 0xE1, 0x01,
  0x04, 0xE5, 0x0B, 0xFF, 0xFF, 0xF7, 0xF2, 0x00, 0x10, 0xD8,
  0xEF, 0x4A, 0x07, 0x06, 0xD7, 0xF2, 0x07, 0xCD, 0xFC, 0x03,
  0x07, 0x0B, 0xFB, 0x03, 0xE8, 0xE6, 0x0B, 0x1E, 0xF4, 0x08,
  0xF3, 0x08, 0x06, 0xF9, 0x02, 0xFA, 0x0A, 0x00, 0x0C, 0x17,
  0xFE, 0xE4, 0x05, 0xDF, 0x02, 0x0D, 0xF1, 0x09, 0xFA, 0x10,
  0x06, 0x05, 0xFB, 0x08, 0x0B, 0x0F, 0xFE, 0xDD, 0x06, 0xF7,
  0x03, 0x02, 0xE1, 0xFC, 0x01, 0xF9, 0xFA, 0xFD, 0x0D, 0xFF,
  0xDD, 0xFB, 0x02, 0xE2, 0xF9, 0x01, 0x01, 0xFB, 0xCD, 0xF6,
  0xF8, 0xE3, 0x0B, 0xF8, 0xFD, 0xEB, 0xE5, 0x17, 0xF4, 0xFF,
  0xF8, 0x02, 0x03, 0x07, 0xED, 0x02, 0x05, 0x06, 0x03, 0x00,
  0x04, 0xFD, 0xF8, 0x15, 0xF4, 0x09, 0xEF, 0xC0, 0xFF, 0x08,
  0x0A, 0x00, 0x09, 0x0D, 0xF8, 0x07, 0x00, 0x00, 0x02, 0x0F,
  0x03, 0x02, 0xF6, 0xDA, 0x06, 0x0C, 0xE1, 0x05, 0x05, 0xFD,
  0x0A, 0xFF, 0x03, 0xF6, 0xEA, 0xFB, 0x01, 0xFD, 0xF5, 0xC8,
  0x00, 0x05, 0xEA, 0xEF, 0x05, 0xF5, 0xFE, 0x07, 0x03, 0xE9,
  0xE0, 0x0F, 0xF8, 0x12, 0xFB, 0xB3, 0x02, 0x04, 0xF6, 0x00,
  0xF9, 0x05, 0xFD, 0xFC, 0x06, 0xF7, 0xF4, 0x11, 0x02, 0x00,
  0xEF, 0xA3, 0x0A, 0xFE, 0xF6, 0xF8, 0x02, 0x19, 0x05, 0xF6,
  0x03, 0xEF, 0xF5, 0x05, 0x16, 0xFD, 0xFE, 0xAE, 0xFC, 0x06,
  0xDB, 0xF9, 0x07, 0x0E, 0xF9, 0xF7, 0xFE, 0xE2, 0xEC, 0xFA,
  0x1C, 0x01, 0xF5, 0x81, 0x01, 0x04, 0xE6, 0xF8, 0xFE, 0x0C,
  0x04, 0xFC, 0x03, 0xB3, 0xD5, 0xD1, 0xB6, 0xD1, 0xCF, 0xD4,
  0xE1, 0x10, 0xFD, 0xD0, 0xF2, 0x50, 0x17, 0x15, 0xEE, 0xF2,
  0xEA, 0xE1, 0x20, 0xF1, 0xFD, 0xDA, 0xF2, 0x1C, 0x15, 0x08,
  0x04, 0x15, 0x0C, 0x15, 0x08, 0x02, 0xDD, 0x16, 0xF5, 0xD3,
  0x0E, 0xBC, 0xEB, 0x30, 0x15, 0x04, 0x1D, 0x9B, 0xFD, 0x21,
  0x02, 0x37, 0xFC, 0x18, 0x19, 0x9E, 0x04, 0x81, 0x06, 0x1D,
  0xA0, 0x3B, 0x04, 0xBF, 0xF8, 0xF1, 0xFA, 0xDB, 0xAB, 0xD3,
  0xB7, 0xEA, 0xD4, 0xF4, 0xEA, 0xDD, 0xE3, 0x0E, 0xF0, 0x0A,
  0xF4, 0xEB, 0xF8, 0x08, 0xF0, 0xF4, 0x0E, 0x20, 0x1B, 0x07,
  0x10, 0x21, 0xF5, 0xFF, 0xEB, 0xBC, 0x1A, 0xF6, 0x0A, 0xE9,
  0x01, 0x15, 0xD9, 0x0E, 0x26, 0x0A, 0xFD, 0x02, 0x0C, 0x22,
  0xD3, 0xB2, 0x14, 0x1F, 0xF4, 0x42, 0x18, 0x5F, 0xD6, 0xCE,
  0x2E, 0x91, 0xFD, 0xF4, 0xD1, 0x45, 0x02, 0xA9, 0xEC, 0x0A,
  0x16, 0x02, 0xD7, 0xCD, 0xCC, 0xB7, 0xC1, 0xDD, 0x01, 0xE1,
  0x9F, 0x0C, 0xE4, 0x16, 0xFD, 0xFE, 0xE9, 0x22, 0x05, 0x06,
  0x12, 0x11, 0xEF, 0x05, 0x06, 0x0B, 0xE7, 0xEA, 0xFF, 0xF7,
  0xF4, 0x16, 0x0B, 0x1A, 0x2C, 0xE4, 0xCB, 0xEE, 0x07, 0x3F,
  0x29, 0x1A, 0x14, 0xF8, 0x09, 0xB0, 0xF8, 0xF4, 0xF5, 0x27,
  0x1A, 0x11, 0xBC, 0xA7, 0x2B, 0xF5, 0x20, 0x11, 0x05, 0x1B,
  0x07, 0xBC, 0x04, 0xFC, 0xED, 0xF6, 0xE4, 0x0D, 0x01, 0xD7,
  0xC9, 0x35, 0x0F, 0xAF, 0xA8, 0xEF, 0xEF, 0x0D, 0xED, 0xEC,
  0x08, 0x24, 0xC9, 0xEF, 0xE9, 0x39, 0x2C, 0x02, 0x18, 0xC6,
  0xB2, 0xED, 0xE4, 0x00, 0xFA, 0xFE, 0xFD, 0xE0, 0x09, 0xBF,
  0xD2, 0x53, 0x12, 0x39, 0x2F, 0xE5, 0xEF, 0xF6, 0xFC, 0xB0,
  0xE5, 0xEA, 0xD4, 0x0A, 0x28, 0x17, 0x22, 0xD0, 0xF8, 0x36,
  0xFB, 0x26, 0x2A, 0x2C, 0xFD, 0xAE, 0xFE, 0x01, 0x14, 0x1F,
  0x30, 0x40, 0x2D, 0x52, 0x08, 0xF3, 0xD9, 0xFC, 0xE6, 0x10,
  0xD7, 0xEE, 0x07, 0xFA, 0xF8, 0x00, 0x24, 0x11, 0x0D, 0x2C,
  0x16, 0xF2, 0xD8, 0xEC, 0xB4, 0xF0, 0xCD, 0xFC, 0xF7, 0x0E,
  0x06, 0x1F, 0x16, 0x23, 0x20, 0xF0, 0xFA, 0x06, 0xD9, 0xF5,
  0x9D, 0xF9, 0xEC, 0x16, 0x0A, 0x0F, 0x19, 0xF9, 0xE2, 0xF0,
  0xFF, 0xFB, 0xF2, 0x17, 0xE3, 0x34, 0x81, 0x11, 0xED, 0xFE,
  0xEF, 0x02, 0xEB, 0x28, 0x29, 0x23, 0xF9, 0x25, 0x1B, 0xD0,
  0xE4, 0xF8, 0xEB, 0x1A, 0xD5, 0xF8, 0xF0, 0x09, 0x05, 0x20,
  0x21, 0x27, 0xD3, 0xE8, 0x26, 0xFE, 0xE2, 0xF1, 0xA7, 0xEC,
  0xEA, 0xF8, 0x16, 0xF7, 0x1A, 0x12, 0x17, 0x15, 0xFF, 0xC3,
  0xE2, 0x40, 0x09, 0x07, 0xB7, 0x01, 0xF7, 0x24, 0xFE, 0xEF,
  0x04, 0xD5, 0xC5, 0xE0, 0xEC, 0xD1, 0xEE, 0x5C, 0xF1, 0x09,
  0xCF, 0xFB, 0xEB, 0xD8, 0xE7, 0x02, 0xE9, 0x21, 0x13, 0x0B,
  0xBC, 0x2C, 0x10, 0x0E, 0xEF, 0xDF, 0x2C, 0x23, 0xF2, 0x0F,
  0x04, 0xEE, 0xF3, 0x0C, 0x1F, 0x22, 0xC4, 0xF9, 0x13, 0xFD,
  0x18, 0xEB, 0xD7, 0x1E, 0x10, 0xFA, 0x1B, 0x0F, 0xFA, 0xE9,
  0xE1, 0xEA, 0xFF, 0xE3, 0xFE, 0x31, 0x0B, 0xD5, 0xF3, 0xE4,
  0x05, 0x1D, 0x13, 0x0B, 0xF2, 0xD5, 0xBB, 0xAD, 0xF9, 0xFB,
  0xD7, 0x47, 0xEF, 0xEF, 0x05, 0xE9, 0x07, 0xB7, 0xEF, 0x15,
  0xF5, 0x38, 0x33, 0x1E, 0x09, 0x15, 0xF6, 0x09, 0x04, 0xE5,
  0x33, 0x23, 0x14, 0x0D, 0x04, 0xF3, 0xE5, 0x30, 0xFA, 0x0D,
  0x03, 0x05, 0x36, 0x0D, 0x1E, 0xEC, 0x16, 0x06, 0x0B, 0xE6,
  0xED, 0x0B, 0x00, 0xEE, 0xC9, 0xEE, 0x1E, 0xE6, 0xE8, 0xF1,
  0x0B, 0xE6, 0x01, 0xF0, 0x15, 0xE1, 0xF9, 0xFC, 0x07, 0xBB,
  0xB0, 0xD1, 0x19, 0x07, 0xC3, 0xF8, 0x1B, 0xDD, 0xAC, 0xD1,
  0x16, 0xA5, 0xF6, 0x08, 0xE0, 0x89, 0xE8, 0x98, 0x14, 0x04,
  0x06, 0x36, 0x2A, 0xC6, 0x23, 0xB9, 0x25, 0x38, 0xDE, 0x03,
  0xF5, 0xA9, 0x81, 0xBE, 0xFF, 0xEF, 0x0A, 0x2C, 0x0B, 0xEA,
  0xF3, 0xE9, 0xE9, 0x16, 0xE5, 0xE5, 0xEC, 0xDC, 0xA5, 0x01,
  0x08, 0xDF, 0x05, 0x1C, 0xFE, 0xE8, 0xA6, 0xF8, 0x16, 0x1F,
  0xFA, 0xC4, 0x09, 0xE5, 0x99, 0xE7, 0x00, 0xE4, 0x10, 0x14,
  0x10, 0x17, 0xCA, 0x01, 0x20, 0x00, 0x11, 0x01, 0x01, 0xC1,
  0x1F, 0xAF, 0xFE, 0x15, 0x00, 0x60, 0xF4, 0xFA, 0x0F, 0x9B,
  0xF8, 0x4F, 0xEC, 0xF1, 0xFC, 0x08, 0xB3, 0xB1, 0xF8, 0xE4,
  0x0B, 0x56, 0xE4, 0xFB, 0x10, 0xB0, 0xBB, 0xD1, 0x03, 0xF9,
  0x0F, 0x0F, 0xAA, 0x09, 0xDC, 0x2F, 0xEB, 0x2B, 0x15, 0xEC,
  0xC8, 0xEA, 0x12, 0x0D, 0xFD, 0xB7, 0xEA, 0x08, 0xDB, 0x29,
  0x07, 0x29, 0xF3, 0x1D, 0xF3, 0x11, 0xD1, 0x07, 0xE7, 0xFF,
  0xF4, 0xF1, 0x15, 0x05, 0x13, 0xDC, 0x09, 0x10, 0xE7, 0x04,
  0x08, 0xF3, 0xD8, 0xC4, 0x28, 0x2F, 0xF9, 0xE1, 0xDD, 0x1B,
  0x00, 0x9D, 0xE4, 0xEF, 0x01, 0x1E, 0x0F, 0xE8, 0xEC, 0xBE,
  0xE2, 0xEF, 0xEE, 0xFB, 0xF6, 0xFA, 0x0E, 0x0A, 0xDE, 0x23,
  0xF5, 0x3B, 0xED, 0x0A, 0xFD, 0xDC, 0xDD, 0x23, 0xD6, 0xE6,
  0xE9, 0x1C, 0xEC, 0x21, 0x0A, 0x38, 0x22, 0x0D, 0xCF, 0x1F,
  0xDA, 0x09, 0xF3, 0x0D, 0xF9, 0xF0, 0x09, 0x3D, 0x04, 0xE0,
  0x28, 0xFE, 0x01, 0x1E, 0x04, 0x02, 0xD6, 0xB2, 0x30, 0x06,
  0xF9, 0xF0, 0xFA, 0x0D, 0x27, 0xB7, 0x02, 0x14, 0x17, 0xF0,
  0xEB, 0x13, 0xFF, 0xEB, 0x02, 0xF8, 0xE3, 0xEC, 0xF8, 0x16,
  0x2E, 0x00, 0x23, 0x2B, 0x08, 0x0D, 0xF0, 0x1D, 0x2C, 0x11,
  0x20, 0x1A, 0xF7, 0x0A, 0x0E, 0x09, 0xFE, 0x14, 0x1B, 0x47,
  0x02, 0x18, 0xF0, 0x12, 0xED, 0x19, 0x1F, 0xE6, 0xF0, 0xF1,
  0xED, 0x41, 0xEF, 0x1B, 0x17, 0xAF, 0x2F, 0x15, 0xF7, 0x09,
  0x56, 0x41, 0x23, 0x81, 0xEA, 0x16, 0xEC, 0x2A, 0x2B, 0x21,
  0x3F, 0xE3, 0xEF, 0xE4, 0xDD, 0xFB, 0x62, 0x2F, 0x15, 0xD4,
  0x04, 0xE9, 0x0F, 0x30, 0x51, 0xFA, 0x34, 0xF4, 0x0F, 0xC8,
  0xEA, 0xFB, 0x4F, 0x0B, 0xEF, 0xBC, 0xE0, 0x15, 0xFA, 0xDF,
  0x1B, 0x20, 0x22, 0x30, 0xDD, 0xB3, 0xE5, 0x03, 0x27, 0xE6,
  0x18, 0xB9, 0x15, 0x0D, 0xE1, 0x1C, 0x08, 0x46, 0x22, 0xFA,
  0x28, 0x1B, 0x09, 0x3A, 0x2E, 0x2E, 0xF6, 0xA9, 0xFD, 0x09,
  0xFF, 0x37, 0x1B, 0x48, 0x20, 0xDD, 0xF0, 0xF5, 0xEC, 0x50,
  0x66, 0x2D, 0xF0, 0xF1, 0xE0, 0xF7, 0x18, 0x00, 0x42, 0x03,
  0x2C, 0xFA, 0xEA, 0xBC, 0x0C, 0x2B, 0x3D, 0x3B, 0xFB, 0xF9,
  0xD9, 0x14, 0xF4, 0x06, 0x5A, 0xF7, 0x2F, 0x44, 0xE6, 0xC0,
  0x0E, 0x36, 0x55, 0x11, 0xF9, 0xE2, 0xFF, 0xDD, 0x00, 0x1D,
  0xF6, 0x3C, 0xF1, 0x32, 0x2D, 0x45, 0x31, 0x1E, 0x3D, 0x1C,
  0x0B, 0xD9, 0x0C, 0xFB, 0x07, 0x21, 0x3B, 0x3C, 0x30, 0x2A,
  0xED, 0x0F, 0x27, 0x04, 0x5D, 0xE8, 0x06, 0x0B, 0x19, 0x1F,
  0x25, 0x0F, 0x54, 0xEA, 0x48, 0x35, 0xFA, 0xF5, 0x26, 0x0A,
  0x3B, 0x21, 0xDC, 0x16, 0xDE, 0x0A, 0xF2, 0x21, 0x64, 0xED,
  0x34, 0x68, 0xFF, 0xE2, 0x17, 0x25, 0x30, 0xE9, 0x13, 0x1C,
  0x08, 0xD7, 0xE6, 0xBD, 0xCC, 0x32, 0xEA, 0x34, 0x05, 0x5E,
  0x11, 0x27, 0xE9, 0x20, 0x07, 0xAC, 0xF6, 0xF3, 0xFA, 0xF1,
  0xF1, 0x37, 0xF0, 0x15, 0x04, 0x4D, 0xFD, 0xF2, 0x1A, 0xF5,
  0xFC, 0xC7, 0xF7, 0xEA, 0xE9, 0x27, 0xF5, 0x17, 0x12, 0x2F,
  0x18, 0x02, 0x2C, 0xE5, 0x00, 0x0A, 0xD2, 0xE6, 0x13, 0x14,
  0x27, 0xCF, 0x05, 0xE9, 0x18, 0x3B, 0xFF, 0xDC, 0x17, 0xF6,
  0xEE, 0xFF, 0xE7, 0xEC, 0x52, 0xDD, 0xFF, 0xFF, 0x04, 0x00,
  0x00, 0x00, 0x20, 0x00, 0x00, 0x00, 0xF6, 0xF2, 0xFF, 0xFF,
  0x40, 0xFC, 0xFF, 0xFF, 0x30, 0x02, 0x00, 0x00, 0x92, 0x00,
  0x00, 0x00, 0xC7, 0x01, 0x00, 0x00, 0x72, 0x00, 0x00, 0x00,
  0x4D, 0x03, 0x00, 0x00, 0x33, 0xFE, 0xFF, 0xFF, 0x7E, 0xDD,
  0xFF, 0xFF, 0x04, 0x00, 0x00, 0x00, 0x00, 0x08, 0x00, 0x00,
  0xE5, 0x16, 0xCB, 0xFB, 0x7F, 0xC0, 0x2D, 0x1C, 0xEB, 0x24,
  0xC9, 0xEA, 0x04, 0x06, 0x29, 0x10, 0xE9, 0x07, 0xC0, 0xDB,
  0x12, 0xE8, 0x0B, 0x0A, 0xE8, 0xE7, 0xC8, 0xCF, 0x51, 0x05,
  0xF3, 0xD8, 0x0C, 0x0A, 0xE4, 0xDE, 0x32, 0xFD, 0x0C, 0x04,
  0xFC, 0x00, 0xDE, 0xDD, 0xD1, 0x03, 0x1E, 0xFC, 0xF0, 0x09,
  0xA1, 0xE4, 0xE6, 0xD4, 0x29, 0xDD, 0x1E, 0xDE, 0x98, 0xEE,
  0x25, 0xD3, 0x05, 0xEE, 0x2C, 0xDF, 0xEB, 0x2C, 0x3E, 0xF5,
  0x06, 0x0F, 0x23, 0xCB, 0xF7, 0x17, 0x10, 0xE3, 0x26, 0x14,
  0x22, 0xEA, 0xD1, 0xFE, 0xEE, 0xE9, 0xFB, 0x06, 0x20, 0xD2,
  0xE4, 0x1B, 0xEE, 0xF2, 0xFB, 0x02, 0x0A, 0xE5, 0x0F, 0x11,
  0x60, 0xE5, 0x1D, 0xDF, 0x23, 0xDA, 0xF9, 0xFE, 0x4C, 0x1E,
  0x09, 0x0A, 0x04, 0xE6, 0x08, 0xF4, 0x26, 0xFB, 0xEF, 0x17,
  0xFB, 0xD8, 0x20, 0xF2, 0x14, 0xEA, 0x05, 0x14, 0x13, 0xC9,
  0x50, 0x09, 0xA5, 0x01, 0x11, 0xBC, 0x1E, 0x01, 0x37, 0xD7,
  0xA9, 0xFC, 0x02, 0xDE, 0x2B, 0xDC, 0x32, 0xC8, 0xEA, 0x06,
  0x21, 0x13, 0x31, 0xD6, 0x21, 0xD7, 0x39, 0xD7, 0xCD, 0x1B,
  0xCB, 0xBA, 0x09, 0xFE, 0xD7, 0x24, 0x35, 0xC1, 0xEB, 0xF8,
  0x34, 0x06, 0xC7, 0x11, 0x25, 0x01, 0xDC, 0xEB, 0x3A, 0x09,
  0xB6, 0x4D, 0x42, 0xF0, 0x14, 0xE8, 0xF9, 0xEE, 0x14, 0xC8,
  0xFF, 0xF0, 0xC4, 0xE0, 0x24, 0x20, 0x2E, 0xC1, 0x27, 0x1C,
  0xD6, 0x19, 0x1C, 0x13, 0xE7, 0x11, 0x2E, 0x17, 0x03, 0xF2,
  0x17, 0xCE, 0xE8, 0x1A, 0x09, 0x0F, 0xE0, 0xEF, 0xE6, 0xD9,
  0xFB, 0xB0, 0xF6, 0xE5, 0xE0, 0xF2, 0x46, 0xE8, 0xC9, 0xCF,
  0xFA, 0x19, 0xEF, 0xF6, 0x24, 0x19, 0xC6, 0xC6, 0xFF, 0xF2,
  0x1B, 0xF7, 0xF6, 0x06, 0xDC, 0xDB, 0x2A, 0xF2, 0x10, 0xEA,
  0x81, 0xDB, 0xFF, 0xFE, 0xFD, 0x3E, 0x4C, 0x45, 0xCE, 0xBF,
  0x8C, 0xF2, 0xEB, 0x2C, 0xDD, 0x44, 0x62, 0x10, 0xD9, 0xF1,
  0xB9, 0xEE, 0x21, 0xC7, 0x7F, 0xC4, 0xDB, 0xD9, 0x98, 0x07,
  0x1E, 0x54, 0x71, 0xEB, 0x31, 0x1F, 0xE5, 0x13, 0x38, 0x32,
  0xF8, 0xAC, 0xE5, 0xBF, 0xB9, 0x0F, 0xDF, 0x17, 0x4D, 0xB2,
  0xA3, 0xBD, 0xE4, 0x50, 0x01, 0xCD, 0xF2, 0x1D, 0xF3, 0x18,
  0xFF, 0xFF, 0x1B, 0x0D, 0x35, 0x1D, 0x1B, 0x73, 0x0C, 0x29,
  0xB6, 0x35, 0x0F, 0x04, 0x94, 0xE7, 0xD4, 0xC1, 0x48, 0x36,
  0x1A, 0xD8, 0x02, 0xF4, 0xF5, 0x36, 0x02, 0x39, 0x08, 0xEB,
  0xEC, 0x27, 0x9D, 0x0C, 0xFE, 0x49, 0x69, 0x33, 0x26, 0x40,
  0x31, 0x15, 0x16, 0x45, 0xC3, 0x03, 0x8B, 0xFB, 0x31, 0xD3,
  0xEC, 0x3C, 0x0E, 0xF0, 0xCD, 0x24, 0xE3, 0x21, 0xBF, 0x2C,
  0xC4, 0x26, 0x0A, 0x57, 0xFD, 0xF5, 0x22, 0x67, 0xC9, 0xF4,
  0x20, 0x52, 0xFD, 0x1B, 0xFF, 0x06, 0x00, 0x13, 0xC2, 0xC7,
  0x0D, 0xFD, 0xFD, 0xFE, 0xFA, 0x12, 0xBA, 0x13, 0x0F, 0x01,
  0x01, 0xF8, 0xF5, 0x02, 0x81, 0x04, 0x05, 0xFF, 0xF9, 0xF6,
  0x09, 0x00, 0xCE, 0xF7, 0x14, 0x04, 0x0B, 0xF8, 0xDA, 0xFD,
  0xE8, 0xFA, 0xFB, 0x06, 0x04, 0xF1, 0x05, 0xFB, 0xFE, 0x1C,
  0x02, 0x00, 0x0B, 0xFC, 0x1A, 0xF4, 0xF4, 0xFD, 0x07, 0x06,
  0x0B, 0xF4, 0x11, 0xFF, 0xF6, 0xDB, 0x03, 0x04, 0xF8, 0xFE,
  0xE2, 0xFE, 0xFC, 0xF9, 0xCE, 0x0C, 0xFD, 0x01, 0x00, 0xF5,
  0x04, 0x12, 0xF1, 0xFC, 0xF9, 0xFE, 0xF2, 0xFE, 0x0D, 0xFF,
  0x0A, 0x07, 0xE5, 0xE9, 0xFB, 0xF3, 0x02, 0xD6, 0x04, 0x09,
  0x02, 0xE4, 0xE8, 0x01, 0xA9, 0x06, 0xA2, 0x05, 0xEF, 0xF2,
  0x01, 0xF9, 0x8D, 0x08, 0xDD, 0xFE, 0xE1, 0xE9, 0x08, 0x07,
  0xA3, 0x12, 0xF6, 0x01, 0xDB, 0xEA, 0xF4, 0xF0, 0x08, 0xBC,
  0x05, 0xF5, 0x1E, 0xE7, 0x05, 0xFA, 0xFB, 0x86, 0x04, 0xD8,
  0x28, 0xF1, 0x27, 0xE0, 0x0B, 0xFA, 0xC4, 0x1E, 0x15, 0x1B,
  0x08, 0x07, 0xE7, 0xF5, 0x09, 0x00, 0x10, 0xF2, 0x44, 0x13,
  0xC0, 0xFD, 0x6E, 0xCE, 0xEE, 0xE7, 0x17, 0x0D, 0x13, 0xC0,
  0xE1, 0xD9, 0x02, 0xE8, 0x05, 0x0B, 0x00, 0x20, 0x2F, 0xE3,
  0x12, 0xC9, 0x0C, 0xEF, 0xE6, 0xEC, 0xD5, 0x09, 0xFE, 0xFC,
  0x0C, 0x1A, 0xE6, 0xD0, 0x5D, 0xD2, 0x02, 0x08, 0xEE, 0x0F,
  0x2D, 0xD0, 0xAC, 0xD3, 0x10, 0x0F, 0x02, 0x18, 0x1E, 0x16,
  0xFD, 0xE6, 0xF8, 0x0B, 0xFB, 0x04, 0x13, 0x01, 0xB2, 0x1D,
  0x01, 0x0E, 0x3D, 0x0F, 0x24, 0xA4, 0xF4, 0x02, 0xE1, 0x81,
  0xD1, 0xEC, 0x44, 0xBE, 0x8A, 0xE9, 0xF4, 0xD9, 0xFD, 0xFD,
  0x2E, 0x22, 0xD1, 0x17, 0xED, 0xEF, 0x09, 0x10, 0xFF, 0xF6,
  0xBD, 0xF0, 0xEE, 0xE9, 0x38, 0xFE, 0xE3, 0xA2, 0xB4, 0xF9,
  0xF5, 0x07, 0x15, 0xFD, 0x1A, 0xF6, 0xF2, 0xF1, 0xFB, 0x06,
  0x1E, 0xFD, 0xF8, 0xF3, 0xCC, 0xEB, 0x13, 0xE1, 0xE0, 0xF7,
  0x0C, 0x06, 0x81, 0xEC, 0x04, 0x23, 0xE1, 0x0B, 0x1C, 0x0B,
  0xCD, 0xF8, 0x10, 0x00, 0x00, 0xFA, 0xEE, 0x05, 0xA1, 0xFE,
  0x06, 0xFE, 0x01, 0xF9, 0x14, 0x00, 0x8D, 0xFA, 0xF2, 0xE8,
  0xD6, 0x03, 0x11, 0xD0, 0x9B, 0xFF, 0x03, 0xEA, 0xE3, 0x0D,
  0x22, 0xC0, 0xE0, 0xEF, 0x0C, 0xEC, 0x08, 0x01, 0xE4, 0xF9,
  0xE9, 0xF2, 0xF1, 0x0C, 0x08, 0xFA, 0x21, 0xF8, 0xF5, 0xF7,
  0xF5, 0x08, 0xD7, 0x09, 0x1F, 0xC9, 0xD7, 0xDE, 0xFB, 0xD7,
  0xF7, 0x07, 0x0C, 0xD8, 0xF4, 0xF8, 0x04, 0x09, 0x22, 0x0E,
  0xF1, 0x06, 0xDA, 0xEF, 0x14, 0x19, 0x2B, 0x07, 0x1E, 0x10,
  0x1D, 0xF5, 0x08, 0xF8, 0xFD, 0x03, 0x0E, 0x07, 0xD0, 0xF2,
  0x17, 0xD9, 0xF4, 0x10, 0x0A, 0xF9, 0xE1, 0x17, 0x02, 0xC3,
  0x0A, 0xC7, 0x0B, 0x14, 0x0B, 0xEF, 0x07, 0xDE, 0xF4, 0x1C,
  0x46, 0xAC, 0x2C, 0x0F, 0xF1, 0x07, 0xD7, 0x24, 0x2E, 0xF8,
  0x1F, 0x1B, 0x27, 0x33, 0x01, 0x17, 0xF2, 0x34, 0x7F, 0x0E,
  0xF6, 0xD3, 0x1B, 0x13, 0xE6, 0xE7, 0x0A, 0x14, 0x08, 0xD5,
  0x12, 0xE6, 0x36, 0x07, 0x1B, 0xF3, 0x25, 0x1C, 0xFC, 0x02,
  0xF7, 0x2E, 0x29, 0xF6, 0x2C, 0x27, 0x22, 0x0D, 0x2A, 0x2A,
  0x2D, 0x1D, 0xF4, 0xC9, 0x01, 0xDD, 0xFE, 0x0B, 0xE8, 0xF5,
  0x03, 0xF8, 0x35, 0x01, 0x1B, 0xFF, 0x34, 0x08, 0xFC, 0xCB,
  0x06, 0xF8, 0xF1, 0x15, 0x41, 0xEE, 0x16, 0x0C, 0x28, 0x1E,
  0x21, 0xEC, 0x5A, 0x18, 0xE5, 0xED, 0x10, 0x0A, 0xED, 0x21,
  0x5C, 0x05, 0xED, 0xF0, 0xDD, 0xFB, 0xEC, 0xFD, 0x41, 0xFB,
  0xF8, 0xF2, 0xF9, 0xDE, 0xF8, 0xFA, 0x31, 0xE7, 0xE5, 0xEA,
  0x02, 0xE5, 0x08, 0x02, 0x3A, 0xFB, 0x06, 0x00, 0x15, 0xED,
  0xB0, 0x10, 0xF9, 0x04, 0xE9, 0x13, 0xF4, 0xF8, 0xB3, 0x0A,
  0xEB, 0xF6, 0xE7, 0x13, 0x14, 0x04, 0x29, 0x16, 0xF2, 0x05,
  0xF0, 0x1A, 0x00, 0xEF, 0x36, 0x1F, 0xF8, 0x03, 0x11, 0x1A,
  0x01, 0x0D, 0xBD, 0x13, 0xFB, 0x03, 0xEB, 0x10, 0x0B, 0x04,
  0x81, 0x06, 0x09, 0xF1, 0xF2, 0xFD, 0xFF, 0xFD, 0x03, 0xEF,
  0x00, 0x00, 0xFA, 0xF4, 0xE5, 0xEE, 0x1B, 0xFD, 0x00, 0xF4,
  0x10, 0x21, 0x13, 0xFB, 0xC0, 0x1E, 0x02, 0x14, 0xF1, 0x0D,
  0x16, 0x04, 0x8D, 0x0D, 0x0D, 0x04, 0xF6, 0xF8, 0xFD, 0x1E,
  0xDA, 0x02, 0xFA, 0x0D, 0xF7, 0x13, 0xE7, 0x04, 0x0E, 0xFD,
  0x04, 0xFE, 0xF4, 0x08, 0xF8, 0xED, 0xB8, 0x04, 0x0C, 0x0C,
  0xF1, 0x0A, 0x0F, 0xE4, 0xDE, 0xF5, 0x04, 0x07, 0xF2, 0x15,
  0x0C, 0xFB, 0xED, 0xF3, 0x03, 0x15, 0xF2, 0x25, 0xF4, 0xFE,
  0xD2, 0x23, 0x15, 0x00, 0xE3, 0x13, 0xF6, 0x0B, 0x8A, 0x9F,
  0x2D, 0x14, 0xF2, 0x11, 0xBF, 0x0E, 0xC7, 0xA8, 0x22, 0x02,
  0x15, 0x15, 0xAC, 0xE9, 0xFA, 0xCF, 0x0D, 0x10, 0x09, 0x1D,
  0xE0, 0xEE, 0xD7, 0xE0, 0xA8, 0xDB, 0x0A, 0x31, 0x95, 0x18,
  0xBB, 0xAE, 0x28, 0x22, 0xFF, 0x2D, 0x01, 0xEF, 0xD6, 0xA8,
  0x16, 0x0E, 0x23, 0x05, 0x14, 0x06, 0xE6, 0xC6, 0x08, 0x0D,
  0x07, 0x0B, 0x02, 0xFE, 0xE8, 0xC9, 0xE9, 0xFA, 0x02, 0xF9,
  0x9E, 0xFA, 0x81, 0xA4, 0x5F, 0x29, 0xFB, 0x20, 0xC3, 0x0B,
  0xDE, 0xCF, 0x3F, 0x1F, 0x17, 0x13, 0x02, 0x19, 0xF0, 0xF7,
  0x10, 0x13, 0x18, 0x1D, 0x09, 0xD6, 0xD3, 0xD9, 0xD7, 0x08,
  0xF4, 0x06, 0x9D, 0x11, 0x98, 0xB1, 0x6C, 0xDF, 0x08, 0xFB,
  0xC5, 0xFF, 0x0B, 0xCF, 0x1B, 0xF8, 0x25, 0xEA, 0x05, 0x10,
  0xC5, 0x1E, 0xFB, 0xFB, 0x12, 0xF0, 0x1C, 0xFD, 0xD9, 0x0B,
  0x0E, 0xEA, 0xFC, 0x13, 0xFF, 0xF9, 0xDE, 0x03, 0x81, 0x06,
  0x0C, 0x07, 0x26, 0xFA, 0xFE, 0x28, 0xDA, 0xFF, 0x01, 0x31,
  0x00, 0xF8, 0xDA, 0x24, 0xEC, 0x05, 0xFF, 0x1F, 0xFE, 0xFE,
  0xCE, 0x13, 0xE7, 0xF6, 0x0A, 0x07, 0x0E, 0xE9, 0xED, 0x0A,
  0xE3, 0xEC, 0xF5, 0xF1, 0x27, 0xF0, 0x00, 0xFD, 0xC4, 0xEB,
  0xF8, 0x09, 0xF3, 0x0F, 0xF2, 0xF3, 0xDF, 0xFE, 0xE9, 0x1A,
  0xF3, 0xF8, 0xA5, 0xF1, 0xD0, 0x10, 0x0A, 0x01, 0x0C, 0x03,
  0xF1, 0xF9, 0xDD, 0xF4, 0x08, 0xE4, 0x1D, 0xEF, 0x0A, 0x1E,
  0xB1, 0xD0, 0xEF, 0x16, 0x06, 0x13, 0x0E, 0x09, 0xCD, 0xFB,
  0x04, 0x06, 0xEB, 0x0D, 0xCB, 0x08, 0x9A, 0x17, 0x06, 0x06,
  0xCD, 0xFA, 0x09, 0xED, 0x36, 0xE5, 0xEC, 0x09, 0xFA, 0x11,
  0x0E, 0x16, 0x45, 0xCF, 0x08, 0x1F, 0xF4, 0x0B, 0x25, 0x10,
  0xFC, 0xFF, 0x07, 0x0E, 0xEC, 0xFD, 0x08, 0x17, 0xA0, 0x00,
  0xE9, 0x00, 0xF4, 0x06, 0xB3, 0xDC, 0x6F, 0xF1, 0xF3, 0xE7,
  0x34, 0xFE, 0xAD, 0xFB, 0x57, 0xCD, 0xCB, 0x09, 0xDF, 0x01,
  0xD0, 0xBD, 0x65, 0xE2, 0xE4, 0xFD, 0x14, 0x14, 0x07, 0x02,
  0x52, 0x1F, 0xFD, 0xE5, 0x1D, 0x07, 0x95, 0xCD, 0x2E, 0xDE,
  0xE5, 0xEC, 0xF2, 0x10, 0xC1, 0xD5, 0x1D, 0xEE, 0xD6, 0xFE,
  0xCC, 0x05, 0xD6, 0xD4, 0xFF, 0xEB, 0xFC, 0xF5, 0xF1, 0x1C,
  0xFD, 0x2A, 0xF7, 0xFC, 0x00, 0xEB, 0x21, 0x1F, 0xDA, 0x94,
  0x29, 0xFA, 0xFA, 0x1B, 0x0C, 0x00, 0x90, 0x87, 0x17, 0x00,
  0xF0, 0xFA, 0x19, 0x0E, 0xDB, 0x9E, 0xF6, 0xF7, 0x0A, 0x16,
  0xF8, 0x05, 0xED, 0x38, 0xF2, 0x07, 0x15, 0x3E, 0x32, 0x00,
  0xB0, 0x81, 0x24, 0x11, 0x15, 0x22, 0x3A, 0xF4, 0xBC, 0xB8,
  0x03, 0x1C, 0xEA, 0x20, 0x17, 0xDE, 0xFD, 0x0E, 0xD9, 0x26,
  0x11, 0xEC, 0x22, 0xD0, 0xD8, 0x1F, 0xC4, 0x2D, 0xD9, 0xCB,
  0x01, 0xD7, 0x48, 0x01, 0x29, 0x03, 0xC4, 0xE5, 0xE9, 0xD4,
  0xEC, 0xC0, 0x4C, 0xE5, 0xC5, 0xF0, 0x16, 0xD9, 0x3B, 0xE8,
  0x14, 0xD4, 0xDE, 0x14, 0x31, 0xD2, 0x12, 0xE9, 0x24, 0xF1,
  0xFA, 0x1B, 0x1C, 0xE2, 0x7F, 0xF5, 0x16, 0x27, 0xF2, 0x13,
  0xE6, 0x07, 0xE0, 0xE8, 0xFE, 0x25, 0xF1, 0xE7, 0xF9, 0xD2,
  0xDB, 0xFA, 0x21, 0x18, 0xEF, 0xEC, 0xEF, 0xFF, 0x18, 0xF2,
  0x0B, 0xE8, 0xFE, 0x0C, 0x02, 0x1E, 0x53, 0xFD, 0x10, 0xE4,
  0x1E, 0x37, 0x13, 0x34, 0x01, 0x14, 0x19, 0x35, 0xDF, 0x02,
  0xF7, 0xFD, 0xAB, 0x01, 0x09, 0x12, 0x07, 0x10, 0xDE, 0x1E,
  0x1C, 0xDC, 0xEB, 0xDB, 0xCC, 0x08, 0x11, 0x04, 0x37, 0x34,
  0x04, 0xCF, 0xF1, 0x0F, 0xF4, 0x3A, 0x19, 0x1C, 0xF4, 0xF4,
  0xFC, 0x18, 0x13, 0x28, 0xF2, 0x19, 0xD7, 0x02, 0xE6, 0xF6,
  0x18, 0x08, 0xFA, 0x2A, 0x12, 0xDE, 0xD1, 0x13, 0xFB, 0x31,
  0x28, 0x17, 0xD8, 0x23, 0xE6, 0xEE, 0xFA, 0x0C, 0x66, 0x15,
  0x91, 0x05, 0xE4, 0xCF, 0xCF, 0xE9, 0x4D, 0xB4, 0xBA, 0x0F,
  0xED, 0xF7, 0x1C, 0x03, 0x2E, 0xBF, 0x26, 0xED, 0xF2, 0xE3,
  0xD2, 0x24, 0xF6, 0x1E, 0xEC, 0x1A, 0xD3, 0x20, 0x05, 0xD4,
  0xC0, 0xC5, 0xBB, 0x09, 0x02, 0xF9, 0xC2, 0xD9, 0x50, 0x82,
  0xC2, 0x07, 0x0C, 0x2C, 0x06, 0xA4, 0x42, 0xC2, 0x21, 0x08,
  0x0A, 0xF9, 0xEF, 0x0B, 0x21, 0xD8, 0x5F, 0x1E, 0xED, 0x0F,
  0xCD, 0x0D, 0xAD, 0xED, 0x3D, 0x11, 0x1D, 0x0C, 0x8A, 0xF9,
  0xE0, 0xA3, 0x16, 0xD8, 0xF2, 0xF1, 0xDF, 0xBC, 0xDB, 0xCE,
  0x33, 0x08, 0xF7, 0xE0, 0x17, 0xFE, 0x7F, 0xF9, 0x45, 0xFA,
  0x00, 0xEC, 0xEC, 0xE4, 0xFF, 0x19, 0x19, 0x2C, 0xF6, 0xF3,
  0xAD, 0x0A, 0xDD, 0xBC, 0x30, 0xF0, 0x02, 0xE5, 0xEF, 0xF2,
  0xDC, 0xC0, 0x28, 0xEB, 0xE6, 0xF9, 0xDA, 0xAC, 0xE9, 0x81,
  0x2E, 0xFD, 0x01, 0xE9, 0xFB, 0xDE, 0xCE, 0xFE, 0xE7, 0xEC,
  0xF9, 0x13, 0xF3, 0xFD, 0x08, 0x1B, 0xC2, 0x05, 0xC5, 0x9B,
  0xFC, 0x14, 0xE6, 0xDE, 0xC8, 0xCE, 0xF8, 0x1C, 0xEB, 0xD9,
  0xE2, 0xF1, 0x30, 0x29, 0x1A, 0x17, 0xE9, 0x8A, 0x10, 0xBE,
  0x12, 0x1E, 0x12, 0xE6, 0x00, 0xF1, 0xA2, 0x39, 0xFB, 0x30,
  0x12, 0x08, 0x31, 0xF6, 0x0D, 0xE6, 0x2E, 0x17, 0xC9, 0xDE,
  0x11, 0x22, 0xEE, 0xF6, 0x0B, 0x00, 0xD2, 0xE4, 0x02, 0xA5,
  0xFC, 0xE7, 0xF9, 0xFD, 0x0D, 0x08, 0x29, 0xCB, 0xBF, 0x28,
  0x08, 0x13, 0x0A, 0xE6, 0x2E, 0xEF, 0xED, 0xE9, 0xE9, 0xF2,
  0xE5, 0xC2, 0x29, 0x05, 0xC7, 0x57, 0x2E, 0x00, 0xD5, 0x00,
  0xD4, 0x0B, 0xF0, 0x27, 0xF6, 0xE2, 0xE4, 0x07, 0x2D, 0xA9,
  0xCE, 0x38, 0x1C, 0x1E, 0xFA, 0xED, 0x1A, 0xD5, 0x06, 0xE3,
  0x1A, 0x13, 0x1B, 0xCA, 0xBB, 0x17, 0x06, 0xF1, 0x5E, 0x1B,
  0x0F, 0xB8, 0xB5, 0x07, 0xA6, 0xD5, 0xC6, 0x13, 0xDA, 0xEB,
  0xBD, 0xF6, 0x2F, 0xE4, 0xD9, 0xF4, 0x02, 0x27, 0xDC, 0x26,
  0xDE, 0xE7, 0x92, 0x01, 0x0D, 0xB1, 0xD4, 0x13, 0xE5, 0x41,
  0xFF, 0x42, 0xC6, 0xDF, 0xF6, 0x15, 0xE9, 0xD6, 0x81, 0x1F,
  0xF6, 0xE4, 0x10, 0xD6, 0xED, 0xA6, 0xE6, 0xC4, 0xE0, 0x0A,
  0xF0, 0xED, 0xC2, 0xDD, 0xB9, 0xD3, 0x1D, 0xB1, 0xEE, 0x20,
  0x0B, 0x2E, 0x84, 0x16, 0x00, 0x00, 0x1A, 0xE2, 0x49, 0x01,
  0xD1, 0xE6, 0xF7, 0x22, 0x34, 0xDD, 0x2D, 0xD6, 0x0C, 0xF5,
  0x06, 0x2F, 0x20, 0x0E, 0xCA, 0xE2, 0xAC, 0x06, 0xEA, 0xE8,
  0xB1, 0xD3, 0x4B, 0xEA, 0x05, 0x00, 0xD1, 0xD6, 0xE7, 0xCB,
  0x0B, 0xFF, 0x70, 0xF0, 0x03, 0x02, 0x1F, 0xEB, 0x34, 0x9B,
  0x44, 0x04, 0x0B, 0xEB, 0x0D, 0x09, 0xCB, 0xF4, 0xD3, 0x09,
  0xF7, 0x08, 0xF2, 0x0C, 0x81, 0x67, 0x16, 0xE7, 0x0C, 0xF5,
  0xF7, 0x15, 0x98, 0x22, 0xFC, 0xFF, 0x01, 0x09, 0x12, 0xF4,
  0xEF, 0x1B, 0x00, 0xF4, 0x19, 0x13, 0x13, 0xE7, 0x01, 0xF5,
  0xF8, 0xF5, 0xF1, 0x07, 0x03, 0x0B, 0xC3, 0x28, 0x37, 0x01,
  0x10, 0xF5, 0xE1, 0xE8, 0x03, 0xF4, 0xEF, 0xFC, 0xFF, 0xE3,
  0x04, 0x0C, 0x00, 0x0A, 0xF0, 0x14, 0x0C, 0xF8, 0xF7, 0xF5,
  0x1C, 0x05, 0xF7, 0x15, 0xF0, 0x17, 0x10, 0x04, 0xDE, 0x11,
  0x01, 0x19, 0x06, 0xE5, 0xF6, 0xF4, 0x09, 0x03, 0xDF, 0xEC,
  0x02, 0xFC, 0x02, 0xF5, 0x10, 0x25, 0xDC, 0x1B, 0x00, 0xF5,
  0xFA, 0xF3, 0x2D, 0x0C, 0xE4, 0x01, 0xFD, 0x20, 0x1E, 0x06,
  0xFF, 0xF0, 0x13, 0x14, 0xF2, 0xFA, 0x11, 0x04, 0xFB, 0xFC,
  0xD2, 0x0A, 0xF0, 0xD8, 0xFF, 0xEE, 0xFD, 0x06, 0xCA, 0x02,
  0xF5, 0xFA, 0xF7, 0x08, 0x10, 0x12, 0xEA, 0xF2, 0x8A, 0xE5,
  0xFF, 0xFF, 0x04, 0x00, 0x00, 0x00, 0x40, 0x00, 0x00, 0x00,
  0x24, 0x02, 0x00, 0x00, 0xA9, 0x0E, 0x00, 0x00, 0xFB, 0x03,
  0x00, 0x00, 0xEE, 0x00, 0x00, 0x00, 0xF5, 0x01, 0x00, 0x00,
  0xF5, 0x02, 0x00, 0x00, 0xAC, 0xF5, 0xFF, 0xFF, 0x4F, 0xFC,
  0xFF, 0xFF, 0x2E, 0xF6, 0xFF, 0xFF, 0xCC, 0x03, 0x00, 0x00,
  0xA3, 0x02, 0x00, 0x00, 0xE2, 0xFE, 0xFF, 0xFF, 0x72, 0x06,
  0x00, 0x00, 0xC5, 0x06, 0x00, 0x00, 0x9B, 0x04, 0x00, 0x00,
  0x12, 0x05, 0x00, 0x00, 0xD6, 0xE5, 0xFF, 0xFF, 0x04, 0x00,
  0x00, 0x00, 0x00, 0x08, 0x00, 0x00, 0x45, 0xE7, 0x1A, 0x81,
  0xE7, 0xC8, 0x00, 0x11, 0xD6, 0xCD, 0xD0, 0xF5, 0x20, 0xE6,
  0x61, 0x13, 0x1D, 0xF8, 0xF9, 0xB9, 0xEB, 0x02, 0x20, 0x03,
  0x06, 0xED, 0xFB, 0xE9, 0x2B, 0xE4, 0x47, 0xF6, 0x25, 0xFB,
  0x23, 0x8E, 0x08, 0x0C, 0xFF, 0xED, 0x24, 0x0D, 0xD8, 0x15,
  0xF8, 0xEC, 0x2E, 0x0E, 0x13, 0x1F, 0xFE, 0x8B, 0xB3, 0xE9,
  0xF4, 0x00, 0x2B, 0x0E, 0xEA, 0xFC, 0x0C, 0xD3, 0x42, 0x0C,
  0x14, 0xEB, 0x17, 0x93, 0xCE, 0xF4, 0x01, 0xF0, 0xC3, 0xF4,
  0xD4, 0xE8, 0x14, 0xCF, 0x3A, 0xF7, 0x1B, 0x07, 0xFD, 0xA3,
  0xEF, 0xED, 0xF1, 0x05, 0xEC, 0xEF, 0xFE, 0x00, 0x07, 0xEA,
  0x4E, 0xF9, 0x06, 0xEA, 0xF3, 0x98, 0x0E, 0x0B, 0xFB, 0x02,
  0x0B, 0x12, 0xE5, 0x20, 0xED, 0xE6, 0xF9, 0x02, 0x0A, 0x1B,
  0x0E, 0xBB, 0xCB, 0xD7, 0xEC, 0x0B, 0x1E, 0x08, 0xF0, 0x0E,
  0x24, 0xC0, 0x01, 0xF4, 0x0E, 0xEF, 0x28, 0xAC, 0xE0, 0xD9,
  0x1B, 0x06, 0xC5, 0xED, 0xEC, 0x39, 0xFB, 0xDE, 0x30, 0xEB,
  0xF7, 0x19, 0xF7, 0x15, 0x02, 0xE5, 0xF5, 0xEB, 0xEC, 0x18,
  0xFF, 0x18, 0xF4, 0xC5, 0x32, 0xF3, 0xE2, 0xFC, 0xFE, 0x05,
  0xEB, 0xD6, 0x0B, 0x01, 0xE7, 0xFF, 0x19, 0x1E, 0xED, 0xD6,
  0x1C, 0x03, 0xF5, 0xFB, 0xF1, 0xD9, 0xB1, 0xD5, 0xEC, 0x10,
  0xDD, 0x07, 0x09, 0x2E, 0x11, 0xF4, 0x04, 0x13, 0xE1, 0xF6,
  0x09, 0xA0, 0xD5, 0xDB, 0x05, 0x00, 0xD3, 0xE6, 0xDC, 0x2C,
  0x0E, 0xDC, 0x06, 0x1A, 0x03, 0x08, 0x00, 0xDB, 0xF7, 0xB3,
  0xFA, 0x09, 0xF7, 0xEA, 0x02, 0x24, 0xF8, 0xF9, 0x18, 0x11,
  0xED, 0xF1, 0x0C, 0xF2, 0x05, 0xDB, 0x1B, 0x16, 0xEB, 0x18,
  0x0F, 0x12, 0xCF, 0xEA, 0x16, 0x19, 0x09, 0x02, 0x17, 0xF7,
  0xDD, 0xE1, 0xFB, 0xF8, 0x01, 0xFE, 0x34, 0x17, 0x01, 0xF3,
  0x15, 0x1A, 0xF2, 0x17, 0x0C, 0x14, 0xFA, 0x22, 0x0C, 0x1E,
  0x14, 0x05, 0x11, 0x40, 0xF4, 0x4A, 0x97, 0xFB, 0xE1, 0x2A,
  0xF3, 0xFD, 0x13, 0xE2, 0x00, 0xF3, 0x21, 0xF3, 0xDE, 0xF9,
  0xDC, 0x6A, 0x85, 0x0B, 0xED, 0x08, 0x1E, 0x0E, 0xE8, 0xFE,
  0x00, 0xD2, 0x01, 0xF4, 0xF9, 0x35, 0xA6, 0x35, 0x81, 0x1B,
  0xC7, 0xD5, 0x19, 0xDE, 0x14, 0x1A, 0x09, 0xE7, 0xFB, 0xF8,
  0xFF, 0x2F, 0xB4, 0x35, 0x8D, 0x10, 0xFA, 0x37, 0xF5, 0x06,
  0xF1, 0x05, 0xD8, 0x1E, 0xCE, 0x07, 0x05, 0x08, 0xFF, 0x30,
  0xCB, 0xF7, 0xD5, 0x1C, 0x17, 0xE0, 0xEA, 0xEE, 0xED, 0xDF,
  0x0F, 0xF1, 0x21, 0xDA, 0xD3, 0x27, 0xCC, 0xEC, 0xC8, 0x10,
  0x14, 0x16, 0xFD, 0xF4, 0x01, 0xE4, 0xF4, 0xF7, 0xEF, 0x1D,
  0xA4, 0x18, 0xD3, 0x00, 0xE3, 0xDC, 0x1E, 0xF3, 0xF8, 0xF2,
  0x16, 0xE7, 0xFB, 0x0B, 0xFE, 0x1B, 0x8E, 0x25, 0xA0, 0x1A,
  0xF4, 0x2B, 0x20, 0x74, 0xEF, 0xF2, 0x01, 0x0F, 0x0C, 0xF5,
  0x31, 0x0B, 0xFC, 0x0D, 0xD3, 0xEB, 0xEF, 0xE5, 0xF8, 0x10,
  0x1C, 0xCD, 0xDF, 0x05, 0xFD, 0xFD, 0xF7, 0xE3, 0xD2, 0x0C,
  0xDF, 0xF0, 0x14, 0xE9, 0x1B, 0x10, 0xF9, 0x08, 0x07, 0xE5,
  0x0D, 0x0C, 0x02, 0x10, 0xC7, 0xC4, 0xDD, 0xEE, 0x1E, 0xAB,
  0x10, 0x15, 0xF1, 0x04, 0x0F, 0xF0, 0x17, 0x21, 0x15, 0xEB,
  0xA9, 0xC2, 0xB7, 0xED, 0x1C, 0x14, 0x19, 0x39, 0xF0, 0xD5,
  0xF5, 0xF6, 0xF0, 0xE9, 0x2A, 0x2B, 0xB1, 0xF9, 0x03, 0x09,
  0x03, 0xDF, 0x0C, 0x09, 0x1A, 0xCC, 0xEE, 0x16, 0xE9, 0xE0,
  0x04, 0x15, 0x84, 0xD8, 0xDA, 0xF1, 0x13, 0xEE, 0x17, 0x01,
  0xEF, 0x0A, 0xE6, 0xE0, 0x0A, 0x1C, 0x04, 0x1C, 0xAC, 0xC2,
  0xCD, 0x14, 0xEE, 0xA7, 0x15, 0x38, 0xEE, 0xF6, 0x1C, 0x00,
  0xFA, 0x1A, 0x11, 0x13, 0xDD, 0xE8, 0xA2, 0xFA, 0xB0, 0x0E,
  0xFF, 0x7F, 0xFE, 0xEC, 0xED, 0x0C, 0x13, 0x20, 0x07, 0xAB,
  0xDA, 0x06, 0xE7, 0x15, 0xC4, 0x02, 0xFB, 0x6E, 0xFA, 0xEE,
  0x06, 0xE0, 0x06, 0x16, 0xF3, 0xB6, 0xC4, 0xFF, 0xD6, 0x06,
  0xCD, 0x0E, 0xFC, 0x53, 0xF1, 0xFE, 0x07, 0xEC, 0xFD, 0x2C,
  0xDF, 0xA2, 0xB7, 0x1E, 0xD4, 0x08, 0xCB, 0x0F, 0x05, 0x35,
  0x18, 0xF0, 0x16, 0xF0, 0x0F, 0x2B, 0x03, 0xB3, 0xD9, 0x50,
  0x0C, 0xF9, 0xE5, 0x10, 0x0B, 0x44, 0xF6, 0xE7, 0xE2, 0x06,
  0x03, 0x0E, 0x05, 0xF0, 0xE4, 0x1B, 0xF5, 0x09, 0xE9, 0x27,
  0x09, 0x0F, 0xE6, 0x05, 0x04, 0xEF, 0xFB, 0xFC, 0xDD, 0x05,
  0xD0, 0x22, 0xCE, 0x01, 0xF0, 0x09, 0x09, 0x1E, 0x0B, 0x00,
  0xE6, 0xF6, 0xFA, 0xFB, 0xF7, 0xEE, 0xE4, 0x23, 0xC5, 0x0C,
  0xF6, 0x02, 0x18, 0xF9, 0x11, 0xF9, 0xFB, 0x00, 0x0B, 0x06,
  0x0E, 0xDA, 0xDC, 0x40, 0x96, 0x07, 0xFB, 0x01, 0xFC, 0x24,
  0xD4, 0xEC, 0xFB, 0x0A, 0xF5, 0x03, 0x00, 0xE0, 0xDC, 0x07,
  0x08, 0xFF, 0xE7, 0x0F, 0x0C, 0xFE, 0xE2, 0x09, 0x0D, 0x0C,
  0xFF, 0x0B, 0x0E, 0xF0, 0xCE, 0x00, 0x06, 0xF7, 0xF8, 0x11,
  0x0D, 0x09, 0xEB, 0x0A, 0xED, 0xFF, 0x02, 0xF9, 0xFC, 0xF6,
  0xD2, 0xEC, 0xD1, 0x0E, 0xFD, 0x19, 0x0A, 0xEB, 0xF3, 0xFC,
  0x1D, 0xEF, 0x00, 0x0E, 0x1C, 0xCB, 0x04, 0xEB, 0x9B, 0x0F,
  0x00, 0x1A, 0x04, 0x3E, 0xDA, 0xFC, 0x04, 0xFB, 0x00, 0x0A,
  0x11, 0xC0, 0xDD, 0x28, 0x2C, 0xF6, 0x09, 0xFB, 0x07, 0xF1,
  0xF2, 0x02, 0xF6, 0x14, 0xF7, 0x08, 0x06, 0xD2, 0xD0, 0xF7,
  0xF5, 0x04, 0x03, 0x03, 0x09, 0xF9, 0xE7, 0xFC, 0xEC, 0x03,
  0xF5, 0x14, 0x18, 0xD8, 0xC5, 0xF7, 0xE3, 0xF6, 0xF1, 0x01,
  0x0F, 0xEB, 0xD3, 0xE7, 0x08, 0xEB, 0x00, 0x07, 0x12, 0xB7,
  0x01, 0xE4, 0xA7, 0xF7, 0xF1, 0xF4, 0x08, 0x2C, 0xE5, 0x0B,
  0x81, 0xE1, 0xF2, 0x16, 0xFF, 0xB1, 0xFA, 0xFB, 0xC2, 0x23,
  0xCF, 0x09, 0x13, 0x09, 0x04, 0x04, 0xC2, 0xE0, 0x00, 0xF7,
  0x0A, 0xCD, 0xF5, 0x17, 0xE4, 0x00, 0xD1, 0xFA, 0xF1, 0xF6,
  0xEE, 0x10, 0xED, 0xE3, 0x0A, 0x15, 0x12, 0xDD, 0xFE, 0x28,
  0xE0, 0xF9, 0xD9, 0xFB, 0xF6, 0xF6, 0xF3, 0xFB, 0xF0, 0xFC,
  0xF8, 0xF7, 0x12, 0xCA, 0xF5, 0x22, 0xD2, 0x06, 0xF7, 0x06,
  0x03, 0x09, 0xF9, 0x07, 0xC7, 0xFE, 0xED, 0x01, 0x0C, 0xCE,
  0xF4, 0x08, 0xB7, 0x1F, 0xF2, 0xF6, 0xFF, 0x0A, 0xFD, 0x12,
  0xE3, 0xD7, 0x02, 0xF1, 0xF4, 0xF0, 0xF1, 0x1A, 0xDA, 0x14,
  0xEC, 0x14, 0x16, 0xEE, 0xF2, 0x00, 0xD9, 0xF7, 0xEF, 0x09,
  0x07, 0xD3, 0x00, 0x24, 0xDB, 0xEE, 0xF6, 0xF3, 0x1B, 0xF8,
  0xF1, 0x0D, 0xC5, 0xE0, 0xFA, 0x01, 0xF9, 0xEA, 0xF9, 0x0B,
  0xF6, 0xFD, 0xF7, 0xF4, 0xF2, 0x12, 0xE5, 0xEC, 0xB7, 0x0B,
  0xF5, 0xFA, 0xFB, 0xCA, 0xD8, 0x09, 0xC9, 0x0E, 0x06, 0x08,
  0xF4, 0x02, 0xF6, 0xF0, 0xE2, 0xF0, 0xF1, 0xEE, 0xF6, 0xDD,
  0xF1, 0xE6, 0xEB, 0xF2, 0x01, 0x0C, 0x0F, 0xFE, 0x0D, 0xEB,
  0xBD, 0xD4, 0xF9, 0x0A, 0x11, 0xEC, 0xF4, 0xFE, 0xF1, 0x09,
  0x02, 0xF8, 0x09, 0xF7, 0xFE, 0x04, 0xB7, 0xE4, 0xF3, 0x17,
  0x19, 0x09, 0xF8, 0xF2, 0xF6, 0x06, 0x09, 0xFC, 0x0C, 0x1D,
  0xFC, 0x0C, 0xE6, 0x1F, 0xF3, 0xEB, 0x0C, 0xDB, 0xE7, 0xEC,
  0xDE, 0xFC, 0x0C, 0x1F, 0x0A, 0x2E, 0xF7, 0x10, 0xEE, 0xF0,
  0xED, 0xF4, 0xF8, 0xD1, 0xEE, 0xD6, 0xD0, 0x18, 0x09, 0x16,
  0x20, 0x0E, 0x06, 0x00, 0xCD, 0xFB, 0xE6, 0xFC, 0x16, 0xC8,
  0xF6, 0x06, 0xE7, 0xFD, 0xF8, 0x0B, 0x1A, 0x1F, 0x12, 0x0F,
  0xD2, 0xE8, 0x0B, 0xF7, 0x1B, 0x02, 0xE5, 0xE7, 0xEE, 0x04,
  0xF0, 0xBF, 0xFC, 0xFB, 0x13, 0x03, 0x27, 0xF2, 0xF9, 0x24,
  0xE5, 0x02, 0x11, 0xF4, 0x36, 0x1C, 0xE4, 0xD9, 0x04, 0x16,
  0x09, 0x1C, 0xA6, 0x04, 0xDC, 0xDD, 0xCC, 0x17, 0xF7, 0xCA,
  0x1B, 0x0C, 0xEC, 0x0F, 0x05, 0x24, 0x34, 0xFA, 0xB7, 0x0D,
  0xEC, 0xE2, 0xFE, 0xE5, 0x19, 0xB6, 0x09, 0x14, 0xA9, 0x19,
  0xF4, 0x0A, 0xF6, 0xD5, 0xD1, 0xFE, 0xC0, 0xF1, 0x00, 0xAB,
  0x04, 0xFA, 0x00, 0x0A, 0xF5, 0xDC, 0x03, 0xCF, 0x10, 0xED,
  0x23, 0xE3, 0x03, 0x0E, 0xED, 0xF9, 0x20, 0x25, 0x26, 0x1B,
  0xF3, 0xF0, 0x05, 0xF3, 0xD0, 0x09, 0xF3, 0x0B, 0xEC, 0xCB,
  0xE6, 0x04, 0x10, 0xEC, 0xFC, 0x0D, 0x0F, 0x17, 0xEB, 0x1E,
  0x26, 0x02, 0xEF, 0x0F, 0x15, 0xD8, 0xF7, 0xE9, 0x00, 0xF2,
  0x0E, 0xFF, 0xDC, 0x24, 0xDC, 0x18, 0xDA, 0xD9, 0xD9, 0x12,
  0xAE, 0xE3, 0x04, 0xCF, 0xFA, 0x1F, 0xFC, 0xF2, 0x0F, 0xD5,
  0xFB, 0x81, 0x00, 0xF7, 0x11, 0xEE, 0xF4, 0x0B, 0xFE, 0x12,
  0x0F, 0x15, 0x12, 0xFE, 0x13, 0xE3, 0x05, 0xCF, 0xCA, 0x13,
  0xFF, 0x01, 0xF9, 0xA5, 0xDC, 0xFB, 0xFA, 0xE4, 0x09, 0x19,
  0x05, 0x21, 0xEF, 0xF5, 0x09, 0xF4, 0xB7, 0xFB, 0x0D, 0xE4,
  0xF6, 0xF5, 0x13, 0xD6, 0xF1, 0x0C, 0xEA, 0x2B, 0xDE, 0xEE,
  0xFB, 0xDF, 0x88, 0x23, 0x0A, 0xC8, 0xF4, 0xEB, 0xF9, 0xF5,
  0x0C, 0xF8, 0x08, 0xE0, 0x0F, 0x88, 0x05, 0xFA, 0x15, 0xF2,
  0x08, 0x09, 0xED, 0x1A, 0x26, 0xF7, 0x04, 0xFF, 0x17, 0xD3,
  0xFE, 0xCA, 0xE2, 0xFF, 0x00, 0xFF, 0xE2, 0xB8, 0xE8, 0x10,
  0xF8, 0x05, 0xF3, 0xFC, 0x1D, 0x1C, 0x08, 0xC9, 0xF5, 0xE2,
  0xE2, 0x04, 0xF6, 0xCA, 0x1E, 0xFB, 0x06, 0xF7, 0xF3, 0x01,
  0x11, 0x05, 0xF2, 0xFF, 0xEF, 0xC4, 0xB8, 0xF2, 0x0E, 0xBD,
  0x1D, 0xF6, 0xF4, 0xDF, 0xD9, 0xE7, 0xD5, 0x1F, 0xDF, 0xC5,
  0x18, 0x04, 0xE0, 0x81, 0xE4, 0x04, 0x13, 0x53, 0xFF, 0xDA,
  0xEF, 0xE1, 0xFF, 0x25, 0xDA, 0x12, 0x06, 0x1C, 0xF7, 0xC9,
  0xFE, 0x19, 0xF6, 0x3D, 0x0F, 0xD8, 0x1D, 0x14, 0xFC, 0x27,
  0xEE, 0xD8, 0x11, 0x09, 0xF8, 0xCB, 0x14, 0xFF, 0x25, 0x34,
  0x13, 0xD8, 0x2A, 0xF9, 0x3F, 0x23, 0xFE, 0xAE, 0x1D, 0x06,
  0xFC, 0xB3, 0x14, 0xE8, 0x13, 0xED, 0x07, 0xE9, 0x26, 0xDC,
  0xF8, 0x19, 0xE8, 0x0F, 0x14, 0x1D, 0x11, 0x96, 0xFF, 0x15,
  0x18, 0x77, 0xD9, 0xEB, 0x09, 0xEF, 0x19, 0x24, 0xE8, 0x3E,
  0xEA, 0x0F, 0x07, 0xE1, 0xF4, 0x08, 0x02, 0x26, 0x05, 0xF2,
  0x09, 0xF0, 0x28, 0x1F, 0xFB, 0x25, 0xEE, 0x0C, 0xFD, 0xBE,
  0x15, 0x01, 0x0D, 0x1E, 0x02, 0xE6, 0x15, 0x1B, 0x28, 0xFC,
  0xF9, 0x2F, 0x18, 0x09, 0xEB, 0xA3, 0xFB, 0x03, 0x1F, 0x00,
  0x05, 0x0E, 0x2A, 0x0F, 0x0F, 0xFA, 0xF7, 0xF6, 0xEC, 0xF2,
  0x07, 0xB5, 0x19, 0x14, 0x05, 0x2C, 0xB6, 0x09, 0xF8, 0x03,
  0xED, 0x13, 0xF2, 0xE8, 0xFC, 0xEE, 0x0C, 0xC7, 0xFF, 0x01,
  0xF3, 0x14, 0xEE, 0x15, 0xF8, 0xED, 0x22, 0xF0, 0xEB, 0xD1,
  0xFB, 0xFF, 0x0A, 0xE1, 0xF7, 0xF7, 0xFC, 0x04, 0xF8, 0x27,
  0x17, 0x11, 0x26, 0x10, 0xFE, 0x0D, 0xEF, 0x11, 0x07, 0xC8,
  0x1E, 0x0B, 0xFE, 0xE1, 0x03, 0x4F, 0x28, 0x0F, 0xFB, 0xDF,
  0xE8, 0xF9, 0x0D, 0x0E, 0x01, 0x92, 0x0E, 0x16, 0x18, 0x1D,
  0xD0, 0xE5, 0xF9, 0x09, 0x28, 0xF1, 0xF0, 0x02, 0x0E, 0x1D,
  0xF2, 0xC0, 0x25, 0x18, 0xF6, 0x06, 0xF1, 0x1E, 0xE5, 0x0B,
  0x1A, 0xFD, 0x12, 0x16, 0xE8, 0x0A, 0x1C, 0xBE, 0xFD, 0xEA,
  0x11, 0x26, 0x1F, 0x34, 0xF9, 0x13, 0x28, 0x0F, 0xEF, 0xF7,
  0xF4, 0x08, 0x06, 0xD7, 0x1A, 0xF0, 0x05, 0xF6, 0x18, 0x50,
  0x30, 0x08, 0x39, 0xE5, 0x22, 0xDE, 0x09, 0x0E, 0x30, 0x09,
  0x13, 0x3C, 0xFF, 0x5E, 0x01, 0x43, 0x1B, 0xF0, 0x3E, 0xE0,
  0x14, 0xAD, 0x34, 0x14, 0x23, 0xF0, 0xF1, 0xFD, 0xE9, 0x73,
  0x09, 0x0B, 0x19, 0xFE, 0x15, 0xD4, 0xF7, 0xF9, 0xE7, 0x1D,
  0xFD, 0xEE, 0x05, 0x07, 0x18, 0x7F, 0x5C, 0xF8, 0x11, 0xF3,
  0x20, 0x18, 0x1A, 0x2A, 0xDE, 0x18, 0x11, 0xEC, 0xEC, 0xE8,
  0x0C, 0x7C, 0x49, 0xC0, 0x42, 0xE5, 0xEF, 0xF3, 0x0C, 0xA2,
  0x1B, 0x01, 0x28, 0xE9, 0xDB, 0x1F, 0x0D, 0x1A, 0xFB, 0x02,
  0xFA, 0x04, 0xE3, 0xF3, 0x01, 0xC9, 0x0B, 0x26, 0x04, 0xD6,
  0x00, 0xFD, 0xD8, 0x38, 0x18, 0x0B, 0xFA, 0xE6, 0x13, 0xE6,
  0x02, 0xF5, 0x0C, 0x1A, 0x13, 0xC7, 0x04, 0xFC, 0xE0, 0x5B,
  0x32, 0xF3, 0x39, 0xFB, 0x3C, 0xDB, 0x1E, 0x0D, 0xFC, 0xF2,
  0x12, 0xC5, 0x0B, 0xFF, 0x0A, 0x65, 0x23, 0xD8, 0x32, 0x09,
  0xEA, 0x08, 0x0D, 0xB4, 0xF7, 0x10, 0xEC, 0x10, 0x05, 0x2C,
  0x14, 0x41, 0x09, 0x14, 0x15, 0x06, 0xEA, 0xF5, 0x0A, 0xD4,
  0x08, 0x14, 0x14, 0xB6, 0xF8, 0xF6, 0xE7, 0x59, 0x26, 0x23,
  0x2E, 0x03, 0x17, 0xC4, 0xDE, 0xDE, 0x0B, 0x10, 0x0B, 0xE3,
  0xF9, 0xE9, 0x11, 0x4F, 0x1C, 0x06, 0x46, 0xF7, 0x0F, 0xFB,
  0x26, 0xB1, 0x07, 0x10, 0xE6, 0xF5, 0x01, 0xF9, 0x11, 0x79,
  0x13, 0xF4, 0x2D, 0x16, 0xF5, 0x2B, 0x24, 0xF6, 0xD9, 0x07,
  0xF4, 0x47, 0x26, 0x01, 0x0A, 0x55, 0x22, 0x4B, 0x58, 0xFA,
  0xE6, 0x04, 0xF4, 0x23, 0xE0, 0x0A, 0x05, 0x0E, 0xF3, 0xEB,
  0x1E, 0x2E, 0x12, 0x15, 0x29, 0x1A, 0xDA, 0xD8, 0xF8, 0xE8,
  0xE5, 0xEF, 0xE4, 0x21, 0x1D, 0xF6, 0x07, 0x3A, 0xEF, 0x2D,
  0x02, 0x09, 0xE7, 0x1C, 0x21, 0xEF, 0x0C, 0x12, 0x0E, 0x0E,
  0x22, 0xF8, 0x06, 0x2D, 0xC6, 0x12, 0xBC, 0xFB, 0x81, 0x32,
  0x00, 0x53, 0xE4, 0x0B, 0x87, 0xC6, 0x29, 0x23, 0xFD, 0x93,
  0x21, 0x00, 0xF6, 0x4E, 0xD4, 0x3C, 0x14, 0xD0, 0x01, 0x04,
  0xE9, 0xFA, 0x08, 0x15, 0x09, 0xB3, 0x01, 0xE3, 0xC7, 0x08,
  0xCC, 0x3C, 0x03, 0xE1, 0xFA, 0xEF, 0x04, 0x0B, 0xFF, 0x20,
  0xF8, 0xFE, 0x00, 0x22, 0xC2, 0x04, 0xE7, 0x3E, 0x0D, 0xDA,
  0x12, 0xFA, 0x05, 0x1C, 0x2E, 0x31, 0xF3, 0xDF, 0xF0, 0xEA,
  0xED, 0x12, 0xC4, 0x13, 0x00, 0x70, 0x08, 0xFB, 0xDA, 0xD7,
  0x09, 0xF4, 0x1B, 0xB3, 0x0B, 0x01, 0xC4, 0x2C, 0x02, 0x00,
  0xE6, 0x24, 0x2A, 0x0A, 0xFB, 0x01, 0xF1, 0xEC, 0x0D, 0xEF,
  0x0D, 0xEA, 0xC7, 0xF0, 0x14, 0x1B, 0x03, 0x32, 0xFB, 0xF5,
  0xEA, 0x10, 0xF1, 0xEA, 0xF2, 0x02, 0x1A, 0x15, 0xC9, 0x04,
  0x01, 0x09, 0x0C, 0x1F, 0xFB, 0xEB, 0x00, 0x0C, 0x11, 0xF5,
  0xF2, 0x0C, 0x07, 0xFC, 0xD2, 0x07, 0xD2, 0x15, 0xF7, 0x13,
  0xF2, 0x03, 0xCA, 0xE2, 0x04, 0xD6, 0x05, 0xBF, 0x23, 0x13,
  0xD4, 0x1A, 0x10, 0xF1, 0x08, 0xE9, 0x10, 0x06, 0x08, 0xFD,
  0xF5, 0xE8, 0xED, 0xDF, 0x07, 0xF8, 0xD4, 0xEB, 0xFB, 0x19,
  0x01, 0x26, 0x13, 0x1A, 0x10, 0xEF, 0xF5, 0xEA, 0x01, 0x1B,
  0xE4, 0xD9, 0x08, 0xFB, 0x0C, 0xE6, 0x08, 0x10, 0xE1, 0x15,
  0xE4, 0x12, 0x0A, 0x02, 0x0F, 0xF1, 0x0A, 0xD0, 0xF7, 0x18,
  0xBA, 0x2E, 0x03, 0x10, 0x04, 0xFB, 0xD7, 0xFA, 0x0E, 0xEC,
  0x20, 0xA5, 0x36, 0x19, 0x93, 0x18, 0xFF, 0x0E, 0x15, 0xDF,
  0xFF, 0x14, 0x0E, 0x0C, 0xEA, 0xE3, 0x02, 0xE6, 0x33, 0x07,
  0xD7, 0xE6, 0xF2, 0x0D, 0x05, 0x1B, 0x13, 0x0C, 0x00, 0xF3,
  0xFB, 0x0E, 0x03, 0xED, 0xF9, 0xE4, 0xFA, 0xDF, 0xFC, 0x0E,
  0x06, 0xB4, 0xDF, 0x03, 0xED, 0xF8, 0x1B, 0x05, 0xF0, 0xF3,
  0x0D, 0xBF, 0x0F, 0x13, 0xE2, 0xED, 0xFF, 0xFF, 0x04, 0x00,
  0x00, 0x00, 0x20, 0x00, 0x00, 0x00, 0x5B, 0x06, 0x00, 0x00,
  0x8A, 0x06, 0x00, 0x00, 0x84, 0xFA, 0xFF, 0xFF, 0xAA, 0x08,
  0x00, 0x00, 0x3E, 0x03, 0x00, 0x00, 0xF1, 0xFC, 0xFF, 0xFF,
  0x49, 0xF4, 0xFF, 0xFF, 0x6F, 0x09, 0x00, 0x00, 0x0E, 0xEE,
  0xFF, 0xFF, 0x04, 0x00, 0x00, 0x00, 0x00, 0x08, 0x00, 0x00,
  0xD5, 0x22, 0xEA, 0x3F, 0x55, 0xEB, 0x03, 0x0F, 0xB4, 0x17,
  0xDD, 0xE9, 0x42, 0xCE, 0x16, 0x0B, 0xDB, 0xF0, 0xBC, 0xFF,
  0x55, 0xFC, 0x16, 0xED, 0x31, 0x9D, 0xA2, 0xF4, 0x2B, 0xFB,
  0x08, 0x07, 0xB8, 0xE3, 0xDC, 0xFD, 0x1F, 0x02, 0x01, 0xF9,
  0xE1, 0x10, 0xC3, 0xD2, 0xDD, 0xF8, 0xD6, 0xF9, 0xE6, 0x08,
  0xD3, 0xF2, 0x34, 0xFF, 0x21, 0xDD, 0x02, 0xF7, 0xFE, 0xC7,
  0x0A, 0xF3, 0xFF, 0xE0, 0x92, 0x04, 0x0D, 0x0B, 0xE9, 0x12,
  0x08, 0xF0, 0xCB, 0x00, 0xCE, 0x19, 0x13, 0xD7, 0x14, 0xF4,
  0xFA, 0x09, 0xD3, 0xE2, 0x38, 0x0D, 0xFF, 0xE9, 0x20, 0xFD,
  0xD1, 0xD6, 0x15, 0xF1, 0xED, 0xCF, 0x81, 0x31, 0x0D, 0x20,
  0x10, 0x01, 0xF0, 0x3A, 0xB1, 0x24, 0x11, 0x15, 0x18, 0xDD,
  0xEA, 0xF8, 0xE6, 0xCD, 0xF5, 0xE2, 0xFB, 0xED, 0x17, 0x22,
  0xE1, 0xE6, 0xBE, 0x1A, 0xFA, 0x02, 0x19, 0x10, 0xCC, 0x1A,
  0x21, 0x34, 0xB3, 0x04, 0x09, 0x0B, 0xF4, 0x07, 0x1E, 0x34,
  0x34, 0x07, 0xFE, 0xED, 0xE5, 0xF1, 0xEF, 0x18, 0x4D, 0x1B,
  0x0C, 0xE0, 0xED, 0x0D, 0xDB, 0xEC, 0xF7, 0x3C, 0x06, 0xE6,
  0x04, 0x13, 0x36, 0x0B, 0x81, 0xD9, 0x08, 0xF5, 0xDE, 0x20,
  0x05, 0xE7, 0x1A, 0x09, 0xFF, 0xE1, 0x0A, 0x07, 0xEC, 0x0F,
  0xE8, 0x00, 0x24, 0xE2, 0x23, 0xEB, 0x25, 0x1C, 0x08, 0x05,
  0xE4, 0x16, 0x09, 0xD7, 0xEA, 0x08, 0xEC, 0xF9, 0x19, 0x27,
  0xE9, 0xBE, 0xDB, 0xF8, 0x1C, 0xEE, 0xEF, 0xEA, 0xFC, 0xDD,
  0xE0, 0xE8, 0xD5, 0x00, 0xD4, 0xFE, 0x1E, 0x17, 0xFB, 0xFA,
  0xC6, 0xE1, 0xCD, 0xF2, 0xF8, 0xFA, 0xF4, 0x0C, 0x5E, 0x44,
  0x0B, 0xFC, 0x20, 0xE5, 0xB0, 0xE7, 0x57, 0x1C, 0xDC, 0x0C,
  0x04, 0xED, 0xDC, 0xBC, 0x06, 0x00, 0xEB, 0xFF, 0x20, 0x03,
  0x9F, 0xFE, 0xCF, 0x15, 0xE3, 0xF1, 0xEA, 0x03, 0x07, 0x1E,
  0x7F, 0x08, 0x03, 0x17, 0xDF, 0x07, 0x0A, 0x05, 0x2B, 0x15,
  0xFC, 0x08, 0xE9, 0x11, 0xFE, 0x0B, 0xF9, 0xFA, 0x07, 0x04,
  0xE9, 0x05, 0xFE, 0x14, 0x00, 0xF4, 0xFB, 0xFC, 0xF9, 0x03,
  0x04, 0x16, 0x2F, 0xFC, 0xFC, 0x09, 0xEC, 0x0D, 0xFD, 0xFC,
  0xFC, 0x06, 0xFC, 0xF5, 0xF2, 0xFA, 0x07, 0xF5, 0xFF, 0x09,
  0x04, 0xEC, 0x01, 0xFF, 0x07, 0x05, 0x14, 0xF6, 0x07, 0x06,
  0xEF, 0x0E, 0xFC, 0x0C, 0xF8, 0xFA, 0x07, 0x05, 0xF8, 0x12,
  0xFF, 0xFF, 0xE8, 0xF9, 0xF9, 0xFD, 0xFE, 0x01, 0x07, 0xF7,
  0x04, 0xF1, 0x0C, 0xF3, 0xF3, 0x02, 0x04, 0x08, 0x12, 0x01,
  0x06, 0xFB, 0x10, 0x00, 0x01, 0xF0, 0xD3, 0x0D, 0x04, 0xF2,
  0x0C, 0xF7, 0x10, 0xF8, 0xED, 0x07, 0xFC, 0xF6, 0x0A, 0xFD,
  0x07, 0x00, 0xEB, 0x02, 0x02, 0xF6, 0x0C, 0xF6, 0x06, 0xF4,
  0xF3, 0xFD, 0x03, 0xFA, 0x1E, 0x08, 0xF1, 0x04, 0x81, 0xED,
  0xF9, 0xFD, 0x06, 0x0D, 0x03, 0x10, 0xAB, 0xFF, 0x02, 0x15,
  0xF7, 0xFF, 0xF7, 0x03, 0x13, 0xEE, 0xFE, 0x15, 0xFB, 0xFF,
  0xF5, 0x02, 0x06, 0xF4, 0xFF, 0x0F, 0xFE, 0xFE, 0xFA, 0x05,
  0xF2, 0x09, 0xF6, 0xFF, 0xED, 0x00, 0x04, 0x08, 0xFB, 0x05,
  0xF7, 0x0F, 0xFB, 0x0D, 0xFA, 0xF6, 0x19, 0x06, 0x01, 0x17,
  0xEB, 0x07, 0x05, 0x09, 0xF1, 0x06, 0x0C, 0x01, 0x0E, 0x06,
  0xFC, 0x01, 0xF4, 0x03, 0x08, 0x07, 0xFC, 0xF8, 0xFE, 0x03,
  0xF5, 0x01, 0x05, 0x0F, 0x03, 0x07, 0x05, 0x09, 0x10, 0xFA,
  0xF4, 0xFC, 0x05, 0x07, 0xF7, 0x07, 0xED, 0x03, 0x07, 0xFA,
  0x06, 0x04, 0xFA, 0xFD, 0xE1, 0xF2, 0x0B, 0x04, 0x00, 0xFE,
  0xFF, 0x08, 0xF2, 0xFA, 0x02, 0x04, 0x08, 0xFC, 0xFF, 0xFC,
  0x07, 0x00, 0xFA, 0xF8, 0xFB, 0x04, 0xF1, 0x06, 0xFB, 0x0A,
  0xFD, 0x06, 0x07, 0xFA, 0x1C, 0x17, 0xFF, 0x03, 0xFF, 0x0E,
  0x21, 0xF3, 0x14, 0x08, 0xF5, 0xF6, 0x1C, 0xE1, 0xFA, 0xED,
  0xF5, 0x03, 0xCA, 0x1E, 0x1B, 0xEC, 0xF7, 0xF2, 0xEE, 0xDE,
  0xE5, 0x1B, 0xF5, 0xF1, 0x19, 0x18, 0xE2, 0x15, 0x1F, 0xFE,
  0xF6, 0x16, 0x08, 0xEC, 0xF3, 0xD7, 0xEA, 0x14, 0xEB, 0xFE,
  0x03, 0x15, 0xF3, 0xED, 0xD1, 0xF8, 0x0A, 0x0C, 0x05, 0x07,
  0x12, 0xDA, 0xDA, 0xED, 0x09, 0xF1, 0xDA, 0x2B, 0xE4, 0x2A,
  0x5B, 0xFD, 0xF6, 0x12, 0xF7, 0x01, 0xF1, 0x0E, 0x1F, 0xFD,
  0xF4, 0xFA, 0xFC, 0x14, 0x24, 0xF5, 0xE7, 0xEF, 0xF7, 0x08,
  0x0B, 0xF3, 0x11, 0xCF, 0xDF, 0x0C, 0xEA, 0xFC, 0x81, 0x18,
  0x18, 0x1D, 0x38, 0xF0, 0xF4, 0x07, 0xEE, 0x2C, 0x0B, 0x04,
  0x13, 0x15, 0xF2, 0x0B, 0xE1, 0x0B, 0x0E, 0xE9, 0x1D, 0xF2,
  0xF1, 0xFA, 0xF9, 0x07, 0x0B, 0xF9, 0xF8, 0x17, 0xF5, 0x02,
  0x0E, 0x05, 0xEF, 0x02, 0x4C, 0xEE, 0xC6, 0x0A, 0x06, 0xF9,
  0xE8, 0xE6, 0x4C, 0xF8, 0xD8, 0x17, 0x12, 0xE1, 0xF4, 0xE2,
  0x3D, 0x0F, 0x04, 0xF7, 0xF3, 0xF4, 0x17, 0xD3, 0x01, 0x0C,
  0x1F, 0x00, 0x1A, 0x2A, 0xB8, 0xF5, 0x5D, 0x02, 0xBB, 0x20,
  0x01, 0x1B, 0xF8, 0xFB, 0x41, 0x0A, 0xCF, 0xFC, 0x02, 0x04,
  0xF0, 0xF9, 0xDA, 0xEC, 0xF8, 0xFE, 0xEB, 0x10, 0xF6, 0xF8,
  0xE9, 0xF4, 0x13, 0xFF, 0x11, 0x24, 0xCA, 0x0F, 0xF6, 0x14,
  0xDD, 0x1D, 0x03, 0x0A, 0xF4, 0x07, 0xB8, 0xF4, 0xCE, 0x06,
  0x04, 0xE8, 0xE0, 0x06, 0xC5, 0x06, 0x02, 0xEB, 0xE9, 0xEE,
  0x00, 0x17, 0xEE, 0xDE, 0x1B, 0x0D, 0x03, 0x00, 0xD4, 0x25,
  0xD3, 0xE1, 0x11, 0x0F, 0x00, 0xE7, 0xFE, 0x1D, 0x8F, 0xF1,
  0xF9, 0xFB, 0xFE, 0x04, 0xF9, 0x1C, 0x81, 0xE2, 0xFF, 0xFE,
  0xEA, 0x30, 0x1E, 0x26, 0x14, 0xDC, 0x14, 0xF0, 0x53, 0x0B,
  0xC5, 0xD4, 0x99, 0x19, 0xE7, 0xE3, 0x0D, 0x0A, 0xE8, 0x04,
  0xA1, 0x12, 0x18, 0x1A, 0x14, 0x22, 0xE0, 0xEA, 0xD9, 0x19,
  0x01, 0x15, 0x1F, 0xEB, 0xB6, 0xCE, 0xCE, 0xFE, 0x10, 0xEE,
  0x2E, 0xFA, 0xCB, 0xE8, 0xD5, 0x23, 0xF8, 0xF7, 0x13, 0x06,
  0xF8, 0x11, 0xCC, 0x1E, 0xFC, 0x19, 0x04, 0x0D, 0xF2, 0xFD,
  0xDC, 0x21, 0xFB, 0x1A, 0x06, 0xE7, 0xF4, 0xF0, 0xEE, 0x12,
  0xEC, 0xEF, 0x2B, 0xF7, 0x13, 0x0B, 0xC9, 0x1F, 0xF3, 0xE6,
  0x10, 0xE7, 0x09, 0x09, 0xC5, 0x0F, 0xF9, 0x09, 0x16, 0xE8,
  0x08, 0xDC, 0xFC, 0xFF, 0x0D, 0x15, 0x02, 0xEC, 0x0F, 0x00,
  0xFA, 0xF3, 0x09, 0xF0, 0x3C, 0xF3, 0xFB, 0xDC, 0x81, 0x12,
  0x07, 0xED, 0x14, 0x03, 0x13, 0xD5, 0xDB, 0xF9, 0x07, 0x19,
  0x10, 0xF3, 0x12, 0xDA, 0xFC, 0xF5, 0xF1, 0xFE, 0x21, 0xCB,
  0x15, 0x09, 0xE8, 0xEB, 0xE8, 0xEE, 0xE6, 0xEF, 0x0D, 0x21,
  0x7F, 0xFA, 0xE3, 0x14, 0xE2, 0x0B, 0x13, 0x07, 0x2B, 0xE1,
  0x00, 0x0E, 0xE7, 0x12, 0x08, 0x16, 0xD6, 0xF5, 0x0A, 0x19,
  0xE1, 0x13, 0x08, 0x01, 0x07, 0x04, 0xF9, 0x0A, 0xE3, 0x00,
  0x16, 0x03, 0x42, 0xE8, 0xF6, 0x02, 0xF1, 0x05, 0x0F, 0x17,
  0x39, 0xFA, 0xFD, 0xEA, 0x0B, 0x01, 0xFF, 0x03, 0xED, 0xF0,
  0x15, 0x05, 0xE8, 0x13, 0x0A, 0xFE, 0xE0, 0x07, 0xF0, 0xF4,
  0xDB, 0x10, 0xFF, 0xF5, 0x01, 0x02, 0x16, 0xEA, 0xFB, 0x0D,
  0xF4, 0x0F, 0xFA, 0xF7, 0x0B, 0xE6, 0x02, 0xF4, 0xEF, 0x00,
  0xC5, 0xFA, 0x0C, 0xED, 0xF8, 0x05, 0xF8, 0x0C, 0x0E, 0x10,
  0x14, 0x06, 0xDE, 0xF4, 0xE9, 0xF9, 0xA6, 0xFD, 0x00, 0xF8,
  0xF5, 0xF4, 0x09, 0xF1, 0xB6, 0x01, 0x17, 0xED, 0xFD, 0x0C,
  0x0C, 0x0E, 0xAC, 0x0D, 0xFB, 0xFB, 0xEE, 0x11, 0xFA, 0x00,
  0xFA, 0xF7, 0xFE, 0x05, 0xEC, 0xFD, 0x1B, 0x1B, 0x7F, 0xED,
  0xE1, 0x11, 0xEB, 0x0F, 0x06, 0x0C, 0x05, 0x0C, 0x10, 0x00,
  0xFC, 0x0B, 0xFB, 0x0F, 0xB0, 0x03, 0x0A, 0x07, 0xD7, 0x12,
  0x19, 0x11, 0x3C, 0x08, 0xFE, 0x11, 0xFA, 0x08, 0x0C, 0x06,
  0x71, 0xEB, 0xF0, 0x04, 0xF8, 0x0F, 0x0F, 0xFD, 0x01, 0x07,
  0xFC, 0xFD, 0xFC, 0x09, 0x03, 0x00, 0xC9, 0x01, 0x0B, 0xF4,
  0xE1, 0x03, 0x0B, 0x10, 0x1A, 0x04, 0x01, 0x09, 0xF0, 0xF7,
  0xF7, 0x05, 0x43, 0xFD, 0x04, 0xFB, 0xFE, 0x0D, 0x03, 0x09,
  0x0F, 0xF3, 0x11, 0xFF, 0xF7, 0x03, 0xF0, 0x03, 0xEA, 0xEE,
  0xFE, 0xF1, 0xEC, 0x0A, 0x03, 0x17, 0x0C, 0x03, 0x03, 0x08,
  0xE7, 0x05, 0xF8, 0x08, 0x2B, 0xF8, 0xFD, 0xF1, 0xE1, 0x07,
  0xFF, 0xFE, 0xF6, 0x00, 0x09, 0xF8, 0xEE, 0x10, 0xF9, 0x0D,
  0xD3, 0xF2, 0x06, 0xFF, 0xDB, 0x10, 0xF7, 0x0E, 0x00, 0x11,
  0xFF, 0x09, 0x12, 0x81, 0x9F, 0x02, 0x67, 0xFD, 0xEA, 0xED,
  0x0A, 0xE1, 0xF3, 0x14, 0x01, 0x0E, 0xF1, 0x13, 0x04, 0xDF,
  0x01, 0x0A, 0xC1, 0xF9, 0x0E, 0xF8, 0x0A, 0xC9, 0xB0, 0xE8,
  0xB8, 0x10, 0x10, 0xF9, 0x08, 0x85, 0xD0, 0x17, 0x56, 0x07,
  0xE9, 0x11, 0x08, 0xD7, 0x03, 0x2E, 0x33, 0x10, 0xE6, 0x06,
  0xF8, 0xE4, 0x04, 0x19, 0xEC, 0x01, 0x03, 0xFC, 0xFE, 0xDE,
  0xFE, 0xF1, 0xE7, 0xF8, 0x03, 0x01, 0x0C, 0xAA, 0xEB, 0x10,
  0x25, 0x0F, 0xEA, 0x05, 0xD9, 0xF5, 0xDC, 0x22, 0x16, 0xF1,
  0x08, 0x0E, 0xFD, 0xE2, 0xFA, 0x26, 0xED, 0x09, 0x05, 0x0A,
  0x0A, 0xE3, 0xF7, 0xEA, 0x14, 0xF8, 0x08, 0x03, 0x32, 0xE3,
  0xDD, 0xF5, 0xED, 0x0B, 0xF8, 0xF1, 0x02, 0xD6, 0x0A, 0x01,
  0x04, 0x00, 0x0A, 0xEA, 0x07, 0xD7, 0x1A, 0xF9, 0xE5, 0xF8,
  0xF6, 0xF8, 0x08, 0xC0, 0xF9, 0xF0, 0xF7, 0xF9, 0xFA, 0xF4,
  0xE4, 0x07, 0xFF, 0x15, 0xE3, 0xD5, 0xD5, 0x05, 0xDC, 0x12,
  0x01, 0x09, 0x53, 0x08, 0xEC, 0x10, 0xF2, 0x07, 0x07, 0x13,
  0xE1, 0xEE, 0xF9, 0x15, 0x0A, 0xF1, 0xFA, 0x23, 0xE0, 0x0F,
  0xEA, 0xF7, 0xC3, 0x03, 0xD4, 0x07, 0x81, 0x03, 0x0A, 0x01,
  0xFD, 0x05, 0xE8, 0xEE, 0x6D, 0x2C, 0x04, 0x07, 0xFF, 0x08,
  0xF3, 0x0A, 0xFB, 0xF8, 0xFE, 0x18, 0x0E, 0x00, 0x08, 0x13,
  0x1D, 0xE9, 0xF7, 0xFB, 0xC7, 0x1C, 0x0B, 0x0C, 0xCD, 0xCB,
  0xED, 0x00, 0x07, 0xF9, 0xFB, 0xF7, 0x58, 0xE8, 0x13, 0x00,
  0x17, 0x03, 0x02, 0x07, 0x14, 0xE8, 0x0D, 0xFE, 0x0E, 0xF4,
  0x10, 0x01, 0x3F, 0xF8, 0xF6, 0x0F, 0x9B, 0x26, 0x0C, 0x12,
  0xF3, 0xBE, 0xFA, 0x28, 0xEA, 0x11, 0xF7, 0x04, 0x27, 0xF3,
  0x02, 0x10, 0xDB, 0x0E, 0xFA, 0x0C, 0x3B, 0xED, 0xF6, 0x18,
  0xC1, 0x2C, 0x17, 0x1B, 0x58, 0xDF, 0x0D, 0x12, 0xF8, 0xF2,
  0xEC, 0x10, 0xD1, 0xFB, 0xF4, 0x0F, 0xFB, 0xFB, 0xF4, 0x0F,
  0x9D, 0xFB, 0xFF, 0x08, 0xFD, 0x08, 0x05, 0x06, 0xB7, 0xF6,
  0xFF, 0x0A, 0xF7, 0x0E, 0x14, 0xFE, 0x22, 0xF5, 0x05, 0x08,
  0xFC, 0xF5, 0xF2, 0x07, 0x11, 0xFB, 0xFF, 0xFF, 0x01, 0xF7,
  0xF1, 0x08, 0xCA, 0x05, 0x03, 0x00, 0xF7, 0xF5, 0xEF, 0xF8,
  0xB3, 0x0B, 0x00, 0x01, 0xFA, 0x03, 0xFD, 0xFC, 0x15, 0xF8,
  0x09, 0x05, 0xF8, 0x00, 0xF4, 0xFA, 0x16, 0x0A, 0xFC, 0xF2,
  0x01, 0x05, 0xFD, 0x00, 0xE7, 0x02, 0x01, 0xFE, 0xFF, 0xFB,
  0xF1, 0x03, 0x81, 0x06, 0x01, 0x03, 0xF1, 0x00, 0xF7, 0xFE,
  0x04, 0xF5, 0x02, 0xF5, 0x0A, 0xF8, 0xEC, 0xF7, 0xF0, 0x01,
  0xFE, 0xFB, 0x01, 0x09, 0x02, 0xFB, 0xD4, 0xFD, 0x04, 0xFB,
  0xFB, 0xFF, 0xF9, 0x02, 0xA3, 0xF8, 0x05, 0xFB, 0xFE, 0x06,
  0xF5, 0x03, 0x01, 0xF8, 0xF9, 0x08, 0xD8, 0xEC, 0xE2, 0x0E,
  0xFC, 0x08, 0xDE, 0xF9, 0x02, 0x0C, 0xF0, 0x27, 0x07, 0x00,
  0xEE, 0xFB, 0xF0, 0x16, 0xDF, 0x0F, 0xA0, 0x01, 0xFB, 0x09,
  0xCD, 0x09, 0xFF, 0x21, 0x31, 0xF8, 0xF2, 0x11, 0xEE, 0x01,
  0xEB, 0x01, 0x0D, 0xF5, 0xFD, 0x04, 0x1A, 0x1B, 0x00, 0x10,
  0xFE, 0x03, 0xFF, 0xF5, 0x03, 0x22, 0x16, 0x03, 0x01, 0x1A,
  0xE6, 0xFA, 0xE7, 0x07, 0x03, 0x1A, 0x54, 0xFE, 0xF3, 0x11,
  0xF9, 0x00, 0x08, 0xFB, 0x3C, 0x0D, 0xE1, 0xEF, 0xF5, 0x20,
  0x19, 0x05, 0x24, 0xF4, 0xFE, 0xF8, 0xF8, 0x0F, 0xFC, 0xFD,
  0x4E, 0x01, 0xD6, 0x0E, 0xEA, 0x17, 0x04, 0x05, 0x7F, 0x1F,
  0xF4, 0xF3, 0xDB, 0xE3, 0xDE, 0x05, 0x35, 0xF1, 0xEB, 0x05,
  0x00, 0xF4, 0xE6, 0x0C, 0x2C, 0x0A, 0xEC, 0xF1, 0xE8, 0xF9,
  0xFB, 0xF8, 0x08, 0x01, 0xE7, 0x06, 0xFB, 0x09, 0xED, 0xF5,
  0x6A, 0x0D, 0xE8, 0x0B, 0xBA, 0xFC, 0x19, 0x2E, 0x7F, 0xCD,
  0xD7, 0x16, 0xD6, 0x10, 0x19, 0x27, 0x4E, 0xEB, 0xEF, 0x0B,
  0xB1, 0xF9, 0x08, 0x08, 0xF5, 0xD9, 0x0D, 0x13, 0xC3, 0x12,
  0x08, 0x00, 0x10, 0xE2, 0x10, 0xF8, 0xD2, 0x12, 0x03, 0x23,
  0x6F, 0xF9, 0xF0, 0x17, 0xF0, 0x19, 0xFD, 0x24, 0x35, 0xEC,
  0xE2, 0x08, 0xEE, 0x0C, 0xF2, 0x01, 0xD0, 0xE9, 0xFA, 0x04,
  0xF9, 0x05, 0x07, 0xFD, 0x07, 0xE9, 0x09, 0xF8, 0xBD, 0x0C,
  0x10, 0x1D, 0x57, 0xF1, 0x05, 0x07, 0xF3, 0x0A, 0x13, 0x11,
  0x13, 0x0E, 0x08, 0xF9, 0xFF, 0x08, 0x03, 0xF8, 0xE5, 0xEC,
  0xF8, 0x07, 0xF5, 0x19, 0xF5, 0xF8, 0xF9, 0xFF, 0xF4, 0xFF,
  0xB8, 0x12, 0x12, 0x09, 0x19, 0xE4, 0x1B, 0xF4, 0xE0, 0xFB,
  0x07, 0x15, 0xD1, 0xF1, 0xFD, 0x02, 0xF1, 0xFA, 0x01, 0x12,
  0xEB, 0x05, 0x08, 0xED, 0xEF, 0x0E, 0x00, 0xF9, 0xEE, 0x09,
  0x12, 0x04, 0xC4, 0xF9, 0x12, 0x1E, 0x7F, 0xE4, 0xD5, 0x2D,
  0xEF, 0x1B, 0x0B, 0x17, 0x33, 0xE7, 0xCC, 0x0A, 0xD3, 0xF8,
  0xF5, 0x19, 0x1A, 0xE7, 0x03, 0x04, 0xED, 0x00, 0xE3, 0xF1,
  0x24, 0xF5, 0x0C, 0x00, 0xDE, 0x09, 0x00, 0x26, 0x7E, 0xDF,
  0xF1, 0x21, 0xF9, 0xF7, 0x06, 0xFB, 0x18, 0xFB, 0xE2, 0x08,
  0xDB, 0x17, 0x01, 0xFE, 0x0A, 0xE9, 0xE1, 0xF7, 0xFF, 0x04,
  0xF2, 0x05, 0xE7, 0xEB, 0xFF, 0xE3, 0xCC, 0x08, 0xF8, 0x04,
  0x4D, 0xF8, 0xF5, 0x0B, 0xF0, 0xF5, 0xF1, 0x02, 0xE6, 0x04,
  0xF6, 0xFD, 0xE8, 0x02, 0x0A, 0xF7, 0xFD, 0x0B, 0x01, 0x01,
  0xEE, 0xFA, 0x02, 0x01, 0xF0, 0xEF, 0x03, 0xDD, 0xCF, 0x06,
  0x1E, 0x15, 0x20, 0xEF, 0x15, 0x0A, 0xE6, 0x13, 0xFA, 0x0D,
  0xD5, 0x0C, 0x13, 0xE9, 0xE2, 0x04, 0x06, 0xF2, 0x41, 0xFE,
  0x14, 0x01, 0x05, 0xF5, 0x00, 0x03, 0x11, 0xF7, 0x11, 0xF7,
  0xD0, 0x05, 0x11, 0x13, 0x5D, 0xCF, 0x07, 0x0A, 0xF0, 0xF8,
  0xFB, 0xF9, 0x3C, 0xDB, 0xF0, 0x06, 0x0C, 0x07, 0x00, 0x1A,
  0xDF, 0xF9, 0xF7, 0x1D, 0x0E, 0xF8, 0x10, 0x06, 0xE2, 0xF8,
  0x0D, 0x05, 0xD2, 0x11, 0xFD, 0x13, 0x2A, 0x09, 0x06, 0x0A,
  0xD6, 0xF1, 0x05, 0x0F, 0x1C, 0xFC, 0x0F, 0x01, 0x02, 0x08,
  0x03, 0x14, 0xE5, 0xF4, 0x0B, 0xFA, 0x0B, 0xF5, 0xFF, 0x04,
  0x07, 0xFF, 0xFE, 0xFF, 0xD8, 0x0B, 0xFF, 0x09, 0x4D, 0xE0,
  0xFF, 0xF9, 0xFC, 0x02, 0xFB, 0xFF, 0x12, 0x04, 0x03, 0xF7,
  0xF8, 0xF7, 0x11, 0x0F, 0xF5, 0x01, 0x05, 0x06, 0xFE, 0xF6,
  0x05, 0x11, 0x2C, 0xFD, 0xF6, 0xF8, 0xB7, 0x01, 0xE4, 0x06,
  0x7F, 0xD8, 0x0B, 0x09, 0xF8, 0x0B, 0x09, 0x0D, 0x14, 0xF2,
  0x0D, 0xFE, 0xF2, 0xFD, 0xF5, 0x1D, 0x03, 0x00, 0x09, 0x05,
  0xD3, 0xF9, 0xFF, 0x0E, 0x0C, 0x06, 0x13, 0xFC, 0x1A, 0xF6,
  0xFF, 0xFF, 0x04, 0x00, 0x00, 0x00, 0x40, 0x00, 0x00, 0x00,
  0x2F, 0x12, 0x00, 0x00, 0xB3, 0x09, 0x00, 0x00, 0xA4, 0x06,
  0x00, 0x00, 0x78, 0x09, 0x00, 0x00, 0x55, 0x07, 0x00, 0x00,
  0xAC, 0x04, 0x00, 0x00, 0xEB, 0x03, 0x00, 0x00, 0xA7, 0x02,
  0x00, 0x00, 0x75, 0xF9, 0xFF, 0xFF, 0x4E, 0x02, 0x00, 0x00,
  0x69, 0x04, 0x00, 0x00, 0x4B, 0x02, 0x00, 0x00, 0xA5, 0x08,
  0x00, 0x00, 0x25, 0xFD, 0xFF, 0xFF, 0x94, 0x06, 0x00, 0x00,
  0x1B, 0x08, 0x00, 0x00, 0x66, 0xF6, 0xFF, 0xFF, 0x04, 0x00,
  0x00, 0x00, 0x00, 0x08, 0x00, 0x00, 0x09, 0x54, 0x38, 0xD2,
  0x7E, 0xC4, 0x97, 0x1A, 0xF0, 0xF8, 0xBB, 0x3D, 0x0F, 0xEA,
  0x22, 0x39, 0xB4, 0xC6, 0xF1, 0x10, 0x2F, 0x0B, 0xBC, 0x01,
  0xD1, 0x01, 0xE7, 0xDD, 0x17, 0x02, 0xE1, 0x14, 0xFC, 0xEB,
  0x1A, 0x19, 0x06, 0xDF, 0xF1, 0xF4, 0xEA, 0x04, 0x09, 0xC2,
  0xED, 0x1B, 0x13, 0x14, 0x14, 0xE9, 0x03, 0x33, 0x1A, 0xF6,
  0x0A, 0xE1, 0xF0, 0xE5, 0x15, 0xF2, 0x03, 0x02, 0xD9, 0x22,
  0xF8, 0xCE, 0x12, 0xD9, 0xF1, 0x0F, 0x81, 0xFF, 0xCA, 0xC9,
  0xD0, 0xE3, 0xCE, 0xFF, 0xE9, 0xFF, 0xD1, 0xED, 0xF3, 0xF7,
  0xE4, 0xEF, 0xB2, 0xF8, 0xD5, 0x1D, 0xF3, 0xD2, 0x19, 0xF5,
  0xDB, 0xFE, 0xEE, 0xE1, 0x2A, 0x07, 0x0B, 0xD9, 0xCA, 0xE2,
  0x13, 0x44, 0xE6, 0xDE, 0xF7, 0xE4, 0x34, 0x26, 0xEF, 0x04,
  0xD9, 0x40, 0xE0, 0xFD, 0xB9, 0xEA, 0xD1, 0xCE, 0xED, 0xEF,
  0x04, 0x12, 0x13, 0x07, 0xF7, 0x24, 0x23, 0xF4, 0xE3, 0x12,
  0xC8, 0xEF, 0xD5, 0xDD, 0xE4, 0x17, 0x03, 0xDB, 0xF6, 0xFD,
  0xDA, 0x0D, 0x1A, 0x41, 0x13, 0x0C, 0xCF, 0x21, 0xD6, 0x0C,
  0xE4, 0x3A, 0xF6, 0x18, 0xEB, 0x28, 0x41, 0xF9, 0x02, 0x23,
  0xE9, 0xFE, 0xD9, 0x28, 0x00, 0x0C, 0xF9, 0xF6, 0xEE, 0xF0,
  0x07, 0xFD, 0x09, 0xF9, 0x38, 0x43, 0x15, 0xE9, 0xCF, 0x17,
  0xEF, 0xC9, 0x1D, 0xDF, 0x26, 0xFA, 0x01, 0x13, 0xFB, 0x25,
  0x05, 0xE1, 0x0C, 0xFA, 0xE9, 0xFA, 0xE6, 0xCE, 0x19, 0xF5,
  0x16, 0x16, 0xF6, 0x10, 0xFB, 0x37, 0x25, 0xF4, 0xD6, 0xF5,
  0xE3, 0xF3, 0x0F, 0xE4, 0x24, 0x15, 0x16, 0xE7, 0xF6, 0x03,
  0x0C, 0x15, 0xEC, 0x2F, 0x16, 0xD6, 0xDF, 0x2E, 0xCF, 0xFB,
  0xE5, 0xDE, 0xDF, 0xEB, 0x02, 0xE3, 0x2A, 0x35, 0x2D, 0x25,
  0x25, 0x32, 0xDA, 0x02, 0x0B, 0xBE, 0xE9, 0x2C, 0x1F, 0xE7,
  0x13, 0x29, 0xEF, 0xCA, 0xD2, 0x29, 0xE7, 0xE1, 0x2D, 0xD2,
  0xE2, 0x4E, 0x04, 0xE6, 0xED, 0xA5, 0x81, 0xED, 0xE8, 0xF6,
  0xF4, 0x0F, 0x0F, 0xF8, 0x12, 0xD8, 0xE4, 0x43, 0x17, 0xEF,
  0xE9, 0xD7, 0xB6, 0x03, 0xEC, 0xF4, 0xFA, 0x0B, 0x18, 0xF2,
  0x12, 0xD8, 0xDA, 0x39, 0x1F, 0xD9, 0xF2, 0xCC, 0xC3, 0x09,
  0xEC, 0xE7, 0x05, 0x10, 0x14, 0xDF, 0x16, 0xEB, 0xD0, 0x26,
  0x17, 0xAE, 0xE8, 0xD2, 0xC8, 0x0D, 0x0A, 0xD6, 0xEF, 0x1D,
  0xEC, 0xD7, 0x20, 0xFC, 0xF8, 0x41, 0x12, 0x16, 0x04, 0xD4,
  0xB6, 0xFF, 0x11, 0xFB, 0x0F, 0x18, 0x17, 0xF8, 0x1A, 0x10,
  0x04, 0x36, 0x17, 0x11, 0xF7, 0xF9, 0xFA, 0x12, 0xF2, 0x04,
  0x0A, 0x0C, 0x04, 0xF8, 0x04, 0x03, 0xF0, 0x15, 0x0F, 0x14,
  0xF7, 0xF1, 0xDD, 0x0F, 0xF3, 0xFB, 0x0B, 0x0C, 0x07, 0xC4,
  0x0D, 0xEF, 0xD7, 0x1D, 0x01, 0xEC, 0xEA, 0xCB, 0xD6, 0x1C,
  0xF3, 0xE4, 0x05, 0x0A, 0xE7, 0xCE, 0x13, 0xE6, 0xE4, 0x39,
  0xFF, 0x18, 0x00, 0xD6, 0xC4, 0x01, 0x06, 0xFD, 0x06, 0x0D,
  0x00, 0xE5, 0x0C, 0xFD, 0xE4, 0x25, 0x0E, 0x01, 0xF2, 0x02,
  0xE3, 0xFC, 0xF2, 0xFB, 0x13, 0x03, 0x01, 0xD9, 0x08, 0x07,
  0xE1, 0x1B, 0x0B, 0x03, 0xF5, 0xE1, 0xE4, 0x0B, 0xF9, 0xE9,
  0x0B, 0x0B, 0x05, 0xAF, 0x0D, 0xE5, 0xCB, 0x18, 0xF8, 0xE8,
  0xEA, 0xD9, 0xC5, 0x15, 0xE7, 0xF2, 0x11, 0x0C, 0xEE, 0xCE,
  0x15, 0xF0, 0xEA, 0x2D, 0xDA, 0x31, 0xEC, 0xC4, 0xA9, 0xE0,
  0xEB, 0xFF, 0x0A, 0x00, 0xF2, 0xC4, 0x0C, 0xF2, 0xEE, 0x32,
  0xF1, 0x22, 0xE4, 0xE3, 0xCB, 0xF2, 0xED, 0xF7, 0x10, 0x05,
  0xF0, 0xAC, 0x0C, 0xF4, 0xDC, 0x1B, 0xFF, 0x09, 0xE8, 0xEB,
  0xD3, 0x01, 0xF3, 0xFB, 0x13, 0x06, 0x0D, 0x95, 0x10, 0xEF,
  0xE2, 0x2E, 0xE8, 0xF4, 0xEB, 0xEE, 0xCC, 0x08, 0xAF, 0x7F,
  0x21, 0xE6, 0x59, 0xD6, 0x06, 0x41, 0xD1, 0xE5, 0xB7, 0xE7,
  0x20, 0xE8, 0x26, 0x3F, 0xCD, 0x0F, 0xF0, 0x29, 0xD1, 0xFA,
  0xEC, 0xF8, 0xEE, 0xE9, 0xC6, 0x2E, 0xF4, 0x2E, 0xD3, 0xF6,
  0x40, 0x1C, 0xE1, 0x24, 0x1F, 0xD6, 0xD3, 0x16, 0xE6, 0x32,
  0xEF, 0xBC, 0xD4, 0xD3, 0x33, 0x22, 0x58, 0x32, 0x2D, 0x51,
  0x10, 0xEE, 0x15, 0x19, 0xC5, 0x15, 0x0A, 0x39, 0xE0, 0x15,
  0xCB, 0xD0, 0xBD, 0x11, 0x24, 0xED, 0x47, 0x00, 0xAE, 0xFD,
  0xD7, 0x01, 0xF0, 0xCD, 0x2B, 0xE0, 0x03, 0x05, 0xDE, 0xEF,
  0x27, 0x30, 0xE9, 0xD1, 0xFF, 0xCB, 0x3B, 0x28, 0x2B, 0xF6,
  0xEF, 0xD0, 0xB4, 0x26, 0xFE, 0x03, 0x2A, 0xFA, 0x1E, 0xEA,
  0x14, 0xFC, 0x1A, 0x1C, 0x07, 0xEB, 0x0C, 0xF1, 0xD3, 0x40,
  0x3C, 0x0C, 0x15, 0x01, 0xF2, 0x07, 0xD7, 0xE3, 0x09, 0x3E,
  0xFC, 0xF4, 0x17, 0xDF, 0x30, 0x0E, 0xF3, 0x51, 0xF6, 0x41,
  0x26, 0x04, 0x06, 0xE3, 0xF0, 0xDC, 0xF3, 0xEB, 0x26, 0x0C,
  0xFA, 0x1B, 0xD5, 0xDB, 0xFF, 0x21, 0xDD, 0xE6, 0xEB, 0xF9,
  0x28, 0x49, 0xF7, 0xE3, 0x26, 0x0B, 0xF8, 0x30, 0xDF, 0x12,
  0x48, 0x62, 0x17, 0xC5, 0x22, 0x00, 0xCF, 0x23, 0x1D, 0xEE,
  0xD2, 0xDC, 0x17, 0x3B, 0x31, 0x15, 0xF4, 0x60, 0xDE, 0xFB,
  0xFE, 0x32, 0xF7, 0x27, 0x20, 0x27, 0x00, 0xD3, 0xE3, 0x25,
  0x16, 0xFE, 0xFB, 0x4B, 0x24, 0x11, 0xD7, 0x15, 0x15, 0xD7,
  0x1D, 0xE8, 0x1A, 0xCC, 0xD7, 0x33, 0x0B, 0x0D, 0x1F, 0xF2,
  0x2E, 0xEB, 0xEB, 0x2B, 0x08, 0xEA, 0x06, 0x32, 0x16, 0x16,
  0x2C, 0x22, 0xED, 0x4F, 0xF4, 0x31, 0x0D, 0x22, 0xF3, 0x09,
  0xFB, 0xDE, 0x34, 0xE4, 0xCB, 0x01, 0x2B, 0xD5, 0x37, 0x3E,
  0xFF, 0x55, 0xDF, 0xFC, 0xD2, 0x1F, 0xCC, 0xE3, 0x34, 0x49,
  0x1D, 0xF8, 0x4A, 0x15, 0xE6, 0xFD, 0x2E, 0xE8, 0x34, 0x23,
  0xED, 0xFE, 0x02, 0xC4, 0xF9, 0x7F, 0x2A, 0xEA, 0x57, 0xFB,
  0x1C, 0xE7, 0xF7, 0xFC, 0xFE, 0x11, 0x2C, 0xE2, 0xE9, 0xEB,
  0xF2, 0x17, 0xF8, 0xE5, 0x15, 0xE1, 0x47, 0x0A, 0xDE, 0x1F,
  0xEE, 0x10, 0x2A, 0xE9, 0xF2, 0xED, 0xF1, 0x12, 0x22, 0xE1,
  0x4A, 0xE8, 0x27, 0xED, 0xC6, 0x10, 0x05, 0xEB, 0x37, 0xEA,
  0xE7, 0x30, 0xC7, 0xD9, 0x1A, 0xC6, 0xF7, 0xCE, 0xD6, 0xDF,
  0x03, 0xD2, 0x31, 0x52, 0xD6, 0x15, 0xF0, 0xD5, 0xFF, 0x41,
  0x03, 0xF9, 0x2E, 0x11, 0x02, 0x0B, 0x09, 0x05, 0x07, 0x18,
  0x0D, 0xF0, 0x0A, 0xFD, 0xD7, 0x0B, 0xF2, 0xE9, 0xEE, 0xED,
  0xF1, 0x04, 0xFD, 0xF8, 0x05, 0xF7, 0x11, 0xED, 0xEE, 0x16,
  0x02, 0xE7, 0xD3, 0xBC, 0x1D, 0x01, 0xF5, 0x07, 0xF0, 0x16,
  0xF7, 0xCE, 0x32, 0xF3, 0xEB, 0x37, 0xCB, 0xBF, 0x01, 0xC3,
  0xC6, 0xF0, 0xFF, 0xF2, 0x1F, 0x07, 0x0D, 0x36, 0xE3, 0x12,
  0x01, 0xE1, 0x18, 0x21, 0x16, 0xE4, 0x22, 0x08, 0xFB, 0xFF,
  0x15, 0x16, 0xE1, 0xE9, 0x0A, 0xE9, 0xFF, 0xED, 0xDE, 0xFB,
  0xF8, 0xBB, 0xEC, 0xD8, 0x12, 0xF4, 0xF7, 0x0E, 0xF3, 0xF5,
  0x15, 0x00, 0xF2, 0xFF, 0xE5, 0xFF, 0xFA, 0xD5, 0x13, 0xE0,
  0x0D, 0xE6, 0x06, 0x0E, 0x00, 0xC9, 0x10, 0xDA, 0xF2, 0x52,
  0xE2, 0xDD, 0xF4, 0xA5, 0xC4, 0xEC, 0x3D, 0x01, 0xF9, 0x22,
  0x21, 0x10, 0xD4, 0x1E, 0xF9, 0xCC, 0x05, 0xFC, 0x2F, 0x14,
  0x27, 0x08, 0x16, 0x11, 0x00, 0x38, 0xF1, 0xF9, 0x0C, 0x0B,
  0xE8, 0xFE, 0xF2, 0x10, 0xF8, 0xE7, 0xF7, 0xDA, 0x0C, 0xFB,
  0xFE, 0xFA, 0xF0, 0x20, 0x1A, 0xF9, 0xED, 0x19, 0xEE, 0x22,
  0xF4, 0xE7, 0x28, 0xEA, 0xF0, 0xF4, 0xE1, 0xFC, 0xF4, 0xF8,
  0x0C, 0x0B, 0xF5, 0x4C, 0xE4, 0x0D, 0xFF, 0xC3, 0xF1, 0xE4,
  0xCA, 0x40, 0x1E, 0xEB, 0x1B, 0xBA, 0xC5, 0x38, 0xED, 0xF4,
  0xD5, 0x04, 0x08, 0xE7, 0xD4, 0x0C, 0x18, 0x31, 0xEA, 0xEC,
  0xEC, 0x15, 0xB1, 0x2F, 0xD9, 0xE4, 0xC6, 0xF4, 0x15, 0x0D,
  0x04, 0xD7, 0x15, 0x27, 0xFE, 0x24, 0x18, 0xE2, 0xEC, 0xF6,
  0xFE, 0xF6, 0xE0, 0xCC, 0x10, 0xF5, 0xF2, 0x12, 0x04, 0x0D,
  0xEF, 0x03, 0x12, 0x14, 0xD5, 0x14, 0x0B, 0x9B, 0x11, 0x30,
  0x02, 0x0B, 0xD8, 0xE1, 0x12, 0xFF, 0xDA, 0xF3, 0x0A, 0xCB,
  0x81, 0x10, 0xB4, 0xF0, 0x0B, 0xF8, 0xDD, 0xEF, 0xD7, 0xFF,
  0xFA, 0xDB, 0x1E, 0x30, 0x24, 0x2E, 0xF3, 0x26, 0xF2, 0x68,
  0xF7, 0x30, 0xE5, 0xDC, 0xF4, 0xEF, 0x19, 0x15, 0x21, 0x1A,
  0x05, 0x35, 0xC2, 0xEE, 0x0B, 0x1A, 0xEF, 0x0A, 0xE4, 0xF3,
  0x03, 0xED, 0x1A, 0x0F, 0x1A, 0xFA, 0x08, 0x20, 0xAD, 0xD6,
  0xF5, 0xA9, 0xFF, 0xF0, 0xF4, 0xD3, 0x22, 0x08, 0x18, 0xF7,
  0xFB, 0xF3, 0xFE, 0xD2, 0x87, 0xF2, 0xE1, 0x18, 0xDD, 0x07,
  0xDD, 0x16, 0xC3, 0x26, 0x03, 0x38, 0x2D, 0x08, 0x0C, 0x28,
  0xCB, 0xFB, 0x00, 0x58, 0x10, 0x01, 0x07, 0x0E, 0xEC, 0x04,
  0x31, 0x15, 0x2D, 0x07, 0x04, 0xF2, 0xD3, 0x15, 0x21, 0x05,
  0x13, 0x0A, 0xE4, 0xDC, 0x0A, 0x08, 0xF9, 0x13, 0xEF, 0xFF,
  0xF7, 0xDF, 0xBA, 0x0D, 0xED, 0xA0, 0x1C, 0xF3, 0x03, 0xDE,
  0xEB, 0x03, 0xE8, 0x21, 0x1A, 0x03, 0x20, 0xDA, 0xBA, 0x23,
  0xE6, 0xD7, 0x02, 0x21, 0x13, 0xD9, 0xEF, 0xF5, 0xD6, 0x3B,
  0xF0, 0xDF, 0xEE, 0x04, 0xAE, 0xE8, 0xFD, 0x00, 0xF5, 0xEB,
  0x01, 0xF6, 0xEA, 0x14, 0xF9, 0x0B, 0xFE, 0x11, 0x26, 0xEC,
  0xC6, 0xF1, 0xE8, 0xD2, 0xF0, 0x0A, 0xEE, 0xEF, 0xD9, 0x0F,
  0x0F, 0x06, 0x17, 0x0F, 0x04, 0x17, 0xBF, 0x21, 0xDA, 0xB0,
  0x21, 0xEB, 0xEC, 0x23, 0xFD, 0x0D, 0xB1, 0x71, 0x1E, 0xCA,
  0x3A, 0xD2, 0xA3, 0x31, 0xB7, 0x0F, 0xC4, 0x39, 0x23, 0x1A,
  0x05, 0x04, 0x18, 0xFD, 0x0B, 0xFD, 0xF7, 0xE7, 0xFD, 0x24,
  0xF5, 0x0B, 0xC7, 0x0A, 0x1E, 0xF4, 0xF0, 0xE9, 0x38, 0x1F,
  0xEC, 0x07, 0x1B, 0x1F, 0xE8, 0xFF, 0x1D, 0xD2, 0x24, 0xF9,
  0xDE, 0xF2, 0x21, 0x15, 0x23, 0x37, 0xEE, 0xF8, 0xF2, 0xF7,
  0x03, 0x2B, 0x1D, 0xC2, 0x0F, 0x3D, 0xF6, 0xC3, 0xDF, 0xFD,
  0x9F, 0xDC, 0x17, 0xFB, 0x07, 0xF5, 0x9C, 0x1C, 0xD1, 0xF2,
  0x17, 0xEB, 0xD7, 0x0A, 0xFE, 0x32, 0x17, 0x12, 0xF9, 0xF6,
  0x15, 0x2C, 0xB1, 0xFF, 0xF3, 0x41, 0xF7, 0xEE, 0xD5, 0xFB,
  0xF2, 0x17, 0xF5, 0x12, 0x2F, 0x1F, 0x3C, 0xEC, 0xC0, 0xDE,
  0x1E, 0xE8, 0x26, 0x1A, 0xDD, 0x1C, 0x0B, 0xFA, 0xDD, 0x08,
  0x03, 0x25, 0x25, 0x13, 0xE6, 0x0B, 0xCA, 0xE2, 0x2E, 0xE0,
  0x15, 0xFE, 0xE1, 0xEC, 0xF1, 0x0B, 0x1F, 0x04, 0xD2, 0xB8,
  0x81, 0xEF, 0x07, 0xFF, 0x0B, 0x20, 0xE2, 0x1B, 0x0F, 0x33,
  0x0A, 0x12, 0x21, 0x1F, 0xF7, 0x27, 0xAF, 0x1D, 0x22, 0x39,
  0x06, 0x41, 0x1D, 0xDC, 0x0D, 0xE5, 0x25, 0x12, 0x06, 0x0E,
  0x14, 0x04, 0xAD, 0x16, 0xFF, 0xEF, 0xEE, 0x02, 0xF4, 0xC7,
  0x1B, 0xE3, 0x24, 0x32, 0x2C, 0xFE, 0xF6, 0x1D, 0xDD, 0x21,
  0xE1, 0xD4, 0xEB, 0xF1, 0xED, 0xFA, 0xE7, 0x07, 0x0B, 0x17,
  0xFF, 0x13, 0xFB, 0xF7, 0x8F, 0xF6, 0x14, 0xCB, 0x0D, 0x0A,
  0x0C, 0xF3, 0xD9, 0x25, 0xED, 0x2C, 0x04, 0xE4, 0x21, 0xFD,
  0xEF, 0x0F, 0xE4, 0xEA, 0x15, 0x0A, 0x03, 0xFE, 0xF1, 0x01,
  0x21, 0x28, 0x1D, 0x12, 0xF9, 0xD9, 0xEF, 0x06, 0x13, 0xBE,
  0xF2, 0x0D, 0xE6, 0xE4, 0x03, 0x0E, 0x0A, 0xFC, 0x0D, 0x27,
  0x21, 0x21, 0xC4, 0xF7, 0x02, 0xA4, 0xF6, 0x15, 0xE8, 0x10,
  0xF5, 0xDC, 0x0F, 0x44, 0x49, 0x0C, 0x20, 0x2A, 0xA0, 0x1B,
  0xD9, 0xCD, 0xCA, 0x5F, 0x7A, 0x1A, 0x31, 0x36, 0x06, 0xEF,
  0xFF, 0xF6, 0xF7, 0x1C, 0xD9, 0x28, 0xFD, 0xC5, 0xC7, 0x2E,
  0x5F, 0xF2, 0x26, 0xF7, 0x54, 0xE4, 0x1A, 0x43, 0x0B, 0x24,
  0x27, 0xDF, 0xE1, 0xE3, 0xCA, 0x19, 0x35, 0x0E, 0x2A, 0x17,
  0x30, 0x15, 0x16, 0x2A, 0x19, 0x51, 0xD1, 0x11, 0xDF, 0xB1,
  0xC9, 0x7F, 0x31, 0xF8, 0x00, 0xE5, 0xDD, 0x17, 0x17, 0x07,
  0x27, 0x06, 0x20, 0xEF, 0x07, 0x04, 0xCD, 0x28, 0x23, 0xCA,
  0xE3, 0xFD, 0x0D, 0xE3, 0xCE, 0x31, 0xDF, 0xDD, 0x32, 0x0F,
  0xE8, 0x12, 0xBA, 0xE9, 0x25, 0xE1, 0xEA, 0x1A, 0x1E, 0xD3,
  0x00, 0x24, 0xDE, 0x17, 0x12, 0xE2, 0xF5, 0x2F, 0xC1, 0xEE,
  0xEA, 0xD2, 0x4E, 0xF0, 0x15, 0xF5, 0xD4, 0x11, 0xF6, 0x33,
  0xFA, 0x06, 0xF5, 0xF8, 0xB9, 0x15, 0xF7, 0xF7, 0x48, 0xFF,
  0xC9, 0xF2, 0x03, 0xF8, 0x05, 0xEE, 0x43, 0xCD, 0xFA, 0x0D,
  0xBB, 0xE0, 0xDD, 0xD8, 0xD0, 0xA3, 0xA1, 0xB4, 0xF7, 0x12,
  0xB3, 0x96, 0x2B, 0xE1, 0xD5, 0x1C, 0xCF, 0xCF, 0xF2, 0xA2,
  0x89, 0xE1, 0x11, 0xE3, 0xEA, 0xF7, 0xA7, 0xAE, 0x48, 0xE0,
  0x05, 0x23, 0xC7, 0xD1, 0xD8, 0xF9, 0xF4, 0xDC, 0xC6, 0xD8,
  0xFD, 0xE1, 0xE4, 0xD5, 0x05, 0xE7, 0x06, 0x27, 0xF4, 0x08,
  0xE8, 0xCE, 0x2A, 0x0F, 0xFC, 0x0F, 0xF6, 0x30, 0x12, 0xD2,
  0x75, 0xE2, 0x05, 0x14, 0xB5, 0x03, 0xE7, 0xCD, 0xF8, 0xD1,
  0xDD, 0xEA, 0xD3, 0x0D, 0xC0, 0x92, 0x55, 0xF5, 0x54, 0x1C,
  0xAE, 0xF9, 0x06, 0xD8, 0xB7, 0xC6, 0x17, 0xF4, 0x16, 0xFB,
  0xCA, 0xAA, 0x3E, 0xFB, 0x34, 0x22, 0xE8, 0xE9, 0x1C, 0x1B,
  0xFC, 0xFC, 0xCF, 0x34, 0xDA, 0x13, 0xEF, 0xE7, 0x27, 0x0E,
  0x54, 0x31, 0x00, 0xE2, 0x19, 0xEE, 0x54, 0xFA, 0xE8, 0x61,
  0xFE, 0x05, 0x10, 0xC5, 0x9C, 0xF6, 0xDE, 0xFE, 0xE7, 0x0B,
  0x17, 0x06, 0x08, 0x15, 0xFA, 0x0C, 0x26, 0x11, 0xFB, 0x09,
  0xEE, 0x13, 0xE2, 0x02, 0x05, 0xFB, 0x1C, 0x0C, 0xD4, 0xDF,
  0xFF, 0x13, 0x31, 0xCE, 0x07, 0xE5, 0xE6, 0x21, 0x1C, 0x0C,
  0xFC, 0xF9, 0x02, 0xD7, 0x1D, 0xFD, 0x08, 0x1A, 0x25, 0x12,
  0xFE, 0x15, 0xB1, 0x24, 0x09, 0x81, 0xDA, 0x48, 0x12, 0x0D,
  0x13, 0x17, 0xCA, 0x29, 0xF4, 0x1E, 0xE5, 0xC7, 0x92, 0x19,
  0xBD, 0x1F, 0xED, 0xED, 0x15, 0x05, 0xFE, 0xED, 0x10, 0x00,
  0x15, 0xE0, 0x20, 0x4A, 0xDE, 0xF0, 0x0B, 0x3B, 0x06, 0xFA,
  0xE3, 0x05, 0xCF, 0x36, 0x0A, 0x04, 0x05, 0x15, 0xFC, 0x3D,
  0xBA, 0x17, 0x28, 0x04, 0x11, 0xE9, 0xE6, 0xE3, 0xF2, 0xF6,
  0x10, 0x38, 0x1C, 0x2A, 0x3A, 0x1E, 0xB0, 0xE5, 0x0B, 0xAB,
  0x15, 0x00, 0x08, 0xF3, 0xEF, 0x15, 0xEF, 0x29, 0x23, 0x03,
  0xEB, 0xE7, 0x94, 0x21, 0xD7, 0xFE, 0xFD, 0xE4, 0xF6, 0xE5,
  0x0C, 0x28, 0xFC, 0x2E, 0x28, 0xEF, 0xFC, 0x14, 0xCF, 0xD6,
  0xED, 0x24, 0x04, 0xF7, 0x16, 0xED, 0xF1, 0x14, 0x1E, 0x15,
  0x33, 0xF4, 0x2D, 0xF4, 0xBD, 0xF2, 0x15, 0xF9, 0x00, 0x24,
  0x15, 0x11, 0x25, 0x2A, 0x27, 0x3E, 0xF8, 0x0F, 0x2C, 0x0E,
  0xED, 0x0C, 0xD2, 0xAC, 0x1A, 0xDF, 0x03, 0x11, 0x08, 0x0C,
  0xF4, 0x21, 0x0E, 0xD6, 0x2C, 0xF8, 0xB7, 0xDC, 0x0B, 0xF6,
  0xE0, 0x0E, 0x18, 0x06, 0xF2, 0xFE, 0xE1, 0x1C, 0xEA, 0x08,
  0xDC, 0x03, 0xB0, 0xDC, 0xFB, 0xC1, 0xD5, 0x14, 0xFD, 0x0D,
  0xE7, 0x05, 0x19, 0x05, 0xDE, 0xFF, 0x2F, 0x0F, 0xF3, 0x1F,
  0xC8, 0xFD, 0x21, 0x12, 0xEE, 0xFF, 0x03, 0x1A, 0xFD, 0xE8,
  0xE8, 0xE7, 0xFD, 0xFA, 0xE3, 0xE8, 0x1C, 0x95, 0xE6, 0xED,
  0x20, 0xF4, 0xF3, 0xE8, 0x72, 0xFE, 0xFF, 0xFF, 0x04, 0x00,
  0x00, 0x00, 0x20, 0x00, 0x00, 0x00, 0x32, 0x1E, 0x00, 0x00,
  0x48, 0x10, 0x00, 0x00, 0xF2, 0x28, 0x00, 0x00, 0x8D, 0x08,
  0x00, 0x00, 0x66, 0x1B, 0x00, 0x00, 0xEB, 0x1C, 0x00, 0x00,
  0x9F, 0x05, 0x00, 0x00, 0x46, 0x1A, 0x00, 0x00, 0x9E, 0xFE,
  0xFF, 0xFF, 0x04, 0x00, 0x00, 0x00, 0x18, 0x00, 0x00, 0x00,
  0x23, 0xD0, 0x2D, 0x12, 0x0F, 0x13, 0xEE, 0xDF, 0xEB, 0xC8,
  0x9D, 0x0E, 0xEF, 0xFC, 0x96, 0xFD, 0x0F, 0x81, 0x30, 0x74,
  0x36, 0x1E, 0x48, 0x30, 0xC2, 0xFE, 0xFF, 0xFF, 0x04, 0x00,
  0x00, 0x00, 0x04, 0x00, 0x00, 0x00, 0x84, 0x07, 0x00, 0x00,
  0xD2, 0xFE, 0xFF, 0xFF, 0x04, 0x00, 0x00, 0x00, 0x08, 0x00,
  0x00, 0x00, 0x80, 0x00, 0x00, 0x00, 0x80, 0x00, 0x00, 0x00,
  0xA0, 0xE4, 0xFF, 0xFF, 0xA4, 0xE4, 0xFF, 0xFF, 0x0F, 0x00,
  0x00, 0x00, 0x4D, 0x4C, 0x49, 0x52, 0x20, 0x43, 0x6F, 0x6E,
  0x76, 0x65, 0x72, 0x74, 0x65, 0x64, 0x2E, 0x00, 0x01, 0x00,
  0x00, 0x00, 0x14, 0x00, 0x00, 0x00, 0x00, 0x00, 0x0E, 0x00,
  0x18, 0x00, 0x14, 0x00, 0x10, 0x00, 0x0C, 0x00, 0x08, 0x00,
  0x04, 0x00, 0x0E, 0x00, 0x00, 0x00, 0x14, 0x00, 0x00, 0x00,
  0x1C, 0x00, 0x00, 0x00, 0xC4, 0x03, 0x00, 0x00, 0xC8, 0x03,
  0x00, 0x00, 0xCC, 0x03, 0x00, 0x00, 0x04, 0x00, 0x00, 0x00,
  0x6D, 0x61, 0x69, 0x6E, 0x00, 0x00, 0x00, 0x00, 0x0E, 0x00,
  0x00, 0x00, 0x8C, 0x03, 0x00, 0x00, 0x30, 0x03, 0x00, 0x00,
  0xDC, 0x02, 0x00, 0x00, 0x8C, 0x02, 0x00, 0x00, 0x48, 0x02,
  0x00, 0x00, 0x04, 0x02, 0x00, 0x00, 0xC4, 0x01, 0x00, 0x00,
  0x80, 0x01, 0x00, 0x00, 0x3C, 0x01, 0x00, 0x00, 0xFC, 0x00,
  0x00, 0x00, 0xB8, 0x00, 0x00, 0x00, 0x78, 0x00, 0x00, 0x00,
  0x34, 0x00, 0x00, 0x00, 0x10, 0x00, 0x00, 0x00, 0x00, 0x00,
  0x0A, 0x00, 0x10, 0x00, 0x0C, 0x00, 0x08, 0x00, 0x04, 0x00,
  0x0A, 0x00, 0x00, 0x00, 0x0C, 0x00, 0x00, 0x00, 0x10, 0x00,
  0x00, 0x00, 0x05, 0x00, 0x00, 0x00, 0x01, 0x00, 0x00, 0x00,
  0x1D, 0x00, 0x00, 0x00, 0x01, 0x00, 0x00, 0x00, 0x1C, 0x00,
  0x00, 0x00, 0x3E, 0xFD, 0xFF, 0xFF, 0x14, 0x00, 0x00, 0x00,
  0x00, 0x00, 0x00, 0x01, 0x1C, 0x00, 0x00, 0x00, 0x20, 0x00,
  0x00, 0x00, 0x01, 0x00, 0x00, 0x00, 0x30, 0xFD, 0xFF, 0xFF,
  0x00, 0x00, 0x00, 0x01, 0x01, 0x00, 0x00, 0x00, 0x01, 0x00,
  0x00, 0x00, 0x01, 0x00, 0x00, 0x00, 0x1C, 0x00, 0x00, 0x00,
  0x03, 0x00, 0x00, 0x00, 0x1B, 0x00, 0x00, 0x00, 0x03, 0x00,
  0x00, 0x00, 0x02, 0x00, 0x00, 0x00, 0x7E, 0xFD, 0xFF, 0xFF,
  0x1C, 0x00, 0x00, 0x00, 0x00, 0x00, 0x00, 0x0A, 0x1C, 0x00,
  0x00, 0x00, 0x20, 0x00, 0x00, 0x00, 0x04, 0x00, 0x00, 0x00,
  0x00, 0x00, 0x06, 0x00, 0x08, 0x00, 0x04, 0x00, 0x06, 0x00,
  0x00, 0x00, 0x03, 0x00, 0x00, 0x00, 0x01, 0x00, 0x00, 0x00,
  0x1B, 0x00, 0x00, 0x00, 0x02, 0x00, 0x00, 0x00, 0x11, 0x00,
  0x00, 0x00, 0x1A, 0x00, 0x00, 0x00, 0xBA, 0xFD, 0xFF, 0xFF,
  0x20, 0x00, 0x00, 0x00, 0x00, 0x00, 0x00, 0x0F, 0x20, 0x00,
  0x00, 0x00, 0x24, 0x00, 0x00, 0x00, 0x03, 0x00, 0x00, 0x00,
  0x0C, 0x00, 0x08, 0x00, 0x00, 0x00, 0x00, 0x00, 0x00, 0x00,
  0x07, 0x00, 0x0C, 0x00, 0x00, 0x00, 0x00, 0x00, 0x00, 0x01,
  0x01, 0x00, 0x00, 0x00, 0x1A, 0x00, 0x00, 0x00, 0x02, 0x00,
  0x00, 0x00, 0x19, 0x00, 0x00, 0x00, 0x01, 0x00, 0x00, 0x00,
  0xFA, 0xFD, 0xFF, 0xFF, 0x14, 0x00, 0x00, 0x00, 0x00, 0x00,
  0x00, 0x05, 0x20, 0x00, 0x00, 0x00, 0x24, 0x00, 0x00, 0x00,
  0x02, 0x00, 0x00, 0x00, 0x86, 0xFE, 0xFF, 0xFF, 0x02, 0x00,
  0x00, 0x00, 0x02, 0x00, 0x00, 0x00, 0x02, 0x00, 0x00, 0x00,
  0x02, 0x00, 0x00, 0x00, 0x01, 0x00, 0x00, 0x00, 0x19, 0x00,
  0x00, 0x00, 0x01, 0x00, 0x00, 0x00, 0x18, 0x00, 0x00, 0x00,
  0x36, 0xFE, 0xFF, 0xFF, 0x14, 0x00, 0x00, 0x00, 0x00, 0x00,
  0x00, 0x01, 0x1C, 0x00, 0x00, 0x00, 0x20, 0x00, 0x00, 0x00,
  0x01, 0x00, 0x00, 0x00, 0x28, 0xFE, 0xFF, 0xFF, 0x00, 0x00,
  0x00, 0x01, 0x01, 0x00, 0x00, 0x00, 0x01, 0x00, 0x00, 0x00,
  0x01, 0x00, 0x00, 0x00, 0x18, 0x00, 0x00, 0x00, 0x03, 0x00,
  0x00, 0x00, 0x17, 0x00, 0x00, 0x00, 0x05, 0x00, 0x00, 0x00,
  0x04, 0x00, 0x00, 0x00, 0x76, 0xFE, 0xFF, 0xFF, 0x14, 0x00,
  0x00, 0x00, 0x00, 0x00, 0x00, 0x01, 0x1C, 0x00, 0x00, 0x00,
  0x20, 0x00, 0x00, 0x00, 0x01, 0x00, 0x00, 0x00, 0x68, 0xFE,
  0xFF, 0xFF, 0x00, 0x00, 0x00, 0x01, 0x01, 0x00, 0x00, 0x00,
  0x01, 0x00, 0x00, 0x00, 0x01, 0x00, 0x00, 0x00, 0x17, 0x00,
  0x00, 0x00, 0x03, 0x00, 0x00, 0x00, 0x16, 0x00, 0x00, 0x00,
  0x07, 0x00, 0x00, 0x00, 0x06, 0x00, 0x00, 0x00, 0xB6, 0xFE,
  0xFF, 0xFF, 0x14, 0x00, 0x00, 0x00, 0x00, 0x00, 0x00, 0x05,
  0x20, 0x00, 0x00, 0x00, 0x24, 0x00, 0x00, 0x00, 0x02, 0x00,
  0x00, 0x00, 0x42, 0xFF, 0xFF, 0xFF, 0x02, 0x00, 0x00, 0x00,
  0x02, 0x00, 0x00, 0x00, 0x02, 0x00, 0x00, 0x00, 0x02, 0x00,
  0x00, 0x00, 0x01, 0x00, 0x00, 0x00, 0x16, 0x00, 0x00, 0x00,
  0x01, 0x00, 0x00, 0x00, 0x15, 0x00, 0x00, 0x00, 0xF2, 0xFE,
  0xFF, 0xFF, 0x14, 0x00, 0x00, 0x00, 0x00, 0x00, 0x00, 0x01,
  0x1C, 0x00, 0x00, 0x00, 0x20, 0x00, 0x00, 0x00, 0x01, 0x00,
  0x00, 0x00, 0xE4, 0xFE, 0xFF, 0xFF, 0x00, 0x00, 0x00, 0x01,
  0x01, 0x00, 0x00, 0x00, 0x01, 0x00, 0x00, 0x00, 0x01, 0x00,
  0x00, 0x00, 0x15, 0x00, 0x00, 0x00, 0x03, 0x00, 0x00, 0x00,
  0x14, 0x00, 0x00, 0x00, 0x09, 0x00, 0x00, 0x00, 0x08, 0x00,
  0x00, 0x00, 0x32, 0xFF, 0xFF, 0xFF, 0x14, 0x00, 0x00, 0x00,
  0x00, 0x00, 0x00, 0x01, 0x1C, 0x00, 0x00, 0x00, 0x20, 0x00,
  0x00, 0x00, 0x01, 0x00, 0x00, 0x00, 0x24, 0xFF, 0xFF, 0xFF,
  0x00, 0x00, 0x00, 0x01, 0x01, 0x00, 0x00, 0x00, 0x01, 0x00,
  0x00, 0x00, 0x01, 0x00, 0x00, 0x00, 0x14, 0x00, 0x00, 0x00,
  0x03, 0x00, 0x00, 0x00, 0x13, 0x00, 0x00, 0x00, 0x0B, 0x00,
  0x00, 0x00, 0x0A, 0x00, 0x00, 0x00, 0x72, 0xFF, 0xFF, 0xFF,
  0x24, 0x00, 0x00, 0x00, 0x00, 0x00, 0x00, 0x05, 0x30, 0x00,
  0x00, 0x00, 0x34, 0x00, 0x00, 0x00, 0x02, 0x00, 0x00, 0x00,
  0x00, 0x00, 0x0E, 0x00, 0x14, 0x00, 0x00, 0x00, 0x10, 0x00,
  0x0C, 0x00, 0x08, 0x00, 0x04, 0x00, 0x0E, 0x00, 0x00, 0x00,
  0x02, 0x00, 0x00, 0x00, 0x02, 0x00, 0x00, 0x00, 0x02, 0x00,
  0x00, 0x00, 0x02, 0x00, 0x00, 0x00, 0x01, 0x00, 0x00, 0x00,
  0x13, 0x00, 0x00, 0x00, 0x01, 0x00, 0x00, 0x00, 0x12, 0x00,
  0x00, 0x00, 0xBE, 0xFF, 0xFF, 0xFF, 0x14, 0x00, 0x00, 0x00,
  0x00, 0x00, 0x00, 0x01, 0x1C, 0x00, 0x00, 0x00, 0x20, 0x00,
  0x00, 0x00, 0x01, 0x00, 0x00, 0x00, 0xB0, 0xFF, 0xFF, 0xFF,
  0x00, 0x00, 0x00, 0x01, 0x01, 0x00, 0x00, 0x00, 0x01, 0x00,
  0x00, 0x00, 0x01, 0x00, 0x00, 0x00, 0x12, 0x00, 0x00, 0x00,
  0x03, 0x00, 0x00, 0x00, 0x11, 0x00, 0x00, 0x00, 0x0D, 0x00,
  0x00, 0x00, 0x0C, 0x00, 0x00, 0x00, 0x00, 0x00, 0x0E, 0x00,
  0x18, 0x00, 0x14, 0x00, 0x10, 0x00, 0x0C, 0x00, 0x0B, 0x00,
  0x04, 0x00, 0x0E, 0x00, 0x00, 0x00, 0x20, 0x00, 0x00, 0x00,
  0x00, 0x00, 0x00, 0x01, 0x28, 0x00, 0x00, 0x00, 0x2C, 0x00,
  0x00, 0x00, 0x01, 0x00, 0x00, 0x00, 0x0C, 0x00, 0x10, 0x00,
  0x00, 0x00, 0x0C, 0x00, 0x08, 0x00, 0x07, 0x00, 0x0C, 0x00,
  0x00, 0x00, 0x00, 0x00, 0x00, 0x01, 0x01, 0x00, 0x00, 0x00,
  0x01, 0x00, 0x00, 0x00, 0x01, 0x00, 0x00, 0x00, 0x11, 0x00,
  0x00, 0x00, 0x03, 0x00, 0x00, 0x00, 0x10, 0x00, 0x00, 0x00,
  0x0F, 0x00, 0x00, 0x00, 0x0E, 0x00, 0x00, 0x00, 0x00, 0x00,
  0x0A, 0x00, 0x0C, 0x00, 0x00, 0x00, 0x08, 0x00, 0x04, 0x00,
  0x0A, 0x00, 0x00, 0x00, 0x08, 0x00, 0x00, 0x00, 0x0C, 0x00,
  0x00, 0x00, 0x01, 0x00, 0x00, 0x00, 0x10, 0x00, 0x00, 0x00,
  0x01, 0x00, 0x00, 0x00, 0x00, 0x00, 0x00, 0x00, 0x01, 0x00,
  0x00, 0x00, 0x1D, 0x00, 0x00, 0x00, 0x01, 0x00, 0x00, 0x00,
  0x00, 0x00, 0x00, 0x00, 0x1E, 0x00, 0x00, 0x00, 0x18, 0x17,
  0x00, 0x00, 0xB0, 0x16, 0x00, 0x00, 0x14, 0x16, 0x00, 0x00,
  0xA4, 0x15, 0x00, 0x00, 0xD8, 0x14, 0x00, 0x00, 0x14, 0x14,
  0x00, 0x00, 0xE8, 0x12, 0x00, 0x00, 0xC4, 0x11, 0x00, 0x00,
  0xF8, 0x10, 0x00, 0x00, 0x34, 0x10, 0x00, 0x00, 0x08, 0x0F,
  0x00, 0x00, 0xE4, 0x0D, 0x00, 0x00, 0x18, 0x0D, 0x00, 0x00,
  0x54, 0x0C, 0x00, 0x00, 0x28, 0x0B, 0x00, 0x00, 0x04, 0x0A,
  0x00, 0x00, 0x80, 0x09, 0x00, 0x00, 0x74, 0x08, 0x00, 0x00,
  0x80, 0x07, 0x00, 0x00, 0xEC, 0x06, 0x00, 0x00, 0xF8, 0x05,
  0x00, 0x00, 0x04, 0x05, 0x00, 0x00, 0x70, 0x04, 0x00, 0x00,
  0x94, 0x03, 0x00, 0x00, 0xB8, 0x02, 0x00, 0x00, 0x24, 0x02,
  0x00, 0x00, 0x88, 0x01, 0x00, 0x00, 0xFC, 0x00, 0x00, 0x00,
  0x70, 0x00, 0x00, 0x00, 0x04, 0x00, 0x00, 0x00, 0x76, 0xE9,
  0xFF, 0xFF, 0x00, 0x00, 0x00, 0x01, 0x14, 0x00, 0x00, 0x00,
  0x24, 0x00, 0x00, 0x00, 0x24, 0x00, 0x00, 0x00, 0x1E, 0x00,
  0x00, 0x00, 0x3C, 0x00, 0x00, 0x00, 0x04, 0x00, 0x00, 0x00,
  0xFF, 0xFF, 0xFF, 0xFF, 0x80, 0x00, 0x00, 0x00, 0x80, 0x00,
  0x00, 0x00, 0x01, 0x00, 0x00, 0x00, 0x60, 0xE9, 0xFF, 0xFF,
  0x19, 0x00, 0x00, 0x00, 0x53, 0x74, 0x61, 0x74, 0x65, 0x66,
  0x75, 0x6C, 0x50, 0x61, 0x72, 0x74, 0x69, 0x74, 0x69, 0x6F,
  0x6E, 0x65, 0x64, 0x43, 0x61, 0x6C, 0x6C, 0x3A, 0x30, 0x00,
  0x00, 0x00, 0x04, 0x00, 0x00, 0x00, 0x01, 0x00, 0x00, 0x00,
  0x80, 0x00, 0x00, 0x00, 0x80, 0x00, 0x00, 0x00, 0x01, 0x00,
  0x00, 0x00, 0x36, 0xF7, 0xFF, 0xFF, 0x00, 0x00, 0x00, 0x01,
  0x18, 0x00, 0x00, 0x00, 0x28, 0x00, 0x00, 0x00, 0x44, 0x00,
  0x00, 0x00, 0x1D, 0x00, 0x00, 0x00, 0x00, 0x00, 0x00, 0x09,
  0x58, 0x00, 0x00, 0x00, 0x04, 0x00, 0x00, 0x00, 0xFF, 0xFF,
  0xFF, 0xFF, 0x80, 0x00, 0x00, 0x00, 0x80, 0x00, 0x00, 0x00,
  0x01, 0x00, 0x00, 0x00, 0xDC, 0xEA, 0xFF, 0xFF, 0x08, 0x00,
  0x00, 0x00, 0x10, 0x00, 0x00, 0x00, 0x01, 0x00, 0x00, 0x00,
  0x80, 0xFF, 0xFF, 0xFF, 0xFF, 0xFF, 0xFF, 0xFF, 0x01, 0x00,
  0x00, 0x00, 0xEC, 0x5B, 0xC7, 0x3B, 0x1A, 0x00, 0x00, 0x00,
  0x53, 0x74, 0x61, 0x74, 0x65, 0x66, 0x75, 0x6C, 0x50, 0x61,
  0x72, 0x74, 0x69, 0x74, 0x69, 0x6F, 0x6E, 0x65, 0x64, 0x43,
  0x61, 0x6C, 0x6C, 0x3A, 0x30, 0x31, 0x00, 0x00, 0x04, 0x00,
  0x00, 0x00, 0x01, 0x00, 0x00, 0x00, 0x80, 0x00, 0x00, 0x00,
  0x80, 0x00, 0x00, 0x00, 0x01, 0x00, 0x00, 0x00, 0xBE, 0xF7,
  0xFF, 0xFF, 0x00, 0x00, 0x00, 0x01, 0x18, 0x00, 0x00, 0x00,
  0x28, 0x00, 0x00, 0x00, 0x44, 0x00, 0x00, 0x00, 0x1C, 0x00,
  0x00, 0x00, 0x00, 0x00, 0x00, 0x09, 0x58, 0x00, 0x00, 0x00,
  0x04, 0x00, 0x00, 0x00, 0xFF, 0xFF, 0xFF, 0xFF, 0x80, 0x00,
  0x00, 0x00, 0x80, 0x00, 0x00, 0x00, 0x18, 0x00, 0x00, 0x00,
  0x64, 0xEB, 0xFF, 0xFF, 0x08, 0x00, 0x00, 0x00, 0x10, 0x00,
  0x00, 0x00, 0x01, 0x00, 0x00, 0x00, 0x80, 0xFF, 0xFF, 0xFF,
  0xFF, 0xFF, 0xFF, 0xFF, 0x01, 0x00, 0x00, 0x00, 0x42, 0xBF,
  0x4D, 0x3C, 0x18, 0x00, 0x00, 0x00, 0x6D, 0x6F, 0x64, 0x65,
  0x6C, 0x2F, 0x63, 0x6F, 0x6E, 0x63, 0x61, 0x74, 0x65, 0x6E,
  0x61, 0x74, 0x65, 0x2F, 0x63, 0x6F, 0x6E, 0x63, 0x61, 0x74,
  0x00, 0x00, 0x00, 0x00, 0x04, 0x00, 0x00, 0x00, 0x01, 0x00,
  0x00, 0x00, 0x80, 0x00, 0x00, 0x00, 0x80, 0x00, 0x00, 0x00,
  0x18, 0x00, 0x00, 0x00, 0x46, 0xF8, 0xFF, 0xFF, 0x00, 0x00,
  0x00, 0x01, 0x18, 0x00, 0x00, 0x00, 0x28, 0x00, 0x00, 0x00,
  0x48, 0x00, 0x00, 0x00, 0x1B, 0x00, 0x00, 0x00, 0x00, 0x00,
  0x00, 0x09, 0x68, 0x00, 0x00, 0x00, 0x04, 0x00, 0x00, 0x00,
  0xFF, 0xFF, 0xFF, 0xFF, 0x80, 0x00, 0x00, 0x00, 0x80, 0x00,
  0x00, 0x00, 0x08, 0x00, 0x00, 0x00, 0xEC, 0xEB, 0xFF, 0xFF,
  0x08, 0x00, 0x00, 0x00, 0x14, 0x00, 0x00, 0x00, 0x01, 0x00,
  0x00, 0x00, 0x80, 0xFF, 0xFF, 0xFF, 0xFF, 0xFF, 0xFF, 0xFF,
  0x00, 0x00, 0x00, 0x00, 0x01, 0x00, 0x00, 0x00, 0x42, 0xBF,
  0x4D, 0x3C, 0x26, 0x00, 0x00, 0x00, 0x6D, 0x6F, 0x64, 0x65,
  0x6C, 0x2F, 0x72, 0x65, 0x73, 0x69, 0x7A, 0x69, 0x6E, 0x67,
  0x5F, 0x31, 0x2F, 0x72, 0x65, 0x73, 0x69, 0x7A, 0x65, 0x2F,
  0x52, 0x65, 0x73, 0x69, 0x7A, 0x65, 0x42, 0x69, 0x6C, 0x69,
  0x6E, 0x65, 0x61, 0x72, 0x00, 0x00, 0x04, 0x00, 0x00, 0x00,
  0x01, 0x00, 0x00, 0x00, 0x80, 0x00, 0x00, 0x00, 0x80, 0x00,
  0x00, 0x00, 0x08, 0x00, 0x00, 0x00, 0xDE, 0xF8, 0xFF, 0xFF,
  0x00, 0x00, 0x00, 0x01, 0x18, 0x00, 0x00, 0x00, 0x28, 0x00,
  0x00, 0x00, 0x44, 0x00, 0x00, 0x00, 0x1A, 0x00, 0x00, 0x00,
  0x00, 0x00, 0x00, 0x09, 0x60, 0x00, 0x00, 0x00, 0x04, 0x00,
  0x00, 0x00, 0xFF, 0xFF, 0xFF, 0xFF, 0x10, 0x00, 0x00, 0x00,
  0x10, 0x00, 0x00, 0x00, 0x08, 0x00, 0x00, 0x00, 0x84, 0xEC,
  0xFF, 0xFF, 0x08, 0x00, 0x00, 0x00, 0x10, 0x00, 0x00, 0x00,
  0x01, 0x00, 0x00, 0x00, 0x80, 0xFF, 0xFF, 0xFF, 0xFF, 0xFF,
  0xFF, 0xFF, 0x01, 0x00, 0x00, 0x00, 0x42, 0xBF, 0x4D, 0x3C,
  0x21, 0x00, 0x00, 0x00, 0x6D, 0x6F, 0x64, 0x65, 0x6C, 0x2F,
  0x61, 0x76, 0x65, 0x72, 0x61, 0x67, 0x65, 0x5F, 0x70, 0x6F,
  0x6F, 0x6C, 0x69, 0x6E, 0x67, 0x32, 0x64, 0x5F, 0x32, 0x2F,
  0x41, 0x76, 0x67, 0x50, 0x6F, 0x6F, 0x6C, 0x00, 0x00, 0x00,
  0x04, 0x00, 0x00, 0x00, 0x01, 0x00, 0x00, 0x00, 0x10, 0x00,
  0x00, 0x00, 0x10, 0x00, 0x00, 0x00, 0x08, 0x00, 0x00, 0x00,
  0x6E, 0xF9, 0xFF, 0xFF, 0x00, 0x00, 0x00, 0x01, 0x18, 0x00,
  0x00, 0x00, 0x28, 0x00, 0x00, 0x00, 0x48, 0x00, 0x00, 0x00,
  0x19, 0x00, 0x00, 0x00, 0x00, 0x00, 0x00, 0x09, 0xA8, 0x00,
  0x00, 0x00, 0x04, 0x00, 0x00, 0x00, 0xFF, 0xFF, 0xFF, 0xFF,
  0x20, 0x00, 0x00, 0x00, 0x20, 0x00, 0x00, 0x00, 0x08, 0x00,
  0x00, 0x00, 0x14, 0xED, 0xFF, 0xFF, 0x08, 0x00, 0x00, 0x00,
  0x14, 0x00, 0x00, 0x00, 0x01, 0x00, 0x00, 0x00, 0x80, 0xFF,
  0xFF, 0xFF, 0xFF, 0xFF, 0xFF, 0xFF, 0x00, 0x00, 0x00, 0x00,
  0x01, 0x00, 0x00, 0x00, 0x42, 0xBF, 0x4D, 0x3C, 0x66, 0x00,
  0x00, 0x00, 0x6D, 0x6F, 0x64, 0x65, 0x6C, 0x2F, 0x63, 0x6F,
  0x6E, 0x76, 0x32, 0x64, 0x5F, 0x36, 0x2F, 0x52, 0x65, 0x6C,
  0x75, 0x3B, 0x6D, 0x6F, 0x64, 0x65, 0x6C, 0x2F, 0x63, 0x6F,
  0x6E, 0x76, 0x32, 0x64, 0x5F, 0x36, 0x2F, 0x42, 0x69, 0x61,
  0x73, 0x41, 0x64, 0x64, 0x3B, 0x6D, 0x6F, 0x64, 0x65, 0x6C,
  0x2F, 0x63, 0x6F, 0x6E, 0x76, 0x32, 0x64, 0x5F, 0x36, 0x2F,
  0x43, 0x6F, 0x6E, 0x76, 0x32, 0x44, 0x3B, 0x6D, 0x6F, 0x64,
  0x65, 0x6C, 0x2F, 0x63, 0x6F, 0x6E, 0x76, 0x32, 0x64, 0x5F,
  0x36, 0x2F, 0x42, 0x69, 0x61, 0x73, 0x41, 0x64, 0x64, 0x2F,
  0x52, 0x65, 0x61, 0x64, 0x56, 0x61, 0x72, 0x69, 0x61, 0x62,
  0x6C, 0x65, 0x4F, 0x70, 0x00, 0x00, 0x04, 0x00, 0x00, 0x00,
  0x01, 0x00, 0x00, 0x00, 0x20, 0x00, 0x00, 0x00, 0x20, 0x00,
  0x00, 0x00, 0x08, 0x00, 0x00, 0x00, 0x46, 0xFA, 0xFF, 0xFF,
  0x00, 0x00, 0x00, 0x01, 0x18, 0x00, 0x00, 0x00, 0x28, 0x00,
  0x00, 0x00, 0x48, 0x00, 0x00, 0x00, 0x18, 0x00, 0x00, 0x00,
  0x00, 0x00, 0x00, 0x09, 0xA8, 0x00, 0x00, 0x00, 0x04, 0x00,
  0x00, 0x00, 0xFF, 0xFF, 0xFF, 0xFF, 0x20, 0x00, 0x00, 0x00,
  0x20, 0x00, 0x00, 0x00, 0x10, 0x00, 0x00, 0x00, 0xEC, 0xED,
  0xFF, 0xFF, 0x08, 0x00, 0x00, 0x00, 0x14, 0x00, 0x00, 0x00,
  0x01, 0x00, 0x00, 0x00, 0x80, 0xFF, 0xFF, 0xFF, 0xFF, 0xFF,
  0xFF, 0xFF, 0x00, 0x00, 0x00, 0x00, 0x01, 0x00, 0x00, 0x00,
  0x25, 0x7B, 0xE6, 0x3B, 0x66, 0x00, 0x00, 0x00, 0x6D, 0x6F,
  0x64, 0x65, 0x6C, 0x2F, 0x63, 0x6F, 0x6E, 0x76, 0x32, 0x64,
  0x5F, 0x35, 0x2F, 0x52, 0x65, 0x6C, 0x75, 0x3B, 0x6D, 0x6F,
  0x64, 0x65, 0x6C, 0x2F, 0x63, 0x6F, 0x6E, 0x76, 0x32, 0x64,
  0x5F, 0x35, 0x2F, 0x42, 0x69, 0x61, 0x73, 0x41, 0x64, 0x64,
  0x3B, 0x6D, 0x6F, 0x64, 0x65, 0x6C, 0x2F, 0x63, 0x6F, 0x6E,
  0x76, 0x32, 0x64, 0x5F, 0x35, 0x2F, 0x43, 0x6F, 0x6E, 0x76,
  0x32, 0x44, 0x3B, 0x6D, 0x6F, 0x64, 0x65, 0x6C, 0x2F, 0x63,
  0x6F, 0x6E, 0x76, 0x32, 0x64, 0x5F, 0x35, 0x2F, 0x42, 0x69,
  0x61, 0x73, 0x41, 0x64, 0x64, 0x2F, 0x52, 0x65, 0x61, 0x64,
  0x56, 0x61, 0x72, 0x69, 0x61, 0x62, 0x6C, 0x65, 0x4F, 0x70,
  0x00, 0x00, 0x04, 0x00, 0x00, 0x00, 0x01, 0x00, 0x00, 0x00,
  0x20, 0x00, 0x00, 0x00, 0x20, 0x00, 0x00, 0x00, 0x10, 0x00,
  0x00, 0x00, 0x1E, 0xFB, 0xFF, 0xFF, 0x00, 0x00, 0x00, 0x01,
  0x18, 0x00, 0x00, 0x00, 0x28, 0x00, 0x00, 0x00, 0x44, 0x00,
  0x00, 0x00, 0x17, 0x00, 0x00, 0x00, 0x00, 0x00, 0x00, 0x09,
  0x60, 0x00, 0x00, 0x00, 0x04, 0x00, 0x00, 0x00, 0xFF, 0xFF,
  0xFF, 0xFF, 0x20, 0x00, 0x00, 0x00, 0x20, 0x00, 0x00, 0x00,
  0x08, 0x00, 0x00, 0x00, 0xC4, 0xEE, 0xFF, 0xFF, 0x08, 0x00,
  0x00, 0x00, 0x10, 0x00, 0x00, 0x00, 0x01, 0x00, 0x00, 0x00,
  0x80, 0xFF, 0xFF, 0xFF, 0xFF, 0xFF, 0xFF, 0xFF, 0x01, 0x00,
  0x00, 0x00, 0xEF, 0x6C, 0x12, 0x3C, 0x21, 0x00, 0x00, 0x00,
  0x6D, 0x6F, 0x64, 0x65, 0x6C, 0x2F, 0x61, 0x76, 0x65, 0x72,
  0x61, 0x67, 0x65, 0x5F, 0x70, 0x6F, 0x6F, 0x6C, 0x69, 0x6E,
  0x67, 0x32, 0x64, 0x5F, 0x31, 0x2F, 0x41, 0x76, 0x67, 0x50,
  0x6F, 0x6F, 0x6C, 0x00, 0x00, 0x00, 0x04, 0x00, 0x00, 0x00,
  0x01, 0x00, 0x00, 0x00, 0x20, 0x00, 0x00, 0x00, 0x20, 0x00,
  0x00, 0x00, 0x08, 0x00, 0x00, 0x00, 0xAE, 0xFB, 0xFF, 0xFF,
  0x00, 0x00, 0x00, 0x01, 0x18, 0x00, 0x00, 0x00, 0x28, 0x00,
  0x00, 0x00, 0x48, 0x00, 0x00, 0x00, 0x16, 0x00, 0x00, 0x00,
  0x00, 0x00, 0x00, 0x09, 0xC0, 0x00, 0x00, 0x00, 0x04, 0x00,
  0x00, 0x00, 0xFF, 0xFF, 0xFF, 0xFF, 0x40, 0x00, 0x00, 0x00,
  0x40, 0x00, 0x00, 0x00, 0x08, 0x00, 0x00, 0x00, 0x54, 0xEF,
  0xFF, 0xFF, 0x08, 0x00, 0x00, 0x00, 0x14, 0x00, 0x00, 0x00,
  0x01, 0x00, 0x00, 0x00, 0x80, 0xFF, 0xFF, 0xFF, 0xFF, 0xFF,
  0xFF, 0xFF, 0x00, 0x00, 0x00, 0x00, 0x01, 0x00, 0x00, 0x00,
  0xEF, 0x6C, 0x12, 0x3C, 0x7C, 0x00, 0x00, 0x00, 0x6D, 0x6F,
  0x64, 0x65, 0x6C, 0x2F, 0x63, 0x6F, 0x6E, 0x76, 0x32, 0x64,
  0x5F, 0x34, 0x2F, 0x52, 0x65, 0x6C, 0x75, 0x3B, 0x6D, 0x6F,
  0x64, 0x65, 0x6C, 0x2F, 0x63, 0x6F, 0x6E, 0x76, 0x32, 0x64,
  0x5F, 0x34, 0x2F, 0x42, 0x69, 0x61, 0x73, 0x41, 0x64, 0x64,
  0x3B, 0x6D, 0x6F, 0x64, 0x65, 0x6C, 0x2F, 0x63, 0x6F, 0x6E,
  0x76, 0x32, 0x64, 0x5F, 0x36, 0x2F, 0x43, 0x6F, 0x6E, 0x76,
  0x32, 0x44, 0x3B, 0x6D, 0x6F, 0x64, 0x65, 0x6C, 0x2F, 0x63,
  0x6F, 0x6E, 0x76, 0x32, 0x64, 0x5F, 0x34, 0x2F, 0x43, 0x6F,
  0x6E, 0x76, 0x32, 0x44, 0x3B, 0x6D, 0x6F, 0x64, 0x65, 0x6C,
  0x2F, 0x63, 0x6F, 0x6E, 0x76, 0x32, 0x64, 0x5F, 0x34, 0x2F,
  0x42, 0x69, 0x61, 0x73, 0x41, 0x64, 0x64, 0x2F, 0x52, 0x65,
  0x61, 0x64, 0x56, 0x61, 0x72, 0x69, 0x61, 0x62, 0x6C, 0x65,
  0x4F, 0x70, 0x00, 0x00, 0x00, 0x00, 0x04, 0x00, 0x00, 0x00,
  0x01, 0x00, 0x00, 0x00, 0x40, 0x00, 0x00, 0x00, 0x40, 0x00,
  0x00, 0x00, 0x08, 0x00, 0x00, 0x00, 0x9E, 0xFC, 0xFF, 0xFF,
  0x00, 0x00, 0x00, 0x01, 0x18, 0x00, 0x00, 0x00, 0x28, 0x00,
  0x00, 0x00, 0x48, 0x00, 0x00, 0x00, 0x15, 0x00, 0x00, 0x00,
  0x00, 0x00, 0x00, 0x09, 0xC0, 0x00, 0x00, 0x00, 0x04, 0x00,
  0x00, 0x00, 0xFF, 0xFF, 0xFF, 0xFF, 0x40, 0x00, 0x00, 0x00,
  0x40, 0x00, 0x00, 0x00, 0x10, 0x00, 0x00, 0x00, 0x44, 0xF0,
  0xFF, 0xFF, 0x08, 0x00, 0x00, 0x00, 0x14, 0x00, 0x00, 0x00,
  0x01, 0x00, 0x00, 0x00, 0x80, 0xFF, 0xFF, 0xFF, 0xFF, 0xFF,
  0xFF, 0xFF, 0x00, 0x00, 0x00, 0x00, 0x01, 0x00, 0x00, 0x00,
  0x19, 0x34, 0xEC, 0x3B, 0x7C, 0x00, 0x00, 0x00, 0x6D, 0x6F,
  0x64, 0x65, 0x6C, 0x2F, 0x63, 0x6F, 0x6E, 0x76, 0x32, 0x64,
  0x5F, 0x33, 0x2F, 0x52, 0x65, 0x6C, 0x75, 0x3B, 0x6D, 0x6F,
  0x64, 0x65, 0x6C, 0x2F, 0x63, 0x6F, 0x6E, 0x76, 0x32, 0x64,
  0x5F, 0x33, 0x2F, 0x42, 0x69, 0x61, 0x73, 0x41, 0x64, 0x64,
  0x3B, 0x6D, 0x6F, 0x64, 0x65, 0x6C, 0x2F, 0x63, 0x6F, 0x6E,
  0x76, 0x32, 0x64, 0x5F, 0x35, 0x2F, 0x43, 0x6F, 0x6E, 0x76,
  0x32, 0x44, 0x3B, 0x6D, 0x6F, 0x64, 0x65, 0x6C, 0x2F, 0x63,
  0x6F, 0x6E, 0x76, 0x32, 0x64, 0x5F, 0x33, 0x2F, 0x43, 0x6F,
  0x6E, 0x76, 0x32, 0x44, 0x3B, 0x6D, 0x6F, 0x64, 0x65, 0x6C,
  0x2F, 0x63, 0x6F, 0x6E, 0x76, 0x32, 0x64, 0x5F, 0x33, 0x2F,
  0x42, 0x69, 0x61, 0x73, 0x41, 0x64, 0x64, 0x2F, 0x52, 0x65,
  0x61, 0x64, 0x56, 0x61, 0x72, 0x69, 0x61, 0x62, 0x6C, 0x65,
  0x4F, 0x70, 0x00, 0x00, 0x00, 0x00, 0x04, 0x00, 0x00, 0x00,
  0x01, 0x00, 0x00, 0x00, 0x40, 0x00, 0x00, 0x00, 0x40, 0x00,
  0x00, 0x00, 0x10, 0x00, 0x00, 0x00, 0x8E, 0xFD, 0xFF, 0xFF,
  0x00, 0x00, 0x00, 0x01, 0x18, 0x00, 0x00, 0x00, 0x28, 0x00,
  0x00, 0x00, 0x48, 0x00, 0x00, 0x00, 0x14, 0x00, 0x00, 0x00,
  0x00, 0x00, 0x00, 0x09, 0x60, 0x00, 0x00, 0x00, 0x04, 0x00,
  0x00, 0x00, 0xFF, 0xFF, 0xFF, 0xFF, 0x40, 0x00, 0x00, 0x00,
  0x40, 0x00, 0x00, 0x00, 0x08, 0x00, 0x00, 0x00, 0x34, 0xF1,
  0xFF, 0xFF, 0x08, 0x00, 0x00, 0x00, 0x14, 0x00, 0x00, 0x00,
  0x01, 0x00, 0x00, 0x00, 0x80, 0xFF, 0xFF, 0xFF, 0xFF, 0xFF,
  0xFF, 0xFF, 0x00, 0x00, 0x00, 0x00, 0x01, 0x00, 0x00, 0x00,
  0xA9, 0x78, 0x1B, 0x3C, 0x1F, 0x00, 0x00, 0x00, 0x6D, 0x6F,
  0x64, 0x65, 0x6C, 0x2F, 0x61, 0x76, 0x65, 0x72, 0x61, 0x67,
  0x65, 0x5F, 0x70, 0x6F, 0x6F, 0x6C, 0x69, 0x6E, 0x67, 0x32,
  0x64, 0x2F, 0x41, 0x76, 0x67, 0x50, 0x6F, 0x6F, 0x6C, 0x00,
  0x04, 0x00, 0x00, 0x00, 0x01, 0x00, 0x00, 0x00, 0x40, 0x00,
  0x00, 0x00, 0x40, 0x00, 0x00, 0x00, 0x08, 0x00, 0x00, 0x00,
  0x1E, 0xFE, 0xFF, 0xFF, 0x00, 0x00, 0x00, 0x01, 0x18, 0x00,
  0x00, 0x00, 0x28, 0x00, 0x00, 0x00, 0x48, 0x00, 0x00, 0x00,
  0x13, 0x00, 0x00, 0x00, 0x00, 0x00, 0x00, 0x09, 0xC0, 0x00,
  0x00, 0x00, 0x04, 0x00, 0x00, 0x00, 0xFF, 0xFF, 0xFF, 0xFF,
  0x80, 0x00, 0x00, 0x00, 0x80, 0x00, 0x00, 0x00, 0x08, 0x00,
  0x00, 0x00, 0xC4, 0xF1, 0xFF, 0xFF, 0x08, 0x00, 0x00, 0x00,
  0x14, 0x00, 0x00, 0x00, 0x01, 0x00, 0x00, 0x00, 0x80, 0xFF,
  0xFF, 0xFF, 0xFF, 0xFF, 0xFF, 0xFF, 0x00, 0x00, 0x00, 0x00,
  0x01, 0x00, 0x00, 0x00, 0xA9, 0x78, 0x1B, 0x3C, 0x7C, 0x00,
  0x00, 0x00, 0x6D, 0x6F, 0x64, 0x65, 0x6C, 0x2F, 0x63, 0x6F,
  0x6E, 0x76, 0x32, 0x64, 0x5F, 0x32, 0x2F, 0x52, 0x65, 0x6C,
  0x75, 0x3B, 0x6D, 0x6F, 0x64, 0x65, 0x6C, 0x2F, 0x63, 0x6F,
  0x6E, 0x76, 0x32, 0x64, 0x5F, 0x32, 0x2F, 0x42, 0x69, 0x61,
  0x73, 0x41, 0x64, 0x64, 0x3B, 0x6D, 0x6F, 0x64, 0x65, 0x6C,
  0x2F, 0x63, 0x6F, 0x6E, 0x76, 0x32, 0x64, 0x5F, 0x36, 0x2F,
  0x43, 0x6F, 0x6E, 0x76, 0x32, 0x44, 0x3B, 0x6D, 0x6F, 0x64,
  0x65, 0x6C, 0x2F, 0x63, 0x6F, 0x6E, 0x76, 0x32, 0x64, 0x5F,
  0x32, 0x2F, 0x43, 0x6F, 0x6E, 0x76, 0x32, 0x44, 0x3B, 0x6D,
  0x6F, 0x64, 0x65, 0x6C, 0x2F, 0x63, 0x6F, 0x6E, 0x76, 0x32,
  0x64, 0x5F, 0x32, 0x2F, 0x42, 0x69, 0x61, 0x73, 0x41, 0x64,
  0x64, 0x2F, 0x52, 0x65, 0x61, 0x64, 0x56, 0x61, 0x72, 0x69,
  0x61, 0x62, 0x6C, 0x65, 0x4F, 0x70, 0x00, 0x00, 0x00, 0x00,
  0x04, 0x00, 0x00, 0x00, 0x01, 0x00, 0x00, 0x00, 0x80, 0x00,
  0x00, 0x00, 0x80, 0x00, 0x00, 0x00, 0x08, 0x00, 0x00, 0x00,
  0x0E, 0xFF, 0xFF, 0xFF, 0x00, 0x00, 0x00, 0x01, 0x18, 0x00,
  0x00, 0x00, 0x28, 0x00, 0x00, 0x00, 0x48, 0x00, 0x00, 0x00,
  0x12, 0x00, 0x00, 0x00, 0x00, 0x00, 0x00, 0x09, 0xC0, 0x00,
  0x00, 0x00, 0x04, 0x00, 0x00, 0x00, 0xFF, 0xFF, 0xFF, 0xFF,
  0x80, 0x00, 0x00, 0x00, 0x80, 0x00, 0x00, 0x00, 0x10, 0x00,
  0x00, 0x00, 0xB4, 0xF2, 0xFF, 0xFF, 0x08, 0x00, 0x00, 0x00,
  0x14, 0x00, 0x00, 0x00, 0x01, 0x00, 0x00, 0x00, 0x80, 0xFF,
  0xFF, 0xFF, 0xFF, 0xFF, 0xFF, 0xFF, 0x00, 0x00, 0x00, 0x00,
  0x01, 0x00, 0x00, 0x00, 0x42, 0xBF, 0x4D, 0x3C, 0x7C, 0x00,
  0x00, 0x00, 0x6D, 0x6F, 0x64, 0x65, 0x6C, 0x2F, 0x63, 0x6F,
  0x6E, 0x76, 0x32, 0x64, 0x5F, 0x31, 0x2F, 0x52, 0x65, 0x6C,
  0x75, 0x3B, 0x6D, 0x6F, 0x64, 0x65, 0x6C, 0x2F, 0x63, 0x6F,
  0x6E, 0x76, 0x32, 0x64, 0x5F, 0x31, 0x2F, 0x42, 0x69, 0x61,
  0x73, 0x41, 0x64, 0x64, 0x3B, 0x6D, 0x6F, 0x64, 0x65, 0x6C,
  0x2F, 0x63, 0x6F, 0x6E, 0x76, 0x32, 0x64, 0x5F, 0x35, 0x2F,
  0x43, 0x6F, 0x6E, 0x76, 0x32, 0x44, 0x3B, 0x6D, 0x6F, 0x64,
  0x65, 0x6C, 0x2F, 0x63, 0x6F, 0x6E, 0x76, 0x32, 0x64, 0x5F,
  0x31, 0x2F, 0x43, 0x6F, 0x6E, 0x76, 0x32, 0x44, 0x3B, 0x6D,
  0x6F, 0x64, 0x65, 0x6C, 0x2F, 0x63, 0x6F, 0x6E, 0x76, 0x32,
  0x64, 0x5F, 0x31, 0x2F, 0x42, 0x69, 0x61, 0x73, 0x41, 0x64,
  0x64, 0x2F, 0x52, 0x65, 0x61, 0x64, 0x56, 0x61, 0x72, 0x69,
  0x61, 0x62, 0x6C, 0x65, 0x4F, 0x70, 0x00, 0x00, 0x00, 0x00,
  0x04, 0x00, 0x00, 0x00, 0x01, 0x00, 0x00, 0x00, 0x80, 0x00,
  0x00, 0x00, 0x80, 0x00, 0x00, 0x00, 0x10, 0x00, 0x00, 0x00,
  0x00, 0x00, 0x16, 0x00, 0x20, 0x00, 0x1C, 0x00, 0x1B, 0x00,
  0x14, 0x00, 0x10, 0x00, 0x0C, 0x00, 0x00, 0x00, 0x00, 0x00,
  0x08, 0x00, 0x07, 0x00, 0x16, 0x00, 0x00, 0x00, 0x00, 0x00,
  0x00, 0x01, 0x18, 0x00, 0x00, 0x00, 0x28, 0x00, 0x00, 0x00,
  0x48, 0x00, 0x00, 0x00, 0x11, 0x00, 0x00, 0x00, 0x00, 0x00,
  0x00, 0x09, 0x50, 0x00, 0x00, 0x00, 0x04, 0x00, 0x00, 0x00,
  0xFF, 0xFF, 0xFF, 0xFF, 0x80, 0x00, 0x00, 0x00, 0x80, 0x00,
  0x00, 0x00, 0x01, 0x00, 0x00, 0x00, 0xBC, 0xF3, 0xFF, 0xFF,
  0x08, 0x00, 0x00, 0x00, 0x14, 0x00, 0x00, 0x00, 0x01, 0x00,
  0x00, 0x00, 0x80, 0xFF, 0xFF, 0xFF, 0xFF, 0xFF, 0xFF, 0xFF,
  0x00, 0x00, 0x00, 0x00, 0x01, 0x00, 0x00, 0x00, 0x81, 0x80,
  0x80, 0x3B, 0x0C, 0x00, 0x00, 0x00, 0x74, 0x66, 0x6C, 0x2E,
  0x71, 0x75, 0x61, 0x6E, 0x74, 0x69, 0x7A, 0x65, 0x00, 0x00,
  0x00, 0x00, 0x04, 0x00, 0x00, 0x00, 0x01, 0x00, 0x00, 0x00,
  0x80, 0x00, 0x00, 0x00, 0x80, 0x00, 0x00, 0x00, 0x01, 0x00,
  0x00, 0x00, 0xA2, 0xF3, 0xFF, 0xFF, 0x00, 0x00, 0x00, 0x01,
  0x14, 0x00, 0x00, 0x00, 0xE4, 0x00, 0x00, 0x00, 0x10, 0x00,
  0x00, 0x00, 0x00, 0x00, 0x00, 0x09, 0xF4, 0x00, 0x00, 0x00,
  0x24, 0xF4, 0xFF, 0xFF, 0x08, 0x00, 0x00, 0x00, 0x88, 0x00,
  0x00, 0x00, 0x10, 0x00, 0x00, 0x00, 0x00, 0x00, 0x00, 0x00,
  0x00, 0x00, 0x00, 0x00, 0x00, 0x00, 0x00, 0x00, 0x00, 0x00,
  0x00, 0x00, 0x00, 0x00, 0x00, 0x00, 0x00, 0x00, 0x00, 0x00,
  0x00, 0x00, 0x00, 0x00, 0x00, 0x00, 0x00, 0x00, 0x00, 0x00,
  0x00, 0x00, 0x00, 0x00, 0x00, 0x00, 0x00, 0x00, 0x00, 0x00,
  0x00, 0x00, 0x00, 0x00, 0x00, 0x00, 0x00, 0x00, 0x00, 0x00,
  0x00, 0x00, 0x00, 0x00, 0x00, 0x00, 0x00, 0x00, 0x00, 0x00,
  0x00, 0x00, 0x00, 0x00, 0x00, 0x00, 0x00, 0x00, 0x00, 0x00,
  0x00, 0x00, 0x00, 0x00, 0x00, 0x00, 0x00, 0x00, 0x00, 0x00,
  0x00, 0x00, 0x00, 0x00, 0x00, 0x00, 0x00, 0x00, 0x00, 0x00,
  0x00, 0x00, 0x00, 0x00, 0x00, 0x00, 0x00, 0x00, 0x00, 0x00,
  0x00, 0x00, 0x00, 0x00, 0x00, 0x00, 0x00, 0x00, 0x00, 0x00,
  0x00, 0x00, 0x00, 0x00, 0x00, 0x00, 0x00, 0x00, 0x00, 0x00,
  0x00, 0x00, 0x00, 0x00, 0x10, 0x00, 0x00, 0x00, 0x65, 0xC1,
  0x91, 0x3A, 0x88, 0x95, 0xAC, 0x3A, 0x37, 0xFF, 0x9B, 0x3A,
  0x6D, 0x7C, 0x02, 0x3B, 0xCA, 0xB2, 0x02, 0x3B, 0xA1, 0x50,
  0xF6, 0x3A, 0x90, 0x8E, 0x26, 0x3B, 0x8F, 0xB3, 0x25, 0x3B,
  0xA1, 0xEF, 0xD6, 0x3A, 0x24, 0x9B, 0x4B, 0x3B, 0x35, 0xAF,
  0xB7, 0x3A, 0x7D, 0xE8, 0x0D, 0x3B, 0x96, 0x5F, 0x30, 0x3B,
  0xCE, 0xC4, 0x05, 0x3B, 0x2C, 0xC2, 0xE9, 0x3A, 0x5C, 0x26,
  0x0F, 0x3B, 0x15, 0x00, 0x00, 0x00, 0x6D, 0x6F, 0x64, 0x65,
  0x6C, 0x2F, 0x63, 0x6F, 0x6E, 0x76, 0x32, 0x64, 0x5F, 0x31,
  0x2F, 0x43, 0x6F, 0x6E, 0x76, 0x32, 0x44, 0x00, 0x00, 0x00,
  0x04, 0x00, 0x00, 0x00, 0x10, 0x00, 0x00, 0x00, 0x04, 0x00,
  0x00, 0x00, 0x04, 0x00, 0x00, 0x00, 0x01, 0x00, 0x00, 0x00,
  0xC2, 0xF4, 0xFF, 0xFF, 0x00, 0x00, 0x00, 0x01, 0x14, 0x00,
  0x00, 0x00, 0xE8, 0x00, 0x00, 0x00, 0x0F, 0x00, 0x00, 0x00,
  0x00, 0x00, 0x00, 0x02, 0x08, 0x01, 0x00, 0x00, 0x44, 0xF5,
  0xFF, 0xFF, 0x08, 0x00, 0x00, 0x00, 0x8C, 0x00, 0x00, 0x00,
  0x10, 0x00, 0x00, 0x00, 0x00, 0x00, 0x00, 0x00, 0x00, 0x00,
  0x00, 0x00, 0x00, 0x00, 0x00, 0x00, 0x00, 0x00, 0x00, 0x00,
  0x00, 0x00, 0x00, 0x00, 0x00, 0x00, 0x00, 0x00, 0x00, 0x00,
  0x00, 0x00, 0x00, 0x00, 0x00, 0x00, 0x00, 0x00, 0x00, 0x00,
  0x00, 0x00, 0x00, 0x00, 0x00, 0x00, 0x00, 0x00, 0x00, 0x00,
  0x00, 0x00, 0x00, 0x00, 0x00, 0x00, 0x00, 0x00, 0x00, 0x00,
  0x00, 0x00, 0x00, 0x00, 0x00, 0x00, 0x00, 0x00, 0x00, 0x00,
  0x00, 0x00, 0x00, 0x00, 0x00, 0x00, 0x00, 0x00, 0x00, 0x00,
  0x00, 0x00, 0x00, 0x00, 0x00, 0x00, 0x00, 0x00, 0x00, 0x00,
  0x00, 0x00, 0x00, 0x00, 0x00, 0x00, 0x00, 0x00, 0x00, 0x00,
  0x00, 0x00, 0x00, 0x00, 0x00, 0x00, 0x00, 0x00, 0x00, 0x00,
  0x00, 0x00, 0x00, 0x00, 0x00, 0x00, 0x00, 0x00, 0x00, 0x00,
  0x00, 0x00, 0x00, 0x00, 0x00, 0x00, 0x00, 0x00, 0x00, 0x00,
  0x00, 0x00, 0x00, 0x00, 0x00, 0x00, 0x10, 0x00, 0x00, 0x00,
  0xB9, 0x53, 0x92, 0x36, 0xCB, 0x42, 0xAD, 0x36, 0xD3, 0x9B,
  0x9C, 0x36, 0x6D, 0xFF, 0x02, 0x37, 0x01, 0x36, 0x03, 0x37,
  0xEA, 0x47, 0xF7, 0x36, 0xC6, 0x35, 0x27, 0x37, 0xEA, 0x59,
  0x26, 0x37, 0x69, 0xC7, 0xD7, 0x36, 0x8C, 0x67, 0x4C, 0x37,
  0x9D, 0x67, 0xB8, 0x36, 0xF5, 0x76, 0x0E, 0x37, 0xA7, 0x10,
  0x31, 0x37, 0x1A, 0x4B, 0x06, 0x37, 0xDA, 0xAC, 0xEA, 0x36,
  0x13, 0xB6, 0x0F, 0x37, 0x25, 0x00, 0x00, 0x00, 0x6D, 0x6F,
  0x64, 0x65, 0x6C, 0x2F, 0x63, 0x6F, 0x6E, 0x76, 0x32, 0x64,
  0x5F, 0x31, 0x2F, 0x42, 0x69, 0x61, 0x73, 0x41, 0x64, 0x64,
  0x2F, 0x52, 0x65, 0x61, 0x64, 0x56, 0x61, 0x72, 0x69, 0x61,
  0x62, 0x6C, 0x65, 0x4F, 0x70, 0x00, 0x00, 0x00, 0x01, 0x00,
  0x00, 0x00, 0x10, 0x00, 0x00, 0x00, 0xEA, 0xF5, 0xFF, 0xFF,
  0x00, 0x00, 0x00, 0x01, 0x14, 0x00, 0x00, 0x00, 0x84, 0x00,
  0x00, 0x00, 0x0E, 0x00, 0x00, 0x00, 0x00, 0x00, 0x00, 0x09,
  0x94, 0x00, 0x00, 0x00, 0x6C, 0xF6, 0xFF, 0xFF, 0x08, 0x00,
  0x00, 0x00, 0x48, 0x00, 0x00, 0x00, 0x08, 0x00, 0x00, 0x00,
  0x00, 0x00, 0x00, 0x00, 0x00, 0x00, 0x00, 0x00, 0x00, 0x00,
  0x00, 0x00, 0x00, 0x00, 0x00, 0x00, 0x00, 0x00, 0x00, 0x00,
  0x00, 0x00, 0x00, 0x00, 0x00, 0x00, 0x00, 0x00, 0x00, 0x00,
  0x00, 0x00, 0x00, 0x00, 0x00, 0x00, 0x00, 0x00, 0x00, 0x00,
  0x00, 0x00, 0x00, 0x00, 0x00, 0x00, 0x00, 0x00, 0x00, 0x00,
  0x00, 0x00, 0x00, 0x00, 0x00, 0x00, 0x00, 0x00, 0x00, 0x00,
  0x00, 0x00, 0x00, 0x00, 0x08, 0x00, 0x00, 0x00, 0x79, 0x63,
  0x3E, 0x3B, 0x08, 0xA4, 0x86, 0x3B, 0x64, 0x94, 0xBA, 0x3B,
  0x52, 0xEE, 0x4B, 0x3C, 0x8C, 0x28, 0x91, 0x3B, 0x9A, 0x5F,
  0xAA, 0x3B, 0x1E, 0xCA, 0xA0, 0x3B, 0x07, 0x6D, 0x71, 0x3B,
  0x15, 0x00, 0x00, 0x00, 0x6D, 0x6F, 0x64, 0x65, 0x6C, 0x2F,
  0x63, 0x6F, 0x6E, 0x76, 0x32, 0x64, 0x5F, 0x32, 0x2F, 0x43,
  0x6F, 0x6E, 0x76, 0x32, 0x44, 0x00, 0x00, 0x00, 0x04, 0x00,
  0x00, 0x00, 0x08, 0x00, 0x00, 0x00, 0x04, 0x00, 0x00, 0x00,
  0x04, 0x00, 0x00, 0x00, 0x10, 0x00, 0x00, 0x00, 0xAA, 0xF6,
  0xFF, 0xFF, 0x00, 0x00, 0x00, 0x01, 0x14, 0x00, 0x00, 0x00,
  0x88, 0x00, 0x00, 0x00, 0x0D, 0x00, 0x00, 0x00, 0x00, 0x00,
  0x00, 0x02, 0xA8, 0x00, 0x00, 0x00, 0x2C, 0xF7, 0xFF, 0xFF,
  0x08, 0x00, 0x00, 0x00, 0x4C, 0x00, 0x00, 0x00, 0x08, 0x00,
  0x00, 0x00, 0x00, 0x00, 0x00, 0x00, 0x00, 0x00, 0x00, 0x00,
  0x00, 0x00, 0x00, 0x00, 0x00, 0x00, 0x00, 0x00, 0x00, 0x00,
  0x00, 0x00, 0x00, 0x00, 0x00, 0x00, 0x00, 0x00, 0x00, 0x00,
  0x00, 0x00, 0x00, 0x00, 0x00, 0x00, 0x00, 0x00, 0x00, 0x00,
  0x00, 0x00, 0x00, 0x00, 0x00, 0x00, 0x00, 0x00, 0x00, 0x00,
