const unsigned char model_tflite[] = {
  0x1C, 0x00, 0x00, 0x00, 0x54, 0x46, 0x4C, 0x33, 0x14, 0x00,
  0x20, 0x00, 0x1C, 0x00, 0x18, 0x00, 0x14, 0x00, 0x10, 0x00,
  0x0C, 0x00, 0x00, 0x00, 0x08, 0x00, 0x04, 0x00, 0x14, 0x00,
  0x00, 0x00, 0x1C, 0x00, 0x00, 0x00, 0x84, 0x00, 0x00, 0x00,
  0xDC, 0x00, 0x00, 0x00, 0x18, 0x1B, 0x00, 0x00, 0x28, 0x1B,
  0x00, 0x00, 0x2C, 0x37, 0x00, 0x00, 0x03, 0x00, 0x00, 0x00,
  0x01, 0x00, 0x00, 0x00, 0x04, 0x00, 0x00, 0x00, 0x72, 0xE4,
  0xFF, 0xFF, 0x0C, 0x00, 0x00, 0x00, 0x1C, 0x00, 0x00, 0x00,
  0x3C, 0x00, 0x00, 0x00, 0x0F, 0x00, 0x00, 0x00, 0x73, 0x65,
  0x72, 0x76, 0x69, 0x6E, 0x67, 0x5F, 0x64, 0x65, 0x66, 0x61,
  0x75, 0x6C, 0x74, 0x00, 0x01, 0x00, 0x00, 0x00, 0x04, 0x00,
  0x00, 0x00, 0x98, 0xFF, 0xFF, 0xFF, 0x1D, 0x00, 0x00, 0x00,
  0x04, 0x00, 0x00, 0x00, 0x09, 0x00, 0x00, 0x00, 0x63, 0x6F,
  0x6E, 0x76, 0x32, 0x64, 0x5F, 0x34, 0x32, 0x00, 0x00, 0x00,
  0x01, 0x00, 0x00, 0x00, 0x04, 0x00, 0x00, 0x00, 0x3E, 0xE4,
  0xFF, 0xFF, 0x04, 0x00, 0x00, 0x00, 0x07, 0x00, 0x00, 0x00,
  0x69, 0x6E, 0x70, 0x75, 0x74, 0x5F, 0x37, 0x00, 0x02, 0x00,
  0x00, 0x00, 0x34, 0x00, 0x00, 0x00, 0x04, 0x00, 0x00, 0x00,
  0xDC, 0xFF, 0xFF, 0xFF, 0x20, 0x00, 0x00, 0x00, 0x04, 0x00,
  0x00, 0x00, 0x13, 0x00, 0x00, 0x00, 0x43, 0x4F, 0x4E, 0x56,
  0x45, 0x52, 0x53, 0x49, 0x4F, 0x4E, 0x5F, 0x4D, 0x45, 0x54,
  0x41, 0x44, 0x41, 0x54, 0x41, 0x00, 0x08, 0x00, 0x0C, 0x00,
  0x08, 0x00, 0x04, 0x00, 0x08, 0x00, 0x00, 0x00, 0x1F, 0x00,
  0x00, 0x00, 0x04, 0x00, 0x00, 0x00, 0x13, 0x00, 0x00, 0x00,
  0x6D, 0x69, 0x6E, 0x5F, 0x72, 0x75, 0x6E, 0x74, 0x69, 0x6D,
  0x65, 0x5F, 0x76, 0x65, 0x72, 0x73, 0x69, 0x6F, 0x6E, 0x00,
  0x21, 0x00, 0x00, 0x00, 0x38, 0x1A, 0x00, 0x00, 0x30, 0x1A,
  0x00, 0x00, 0x18, 0x1A, 0x00, 0x00, 0x04, 0x1A, 0x00, 0x00,
  0xDC, 0x19, 0x00, 0x00, 0xAC, 0x19, 0x00, 0x00, 0x9C, 0x17,
  0x00, 0x00, 0x4C, 0x17, 0x00, 0x00, 0x3C, 0x0F, 0x00, 0x00,
  0x0C, 0x0F, 0x00, 0x00, 0xFC, 0x0C, 0x00, 0x00, 0xAC, 0x0C,
  0x00, 0x00, 0x9C, 0x04, 0x00, 0x00, 0x6C, 0x04, 0x00, 0x00,
  0x5C, 0x02, 0x00, 0x00, 0x0C, 0x02, 0x00, 0x00, 0xFC, 0x00,
  0x00, 0x00, 0xF4, 0x00, 0x00, 0x00, 0xEC, 0x00, 0x00, 0x00,
  0xE4, 0x00, 0x00, 0x00, 0xDC, 0x00, 0x00, 0x00, 0xD4, 0x00,
  0x00, 0x00, 0xCC, 0x00, 0x00, 0x00, 0xC4, 0x00, 0x00, 0x00,
  0xBC, 0x00, 0x00, 0x00, 0xB4, 0x00, 0x00, 0x00, 0xAC, 0x00,
  0x00, 0x00, 0xA4, 0x00, 0x00, 0x00, 0x9C, 0x00, 0x00, 0x00,
  0x94, 0x00, 0x00, 0x00, 0x8C, 0x00, 0x00, 0x00, 0x6C, 0x00,
  0x00, 0x00, 0x04, 0x00, 0x00, 0x00, 0x36, 0xE5, 0xFF, 0xFF,
  0x04, 0x00, 0x00, 0x00, 0x58, 0x00, 0x00, 0x00, 0x0C, 0x00,
  0x00, 0x00, 0x08, 0x00, 0x0E, 0x00, 0x08, 0x00, 0x04, 0x00,
  0x08, 0x00, 0x00, 0x00, 0x10, 0x00, 0x00, 0x00, 0x28, 0x00,
  0x00, 0x00, 0x00, 0x00, 0x06, 0x00, 0x08, 0x00, 0x04, 0x00,
  0x06, 0x00, 0x00, 0x00, 0x04, 0x00, 0x00, 0x00, 0x01, 0x00,
  0x00, 0x00, 0xEB, 0x03, 0x00, 0x00, 0x00, 0x00, 0x0A, 0x00,
  0x10, 0x00, 0x0C, 0x00, 0x08, 0x00, 0x04, 0x00, 0x0A, 0x00,
  0x00, 0x00, 0x02, 0x00, 0x00, 0x00, 0x02, 0x00, 0x00, 0x00,
  0x04, 0x00, 0x00, 0x00, 0x06, 0x00, 0x00, 0x00, 0x32, 0x2E,
  0x31, 0x31, 0x2E, 0x30, 0x00, 0x00, 0x9A, 0xE5, 0xFF, 0xFF,
  0x04, 0x00, 0x00, 0x00, 0x10, 0x00, 0x00, 0x00, 0x32, 0x2E,
  0x32, 0x2E, 0x30, 0x00, 0x00, 0x00, 0x00, 0x00, 0x00, 0x00,
  0x00, 0x00, 0x00, 0x00, 0xE8, 0xCA, 0xFF, 0xFF, 0xEC, 0xCA,
  0xFF, 0xFF, 0xF0, 0xCA, 0xFF, 0xFF, 0xF4, 0xCA, 0xFF, 0xFF,
  0xF8, 0xCA, 0xFF, 0xFF, 0xFC, 0xCA, 0xFF, 0xFF, 0x00, 0xCB,
  0xFF, 0xFF, 0x04, 0xCB, 0xFF, 0xFF, 0x08, 0xCB, 0xFF, 0xFF,
  0x0C, 0xCB, 0xFF, 0xFF, 0x10, 0xCB, 0xFF, 0xFF, 0x14, 0xCB,
  0xFF, 0xFF, 0x18, 0xCB, 0xFF, 0xFF, 0x1C, 0xCB, 0xFF, 0xFF,
  0xEE, 0xE5, 0xFF, 0xFF, 0x04, 0x00, 0x00, 0x00, 0x00, 0x01,
  0x00, 0x00, 0x7F, 0x4E, 0x16, 0xE8, 0xF9, 0xD0, 0xCC, 0xEB,
  0xFA, 0x9F, 0xD6, 0x0C, 0xE4, 0xDD, 0x33, 0x2B, 0xB2, 0xE9,
  0xF2, 0xCB, 0xE9, 0xBD, 0xA1, 0xFF, 0x7F, 0x7A, 0x05, 0x08,
  0x00, 0x17, 0x3B, 0x2A, 0xED, 0x81, 0xCE, 0x7B, 0xD4, 0xB2,
  0x23, 0x59, 0xE7, 0x09, 0xE2, 0x55, 0x1B, 0x29, 0x13, 0xD6,
  0x7F, 0xDA, 0xDF, 0x2D, 0x3C, 0x5F, 0x56, 0x2F, 0x1C, 0x6A,
  0x1C, 0xBE, 0xD5, 0x1C, 0xF1, 0xBE, 0x7F, 0xF3, 0xC7, 0xE6,
  0x56, 0x3D, 0x21, 0xFF, 0x01, 0x0E, 0xBF, 0xD2, 0x39, 0x20,
  0xCE, 0xD5, 0xD9, 0x1E, 0xDB, 0x03, 0x0F, 0xAD, 0xFA, 0xF3,
  0xCB, 0xA8, 0x7F, 0x51, 0xCB, 0xA7, 0x52, 0x21, 0xA8, 0xC8,
  0x12, 0x2E, 0xD2, 0xF4, 0xC2, 0xF5, 0x56, 0xFE, 0xDE, 0xE1,
  0x7F, 0x12, 0xE9, 0x85, 0xC5, 0xD7, 0x73, 0x7F, 0xF0, 0xFE,
  0xF6, 0xD4, 0xF3, 0xC7, 0x8E, 0xA8, 0x46, 0x5D, 0x08, 0x0F,
  0x29, 0xDC, 0x1A, 0x15, 0x05, 0xF2, 0xDB, 0x04, 0xE6, 0x81,
  0xA0, 0x1E, 0xFE, 0xC4, 0xA5, 0x0A, 0xC1, 0x5C, 0x12, 0xDF,
  0xEF, 0x06, 0x1E, 0x49, 0xED, 0x5A, 0x7F, 0x13, 0xC0, 0xAF,
  0x15, 0x2E, 0x13, 0x64, 0x92, 0x81, 0x0F, 0x52, 0x96, 0xCC,
  0x1F, 0x19, 0x1D, 0xD2, 0xB4, 0x23, 0x69, 0x46, 0xB6, 0x55,
  0x3B, 0x3C, 0x31, 0x51, 0x81, 0x06, 0xE6, 0x03, 0xCE, 0x14,
  0x4A, 0x83, 0x08, 0xF0, 0x02, 0xFA, 0xDD, 0x2C, 0x08, 0xA6,
  0x26, 0x1B, 0x6B, 0x81, 0xD1, 0x45, 0x54, 0xF5, 0xB6, 0xFC,
  0xC3, 0xBD, 0x7A, 0x81, 0xCC, 0x3D, 0x63, 0xAC, 0xEE, 0xB0,
  0xFA, 0x4A, 0x51, 0x04, 0xF3, 0x10, 0x0F, 0xFB, 0x70, 0x6A,
  0x81, 0xAC, 0x16, 0x07, 0x5B, 0x15, 0x82, 0xE1, 0xF9, 0x57,
  0x15, 0x8C, 0xF4, 0xF6, 0x1F, 0xDF, 0x1C, 0xDC, 0x7F, 0x47,
  0xB3, 0xB1, 0x19, 0x2A, 0xDE, 0x4E, 0x37, 0x83, 0xFA, 0xE6,
  0xFF, 0xFF, 0x04, 0x00, 0x00, 0x00, 0x40, 0x00, 0x00, 0x00,
  0x58, 0x00, 0x00, 0x00, 0x53, 0xDB, 0xFF, 0xFF, 0xC5, 0xF2,
  0xFF, 0xFF, 0xC7, 0xD4, 0xFF, 0xFF, 0x2B, 0xDE, 0xFF, 0xFF,
  0xAB, 0x0B, 0x00, 0x00, 0xC2, 0x21, 0x00, 0x00, 0x0A, 0x00,
  0x00, 0x00, 0x06, 0x10, 0x00, 0x00, 0x76, 0xEC, 0xFF, 0xFF,
  0x1F, 0xF3, 0xFF, 0xFF, 0x27, 0x02, 0x00, 0x00, 0x96, 0xFB,
  0xFF, 0xFF, 0xA5, 0xF4, 0xFF, 0xFF, 0x90, 0x00, 0x00, 0x00,
  0x06, 0x08, 0x00, 0x00, 0x46, 0xE7, 0xFF, 0xFF, 0x04, 0x00,
  0x00, 0x00, 0x00, 0x02, 0x00, 0x00, 0xA9, 0xAE, 0xB7, 0x0A,
  0x18, 0xFB, 0xDB, 0xF4, 0x48, 0x02, 0xBF, 0xFF, 0x94, 0xFB,
  0x02, 0x02, 0xD2, 0xAE, 0xAD, 0x15, 0x0D, 0xE7, 0xE1, 0xC6,
  0x3F, 0xF5, 0xCF, 0x0A, 0x98, 0xFF, 0x02, 0x20, 0x81, 0x9F,
  0xB9, 0xEB, 0x08, 0xF4, 0xD8, 0xA7, 0x2A, 0x11, 0xB1, 0x02,
  0xAE, 0xC0, 0xFD, 0xDD, 0x8D, 0xF8, 0xA8, 0x0F, 0xF5, 0xEC,
  0xF3, 0xBE, 0xFC, 0xF9, 0xE9, 0x0B, 0x83, 0x1E, 0x0E, 0x02,
  0xD5, 0x0D, 0xE4, 0x11, 0x14, 0xF5, 0x28, 0xED, 0xC7, 0xF2,
  0x1B, 0xDA, 0x1C, 0x1A, 0xDE, 0x22, 0xED, 0x81, 0xDC, 0x18,
  0x13, 0x3C, 0xEB, 0xFC, 0xA1, 0x22, 0xFC, 0x10, 0x2A, 0xF8,
  0xE9, 0xBF, 0x0F, 0x10, 0x25, 0x07, 0x01, 0x8C, 0x10, 0x3F,
  0xA9, 0xD5, 0xFA, 0xC6, 0x14, 0xA6, 0x1B, 0x13, 0x34, 0x09,
  0xEE, 0xD6, 0xFA, 0x12, 0xDF, 0x05, 0xD6, 0xE9, 0x24, 0x1C,
  0x24, 0xA5, 0xFC, 0xF1, 0x20, 0x3D, 0xD9, 0x0A, 0x23, 0xAE,
  0x20, 0x1B, 0xA4, 0xFD, 0x21, 0xE9, 0x43, 0xA6, 0x10, 0xEA,
  0x45, 0x35, 0x22, 0x07, 0x22, 0x81, 0x12, 0x26, 0xA7, 0xE0,
  0xF8, 0x28, 0x3E, 0xB9, 0x0E, 0xE0, 0x33, 0xDF, 0xD3, 0xED,
  0x11, 0x03, 0xDF, 0x03, 0xDB, 0xF1, 0x2A, 0xE8, 0x2F, 0xB7,
  0x25, 0x06, 0x5B, 0x29, 0xE1, 0x28, 0xEC, 0xB7, 0xE5, 0x2B,
  0xE2, 0xDD, 0x44, 0xEF, 0x24, 0xED, 0x1C, 0xFA, 0x17, 0x24,
  0x1E, 0xF4, 0xFA, 0x28, 0xD2, 0x16, 0x99, 0x11, 0x0F, 0xD9,
  0xCC, 0xCB, 0x01, 0x18, 0xE2, 0x34, 0xF8, 0xF2, 0xF5, 0x0C,
  0xE2, 0xEA, 0x81, 0xEE, 0x06, 0xFA, 0xF6, 0xA0, 0xCE, 0x17,
  0xFD, 0x4E, 0x31, 0x0A, 0x0F, 0x43, 0x14, 0x3B, 0xA2, 0x13,
  0x3A, 0x02, 0xFF, 0x05, 0xFE, 0x0D, 0x14, 0x4F, 0x1A, 0x0B,
  0xF6, 0x2B, 0xE2, 0x1F, 0xA9, 0x00, 0x30, 0x08, 0xFC, 0xC4,
  0xF2, 0xF0, 0xCE, 0xE6, 0xEC, 0x32, 0x41, 0x07, 0xF1, 0xF3,
  0x06, 0xF6, 0xEC, 0x0D, 0xA4, 0xDC, 0x27, 0x04, 0xDC, 0x0F,
  0x25, 0x28, 0xF5, 0xC4, 0x81, 0x00, 0xCE, 0xF6, 0xC4, 0xF2,
  0xE4, 0x2B, 0xEF, 0x21, 0x2A, 0x32, 0xF5, 0x06, 0x13, 0xD0,
  0xDB, 0xF8, 0x62, 0xFD, 0x3D, 0x2F, 0xBF, 0xC9, 0x06, 0xFB,
  0x26, 0x18, 0xF1, 0x29, 0x23, 0xE1, 0xAD, 0xB8, 0x28, 0x30,
  0x1C, 0xE4, 0x03, 0x2A, 0x5B, 0xFD, 0x3F, 0xF4, 0xB9, 0x02,
  0x50, 0x14, 0x06, 0xE2, 0x23, 0xCD, 0xBC, 0x0D, 0x14, 0x47,
  0xAE, 0xD6, 0xF5, 0x3D, 0x81, 0xF7, 0xC1, 0xE5, 0xCD, 0xCB,
  0x43, 0xF4, 0x36, 0xDF, 0x8E, 0x65, 0xB0, 0xE0, 0x68, 0xFE,
  0x0E, 0x3B, 0x72, 0xCA, 0x76, 0x40, 0x67, 0x02, 0x05, 0xEA,
  0x62, 0x58, 0x11, 0xED, 0xAC, 0x1D, 0xF7, 0xE8, 0xDD, 0xE3,
  0xF2, 0x2E, 0x40, 0xCC, 0xCA, 0x00, 0xD8, 0x53, 0x44, 0x1A,
  0x23, 0x14, 0xD6, 0x0C, 0x33, 0xF6, 0x1A, 0x45, 0xE1, 0xF9,
  0x39, 0xEC, 0x44, 0xC1, 0x34, 0x0F, 0x5E, 0xE9, 0xDE, 0xD9,
  0x43, 0x30, 0xF4, 0x49, 0x89, 0xD0, 0xED, 0x3F, 0x4B, 0xC4,
  0xA6, 0xFC, 0x50, 0x2B, 0x48, 0xC2, 0x25, 0xFE, 0xF7, 0x6C,
  0x10, 0xA6, 0x16, 0x15, 0x28, 0x00, 0xFB, 0xD1, 0x7F, 0xE4,
  0x26, 0x8B, 0x08, 0x2C, 0xF5, 0x0C, 0xB2, 0x20, 0x16, 0xD5,
  0x16, 0xC7, 0x54, 0x12, 0x2A, 0xD6, 0x0F, 0x0C, 0x2E, 0x3B,
  0x3E, 0xFC, 0x9C, 0xE9, 0x50, 0xC7, 0x47, 0x18, 0x20, 0x2C,
  0x3B, 0x05, 0x2B, 0xE1, 0x0A, 0x0A, 0xF0, 0x4A, 0xA3, 0x0C,
  0xE7, 0x2F, 0x3B, 0x3A, 0x24, 0xEB, 0x31, 0x0B, 0x3E, 0x06,
  0xE4, 0xF4, 0xE6, 0x3C, 0xDD, 0x24, 0xFF, 0x22, 0x19, 0xE5,
  0x0B, 0xE0, 0x7F, 0x40, 0xF5, 0xD4, 0xEF, 0x3D, 0xF2, 0x38,
  0xC8, 0x1C, 0xDF, 0x0F, 0x33, 0x6F, 0xF7, 0xF5, 0x52, 0xE9,
  0xFF, 0xFF, 0x04, 0x00, 0x00, 0x00, 0x20, 0x00, 0x00, 0x00,
  0x60, 0x01, 0x00, 0x00, 0x9A, 0x00, 0x00, 0x00, 0x90, 0x00,
  0x00, 0x00, 0x91, 0xFE, 0xFF, 0xFF, 0x42, 0xF9, 0xFF, 0xFF,
  0x84, 0x01, 0x00, 0x00, 0x02, 0x00, 0x00, 0x00, 0xA2, 0xFD,
  0xFF, 0xFF, 0x7E, 0xE9, 0xFF, 0xFF, 0x04, 0x00, 0x00, 0x00,
  0x00, 0x08, 0x00, 0x00, 0x8D, 0xD9, 0x1A, 0xFF, 0xC4, 0x74,
  0xEA, 0x33, 0x91, 0xEE, 0x20, 0x21, 0xD9, 0x56, 0xD2, 0xFB,
  0xDF, 0xEC, 0x01, 0xEC, 0x0E, 0xC3, 0xE9, 0x0C, 0xD3, 0xF5,
  0x14, 0x0D, 0xFD, 0xD7, 0x25, 0xF9, 0xBF, 0xE4, 0x00, 0x09,
  0xAE, 0x62, 0xBE, 0x09, 0xA8, 0xE6, 0xF2, 0xDE, 0xC7, 0x4A,
  0xE6, 0xE9, 0xC9, 0xCB, 0xDB, 0x0E, 0xCC, 0xC5, 0xDA, 0x1E,
  0xCB, 0xE6, 0x05, 0xE4, 0xDC, 0xCF, 0x22, 0x17, 0xA3, 0x10,
  0xF9, 0x06, 0xD3, 0x38, 0x01, 0x24, 0x81, 0x31, 0xE6, 0x1D,
  0xEE, 0x29, 0xFE, 0x2C, 0xD4, 0x36, 0xE6, 0xFF, 0xFF, 0x1C,
  0xEC, 0x36, 0xA2, 0x29, 0xF7, 0xFC, 0xE7, 0x27, 0x06, 0x17,
  0xDE, 0x0A, 0xFE, 0xE3, 0x03, 0xE5, 0xD7, 0x18, 0xDB, 0x0D,
  0xD4, 0xF0, 0xF0, 0xF6, 0xD6, 0xFF, 0xD3, 0xFD, 0xE9, 0xE5,
  0x06, 0xEC, 0xD7, 0x1D, 0xF4, 0x31, 0x18, 0xEF, 0xEB, 0xED,
  0xCC, 0x13, 0xEB, 0x4D, 0xE5, 0xEF, 0xB5, 0xBD, 0xFA, 0xF7,
  0xD7, 0x59, 0xF0, 0x02, 0x01, 0xEB, 0xF8, 0x0B, 0xF7, 0x0E,
  0x07, 0x20, 0x0F, 0xC3, 0x0B, 0xF6, 0x02, 0x04, 0x1F, 0xE7,
  0xE4, 0xEA, 0x0F, 0x08, 0xE6, 0x39, 0xF8, 0xD8, 0xE0, 0xF3,
  0xEC, 0x07, 0xE6, 0x1E, 0xFA, 0xE6, 0x0D, 0xDF, 0xE7, 0xFE,
  0xFD, 0xFE, 0x05, 0x08, 0xF9, 0xAF, 0xDC, 0x1B, 0xED, 0xFF,
  0x2E, 0xEB, 0x22, 0xF9, 0xD4, 0xD3, 0xF5, 0xE8, 0xF4, 0xD5,
  0xD1, 0x14, 0x1D, 0x19, 0xFC, 0x07, 0xE5, 0xF3, 0x0E, 0x9E,
  0xEC, 0x16, 0xF9, 0xF8, 0x03, 0x23, 0x1C, 0xB1, 0xE2, 0x14,
  0x07, 0xF3, 0x35, 0xFA, 0x2B, 0x0A, 0xCC, 0x00, 0xF1, 0x15,
  0xE7, 0xE6, 0xFB, 0xC7, 0x30, 0xDE, 0xF4, 0x44, 0xFA, 0xE1,
  0x09, 0x8E, 0x0F, 0x0C, 0xF8, 0x0C, 0x37, 0x13, 0x17, 0x81,
  0x1D, 0x20, 0xF6, 0xF7, 0x3D, 0xF6, 0x05, 0x1D, 0x26, 0xD6,
  0xD5, 0xC4, 0xDA, 0x12, 0xFC, 0x4A, 0xF7, 0x27, 0xB1, 0xE2,
  0x19, 0xF0, 0xAB, 0x3D, 0x9C, 0xB8, 0x03, 0xF7, 0x4B, 0x9D,
  0xCA, 0xB6, 0x1C, 0xDE, 0x01, 0xAC, 0x19, 0x15, 0x27, 0x1B,
  0xF6, 0x21, 0x93, 0x29, 0x1C, 0x81, 0xEB, 0x19, 0xB0, 0x05,
  0x9C, 0x39, 0x34, 0x8E, 0x4C, 0xF5, 0xFC, 0x2B, 0xBA, 0xAA,
  0xAC, 0xD0, 0x11, 0x1E, 0x22, 0x29, 0x9E, 0xBC, 0x07, 0x89,
  0x54, 0xA1, 0x2B, 0x21, 0xCC, 0x3F, 0x39, 0x49, 0x99, 0xD6,
  0xC5, 0xE7, 0x9F, 0x1E, 0xDD, 0xBD, 0xD0, 0xFD, 0xAE, 0x8C,
  0xA9, 0x39, 0xCC, 0x41, 0xD6, 0xBC, 0x55, 0xC7, 0x3D, 0x21,
  0xDB, 0xE3, 0xC6, 0xEF, 0xEC, 0x13, 0xAC, 0x88, 0x29, 0x2F,
  0xCF, 0xDF, 0x17, 0xA3, 0xEE, 0x2B, 0xE0, 0xC3, 0x34, 0x16,
  0xA5, 0x26, 0x5F, 0x2A, 0xE7, 0xCF, 0xBE, 0xB0, 0x16, 0x02,
  0x40, 0xA5, 0x9B, 0xB6, 0xB2, 0xD8, 0xD4, 0x48, 0xD5, 0xBD,
  0xE8, 0x2B, 0xE7, 0x1C, 0xD3, 0x0B, 0xD2, 0xB1, 0x15, 0x14,
  0x05, 0x3F, 0xB9, 0xE9, 0xC8, 0xCB, 0x08, 0x24, 0xE3, 0x3F,
  0x81, 0xF9, 0xD7, 0xDE, 0x46, 0x06, 0xD4, 0xE5, 0xBD, 0xDA,
  0xCB, 0xB3, 0xEF, 0x18, 0x0A, 0xE9, 0xD7, 0x1C, 0xDD, 0xC5,
  0x23, 0x10, 0x0F, 0x34, 0xBB, 0x13, 0xF6, 0xE9, 0x20, 0x1A,
  0x06, 0x06, 0xE1, 0xF2, 0xF0, 0xDB, 0x4A, 0x14, 0xE3, 0xED,
  0xE4, 0xE0, 0xDA, 0xDC, 0x02, 0x21, 0xFF, 0x47, 0xDC, 0x21,
  0xF0, 0x11, 0x12, 0x21, 0xF4, 0x1D, 0xD6, 0xF6, 0x02, 0xF0,
  0x00, 0x22, 0x2B, 0x06, 0xCC, 0xEB, 0xCE, 0xE8, 0x21, 0xE3,
  0xE2, 0xE8, 0xDF, 0xE5, 0xAA, 0x1C, 0x04, 0xF0, 0xDC, 0x39,
  0xF1, 0x15, 0xDE, 0xFF, 0xEA, 0xE0, 0xE1, 0xFB, 0x0C, 0x1B,
  0xFE, 0xFD, 0x0B, 0x06, 0xF4, 0xE5, 0xEE, 0x14, 0x15, 0x15,
  0x19, 0x04, 0xCD, 0xD6, 0xF8, 0x13, 0xFF, 0x09, 0x0D, 0xF8,
  0xF2, 0x02, 0x12, 0xFE, 0x04, 0x07, 0xF1, 0xF5, 0xFB, 0xFC,
  0x02, 0x07, 0xCD, 0xFD, 0x05, 0x06, 0xF8, 0x28, 0xF7, 0xFE,
  0xE5, 0x90, 0xE5, 0xC5, 0xD6, 0x0A, 0xC9, 0x1B, 0xED, 0xFD,
  0x15, 0xFC, 0xF2, 0xF4, 0x0B, 0xF2, 0xF0, 0x0E, 0x0B, 0x0E,
  0x0D, 0xFE, 0x0B, 0x06, 0xA3, 0x02, 0xEB, 0x0D, 0xFF, 0x17,
  0xFD, 0x12, 0xA0, 0x05, 0x11, 0xE4, 0x1A, 0x0D, 0xEA, 0xFC,
  0xE5, 0x01, 0x0D, 0xFC, 0x03, 0xF6, 0x00, 0x03, 0xFD, 0xF6,
  0xF9, 0xF7, 0x14, 0x18, 0xF7, 0xFB, 0xAE, 0xF4, 0xF2, 0x0A,
  0xEA, 0x19, 0xF0, 0x0A, 0x81, 0x09, 0x1A, 0xF2, 0xF9, 0x03,
  0xFC, 0x0A, 0xF5, 0xED, 0xE7, 0x0B, 0xF5, 0xF2, 0x0D, 0x0B,
  0xFE, 0x05, 0xDB, 0x09, 0x15, 0x11, 0xF7, 0x0F, 0xC4, 0xF1,
  0xEA, 0xFC, 0xF4, 0x1E, 0xFB, 0xF4, 0x87, 0x07, 0xF9, 0xE1,
  0xFD, 0xEC, 0x1A, 0x1F, 0x07, 0x88, 0x04, 0xE9, 0x0C, 0xFD,
  0xDB, 0xA6, 0x00, 0x81, 0xE1, 0xFA, 0x04, 0xDE, 0xAE, 0xD6,
  0x05, 0x91, 0xE4, 0x04, 0x0D, 0xCC, 0xF4, 0xE4, 0x03, 0x09,
  0xED, 0xF9, 0x05, 0x14, 0x04, 0xF4, 0x0E, 0xC1, 0xFF, 0xFB,
  0x0B, 0x22, 0x24, 0xC6, 0x02, 0x9C, 0xCB, 0xFF, 0xFE, 0xE8,
  0x2D, 0xB8, 0x00, 0xC1, 0xF0, 0x02, 0x01, 0x11, 0x42, 0xE1,
  0x08, 0x0D, 0x07, 0x01, 0x0C, 0x2A, 0x09, 0xE6, 0xFB, 0xFA,
  0xF4, 0xF1, 0x08, 0x0F, 0x1C, 0xDE, 0x03, 0xE5, 0xE7, 0xFE,
  0x09, 0xE7, 0x27, 0xF7, 0xFE, 0xED, 0x0F, 0x16, 0xFC, 0x08,
  0xFC, 0xF1, 0xF2, 0x05, 0xF6, 0x06, 0x0D, 0x11, 0xE1, 0xF7,
  0x09, 0xD4, 0xFD, 0x02, 0x01, 0x20, 0xE4, 0xEB, 0xEF, 0xE8,
  0xF2, 0x00, 0xF4, 0x01, 0x0A, 0x12, 0xFA, 0xDE, 0x07, 0x11,
  0x02, 0x13, 0xFC, 0x04, 0xF2, 0xEA, 0xFF, 0x0F, 0x08, 0x22,
  0xE6, 0xF4, 0x0B, 0x90, 0x02, 0xFB, 0x06, 0x45, 0xE6, 0xE2,
  0xFB, 0x9C, 0xFC, 0x06, 0xF6, 0x2B, 0xD6, 0xF4, 0x07, 0xAA,
  0x04, 0xFC, 0xF7, 0x30, 0x8C, 0xE3, 0xF1, 0xB7, 0xE9, 0xFD,
  0xF4, 0x27, 0xA1, 0xEE, 0xFE, 0x81, 0xE9, 0x05, 0x01, 0x13,
  0xD1, 0xD3, 0xF3, 0xBA, 0xE9, 0xFC, 0x00, 0x03, 0xCE, 0xE8,
  0x06, 0xC2, 0xFD, 0x03, 0xF7, 0x0E, 0xBB, 0xF5, 0xF4, 0xDD,
  0x24, 0x13, 0x06, 0x07, 0xE1, 0xF1, 0xF8, 0xAE, 0xFB, 0xFD,
  0xF1, 0xF2, 0xAB, 0xDF, 0xF3, 0xF3, 0x1A, 0x02, 0xF9, 0x07,
  0xBF, 0x06, 0xFE, 0xF2, 0x13, 0x05, 0xFC, 0xF6, 0xE2, 0x02,
  0x02, 0xCF, 0x16, 0x04, 0xFD, 0xF9, 0xDC, 0xE7, 0xF7, 0xCF,
  0xFA, 0xF6, 0xFE, 0xEF, 0xDE, 0xE5, 0x06, 0xFE, 0x22, 0xF4,
  0xF7, 0x0C, 0xEE, 0x13, 0xF5, 0x0A, 0x29, 0x09, 0x02, 0x0D,
  0xF2, 0x17, 0xF6, 0xE6, 0x08, 0xF8, 0x0C, 0x09, 0xB1, 0xE8,
  0x28, 0x33, 0xB7, 0xC7, 0xFB, 0xBA, 0xF9, 0xE1, 0xFD, 0x1F,
  0x0C, 0xE2, 0xFB, 0xE8, 0x00, 0xF5, 0xE6, 0x26, 0xDB, 0xCF,
  0xE8, 0x1E, 0xED, 0x19, 0xE9, 0x19, 0x98, 0xF9, 0xEE, 0xDF,
  0xE8, 0xFD, 0x15, 0x33, 0x07, 0xFB, 0x07, 0xF6, 0x0A, 0x13,
  0x00, 0x1B, 0x05, 0xD8, 0xDF, 0x25, 0x0F, 0x0E, 0xE3, 0x10,
  0xE2, 0xDF, 0xE7, 0x17, 0xFB, 0xFF, 0xF2, 0x36, 0xAF, 0xF5,
  0x05, 0xF3, 0x1A, 0x08, 0xF7, 0x08, 0xF9, 0xF1, 0xF5, 0xF2,
  0xEE, 0xF9, 0xDB, 0xF9, 0xF1, 0xF7, 0xFD, 0xFB, 0xFA, 0x0A,
  0xF5, 0x03, 0xC0, 0xFE, 0xF5, 0xEE, 0xFB, 0x0C, 0x02, 0xFD,
  0x81, 0xED, 0x20, 0xEC, 0xF0, 0xE9, 0x0E, 0x0D, 0x0F, 0x13,
  0xF0, 0x0E, 0xE1, 0xE9, 0xFE, 0xE1, 0xEF, 0x13, 0xF9, 0x02,
  0xE0, 0xEE, 0xE3, 0xA7, 0xE3, 0x1E, 0x0F, 0xE5, 0xF7, 0xE4,
  0xF5, 0xD9, 0xDC, 0x0B, 0x24, 0xFF, 0xFC, 0xED, 0x12, 0x30,
  0x06, 0x12, 0xF4, 0xFE, 0x55, 0x1D, 0x05, 0x0F, 0x34, 0x19,
  0xE1, 0xC4, 0x0C, 0x18, 0xFB, 0x15, 0x3B, 0xFC, 0xF5, 0xF5,
  0x0E, 0xF3, 0x07, 0x47, 0x25, 0xFB, 0xE5, 0x81, 0x26, 0xFF,
  0x01, 0x29, 0xE2, 0xFC, 0x11, 0xF9, 0x50, 0x12, 0x02, 0x1A,
  0x05, 0xFF, 0x0A, 0xCA, 0x0A, 0xFE, 0x0C, 0x31, 0x1B, 0xF6,
  0xEE, 0xFD, 0xFC, 0x08, 0x16, 0x66, 0x25, 0xF5, 0xEB, 0xA4,
  0x19, 0xED, 0xF4, 0x1D, 0xE2, 0xFA, 0xFD, 0xD9, 0x10, 0x11,
  0x13, 0x17, 0x05, 0x04, 0x01, 0x9E, 0x02, 0x22, 0x11, 0x38,
  0x0D, 0xF1, 0xF8, 0xF5, 0x11, 0x04, 0xF2, 0x6F, 0x09, 0xFC,
  0xFB, 0xAF, 0x34, 0x07, 0x06, 0x40, 0xE2, 0xFB, 0xF9, 0x9D,
  0xF0, 0x1D, 0x1A, 0x28, 0x0E, 0x03, 0xFC, 0x8B, 0xF3, 0xF6,
  0x04, 0x43, 0x06, 0xFA, 0x0D, 0xE9, 0x17, 0x02, 0x05, 0x6A,
  0x10, 0xE9, 0xFF, 0xAB, 0x3A, 0x07, 0x9C, 0xFA, 0x51, 0x3E,
  0x4A, 0x7F, 0xCD, 0x45, 0x92, 0xA6, 0x33, 0x37, 0x33, 0x69,
  0x14, 0x1D, 0xBC, 0x99, 0xF1, 0x12, 0x5F, 0x33, 0x17, 0x09,
  0xF2, 0xF3, 0x37, 0x3B, 0x3F, 0x0B, 0xEE, 0x2E, 0xBD, 0xE5,
  0x24, 0x1E, 0x24, 0x3D, 0xFA, 0x31, 0x0F, 0xA8, 0xF0, 0xD0,
  0x4B, 0x55, 0xB0, 0xFD, 0xDA, 0x01, 0xF0, 0xD1, 0x13, 0xEC,
  0xEF, 0xDB, 0xDF, 0x39, 0x15, 0xC8, 0xF7, 0xD2, 0xE8, 0x3F,
  0x06, 0xDB, 0xEE, 0xFB, 0xCB, 0x6E, 0xA2, 0x0F, 0x09, 0xDA,
  0xE3, 0xE8, 0x20, 0x33, 0x92, 0x1D, 0xD6, 0xBD, 0xB9, 0xAF,
  0x22, 0x82, 0xE5, 0xF8, 0x89, 0x59, 0xF6, 0x02, 0xDA, 0xC3,
  0x21, 0x78, 0xD7, 0xF6, 0x18, 0xE5, 0xC5, 0x01, 0xD7, 0x35,
  0xDC, 0xF9, 0xC0, 0x00, 0xF9, 0x28, 0x96, 0xED, 0xC0, 0x12,
  0xF4, 0x96, 0xC8, 0x9B, 0x04, 0x2C, 0xD4, 0x3B, 0xFD, 0xF2,
  0x1B, 0x9E, 0x1D, 0x6C, 0xD8, 0xA8, 0xBD, 0xBD, 0xC6, 0xDE,
  0xB3, 0xD2, 0xE0, 0xF4, 0x0F, 0x30, 0x15, 0x3A, 0x0B, 0x23,
  0x03, 0x2A, 0xE8, 0x0D, 0x03, 0x5C, 0x04, 0x27, 0x2D, 0xAF,
  0xE9, 0xF1, 0x1F, 0x6A, 0x16, 0xFE, 0xCF, 0xC8, 0xBC, 0x07,
  0xCA, 0x89, 0xE5, 0xE5, 0x06, 0xEB, 0x01, 0x2B, 0x11, 0x06,
  0x2C, 0x49, 0xD5, 0x23, 0xE8, 0x22, 0x16, 0x38, 0x2D, 0x35,
  0x10, 0xBF, 0x05, 0xF3, 0x07, 0x7F, 0x0E, 0xE1, 0xE0, 0xE5,
  0xCF, 0xE6, 0xE0, 0xA2, 0xEF, 0xED, 0xE9, 0xE8, 0x06, 0x1C,
  0x11, 0x1C, 0x06, 0x33, 0x23, 0x1C, 0x06, 0x0B, 0xFE, 0x49,
  0x1E, 0x37, 0x33, 0xBB, 0x2C, 0xFF, 0x23, 0x76, 0xF9, 0xE9,
  0xB7, 0xC1, 0xF0, 0xDF, 0xF5, 0xCB, 0xDB, 0xF3, 0xEB, 0xE1,
  0xBE, 0x15, 0x0A, 0xDC, 0x2A, 0x27, 0x1B, 0xE5, 0xF8, 0x08,
  0x19, 0x0A, 0x0C, 0x22, 0x05, 0xC4, 0x0C, 0xF4, 0xE9, 0x35,
  0xE6, 0x00, 0xF5, 0x22, 0x1F, 0x10, 0x1C, 0x19, 0xDE, 0xFB,
  0xEB, 0x14, 0x1F, 0x07, 0x02, 0x2F, 0x0D, 0x11, 0x1C, 0x31,
  0x01, 0x04, 0x15, 0x7F, 0xF5, 0xF3, 0x1E, 0x03, 0xD5, 0x17,
  0x12, 0x23, 0x01, 0xC0, 0xC1, 0x26, 0x1D, 0x0E, 0xF5, 0xF1,
  0xCC, 0x18, 0xE8, 0x17, 0x01, 0xF2, 0x07, 0xF2, 0xD2, 0x07,
  0xDB, 0x26, 0x38, 0xFE, 0xF6, 0x2B, 0xFE, 0xF4, 0x16, 0x19,
  0xF7, 0x04, 0xF8, 0xE7, 0xCC, 0xC1, 0xAC, 0x2F, 0x0B, 0x15,
  0xD8, 0x21, 0xF5, 0x22, 0xD3, 0x09, 0xE6, 0x06, 0xE6, 0xEF,
  0xF5, 0xCF, 0x08, 0xFD, 0x18, 0xEA, 0x0A, 0xB8, 0x14, 0xE9,
  0xF0, 0xE8, 0xD7, 0x20, 0x0A, 0xDA, 0xE0, 0x07, 0xEC, 0x07,
  0x01, 0x1E, 0xFE, 0x50, 0xE2, 0xF3, 0x0B, 0xCD, 0x10, 0x07,
  0xEF, 0x0C, 0x18, 0xDB, 0xE8, 0xC7, 0x04, 0xF3, 0xE6, 0xEE,
  0xF7, 0xF9, 0x23, 0x98, 0xCA, 0xF3, 0x22, 0xEC, 0x2D, 0x0F,
  0x0D, 0xB5, 0xE7, 0x05, 0x1D, 0x0A, 0xD6, 0xCD, 0xF2, 0x06,
  0xFD, 0x19, 0x21, 0x5A, 0x16, 0xCE, 0xE5, 0xEA, 0x1D, 0xFF,
  0x01, 0x30, 0xF1, 0xCC, 0xE6, 0xD7, 0xEB, 0x05, 0x21, 0x32,
  0xD8, 0xED, 0xF2, 0xDC, 0xF3, 0xED, 0x10, 0xFA, 0xA5, 0xA7,
  0xF1, 0xD7, 0x10, 0xED, 0x16, 0x23, 0xE0, 0xCC, 0xF9, 0xEE,
  0x20, 0x0A, 0x19, 0x0F, 0xDD, 0x02, 0x0C, 0xCC, 0xFB, 0xF6,
  0xF3, 0xEE, 0xE3, 0x2A, 0x09, 0x04, 0x38, 0xE7, 0x17, 0x02,
  0xF3, 0xE0, 0xFD, 0xBF, 0xF0, 0xF7, 0x08, 0x42, 0xE4, 0xDE,
  0xFE, 0xB6, 0x09, 0xEB, 0x15, 0x05, 0xDE, 0xDF, 0xE6, 0xDE,
  0x01, 0x2B, 0xF5, 0xF4, 0xEC, 0x03, 0xFF, 0xB9, 0x28, 0xE1,
  0x0A, 0x7F, 0xD1, 0xF0, 0xFD, 0xBC, 0x08, 0xEB, 0x08, 0x27,
  0x02, 0xF7, 0xE1, 0xD2, 0xD4, 0xF8, 0xE1, 0x10, 0xEF, 0xF5,
  0xFA, 0xAA, 0xCD, 0x21, 0xE4, 0xD5, 0x07, 0x29, 0xEB, 0x29,
  0x25, 0x1A, 0x03, 0xEC, 0x68, 0x1A, 0xE6, 0x01, 0x05, 0xFA,
  0xF8, 0xCE, 0x2C, 0xFF, 0x0A, 0x0F, 0x06, 0xF4, 0x25, 0x01,
  0xF4, 0x20, 0x17, 0x0A, 0x98, 0x14, 0x09, 0x2E, 0xF0, 0x09,
  0x0A, 0x4B, 0x13, 0xF8, 0x00, 0xED, 0x2A, 0x1F, 0xDE, 0x07,
  0xEE, 0x02, 0x07, 0xEB, 0x19, 0x06, 0xFB, 0x01, 0x10, 0x10,
  0xFF, 0xF3, 0xFE, 0xF1, 0x10, 0x0C, 0xEF, 0xE6, 0x30, 0x3E,
  0x10, 0x41, 0xE8, 0x38, 0xF8, 0x24, 0xDB, 0xFA, 0x47, 0xF0,
  0xF9, 0x32, 0xE9, 0xF0, 0xEF, 0xDD, 0x0E, 0xE3, 0xE8, 0x28,
  0xE1, 0xEB, 0x03, 0x59, 0xFA, 0xC8, 0xF0, 0xF2, 0xC1, 0x02,
  0x11, 0x7F, 0x36, 0x2B, 0xE2, 0x3A, 0xF2, 0x11, 0xDE, 0xEF,
  0x35, 0xF4, 0x1E, 0x40, 0xED, 0xF3, 0x0D, 0xF7, 0x15, 0xE6,
  0x06, 0xE9, 0xA7, 0xEC, 0x04, 0x54, 0x1A, 0xDA, 0xF7, 0xD9,
  0xB3, 0x1D, 0x09, 0x63, 0xFA, 0x34, 0x05, 0x55, 0x08, 0x39,
  0x0B, 0x26, 0xF0, 0x20, 0xEF, 0x30, 0xF8, 0xF6, 0xEA, 0xDD,
  0x01, 0x1B, 0xEA, 0x1B, 0x12, 0xF6, 0xFB, 0xCB, 0xF9, 0x06,
  0x05, 0x08, 0x2E, 0x0E, 0xF4, 0x81, 0x00, 0x15, 0x02, 0x1A,
  0xFB, 0x0F, 0xF7, 0x1D, 0x03, 0x21, 0x0E, 0x0B, 0xEB, 0xD8,
  0x04, 0xFA, 0xFB, 0x01, 0xEE, 0x26, 0xFE, 0xE0, 0x00, 0xE6,
  0xF6, 0xF6, 0xE3, 0x17, 0x16, 0x06, 0x07, 0x9B, 0xE9, 0x0C,
  0x0B, 0x2F, 0xFC, 0x14, 0xF5, 0x19, 0x0E, 0x21, 0x17, 0xF9,
  0xE2, 0xFA, 0x0F, 0xF4, 0x08, 0x05, 0xF8, 0x38, 0xEF, 0xF5,
  0xFD, 0xDB, 0xF9, 0xF4, 0x02, 0x27, 0x08, 0xF1, 0x12, 0xBC,
  0x02, 0x0D, 0x11, 0x2B, 0x15, 0x0C, 0xEA, 0xFB, 0x46, 0x20,
  0xEE, 0x10, 0x1A, 0x08, 0x12, 0xE6, 0xF3, 0x0C, 0xF5, 0x19,
  0x0F, 0x19, 0xF9, 0xCD, 0xF2, 0x07, 0xFF, 0x1E, 0x07, 0x14,
  0x19, 0xD9, 0x17, 0x20, 0x2A, 0x27, 0x39, 0x1F, 0x56, 0x7F,
  0x4D, 0x0D, 0xDA, 0x34, 0x2B, 0x16, 0x3C, 0x14, 0x16, 0x0B,
  0xEE, 0x14, 0x31, 0xEA, 0x0D, 0xEE, 0x27, 0x04, 0x82, 0x26,
  0x12, 0xC6, 0x0D, 0xAF, 0xC4, 0xC7, 0xF7, 0x16, 0x4C, 0xF2,
  0x10, 0x30, 0x51, 0x1D, 0x0D, 0xDE, 0xE8, 0xE7, 0xF0, 0x77,
  0x3D, 0x26, 0x30, 0x07, 0xE6, 0xC3, 0x0A, 0x49, 0x0C, 0xC2,
  0xBE, 0xF3, 0x0F, 0xCE, 0xDB, 0xD7, 0xEA, 0xFB, 0x02, 0x13,
  0xFE, 0xF2, 0x2E, 0x3B, 0x30, 0x0B, 0xBB, 0x02, 0xFC, 0xEB,
  0xDE, 0x4C, 0xFC, 0xD0, 0xEE, 0x20, 0xE7, 0xC7, 0xFE, 0x51,
  0x45, 0xCA, 0xA3, 0x03, 0xD1, 0xC8, 0xF9, 0xCE, 0xE4, 0xC8,
  0xFA, 0x1E, 0x00, 0xE4, 0x00, 0x02, 0xF3, 0xF1, 0xF2, 0xE1,
  0x10, 0xFC, 0xEE, 0x02, 0x10, 0xF2, 0xB8, 0xDF, 0x0E, 0xD6,
  0xEB, 0xC0, 0x0E, 0xE1, 0x8A, 0x09, 0xC9, 0xF7, 0xE2, 0xC9,
  0x27, 0x0A, 0x8A, 0xF1, 0xFF, 0xFF, 0x04, 0x00, 0x00, 0x00,
  0x40, 0x00, 0x00, 0x00, 0x79, 0x10, 0x00, 0x00, 0xFD, 0x1D,
  0x00, 0x00, 0x42, 0xD6, 0xFF, 0xFF, 0xE8, 0x10, 0x00, 0x00,
  0x61, 0x01, 0x00, 0x00, 0x79, 0x01, 0x00, 0x00, 0x99, 0x0E,
  0x00, 0x00, 0xDE, 0x10, 0x00, 0x00, 0xD6, 0x02, 0x00, 0x00,
  0xB6, 0xF1, 0xFF, 0xFF, 0x2C, 0x08, 0x00, 0x00, 0x7B, 0x0C,
  0x00, 0x00, 0x6E, 0x02, 0x00, 0x00, 0xCD, 0x05, 0x00, 0x00,
  0x95, 0x0B, 0x00, 0x00, 0x0B, 0xF7, 0xFF, 0xFF, 0xD6, 0xF1,
  0xFF, 0xFF, 0x04, 0x00, 0x00, 0x00, 0x00, 0x02, 0x00, 0x00,
  0x81, 0x1A, 0x0B, 0xB7, 0x9C, 0xE6, 0xC2, 0x2C, 0x07, 0xB1,
  0xA4, 0x03, 0xEF, 0x12, 0x0F, 0xE9, 0xC1, 0x0D, 0x11, 0xDD,
  0x38, 0x05, 0xF5, 0x3A, 0x1B, 0xDE, 0xE3, 0xEB, 0xEF, 0x0F,
  0x18, 0x0F, 0xA9, 0x0D, 0x12, 0xC1, 0xDF, 0xFB, 0xE5, 0x3B,
  0x0D, 0xC8, 0xED, 0xFC, 0xD1, 0x0A, 0xFE, 0x18, 0x0A, 0xF5,
  0xF5, 0xF6, 0x4D, 0x08, 0xFD, 0x2B, 0xED, 0xEB, 0x00, 0xEA,
  0xDC, 0xF7, 0x11, 0x19, 0x50, 0xF3, 0xD4, 0x2A, 0xDE, 0x29,
  0x1F, 0xFC, 0x1F, 0x43, 0x67, 0x0C, 0x10, 0x53, 0xDA, 0x1C,
  0xFA, 0xDA, 0xE7, 0xF0, 0xED, 0xBD, 0x33, 0xDA, 0xE7, 0xFB,
  0xDB, 0x20, 0x24, 0x0F, 0x3D, 0x3F, 0x64, 0x09, 0x03, 0x3B,
  0x8C, 0x01, 0x32, 0xD3, 0x42, 0x67, 0x4D, 0x1D, 0xFD, 0x35,
  0xF9, 0x13, 0xF1, 0xCF, 0xF4, 0x30, 0x81, 0xE3, 0x01, 0xA5,
  0x24, 0x3F, 0xF9, 0x16, 0xCE, 0x2B, 0x3D, 0x03, 0x37, 0x06,
  0x22, 0xC8, 0x66, 0xD1, 0x9B, 0x05, 0x1F, 0xE9, 0xED, 0x3D,
  0xA3, 0x4C, 0xDF, 0x99, 0x6D, 0x08, 0x18, 0xDB, 0x4C, 0x28,
  0x39, 0xF8, 0xBB, 0xF4, 0x04, 0x02, 0x1A, 0x1D, 0xED, 0xF9,
  0x09, 0x27, 0xE6, 0x9E, 0x17, 0xDE, 0xD9, 0x0D, 0x09, 0x1C,
  0x1D, 0xFA, 0xB2, 0x2A, 0x12, 0xDA, 0x7F, 0x18, 0x0F, 0x1A,
  0x5A, 0x17, 0x26, 0x13, 0xD1, 0x5A, 0x13, 0xF1, 0x05, 0xFA,
  0xF0, 0xEB, 0xA0, 0xFC, 0xFC, 0xDC, 0xFA, 0xFB, 0xBD, 0x2E,
  0x0B, 0xEC, 0xCD, 0xEF, 0xF3, 0xF9, 0x0D, 0xB3, 0xAD, 0x0E,
  0x08, 0xC4, 0x27, 0x11, 0xE9, 0x2C, 0x23, 0xDD, 0xD8, 0x1B,
  0xE5, 0x12, 0x12, 0x8B, 0xAB, 0x10, 0x08, 0xB5, 0xCB, 0xDB,
  0xC0, 0x2F, 0x00, 0xE0, 0xCA, 0x13, 0xE5, 0xEC, 0x0D, 0xD8,
  0x81, 0x0E, 0xFE, 0xBD, 0x31, 0xE3, 0xE1, 0x25, 0x0F, 0xE8,
  0x01, 0x1B, 0xE2, 0x14, 0x1D, 0xD9, 0x81, 0xC3, 0x0B, 0xF3,
  0x42, 0xF1, 0x0D, 0xD4, 0x1C, 0x28, 0x19, 0xCB, 0x0C, 0x2E,
  0xF4, 0x46, 0xC4, 0xBF, 0x2C, 0xE3, 0x0B, 0xCC, 0x06, 0xC4,
  0xFD, 0x4C, 0x44, 0xE2, 0xEA, 0x29, 0xF6, 0x00, 0xC2, 0xDA,
  0x09, 0xFB, 0x29, 0x0B, 0x2D, 0xF9, 0x12, 0xE6, 0x09, 0xF4,
  0xBF, 0x10, 0xDB, 0x45, 0x1B, 0x99, 0xDD, 0xD5, 0x51, 0x27,
  0xCE, 0xFB, 0xEA, 0x08, 0x3E, 0xE9, 0xF8, 0xFB, 0x16, 0xE5,
  0xAF, 0xEF, 0xF3, 0xE9, 0x05, 0x15, 0xC6, 0x1E, 0xFC, 0x17,
  0xCC, 0x12, 0xE2, 0xFC, 0x04, 0x2C, 0x81, 0x11, 0x18, 0xDF,
  0xB8, 0xFC, 0xE0, 0x0A, 0x12, 0x14, 0xE9, 0x1C, 0x10, 0x12,
  0x05, 0xDA, 0xBD, 0x02, 0x02, 0xE0, 0x35, 0xE3, 0xE8, 0xFC,
  0xE0, 0xDA, 0xEF, 0x0C, 0xFC, 0xEC, 0x13, 0x09, 0xA3, 0xF4,
  0x00, 0xDD, 0xE1, 0xE6, 0xD9, 0xF4, 0x16, 0x03, 0xED, 0xF5,
  0xFF, 0xF3, 0x01, 0xC8, 0x81, 0x03, 0x01, 0xA9, 0x06, 0xEF,
  0xCE, 0x09, 0x0E, 0xC2, 0xCB, 0xE4, 0xFF, 0x18, 0xFB, 0xC8,
  0xB5, 0x1F, 0xEE, 0xC1, 0xE0, 0x01, 0xC2, 0x15, 0x00, 0xDB,
  0xE7, 0xF4, 0x08, 0x1E, 0x11, 0xC3, 0xAB, 0x17, 0x0C, 0xC7,
  0x14, 0x08, 0xEF, 0x1F, 0x0B, 0xCE, 0xC9, 0xF9, 0xFE, 0xFF,
  0xEB, 0xE3, 0xD4, 0x15, 0xFF, 0xD2, 0xFE, 0x08, 0x00, 0x16,
  0x0C, 0xEF, 0x08, 0xEF, 0x0B, 0x17, 0x0C, 0xE6, 0xFA, 0x0B,
  0xF5, 0x0B, 0x46, 0xF7, 0xB3, 0x44, 0xF9, 0xD4, 0xFA, 0x0D,
  0x2C, 0x14, 0x02, 0xFD, 0xE0, 0xED, 0x07, 0xDC, 0x49, 0xE5,
  0xED, 0x35, 0xEE, 0xF7, 0x17, 0x14, 0x0E, 0xF1, 0xE0, 0xDB,
  0xD2, 0x20, 0x08, 0xF6, 0x50, 0xCB, 0x81, 0x10, 0x0F, 0xFE,
  0xF2, 0x04, 0xF7, 0x28, 0x18, 0x07, 0x04, 0xE5, 0x1D, 0x05,
  0x3F, 0xF1, 0xD6, 0x14, 0xE9, 0xEA, 0x2E, 0x18, 0xF9, 0x1C,
  0x05, 0xCD, 0xE2, 0xF3, 0xFF, 0xFF, 0x04, 0x00, 0x00, 0x00,
  0x20, 0x00, 0x00, 0x00, 0x6C, 0x02, 0x00, 0x00, 0x4A, 0xFC,
  0xFF, 0xFF, 0x9C, 0x01, 0x00, 0x00, 0xD6, 0xFF, 0xFF, 0xFF,
  0x94, 0xFD, 0xFF, 0xFF, 0x30, 0x06, 0x00, 0x00, 0xEA, 0x00,
  0x00, 0x00, 0xD0, 0x03, 0x00, 0x00, 0x0E, 0xF4, 0xFF, 0xFF,
  0x04, 0x00, 0x00, 0x00, 0x00, 0x08, 0x00, 0x00, 0x17, 0x06,
  0xFE, 0x33, 0x7F, 0x2A, 0x2E, 0x29, 0xED, 0xE0, 0xF6, 0x3B,
  0x3C, 0x31, 0x22, 0x13, 0x10, 0xD5, 0x32, 0x34, 0x56, 0x0D,
  0xFB, 0x2B, 0x01, 0xC3, 0x23, 0x29, 0x42, 0x16, 0x31, 0x2C,
  0x17, 0xEF, 0xD7, 0x25, 0x38, 0x00, 0x1D, 0x27, 0x11, 0xD9,
  0xD1, 0x2E, 0x54, 0x15, 0x0E, 0xFF, 0x23, 0xD8, 0x01, 0x01,
  0x42, 0xFB, 0x0C, 0x2B, 0xF7, 0xD7, 0x0A, 0x10, 0x36, 0x27,
  0xFC, 0x0A, 0xF5, 0xF4, 0xF6, 0x1E, 0x1D, 0x1B, 0xEC, 0x1C,
  0xF8, 0xED, 0xCA, 0x2C, 0x31, 0x2D, 0xFF, 0x07, 0xF4, 0xE8,
  0xED, 0x0B, 0x30, 0x2C, 0xE7, 0x20, 0x12, 0xCA, 0xF4, 0x0B,
  0x3A, 0x12, 0x0E, 0x1D, 0x18, 0xDA, 0xE9, 0x1C, 0x4E, 0x30,
  0xF4, 0x2E, 0xEE, 0xEE, 0xC6, 0xFD, 0x5D, 0x02, 0x04, 0x28,
  0x0B, 0xCB, 0xDD, 0x0C, 0x59, 0x12, 0x06, 0xFE, 0x06, 0xE9,
  0xFF, 0x04, 0x3D, 0x15, 0xFE, 0x26, 0x26, 0xFB, 0xDD, 0x0C,
  0x35, 0x11, 0xF9, 0x2D, 0x30, 0xD6, 0xD5, 0x19, 0x4B, 0x28,
  0x07, 0x29, 0x05, 0xD6, 0xFF, 0x2E, 0x7F, 0xFF, 0x03, 0x12,
  0x1E, 0xCE, 0x3B, 0x76, 0x5C, 0x37, 0x3F, 0x20, 0x23, 0xF1,
  0xE5, 0x08, 0xFE, 0x24, 0xE6, 0x44, 0x2B, 0xCD, 0xE0, 0x2B,
  0x1C, 0xF3, 0x11, 0x1F, 0x03, 0xF1, 0xF0, 0x2D, 0x72, 0x06,
  0x01, 0xE7, 0xE3, 0xF5, 0x22, 0x43, 0x46, 0x25, 0xFB, 0x1D,
  0x1A, 0xE8, 0xF3, 0xFD, 0xE9, 0x0A, 0xFC, 0x09, 0xF8, 0xDC,
  0x04, 0x1F, 0x18, 0xF9, 0x10, 0xDD, 0xE6, 0xF7, 0x00, 0x23,
  0x5A, 0xEC, 0x08, 0x02, 0x00, 0xE6, 0x20, 0x28, 0x27, 0xFF,
  0x07, 0x0E, 0x10, 0xFD, 0xE0, 0x26, 0xD4, 0xF5, 0xF9, 0x25,
  0x1D, 0x15, 0xD3, 0x2B, 0x00, 0x0E, 0x1A, 0x18, 0xE6, 0xDF,
  0xE0, 0x01, 0x4F, 0x02, 0xE4, 0x1E, 0xD1, 0x0D, 0x14, 0x57,
  0x2B, 0x0C, 0x29, 0x3A, 0x08, 0xF2, 0x60, 0x2B, 0x6A, 0x43,
  0x0E, 0x51, 0x04, 0x1C, 0x34, 0x12, 0x7F, 0x0C, 0x25, 0x22,
  0x0B, 0xED, 0x08, 0x0F, 0x4D, 0x07, 0xFF, 0x20, 0x22, 0xE9,
  0x2C, 0x2B, 0x45, 0x0C, 0x0E, 0x03, 0x0E, 0x00, 0x1C, 0x10,
  0x1A, 0x0A, 0xE6, 0x08, 0x0D, 0x05, 0xFB, 0xFD, 0x29, 0x05,
  0xF5, 0x1E, 0xF3, 0x19, 0x18, 0x0B, 0x24, 0x05, 0xFB, 0xEA,
  0xEB, 0x08, 0x12, 0xF4, 0x03, 0x15, 0xCE, 0x08, 0xF2, 0x03,
  0x25, 0xE3, 0x41, 0x22, 0x0C, 0x0F, 0xEF, 0x21, 0x0D, 0xEA,
  0x26, 0x0E, 0xFE, 0x09, 0x01, 0xF2, 0xFB, 0xE1, 0x11, 0xFA,
  0xDE, 0x07, 0x04, 0xF0, 0x37, 0xF7, 0x19, 0xF2, 0xC4, 0xEF,
  0xF4, 0xFD, 0x23, 0xF2, 0x18, 0xFF, 0x0B, 0x13, 0x09, 0x1C,
  0x10, 0xFD, 0x1A, 0x0E, 0xFF, 0x17, 0x05, 0x0B, 0xF2, 0xFE,
  0x25, 0x03, 0xD5, 0x14, 0xE9, 0x11, 0x19, 0xF5, 0x15, 0x1B,
  0xC3, 0xE5, 0xF9, 0xE1, 0x9A, 0x14, 0x81, 0xF9, 0xE9, 0xFB,
  0x2F, 0xD5, 0x1F, 0x14, 0x89, 0x08, 0x21, 0xFB, 0x00, 0x0C,
  0x10, 0xF4, 0x92, 0x05, 0x0F, 0xE5, 0x0C, 0x22, 0x10, 0x0D,
  0xBE, 0x12, 0x11, 0xF8, 0x00, 0x03, 0xF2, 0x24, 0xD2, 0xF8,
  0xF8, 0x11, 0x23, 0xF9, 0x0E, 0xF6, 0xC4, 0x0D, 0x15, 0xFB,
  0xF3, 0x11, 0xF9, 0xDE, 0xCC, 0x13, 0x0C, 0xED, 0xFA, 0x24,
  0x18, 0xF7, 0xFF, 0x18, 0x04, 0xE6, 0x05, 0x0D, 0x05, 0x0F,
  0xF6, 0x0D, 0xFB, 0x10, 0x25, 0xF2, 0x03, 0xFA, 0x04, 0x0B,
  0x11, 0x00, 0x07, 0x0F, 0xE8, 0xF3, 0xEE, 0x0D, 0xF8, 0xDC,
  0x0A, 0xFB, 0x0C, 0x00, 0x01, 0x12, 0xFC, 0xF5, 0xF6, 0x22,
  0xE6, 0xF3, 0xA5, 0xE5, 0xE7, 0x00, 0x1B, 0xEF, 0x1E, 0x27,
  0xD9, 0x11, 0x0D, 0x09, 0x03, 0xF5, 0xFD, 0xEA, 0xEB, 0x14,
  0xEC, 0xDF, 0x22, 0x02, 0x0C, 0x19, 0xFE, 0x19, 0x1B, 0x02,
  0x16, 0x33, 0x7B, 0xFA, 0x10, 0xE1, 0x24, 0x47, 0x06, 0x27,
  0x1C, 0xF3, 0xE8, 0xEF, 0xF8, 0x22, 0x1D, 0x10, 0xE9, 0x35,
  0x01, 0x23, 0x0B, 0x0C, 0x2A, 0xFB, 0xE8, 0x6C, 0x7F, 0x1C,
  0xF8, 0x37, 0xF6, 0x00, 0x54, 0x11, 0x02, 0xE5, 0x2D, 0x2F,
  0xB7, 0xFE, 0x0E, 0xE5, 0x19, 0x1B, 0xF8, 0x23, 0xB7, 0x02,
  0xD4, 0xE1, 0xCA, 0x15, 0x0A, 0xE0, 0xE8, 0xFB, 0x03, 0x13,
  0xE3, 0x1C, 0x1A, 0x28, 0xF5, 0x13, 0x24, 0x08, 0x18, 0xE0,
  0xFC, 0x2C, 0x01, 0xEC, 0xEF, 0xD4, 0x06, 0xE8, 0x07, 0x07,
  0x01, 0xF9, 0xE3, 0x02, 0xB1, 0x0B, 0x22, 0xCF, 0xFF, 0xEA,
  0xFC, 0x29, 0x04, 0x0C, 0xFE, 0x2F, 0x2E, 0x25, 0x42, 0x35,
  0xF4, 0xE8, 0x05, 0x38, 0x2F, 0xFC, 0xDA, 0x4B, 0x24, 0x22,
  0xF4, 0x1F, 0x35, 0x02, 0xD0, 0x4E, 0x06, 0x12, 0x38, 0x1C,
  0x3B, 0x48, 0xB6, 0x7F, 0x3D, 0x06, 0x22, 0x00, 0xE2, 0xFC,
  0xE7, 0xEF, 0xB6, 0xDE, 0xE8, 0xF6, 0xF0, 0x36, 0x0B, 0x08,
  0x9F, 0xDE, 0xE5, 0x0E, 0x03, 0x26, 0xF8, 0x20, 0x95, 0xF5,
  0x03, 0x07, 0xC6, 0x1C, 0xBF, 0xF5, 0xBA, 0xCB, 0xF2, 0x10,
  0x2C, 0xC9, 0x0C, 0x1A, 0xB1, 0xFE, 0x34, 0xF5, 0x17, 0xFC,
  0x18, 0x10, 0xDD, 0x0D, 0x30, 0x24, 0x17, 0xFA, 0x09, 0x19,
  0xEB, 0x12, 0x25, 0x23, 0x15, 0xE2, 0xFC, 0x19, 0xC8, 0x0A,
  0x2D, 0x29, 0xFE, 0xEB, 0xEE, 0xE9, 0xE6, 0xFB, 0x16, 0xF3,
  0xF7, 0xFB, 0xEC, 0x08, 0xEF, 0x0B, 0xFA, 0x1A, 0x0C, 0xE9,
  0x03, 0x1B, 0xEC, 0x06, 0x10, 0x1E, 0xFC, 0xE6, 0xF5, 0xF6,
  0xEC, 0x01, 0xFC, 0x1D, 0x27, 0xC1, 0x0F, 0x2B, 0x7F, 0x29,
  0x22, 0x3C, 0xF6, 0x0F, 0xDC, 0xED, 0x57, 0x03, 0x16, 0x1C,
  0xFF, 0xE5, 0x05, 0x05, 0x1E, 0x09, 0x0E, 0x22, 0x11, 0xE7,
  0xE9, 0x19, 0x38, 0x12, 0x11, 0x1E, 0x18, 0xDF, 0xDB, 0x22,
  0x4F, 0x16, 0x0F, 0x2B, 0xF9, 0xDE, 0xF8, 0x22, 0x3B, 0xFD,
  0x1C, 0x32, 0xD3, 0xDC, 0xFF, 0xFD, 0x52, 0x00, 0xFF, 0x0F,
  0xCA, 0xF1, 0x0A, 0x1E, 0x2C, 0x1B, 0x1C, 0xF6, 0x1A, 0xDF,
  0xF6, 0x11, 0x33, 0x19, 0x22, 0x1F, 0x0F, 0xE4, 0x0B, 0x14,
  0x3B, 0x07, 0xFD, 0x34, 0xDD, 0xF3, 0x0E, 0x09, 0x1E, 0x05,
  0x01, 0x17, 0xED, 0x08, 0x0B, 0x0D, 0x01, 0x1D, 0x0A, 0xF7,
  0x29, 0xCB, 0xF3, 0x27, 0x39, 0x0E, 0x01, 0x35, 0x01, 0xCD,
  0x05, 0x09, 0x3B, 0x1B, 0xFF, 0x19, 0x02, 0xE1, 0xF9, 0x03,
  0x35, 0xFB, 0xF3, 0x21, 0xEA, 0x00, 0x07, 0x02, 0x15, 0x1B,
  0x03, 0xF7, 0x2F, 0xB8, 0x22, 0x20, 0x55, 0x20, 0x0E, 0x13,
  0xF7, 0xD9, 0x0B, 0x11, 0x7F, 0x18, 0x0B, 0x0D, 0xDD, 0xD4,
  0x14, 0x01, 0x31, 0x1A, 0xFD, 0x1A, 0xEA, 0xFD, 0x13, 0x0E,
  0x1F, 0x15, 0x0C, 0x13, 0x33, 0xC1, 0x33, 0x0B, 0x2A, 0x2C,
  0x23, 0x3A, 0xE6, 0x00, 0x08, 0xEB, 0x1C, 0xEE, 0xFB, 0x20,
  0xC8, 0xE9, 0x0F, 0xF5, 0x03, 0xFF, 0xDC, 0xFC, 0xA7, 0xE2,
  0xEC, 0xA9, 0xF8, 0xF4, 0xB9, 0xCF, 0x1C, 0xFE, 0x1C, 0x18,
  0x29, 0x18, 0xF3, 0x24, 0xFC, 0x01, 0xE8, 0x04, 0x20, 0xFF,
  0xF2, 0x2B, 0xF8, 0x0E, 0xFB, 0x1C, 0xCA, 0x05, 0xFF, 0x05,
  0xE4, 0x16, 0xE9, 0x0A, 0x81, 0x09, 0xFA, 0x06, 0x30, 0xDA,
  0xE6, 0x1B, 0x01, 0x0F, 0x22, 0x12, 0xFF, 0x19, 0xE0, 0x07,
  0x24, 0xEC, 0xF4, 0x20, 0xFF, 0x17, 0xFC, 0x17, 0xDE, 0x25,
  0x00, 0xFC, 0xF0, 0x11, 0x09, 0x30, 0xEB, 0xFA, 0x1B, 0x06,
  0x27, 0xD5, 0x02, 0x23, 0x0F, 0xE5, 0x11, 0x25, 0xF9, 0xEC,
  0xDD, 0xE2, 0x36, 0xF9, 0x1A, 0xF1, 0xEA, 0x1D, 0xE2, 0x09,
  0x24, 0xEB, 0xEF, 0xE1, 0xFD, 0x16, 0x0E, 0xED, 0x0C, 0x02,
  0xEE, 0x00, 0xD5, 0x20, 0x0E, 0xE8, 0x21, 0xF6, 0xED, 0x08,
  0x08, 0xDF, 0xF7, 0xED, 0x0E, 0x12, 0x04, 0x26, 0x05, 0x12,
  0x0A, 0x04, 0xED, 0xFA, 0xFF, 0x09, 0xEE, 0xFE, 0x07, 0xF3,
  0x11, 0x16, 0xF2, 0x11, 0xFF, 0xD8, 0x02, 0x18, 0x81, 0x01,
  0xF2, 0x02, 0x0B, 0xBB, 0xE6, 0xFB, 0xE8, 0xEA, 0x09, 0x17,
  0x24, 0xCF, 0xF9, 0xFE, 0xFF, 0xF0, 0x02, 0x05, 0xFD, 0xEF,
  0x0A, 0xFD, 0x00, 0x06, 0x0C, 0xF8, 0x02, 0xEA, 0xF3, 0x05,
  0xFD, 0x05, 0xF4, 0x0F, 0x0D, 0xCE, 0xF7, 0xF9, 0x50, 0xE8,
  0xFB, 0xF8, 0x0D, 0xC3, 0x21, 0xFA, 0xE7, 0xF1, 0xFD, 0xEC,
  0x02, 0xEE, 0x05, 0xF5, 0x10, 0xFF, 0x01, 0xF5, 0x13, 0xE9,
  0x11, 0x21, 0x62, 0x07, 0xF9, 0x2E, 0xF8, 0xF0, 0xEE, 0x05,
  0x4F, 0x07, 0xF4, 0x02, 0xF7, 0xD8, 0x14, 0xFE, 0xEC, 0xF5,
  0x0C, 0xEF, 0x0D, 0x0C, 0x0F, 0x43, 0x49, 0x18, 0x24, 0x24,
  0xC4, 0x57, 0xFE, 0x2D, 0xFF, 0x3F, 0xBD, 0x0E, 0x39, 0xE7,
  0xF5, 0x0C, 0xAF, 0x04, 0x2B, 0x03, 0xD1, 0x13, 0xFF, 0x00,
  0x14, 0x02, 0x1A, 0x21, 0x19, 0xDC, 0x03, 0x30, 0x06, 0x2C,
  0xEF, 0x22, 0x13, 0x14, 0xF6, 0x3F, 0x81, 0x2B, 0x12, 0x40,
  0x1D, 0xD0, 0x09, 0x10, 0xEE, 0xF2, 0x2A, 0x24, 0x0E, 0x11,
  0x13, 0x02, 0x33, 0x11, 0x27, 0x14, 0x1E, 0xD3, 0xF5, 0xF7,
  0x5C, 0x20, 0x11, 0x10, 0xEF, 0x00, 0x33, 0xFE, 0xC7, 0xF1,
  0x1C, 0x1B, 0x0F, 0xEF, 0x04, 0x06, 0xEB, 0xEB, 0x31, 0x0C,
  0xE4, 0xFB, 0x08, 0xF4, 0x45, 0x28, 0x10, 0x2A, 0xE8, 0xBB,
  0xD7, 0x04, 0x23, 0x20, 0x14, 0x28, 0xE3, 0x21, 0xE9, 0x2F,
  0x98, 0x2D, 0x00, 0xFE, 0xFC, 0xE1, 0x19, 0x11, 0xF7, 0x2C,
  0x1C, 0x2D, 0x05, 0xED, 0xB3, 0x05, 0x30, 0x0C, 0x16, 0x1E,
  0x01, 0xAF, 0x07, 0x1E, 0x4F, 0x15, 0x0C, 0x21, 0xF5, 0x41,
  0x7A, 0x6C, 0x7D, 0xBE, 0x03, 0x53, 0x44, 0x52, 0x7F, 0x2B,
  0xD8, 0xC9, 0x09, 0x2A, 0x5B, 0xF8, 0x21, 0xF6, 0x23, 0x34,
  0xFE, 0x63, 0x54, 0xBA, 0x01, 0x57, 0x5F, 0x33, 0x3A, 0x27,
  0x0B, 0x1D, 0x63, 0x4C, 0x31, 0xF6, 0x5C, 0x10, 0x22, 0x41,
  0x6A, 0x18, 0xF3, 0xEE, 0x0B, 0x3A, 0xB8, 0x09, 0x08, 0x15,
  0x2A, 0x07, 0xD5, 0x4E, 0xDB, 0xFC, 0xF8, 0x17, 0x5A, 0x25,
  0x13, 0x30, 0x37, 0x15, 0x0C, 0x1D, 0x52, 0x0A, 0x17, 0x09,
  0x08, 0xFD, 0x50, 0x12, 0x08, 0x3E, 0x04, 0x12, 0xF6, 0xE0,
  0x0A, 0xF9, 0x1E, 0x3E, 0x0D, 0xFD, 0xC9, 0xD4, 0xE0, 0x12,
  0x62, 0x10, 0x14, 0x1F, 0xF7, 0xB2, 0xF8, 0x4A, 0x50, 0x3E,
  0x25, 0x65, 0xE7, 0xD2, 0xE1, 0x09, 0x2C, 0xF1, 0x07, 0x22,
  0x11, 0xE6, 0xD1, 0xFF, 0x2B, 0x1C, 0xE7, 0x55, 0xE8, 0xFF,
  0xEA, 0xFD, 0x51, 0x2D, 0x03, 0x35, 0x09, 0xD9, 0x97, 0x2A,
  0xCA, 0x7F, 0xD5, 0x38, 0x29, 0x0C, 0x18, 0x31, 0xFE, 0x4D,
  0x0B, 0x30, 0xEA, 0x03, 0xE3, 0x17, 0xB0, 0x3A, 0xEE, 0x06,
  0x0A, 0x11, 0xEE, 0x18, 0x8F, 0x41, 0xFE, 0xFC, 0x44, 0xE6,
  0xF4, 0x26, 0x0D, 0x6E, 0x15, 0x29, 0x11, 0xED, 0x00, 0xFD,
  0x0E, 0x2A, 0x40, 0x2F, 0xDA, 0x03, 0x26, 0x03, 0xEC, 0x21,
  0x17, 0x12, 0x13, 0x29, 0x06, 0x25, 0xB8, 0x1C, 0x29, 0x04,
  0x1C, 0xE7, 0x10, 0x28, 0xEB, 0x0B, 0x2F, 0x15, 0xEE, 0x13,
  0x30, 0x05, 0x2D, 0x20, 0x1D, 0x08, 0xE6, 0x05, 0x0D, 0xF3,
  0xF2, 0x1F, 0xF7, 0x2D, 0x04, 0x26, 0xE7, 0xFE, 0xE7, 0xF6,
  0xFA, 0xFA, 0x11, 0xEE, 0xEA, 0x22, 0xC6, 0x1E, 0x1F, 0xFD,
  0xFE, 0xEB, 0x2C, 0x20, 0xCA, 0x0A, 0x25, 0x10, 0xCE, 0x17,
  0x1C, 0x10, 0xDF, 0x36, 0xF3, 0x3C, 0x05, 0x10, 0x0D, 0x27,
  0xE9, 0x19, 0x4A, 0x06, 0x7F, 0xF4, 0x3E, 0xFC, 0x08, 0x61,
  0x64, 0x53, 0xB4, 0x09, 0xDE, 0xBC, 0x10, 0xE6, 0xF3, 0xF5,
  0xDA, 0x3C, 0x04, 0xE2, 0xE3, 0xDE, 0x12, 0x0A, 0x91, 0x45,
  0x9B, 0x8F, 0xB9, 0xF8, 0x04, 0x14, 0x58, 0xE3, 0x0D, 0x05,
  0xF2, 0x2D, 0x17, 0x49, 0x20, 0x0D, 0xFA, 0xF0, 0xFF, 0xD7,
  0xFC, 0x2E, 0xE5, 0x09, 0xD0, 0xFA, 0xE2, 0xCC, 0x3F, 0x18,
  0xFC, 0x05, 0xAE, 0xDE, 0xDD, 0xFE, 0x46, 0xE1, 0x1B, 0x46,
  0x2E, 0x0D, 0x37, 0x29, 0x1B, 0x65, 0xEB, 0xEB, 0x38, 0xBA,
  0x3C, 0x1F, 0xFE, 0x2A, 0xBC, 0x1D, 0xF3, 0xD3, 0x44, 0xE6,
  0x31, 0xEE, 0xE6, 0x0C, 0xC4, 0xF6, 0x2D, 0x06, 0x45, 0xF5,
  0x19, 0x24, 0x26, 0x3D, 0xC0, 0x32, 0x13, 0x41, 0xD3, 0x21,
  0x0B, 0xCF, 0x30, 0x10, 0x0F, 0xF2, 0xE1, 0xD7, 0xF2, 0xD8,
  0xCF, 0x2A, 0x68, 0xF3, 0xAD, 0x1E, 0xBC, 0xA2, 0xCF, 0xD5,
  0x47, 0xE7, 0x68, 0xBA, 0x33, 0x42, 0x7A, 0x65, 0x32, 0x5B,
  0xFD, 0xE6, 0x4E, 0x3C, 0x74, 0x4E, 0xDE, 0x31, 0xD7, 0x02,
  0x3E, 0x33, 0x2B, 0x08, 0xD0, 0x0F, 0xDD, 0x10, 0x2B, 0x24,
  0xF1, 0x17, 0xED, 0xDB, 0x45, 0x9F, 0x05, 0x42, 0x5A, 0x2A,
  0xF5, 0x13, 0x00, 0xE8, 0x09, 0x39, 0x69, 0xF0, 0xD8, 0xEE,
  0xFC, 0xFF, 0x00, 0xFF, 0x0E, 0xF8, 0xD0, 0xF7, 0xF7, 0x1D,
  0xFE, 0x3E, 0xE3, 0x0B, 0xFD, 0xF3, 0x42, 0xDA, 0xF4, 0x4F,
  0x4A, 0xD6, 0xE5, 0x35, 0xEF, 0xF5, 0xE8, 0x29, 0x14, 0xC3,
  0xE9, 0x24, 0xE4, 0xE4, 0xED, 0x0D, 0x0D, 0xD7, 0xFA, 0xF5,
  0xDE, 0xEC, 0x23, 0x1D, 0x00, 0x1D, 0xE7, 0xE8, 0x53, 0xD5,
  0x1C, 0x6B, 0x7F, 0xF6, 0x3B, 0x4C, 0xF0, 0xFB, 0xF8, 0x3E,
  0x35, 0xE0, 0x01, 0x28, 0xDD, 0xF5, 0x11, 0x0F, 0x17, 0xF3,
  0x17, 0x05, 0xF1, 0x2B, 0x14, 0x42, 0xF6, 0xF0, 0x0C, 0xFB,
  0xC8, 0xFC, 0xDE, 0x12, 0xDE, 0xF7, 0xEC, 0x10, 0x11, 0xBA,
  0xF2, 0x33, 0xCC, 0x0C, 0x1B, 0x19, 0x16, 0xD3, 0xE9, 0x20,
  0xE3, 0x05, 0x0C, 0x19, 0x14, 0xA6, 0x18, 0x24, 0x32, 0x17,
  0x19, 0x25, 0xEC, 0x14, 0xFD, 0x1A, 0xA9, 0x0D, 0xEB, 0x19,
  0x0A, 0xF9, 0xF8, 0x08, 0xDB, 0xFC, 0x0D, 0x0F, 0x23, 0xE5,
  0xFC, 0x21, 0x1D, 0x0D, 0xFD, 0x15, 0x22, 0xCF, 0x1E, 0xF9,
  0x6C, 0x14, 0x03, 0x12, 0xDD, 0xFD, 0x14, 0xFB, 0xE6, 0x01,
  0xEC, 0x1E, 0x13, 0xF7, 0x05, 0xF7, 0x1E, 0x05, 0x0D, 0x07,
  0x09, 0xE5, 0xF8, 0x16, 0x37, 0x03, 0xF4, 0x24, 0x04, 0xC3,
  0x0D, 0x02, 0x7F, 0x21, 0xF9, 0x16, 0xDB, 0x02, 0x09, 0xDA,
  0xD0, 0x16, 0xED, 0xF6, 0xF3, 0xDE, 0x08, 0xF6, 0x15, 0xF9,
  0xFE, 0x15, 0x04, 0xED, 0xEE, 0x0A, 0x3E, 0x0D, 0x06, 0x17,
  0x11, 0xD5, 0x0C, 0x02, 0x72, 0x2E, 0x0C, 0x24, 0x4F, 0xC3,
  0x36, 0x35, 0x09, 0x0D, 0x5B, 0x14, 0x03, 0xC4, 0x17, 0x29,
  0x27, 0xFD, 0x24, 0x34, 0x01, 0xCA, 0x0E, 0xFE, 0x38, 0x11,
  0xFB, 0x16, 0x15, 0xF0, 0x1E, 0x56, 0x43, 0x2E, 0x12, 0x31,
  0x0C, 0xE3, 0x03, 0xFD, 0x0C, 0xE5, 0x17, 0x06, 0xE8, 0xF8,
  0xFB, 0x0E, 0x08, 0xF2, 0x02, 0x12, 0xF8, 0xFE, 0x00, 0x09,
  0x16, 0xE7, 0xE7, 0x1E, 0xEC, 0x07, 0xE8, 0xE0, 0x1A, 0xEE,
  0xE8, 0x07, 0x14, 0x06, 0x1E, 0xFD, 0x0C, 0xFC, 0x09, 0xFE,
  0x02, 0x1C, 0x18, 0x1F, 0x07, 0xEA, 0xF3, 0x2B, 0x03, 0xF4,
  0xE1, 0xF8, 0xEA, 0x02, 0xEB, 0x20, 0xE4, 0xEC, 0xEA, 0xB6,
  0x18, 0x07, 0xCA, 0x03, 0xE7, 0x14, 0x02, 0x8B, 0x22, 0x17,
  0xE9, 0xF2, 0xCA, 0xDB, 0xF1, 0xC4, 0x89, 0x0E, 0xE9, 0xE0,
  0xF7, 0x11, 0x00, 0xEB, 0x81, 0x14, 0xEA, 0xE0, 0xEC, 0x25,
  0xE8, 0x8E, 0xD3, 0x06, 0xD8, 0xD2, 0x1A, 0xFC, 0xFF, 0xFF,
  0x04, 0x00, 0x00, 0x00, 0x40, 0x00, 0x00, 0x00, 0x45, 0xF7,
  0xFF, 0xFF, 0xCC, 0xF4, 0xFF, 0xFF, 0x3F, 0x0A, 0x00, 0x00,
  0xC1, 0x09, 0x00, 0x00, 0x07, 0xE9, 0xFF, 0xFF, 0xD2, 0x01,
  0x00, 0x00, 0xBC, 0xF9, 0xFF, 0xFF, 0x2B, 0x06, 0x00, 0x00,
  0x04, 0x00, 0x00, 0x00, 0x10, 0x16, 0x00, 0x00, 0x9B, 0xD3,
  0xFF, 0xFF, 0x8B, 0x14, 0x00, 0x00, 0x18, 0x16, 0x00, 0x00,
  0xE9, 0xE9, 0xFF, 0xFF, 0x4D, 0x02, 0x00, 0x00, 0x8A, 0x02,
  0x00, 0x00, 0x66, 0xFC, 0xFF, 0xFF, 0x04, 0x00, 0x00, 0x00,
  0x00, 0x02, 0x00, 0x00, 0xE7, 0xD5, 0x7F, 0x2B, 0x26, 0xAD,
  0xFC, 0x20, 0x31, 0xF4, 0xA8, 0x4E, 0x4F, 0x1E, 0xE8, 0x1A,
  0xF4, 0x25, 0x3C, 0x2A, 0xDE, 0xE1, 0xC7, 0x25, 0x5D, 0x38,
  0x08, 0x0D, 0xF0, 0xB8, 0xFB, 0x58, 0x04, 0x14, 0xF7, 0x1C,
  0x16, 0x55, 0x2D, 0x1D, 0x21, 0xDD, 0xE2, 0x09, 0x19, 0xEB,
  0x16, 0xBC, 0x14, 0x28, 0x06, 0x05, 0xE8, 0x11, 0x1E, 0xD9,
  0x2F, 0x1B, 0x44, 0x45, 0xF8, 0x1E, 0x14, 0x10, 0xE7, 0xD5,
  0xF4, 0xFB, 0xF0, 0xF6, 0xF9, 0x3E, 0x2E, 0x1A, 0x83, 0xC7,
  0x31, 0xCE, 0xF7, 0x40, 0x1F, 0x23, 0x22, 0x08, 0x81, 0xED,
  0xF2, 0x37, 0x24, 0x01, 0x9C, 0x07, 0xE9, 0x01, 0x0C, 0x75,
  0xEF, 0xC8, 0x24, 0xE8, 0xFE, 0x1C, 0x08, 0xF0, 0x6D, 0xF8,
  0xAA, 0xEB, 0xFD, 0xB3, 0xF9, 0x12, 0x17, 0x23, 0x4A, 0xF8,
  0xD3, 0x30, 0x1E, 0x19, 0x67, 0x10, 0x8D, 0x1B, 0xF1, 0x14,
  0x30, 0x20, 0x02, 0xDC, 0x16, 0xCD, 0xD2, 0x03, 0xE6, 0x50,
  0x1B, 0xD0, 0x90, 0xFB, 0x35, 0x29, 0xC6, 0x49, 0xEC, 0x23,
  0x10, 0xF8, 0xAC, 0xC8, 0x23, 0x02, 0xF0, 0x20, 0x05, 0x00,
  0x17, 0x13, 0x21, 0x22, 0x19, 0xFC, 0xEE, 0xDD, 0x81, 0x46,
  0x07, 0x2D, 0x5A, 0xE8, 0xCE, 0xF2, 0x31, 0x15, 0xCD, 0x18,
  0xD6, 0xCD, 0xED, 0x23, 0xAB, 0x18, 0xDF, 0x00, 0xF0, 0x2D,
  0xF8, 0x22, 0x0B, 0xC3, 0x1D, 0x03, 0xDF, 0xFE, 0xE9, 0x12,
  0xF6, 0x0C, 0xC7, 0xE8, 0x04, 0x1D, 0x04, 0x14, 0x0B, 0xAB,
  0xEA, 0xAA, 0xCC, 0xD0, 0xFA, 0xFD, 0xFC, 0x1A, 0xD6, 0xFA,
  0xE6, 0x0A, 0x0D, 0x0A, 0x18, 0xDB, 0xCD, 0xBE, 0xE2, 0xEB,
  0x03, 0x21, 0xF5, 0xDA, 0xC4, 0x04, 0xB0, 0x06, 0xF7, 0x04,
  0x04, 0xC0, 0xFE, 0xF3, 0xD3, 0xDA, 0x0C, 0xFF, 0xFE, 0xF7,
  0xDF, 0x0A, 0x81, 0xF5, 0xEC, 0xFE, 0x0D, 0xD2, 0xEE, 0x05,
  0xFB, 0x2A, 0x0D, 0x03, 0x17, 0xDF, 0x16, 0x65, 0x0D, 0x3A,
  0xBC, 0x3A, 0x2D, 0x14, 0xB6, 0x54, 0x02, 0xDD, 0x2E, 0x26,
  0xDD, 0xB3, 0xF9, 0xF7, 0x46, 0xF6, 0x0F, 0x05, 0x05, 0xD1,
  0x22, 0x03, 0x25, 0xFF, 0x20, 0x01, 0xD4, 0x1C, 0xD7, 0x1C,
  0x7F, 0x00, 0x17, 0xED, 0x48, 0x2B, 0x17, 0xB8, 0x1C, 0xFC,
  0x39, 0xF3, 0x35, 0xEF, 0x16, 0x28, 0x42, 0xDC, 0xF3, 0x22,
  0xE3, 0xEC, 0xE2, 0x08, 0xBD, 0xB7, 0x0C, 0xE5, 0x18, 0x0D,
  0xD1, 0x06, 0x43, 0xC8, 0x0C, 0xC8, 0xDF, 0xD0, 0xB1, 0xDB,
  0xFC, 0xC0, 0x23, 0xF7, 0x06, 0xE7, 0x98, 0x39, 0x4C, 0xDD,
  0xED, 0xD5, 0xE7, 0x07, 0x81, 0xF2, 0xA5, 0xE0, 0x2E, 0x17,
  0xE5, 0xE8, 0xEE, 0x0F, 0x67, 0xDB, 0x11, 0xF7, 0x0C, 0xE8,
  0x20, 0x10, 0xBB, 0x06, 0x47, 0x3B, 0xDF, 0xC5, 0xB6, 0x16,
  0x7D, 0x0A, 0xE5, 0xE6, 0xF9, 0xFF, 0xF8, 0x2A, 0x1F, 0xD9,
  0x69, 0xDB, 0xE1, 0xBA, 0xB3, 0x76, 0x55, 0xEE, 0xD0, 0x1C,
  0x4F, 0xDF, 0x35, 0x47, 0x0C, 0xFC, 0x62, 0x03, 0x29, 0x04,
  0xBE, 0x1A, 0x3A, 0x51, 0xC2, 0xEF, 0xCB, 0x09, 0x10, 0x55,
  0x1F, 0xF5, 0x17, 0xE4, 0xB9, 0x5A, 0xE6, 0x11, 0x7F, 0x1A,
  0xA5, 0x1A, 0x27, 0xBD, 0x37, 0x18, 0x14, 0x1D, 0x47, 0x48,
  0xCF, 0x2D, 0xE1, 0x21, 0xF5, 0x13, 0xBF, 0x1E, 0xE1, 0xDA,
  0x26, 0x10, 0x06, 0x2D, 0x7F, 0x23, 0x0E, 0xFE, 0xF3, 0x13,
  0x35, 0x0D, 0xA4, 0xF7, 0x76, 0xBC, 0xC1, 0x4C, 0x23, 0x35,
  0x4A, 0x45, 0x3C, 0xB9, 0xC0, 0x37, 0x5B, 0x25, 0x26, 0x2A,
  0x1B, 0xB2, 0x0D, 0x20, 0xD6, 0xD6, 0x05, 0xD9, 0xF6, 0x0F,
  0xFA, 0x5D, 0x51, 0x2E, 0xB7, 0x3D, 0x14, 0x18, 0xBB, 0xFC,
  0xE6, 0x35, 0x03, 0x57, 0xF1, 0x06, 0x24, 0x1D, 0xFA, 0x41,
  0xE3, 0xE6, 0xD0, 0x20, 0x0C, 0xDD, 0x72, 0xFE, 0xFF, 0xFF,
  0x04, 0x00, 0x00, 0x00, 0x20, 0x00, 0x00, 0x00, 0x37, 0x09,
  0x00, 0x00, 0xB6, 0xFF, 0xFF, 0xFF, 0x0E, 0x00, 0x00, 0x00,
  0xA4, 0x0A, 0x00, 0x00, 0xB4, 0x08, 0x00, 0x00, 0x8C, 0x07,
  0x00, 0x00, 0xCC, 0x08, 0x00, 0x00, 0xAB, 0x0A, 0x00, 0x00,
  0x9E, 0xFE, 0xFF, 0xFF, 0x04, 0x00, 0x00, 0x00, 0x18, 0x00,
  0x00, 0x00, 0x08, 0x0B, 0x0E, 0xED, 0xEC, 0xF5, 0xE6, 0xE9,
  0xB8, 0xE8, 0xF5, 0x02, 0xFE, 0xD5, 0x17, 0xFD, 0x0F, 0x4B,
  0x51, 0x81, 0x06, 0xA6, 0x1C, 0x19, 0xC2, 0xFE, 0xFF, 0xFF,
  0x04, 0x00, 0x00, 0x00, 0x04, 0x00, 0x00, 0x00, 0xC1, 0x03,
  0x00, 0x00, 0xD2, 0xFE, 0xFF, 0xFF, 0x04, 0x00, 0x00, 0x00,
  0x08, 0x00, 0x00, 0x00, 0x80, 0x00, 0x00, 0x00, 0x80, 0x00,
  0x00, 0x00, 0x18, 0xE4, 0xFF, 0xFF, 0x1C, 0xE4, 0xFF, 0xFF,
  0x0F, 0x00, 0x00, 0x00, 0x4D, 0x4C, 0x49, 0x52, 0x20, 0x43,
  0x6F, 0x6E, 0x76, 0x65, 0x72, 0x74, 0x65, 0x64, 0x2E, 0x00,
  0x01, 0x00, 0x00, 0x00, 0x14, 0x00, 0x00, 0x00, 0x00, 0x00,
  0x0E, 0x00, 0x18, 0x00, 0x14, 0x00, 0x10, 0x00, 0x0C, 0x00,
  0x08, 0x00, 0x04, 0x00, 0x0E, 0x00, 0x00, 0x00, 0x14, 0x00,
  0x00, 0x00, 0x1C, 0x00, 0x00, 0x00, 0xC4, 0x03, 0x00, 0x00,
  0xC8, 0x03, 0x00, 0x00, 0xCC, 0x03, 0x00, 0x00, 0x04, 0x00,
  0x00, 0x00, 0x6D, 0x61, 0x69, 0x6E, 0x00, 0x00, 0x00, 0x00,
  0x0E, 0x00, 0x00, 0x00, 0x8C, 0x03, 0x00, 0x00, 0x30, 0x03,
  0x00, 0x00, 0xDC, 0x02, 0x00, 0x00, 0x8C, 0x02, 0x00, 0x00,
  0x48, 0x02, 0x00, 0x00, 0x04, 0x02, 0x00, 0x00, 0xC4, 0x01,
  0x00, 0x00, 0x80, 0x01, 0x00, 0x00, 0x3C, 0x01, 0x00, 0x00,
  0xFC, 0x00, 0x00, 0x00, 0xB8, 0x00, 0x00, 0x00, 0x78, 0x00,
  0x00, 0x00, 0x34, 0x00, 0x00, 0x00, 0x10, 0x00, 0x00, 0x00,
  0x00, 0x00, 0x0A, 0x00, 0x10, 0x00, 0x0C, 0x00, 0x08, 0x00,
  0x04, 0x00, 0x0A, 0x00, 0x00, 0x00, 0x0C, 0x00, 0x00, 0x00,
  0x10, 0x00, 0x00, 0x00, 0x05, 0x00, 0x00, 0x00, 0x01, 0x00,
  0x00, 0x00, 0x1D, 0x00, 0x00, 0x00, 0x01, 0x00, 0x00, 0x00,
  0x1C, 0x00, 0x00, 0x00, 0x3E, 0xFD, 0xFF, 0xFF, 0x14, 0x00,
  0x00, 0x00, 0x00, 0x00, 0x00, 0x01, 0x1C, 0x00, 0x00, 0x00,
  0x20, 0x00, 0x00, 0x00, 0x01, 0x00, 0x00, 0x00, 0x30, 0xFD,
  0xFF, 0xFF, 0x00, 0x00, 0x00, 0x01, 0x01, 0x00, 0x00, 0x00,
  0x01, 0x00, 0x00, 0x00, 0x01, 0x00, 0x00, 0x00, 0x1C, 0x00,
  0x00, 0x00, 0x03, 0x00, 0x00, 0x00, 0x1B, 0x00, 0x00, 0x00,
  0x03, 0x00, 0x00, 0x00, 0x02, 0x00, 0x00, 0x00, 0x7E, 0xFD,
  0xFF, 0xFF, 0x1C, 0x00, 0x00, 0x00, 0x00, 0x00, 0x00, 0x0A,
  0x1C, 0x00, 0x00, 0x00, 0x20, 0x00, 0x00, 0x00, 0x04, 0x00,
  0x00, 0x00, 0x00, 0x00, 0x06, 0x00, 0x08, 0x00, 0x04, 0x00,
  0x06, 0x00, 0x00, 0x00, 0x03, 0x00, 0x00, 0x00, 0x01, 0x00,
  0x00, 0x00, 0x1B, 0x00, 0x00, 0x00, 0x02, 0x00, 0x00, 0x00,
  0x11, 0x00, 0x00, 0x00, 0x1A, 0x00, 0x00, 0x00, 0xBA, 0xFD,
  0xFF, 0xFF, 0x20, 0x00, 0x00, 0x00, 0x00, 0x00, 0x00, 0x0F,
  0x20, 0x00, 0x00, 0x00, 0x24, 0x00, 0x00, 0x00, 0x03, 0x00,
  0x00, 0x00, 0x0C, 0x00, 0x08, 0x00, 0x00, 0x00, 0x00, 0x00,
  0x00, 0x00, 0x07, 0x00, 0x0C, 0x00, 0x00, 0x00, 0x00, 0x00,
  0x00, 0x01, 0x01, 0x00, 0x00, 0x00, 0x1A, 0x00, 0x00, 0x00,
  0x02, 0x00, 0x00, 0x00, 0x19, 0x00, 0x00, 0x00, 0x01, 0x00,
  0x00, 0x00, 0xFA, 0xFD, 0xFF, 0xFF, 0x14, 0x00, 0x00, 0x00,
  0x00, 0x00, 0x00, 0x05, 0x20, 0x00, 0x00, 0x00, 0x24, 0x00,
  0x00, 0x00, 0x02, 0x00, 0x00, 0x00, 0x86, 0xFE, 0xFF, 0xFF,
  0x02, 0x00, 0x00, 0x00, 0x02, 0x00, 0x00, 0x00, 0x02, 0x00,
  0x00, 0x00, 0x02, 0x00, 0x00, 0x00, 0x01, 0x00, 0x00, 0x00,
  0x19, 0x00, 0x00, 0x00, 0x01, 0x00, 0x00, 0x00, 0x18, 0x00,
  0x00, 0x00, 0x36, 0xFE, 0xFF, 0xFF, 0x14, 0x00, 0x00, 0x00,
  0x00, 0x00, 0x00, 0x01, 0x1C, 0x00, 0x00, 0x00, 0x20, 0x00,
  0x00, 0x00, 0x01, 0x00, 0x00, 0x00, 0x28, 0xFE, 0xFF, 0xFF,
  0x00, 0x00, 0x00, 0x01, 0x01, 0x00, 0x00, 0x00, 0x01, 0x00,
  0x00, 0x00, 0x01, 0x00, 0x00, 0x00, 0x18, 0x00, 0x00, 0x00,
  0x03, 0x00, 0x00, 0x00, 0x17, 0x00, 0x00, 0x00, 0x05, 0x00,
  0x00, 0x00, 0x04, 0x00, 0x00, 0x00, 0x76, 0xFE, 0xFF, 0xFF,
  0x14, 0x00, 0x00, 0x00, 0x00, 0x00, 0x00, 0x01, 0x1C, 0x00,
  0x00, 0x00, 0x20, 0x00, 0x00, 0x00, 0x01, 0x00, 0x00, 0x00,
  0x68, 0xFE, 0xFF, 0xFF, 0x00, 0x00, 0x00, 0x01, 0x01, 0x00,
  0x00, 0x00, 0x01, 0x00, 0x00, 0x00, 0x01, 0x00, 0x00, 0x00,
  0x17, 0x00, 0x00, 0x00, 0x03, 0x00, 0x00, 0x00, 0x16, 0x00,
  0x00, 0x00, 0x07, 0x00, 0x00, 0x00, 0x06, 0x00, 0x00, 0x00,
  0xB6, 0xFE, 0xFF, 0xFF, 0x14, 0x00, 0x00, 0x00, 0x00, 0x00,
  0x00, 0x05, 0x20, 0x00, 0x00, 0x00, 0x24, 0x00, 0x00, 0x00,
  0x02, 0x00, 0x00, 0x00, 0x42, 0xFF, 0xFF, 0xFF, 0x02, 0x00,
  0x00, 0x00, 0x02, 0x00, 0x00, 0x00, 0x02, 0x00, 0x00, 0x00,
  0x02, 0x00, 0x00, 0x00, 0x01, 0x00, 0x00, 0x00, 0x16, 0x00,
  0x00, 0x00, 0x01, 0x00, 0x00, 0x00, 0x15, 0x00, 0x00, 0x00,
  0xF2, 0xFE, 0xFF, 0xFF, 0x14, 0x00, 0x00, 0x00, 0x00, 0x00,
  0x00, 0x01, 0x1C, 0x00, 0x00, 0x00, 0x20, 0x00, 0x00, 0x00,
  0x01, 0x00, 0x00, 0x00, 0xE4, 0xFE, 0xFF, 0xFF, 0x00, 0x00,
  0x00, 0x01, 0x01, 0x00, 0x00, 0x00, 0x01, 0x00, 0x00, 0x00,
  0x01, 0x00, 0x00, 0x00, 0x15, 0x00, 0x00, 0x00, 0x03, 0x00,
  0x00, 0x00, 0x14, 0x00, 0x00, 0x00, 0x09, 0x00, 0x00, 0x00,
  0x08, 0x00, 0x00, 0x00, 0x32, 0xFF, 0xFF, 0xFF, 0x14, 0x00,
  0x00, 0x00, 0x00, 0x00, 0x00, 0x01, 0x1C, 0x00, 0x00, 0x00,
  0x20, 0x00, 0x00, 0x00, 0x01, 0x00, 0x00, 0x00, 0x24, 0xFF,
  0xFF, 0xFF, 0x00, 0x00, 0x00, 0x01, 0x01, 0x00, 0x00, 0x00,
  0x01, 0x00, 0x00, 0x00, 0x01, 0x00, 0x00, 0x00, 0x14, 0x00,
  0x00, 0x00, 0x03, 0x00, 0x00, 0x00, 0x13, 0x00, 0x00, 0x00,
  0x0B, 0x00, 0x00, 0x00, 0x0A, 0x00, 0x00, 0x00, 0x72, 0xFF,
  0xFF, 0xFF, 0x24, 0x00, 0x00, 0x00, 0x00, 0x00, 0x00, 0x05,
  0x30, 0x00, 0x00, 0x00, 0x34, 0x00, 0x00, 0x00, 0x02, 0x00,
  0x00, 0x00, 0x00, 0x00, 0x0E, 0x00, 0x14, 0x00, 0x00, 0x00,
  0x10, 0x00, 0x0C, 0x00, 0x08, 0x00, 0x04, 0x00, 0x0E, 0x00,
  0x00, 0x00, 0x02, 0x00, 0x00, 0x00, 0x02, 0x00, 0x00, 0x00,
  0x02, 0x00, 0x00, 0x00, 0x02, 0x00, 0x00, 0x00, 0x01, 0x00,
  0x00, 0x00, 0x13, 0x00, 0x00, 0x00, 0x01, 0x00, 0x00, 0x00,
  0x12, 0x00, 0x00, 0x00, 0xBE, 0xFF, 0xFF, 0xFF, 0x14, 0x00,
  0x00, 0x00, 0x00, 0x00, 0x00, 0x01, 0x1C, 0x00, 0x00, 0x00,
  0x20, 0x00, 0x00, 0x00, 0x01, 0x00, 0x00, 0x00, 0xB0, 0xFF,
  0xFF, 0xFF, 0x00, 0x00, 0x00, 0x01, 0x01, 0x00, 0x00, 0x00,
  0x01, 0x00, 0x00, 0x00, 0x01, 0x00, 0x00, 0x00, 0x12, 0x00,
  0x00, 0x00, 0x03, 0x00, 0x00, 0x00, 0x11, 0x00, 0x00, 0x00,
  0x0D, 0x00, 0x00, 0x00, 0x0C, 0x00, 0x00, 0x00, 0x00, 0x00,
  0x0E, 0x00, 0x18, 0x00, 0x14, 0x00, 0x10, 0x00, 0x0C, 0x00,
  0x0B, 0x00, 0x04, 0x00, 0x0E, 0x00, 0x00, 0x00, 0x20, 0x00,
  0x00, 0x00, 0x00, 0x00, 0x00, 0x01, 0x28, 0x00, 0x00, 0x00,
  0x2C, 0x00, 0x00, 0x00, 0x01, 0x00, 0x00, 0x00, 0x0C, 0x00,
  0x10, 0x00, 0x00, 0x00, 0x0C, 0x00, 0x08, 0x00, 0x07, 0x00,
  0x0C, 0x00, 0x00, 0x00, 0x00, 0x00, 0x00, 0x01, 0x01, 0x00,
  0x00, 0x00, 0x01, 0x00, 0x00, 0x00, 0x01, 0x00, 0x00, 0x00,
  0x11, 0x00, 0x00, 0x00, 0x03, 0x00, 0x00, 0x00, 0x10, 0x00,
  0x00, 0x00, 0x0F, 0x00, 0x00, 0x00, 0x0E, 0x00, 0x00, 0x00,
  0x00, 0x00, 0x0A, 0x00, 0x0C, 0x00, 0x00, 0x00, 0x08, 0x00,
  0x04, 0x00, 0x0A, 0x00, 0x00, 0x00, 0x08, 0x00, 0x00, 0x00,
  0x0C, 0x00, 0x00, 0x00, 0x01, 0x00, 0x00, 0x00, 0x10, 0x00,
  0x00, 0x00, 0x01, 0x00, 0x00, 0x00, 0x00, 0x00, 0x00, 0x00,
  0x01, 0x00, 0x00, 0x00, 0x1D, 0x00, 0x00, 0x00, 0x01, 0x00,
  0x00, 0x00, 0x00, 0x00, 0x00, 0x00, 0x1E, 0x00, 0x00, 0x00,
  0xA0, 0x17, 0x00, 0x00, 0x38, 0x17, 0x00, 0x00, 0x9C, 0x16,
  0x00, 0x00, 0x24, 0x16, 0x00, 0x00, 0x58, 0x15, 0x00, 0x00,
  0x8C, 0x14, 0x00, 0x00, 0x60, 0x13, 0x00, 0x00, 0x34, 0x12,
  0x00, 0x00, 0x68, 0x11, 0x00, 0x00, 0x9C, 0x10, 0x00, 0x00,
  0x70, 0x0F, 0x00, 0x00, 0x44, 0x0E, 0x00, 0x00, 0x78, 0x0D,
  0x00, 0x00, 0xAC, 0x0C, 0x00, 0x00, 0x80, 0x0B, 0x00, 0x00,
  0x54, 0x0A, 0x00, 0x00, 0xD0, 0x09, 0x00, 0x00, 0xBC, 0x08,
  0x00, 0x00, 0xC0, 0x07, 0x00, 0x00, 0x24, 0x07, 0x00, 0x00,
  0x28, 0x06, 0x00, 0x00, 0x2C, 0x05, 0x00, 0x00, 0x90, 0x04,
  0x00, 0x00, 0xAC, 0x03, 0x00, 0x00, 0xC8, 0x02, 0x00, 0x00,
  0x2C, 0x02, 0x00, 0x00, 0x90, 0x01, 0x00, 0x00, 0xFC, 0x00,
  0x00, 0x00, 0x70, 0x00, 0x00, 0x00, 0x04, 0x00, 0x00, 0x00,
  0xEE, 0xE8, 0xFF, 0xFF, 0x00, 0x00, 0x00, 0x01, 0x14, 0x00,
  0x00, 0x00, 0x24, 0x00, 0x00, 0x00, 0x24, 0x00, 0x00, 0x00,
  0x1E, 0x00, 0x00, 0x00, 0x3C, 0x00, 0x00, 0x00, 0x04, 0x00,
  0x00, 0x00, 0xFF, 0xFF, 0xFF, 0xFF, 0x80, 0x00, 0x00, 0x00,
  0x80, 0x00, 0x00, 0x00, 0x01, 0x00, 0x00, 0x00, 0xD8, 0xE8,
  0xFF, 0xFF, 0x19, 0x00, 0x00, 0x00, 0x53, 0x74, 0x61, 0x74,
  0x65, 0x66, 0x75, 0x6C, 0x50, 0x61, 0x72, 0x74, 0x69, 0x74,
  0x69, 0x6F, 0x6E, 0x65, 0x64, 0x43, 0x61, 0x6C, 0x6C, 0x3A,
  0x30, 0x00, 0x00, 0x00, 0x04, 0x00, 0x00, 0x00, 0x01, 0x00,
  0x00, 0x00, 0x80, 0x00, 0x00, 0x00, 0x80, 0x00, 0x00, 0x00,
  0x01, 0x00, 0x00, 0x00, 0xE6, 0xF6, 0xFF, 0xFF, 0x00, 0x00,
  0x00, 0x01, 0x18, 0x00, 0x00, 0x00, 0x28, 0x00, 0x00, 0x00,
  0x44, 0x00, 0x00, 0x00, 0x1D, 0x00, 0x00, 0x00, 0x00, 0x00,
  0x00, 0x09, 0x58, 0x00, 0x00, 0x00, 0x04, 0x00, 0x00, 0x00,
  0xFF, 0xFF, 0xFF, 0xFF, 0x80, 0x00, 0x00, 0x00, 0x80, 0x00,
  0x00, 0x00, 0x01, 0x00, 0x00, 0x00, 0x54, 0xEA, 0xFF, 0xFF,
  0x08, 0x00, 0x00, 0x00, 0x10, 0x00, 0x00, 0x00, 0x01, 0x00,
  0x00, 0x00, 0x80, 0xFF, 0xFF, 0xFF, 0xFF, 0xFF, 0xFF, 0xFF,
  0x01, 0x00, 0x00, 0x00, 0x1B, 0xF4, 0xC6, 0x3B, 0x1A, 0x00,
  0x00, 0x00, 0x53, 0x74, 0x61, 0x74, 0x65, 0x66, 0x75, 0x6C,
  0x50, 0x61, 0x72, 0x74, 0x69, 0x74, 0x69, 0x6F, 0x6E, 0x65,
  0x64, 0x43, 0x61, 0x6C, 0x6C, 0x3A, 0x30, 0x31, 0x00, 0x00,
  0x04, 0x00, 0x00, 0x00, 0x01, 0x00, 0x00, 0x00, 0x80, 0x00,
  0x00, 0x00, 0x80, 0x00, 0x00, 0x00, 0x01, 0x00, 0x00, 0x00,
  0x6E, 0xF7, 0xFF, 0xFF, 0x00, 0x00, 0x00, 0x01, 0x18, 0x00,
  0x00, 0x00, 0x28, 0x00, 0x00, 0x00, 0x48, 0x00, 0x00, 0x00,
  0x1C, 0x00, 0x00, 0x00, 0x00, 0x00, 0x00, 0x09, 0x60, 0x00,
  0x00, 0x00, 0x04, 0x00, 0x00, 0x00, 0xFF, 0xFF, 0xFF, 0xFF,
  0x80, 0x00, 0x00, 0x00, 0x80, 0x00, 0x00, 0x00, 0x18, 0x00,
  0x00, 0x00, 0xDC, 0xEA, 0xFF, 0xFF, 0x08, 0x00, 0x00, 0x00,
  0x14, 0x00, 0x00, 0x00, 0x01, 0x00, 0x00, 0x00, 0x80, 0xFF,
  0xFF, 0xFF, 0xFF, 0xFF, 0xFF, 0xFF, 0x00, 0x00, 0x00, 0x00,
  0x01, 0x00, 0x00, 0x00, 0x0D, 0xD8, 0x4F, 0x3C, 0x1C, 0x00,
  0x00, 0x00, 0x6D, 0x6F, 0x64, 0x65, 0x6C, 0x5F, 0x35, 0x2F,
  0x63, 0x6F, 0x6E, 0x63, 0x61, 0x74, 0x65, 0x6E, 0x61, 0x74,
  0x65, 0x5F, 0x35, 0x2F, 0x63, 0x6F, 0x6E, 0x63, 0x61, 0x74,
  0x00, 0x00, 0x00, 0x00, 0x04, 0x00, 0x00, 0x00, 0x01, 0x00,
  0x00, 0x00, 0x80, 0x00, 0x00, 0x00, 0x80, 0x00, 0x00, 0x00,
  0x18, 0x00, 0x00, 0x00, 0xFE, 0xF7, 0xFF, 0xFF, 0x00, 0x00,
  0x00, 0x01, 0x18, 0x00, 0x00, 0x00, 0x28, 0x00, 0x00, 0x00,
  0x44, 0x00, 0x00, 0x00, 0x1B, 0x00, 0x00, 0x00, 0x00, 0x00,
  0x00, 0x09, 0x68, 0x00, 0x00, 0x00, 0x04, 0x00, 0x00, 0x00,
  0xFF, 0xFF, 0xFF, 0xFF, 0x80, 0x00, 0x00, 0x00, 0x80, 0x00,
  0x00, 0x00, 0x08, 0x00, 0x00, 0x00, 0x6C, 0xEB, 0xFF, 0xFF,
  0x08, 0x00, 0x00, 0x00, 0x10, 0x00, 0x00, 0x00, 0x01, 0x00,
  0x00, 0x00, 0x80, 0xFF, 0xFF, 0xFF, 0xFF, 0xFF, 0xFF, 0xFF,
  0x01, 0x00, 0x00, 0x00, 0x0D, 0xD8, 0x4F, 0x3C, 0x28, 0x00,
  0x00, 0x00, 0x6D, 0x6F, 0x64, 0x65, 0x6C, 0x5F, 0x35, 0x2F,
  0x72, 0x65, 0x73, 0x69, 0x7A, 0x69, 0x6E, 0x67, 0x5F, 0x36,
  0x2F, 0x72, 0x65, 0x73, 0x69, 0x7A, 0x65, 0x2F, 0x52, 0x65,
  0x73, 0x69, 0x7A, 0x65, 0x42, 0x69, 0x6C, 0x69, 0x6E, 0x65,
  0x61, 0x72, 0x00, 0x00, 0x00, 0x00, 0x04, 0x00, 0x00, 0x00,
  0x01, 0x00, 0x00, 0x00, 0x80, 0x00, 0x00, 0x00, 0x80, 0x00,
  0x00, 0x00, 0x08, 0x00, 0x00, 0x00, 0x96, 0xF8, 0xFF, 0xFF,
  0x00, 0x00, 0x00, 0x01, 0x18, 0x00, 0x00, 0x00, 0x28, 0x00,
  0x00, 0x00, 0x48, 0x00, 0x00, 0x00, 0x1A, 0x00, 0x00, 0x00,
  0x00, 0x00, 0x00, 0x09, 0x68, 0x00, 0x00, 0x00, 0x04, 0x00,
  0x00, 0x00, 0xFF, 0xFF, 0xFF, 0xFF, 0x10, 0x00, 0x00, 0x00,
  0x10, 0x00, 0x00, 0x00, 0x08, 0x00, 0x00, 0x00, 0x04, 0xEC,
  0xFF, 0xFF, 0x08, 0x00, 0x00, 0x00, 0x14, 0x00, 0x00, 0x00,
  0x01, 0x00, 0x00, 0x00, 0x80, 0xFF, 0xFF, 0xFF, 0xFF, 0xFF,
  0xFF, 0xFF, 0x00, 0x00, 0x00, 0x00, 0x01, 0x00, 0x00, 0x00,
  0x0D, 0xD8, 0x4F, 0x3C, 0x24, 0x00, 0x00, 0x00, 0x6D, 0x6F,
  0x64, 0x65, 0x6C, 0x5F, 0x35, 0x2F, 0x61, 0x76, 0x65, 0x72,
  0x61, 0x67, 0x65, 0x5F, 0x70, 0x6F, 0x6F, 0x6C, 0x69, 0x6E,
  0x67, 0x32, 0x64, 0x5F, 0x31, 0x37, 0x2F, 0x41, 0x76, 0x67,
  0x50, 0x6F, 0x6F, 0x6C, 0x00, 0x00, 0x00, 0x00, 0x04, 0x00,
  0x00, 0x00, 0x01, 0x00, 0x00, 0x00, 0x10, 0x00, 0x00, 0x00,
  0x10, 0x00, 0x00, 0x00, 0x08, 0x00, 0x00, 0x00, 0x2E, 0xF9,
  0xFF, 0xFF, 0x00, 0x00, 0x00, 0x01, 0x18, 0x00, 0x00, 0x00,
  0x28, 0x00, 0x00, 0x00, 0x44, 0x00, 0x00, 0x00, 0x19, 0x00,
  0x00, 0x00, 0x00, 0x00, 0x00, 0x09, 0xB0, 0x00, 0x00, 0x00,
  0x04, 0x00, 0x00, 0x00, 0xFF, 0xFF, 0xFF, 0xFF, 0x20, 0x00,
  0x00, 0x00, 0x20, 0x00, 0x00, 0x00, 0x08, 0x00, 0x00, 0x00,
  0x9C, 0xEC, 0xFF, 0xFF, 0x08, 0x00, 0x00, 0x00, 0x10, 0x00,
  0x00, 0x00, 0x01, 0x00, 0x00, 0x00, 0x80, 0xFF, 0xFF, 0xFF,
  0xFF, 0xFF, 0xFF, 0xFF, 0x01, 0x00, 0x00, 0x00, 0x0D, 0xD8,
  0x4F, 0x3C, 0x72, 0x00, 0x00, 0x00, 0x6D, 0x6F, 0x64, 0x65,
  0x6C, 0x5F, 0x35, 0x2F, 0x63, 0x6F, 0x6E, 0x76, 0x32, 0x64,
  0x5F, 0x34, 0x31, 0x2F, 0x52, 0x65, 0x6C, 0x75, 0x3B, 0x6D,
  0x6F, 0x64, 0x65, 0x6C, 0x5F, 0x35, 0x2F, 0x63, 0x6F, 0x6E,
  0x76, 0x32, 0x64, 0x5F, 0x34, 0x31, 0x2F, 0x42, 0x69, 0x61,
  0x73, 0x41, 0x64, 0x64, 0x3B, 0x6D, 0x6F, 0x64, 0x65, 0x6C,
  0x5F, 0x35, 0x2F, 0x63, 0x6F, 0x6E, 0x76, 0x32, 0x64, 0x5F,
  0x34, 0x31, 0x2F, 0x43, 0x6F, 0x6E, 0x76, 0x32, 0x44, 0x3B,
  0x6D, 0x6F, 0x64, 0x65, 0x6C, 0x5F, 0x35, 0x2F, 0x63, 0x6F,
  0x6E, 0x76, 0x32, 0x64, 0x5F, 0x34, 0x31, 0x2F, 0x42, 0x69,
  0x61, 0x73, 0x41, 0x64, 0x64, 0x2F, 0x52, 0x65, 0x61, 0x64,
  0x56, 0x61, 0x72, 0x69, 0x61, 0x62, 0x6C, 0x65, 0x4F, 0x70,
  0x00, 0x00, 0x04, 0x00, 0x00, 0x00, 0x01, 0x00, 0x00, 0x00,
  0x20, 0x00, 0x00, 0x00, 0x20, 0x00, 0x00, 0x00, 0x08, 0x00,
  0x00, 0x00, 0x0E, 0xFA, 0xFF, 0xFF, 0x00, 0x00, 0x00, 0x01,
  0x18, 0x00, 0x00, 0x00, 0x28, 0x00, 0x00, 0x00, 0x44, 0x00,
  0x00, 0x00, 0x18, 0x00, 0x00, 0x00, 0x00, 0x00, 0x00, 0x09,
  0xB0, 0x00, 0x00, 0x00, 0x04, 0x00, 0x00, 0x00, 0xFF, 0xFF,
  0xFF, 0xFF, 0x20, 0x00, 0x00, 0x00, 0x20, 0x00, 0x00, 0x00,
  0x10, 0x00, 0x00, 0x00, 0x7C, 0xED, 0xFF, 0xFF, 0x08, 0x00,
  0x00, 0x00, 0x10, 0x00, 0x00, 0x00, 0x01, 0x00, 0x00, 0x00,
  0x80, 0xFF, 0xFF, 0xFF, 0xFF, 0xFF, 0xFF, 0xFF, 0x01, 0x00,
  0x00, 0x00, 0xD3, 0x61, 0x4E, 0x3C, 0x72, 0x00, 0x00, 0x00,
  0x6D, 0x6F, 0x64, 0x65, 0x6C, 0x5F, 0x35, 0x2F, 0x63, 0x6F,
  0x6E, 0x76, 0x32, 0x64, 0x5F, 0x34, 0x30, 0x2F, 0x52, 0x65,
  0x6C, 0x75, 0x3B, 0x6D, 0x6F, 0x64, 0x65, 0x6C, 0x5F, 0x35,
  0x2F, 0x63, 0x6F, 0x6E, 0x76, 0x32, 0x64, 0x5F, 0x34, 0x30,
  0x2F, 0x42, 0x69, 0x61, 0x73, 0x41, 0x64, 0x64, 0x3B, 0x6D,
  0x6F, 0x64, 0x65, 0x6C, 0x5F, 0x35, 0x2F, 0x63, 0x6F, 0x6E,
  0x76, 0x32, 0x64, 0x5F, 0x34, 0x30, 0x2F, 0x43, 0x6F, 0x6E,
  0x76, 0x32, 0x44, 0x3B, 0x6D, 0x6F, 0x64, 0x65, 0x6C, 0x5F,
  0x35, 0x2F, 0x63, 0x6F, 0x6E, 0x76, 0x32, 0x64, 0x5F, 0x34,
  0x30, 0x2F, 0x42, 0x69, 0x61, 0x73, 0x41, 0x64, 0x64, 0x2F,
  0x52, 0x65, 0x61, 0x64, 0x56, 0x61, 0x72, 0x69, 0x61, 0x62,
  0x6C, 0x65, 0x4F, 0x70, 0x00, 0x00, 0x04, 0x00, 0x00, 0x00,
  0x01, 0x00, 0x00, 0x00, 0x20, 0x00, 0x00, 0x00, 0x20, 0x00,
  0x00, 0x00, 0x10, 0x00, 0x00, 0x00, 0xEE, 0xFA, 0xFF, 0xFF,
  0x00, 0x00, 0x00, 0x01, 0x18, 0x00, 0x00, 0x00, 0x28, 0x00,
  0x00, 0x00, 0x48, 0x00, 0x00, 0x00, 0x17, 0x00, 0x00, 0x00,
  0x00, 0x00, 0x00, 0x09, 0x68, 0x00, 0x00, 0x00, 0x04, 0x00,
  0x00, 0x00, 0xFF, 0xFF, 0xFF, 0xFF, 0x20, 0x00, 0x00, 0x00,
  0x20, 0x00, 0x00, 0x00, 0x08, 0x00, 0x00, 0x00, 0x5C, 0xEE,
  0xFF, 0xFF, 0x08, 0x00, 0x00, 0x00, 0x14, 0x00, 0x00, 0x00,
  0x01, 0x00, 0x00, 0x00, 0x80, 0xFF, 0xFF, 0xFF, 0xFF, 0xFF,
  0xFF, 0xFF, 0x00, 0x00, 0x00, 0x00, 0x01, 0x00, 0x00, 0x00,
  0x58, 0x07, 0x0F, 0x3C, 0x24, 0x00, 0x00, 0x00, 0x6D, 0x6F,
  0x64, 0x65, 0x6C, 0x5F, 0x35, 0x2F, 0x61, 0x76, 0x65, 0x72,
  0x61, 0x67, 0x65, 0x5F, 0x70, 0x6F, 0x6F, 0x6C, 0x69, 0x6E,
  0x67, 0x32, 0x64, 0x5F, 0x31, 0x36, 0x2F, 0x41, 0x76, 0x67,
  0x50, 0x6F, 0x6F, 0x6C, 0x00, 0x00, 0x00, 0x00, 0x04, 0x00,
  0x00, 0x00, 0x01, 0x00, 0x00, 0x00, 0x20, 0x00, 0x00, 0x00,
  0x20, 0x00, 0x00, 0x00, 0x08, 0x00, 0x00, 0x00, 0x86, 0xFB,
  0xFF, 0xFF, 0x00, 0x00, 0x00, 0x01, 0x18, 0x00, 0x00, 0x00,
  0x28, 0x00, 0x00, 0x00, 0x44, 0x00, 0x00, 0x00, 0x16, 0x00,
  0x00, 0x00, 0x00, 0x00, 0x00, 0x09, 0xC8, 0x00, 0x00, 0x00,
  0x04, 0x00, 0x00, 0x00, 0xFF, 0xFF, 0xFF, 0xFF, 0x40, 0x00,
  0x00, 0x00, 0x40, 0x00, 0x00, 0x00, 0x08, 0x00, 0x00, 0x00,
  0xF4, 0xEE, 0xFF, 0xFF, 0x08, 0x00, 0x00, 0x00, 0x10, 0x00,
  0x00, 0x00, 0x01, 0x00, 0x00, 0x00, 0x80, 0xFF, 0xFF, 0xFF,
  0xFF, 0xFF, 0xFF, 0xFF, 0x01, 0x00, 0x00, 0x00, 0x58, 0x07,
  0x0F, 0x3C, 0x8B, 0x00, 0x00, 0x00, 0x6D, 0x6F, 0x64, 0x65,
  0x6C, 0x5F, 0x35, 0x2F, 0x63, 0x6F, 0x6E, 0x76, 0x32, 0x64,
  0x5F, 0x33, 0x39, 0x2F, 0x52, 0x65, 0x6C, 0x75, 0x3B, 0x6D,
  0x6F, 0x64, 0x65, 0x6C, 0x5F, 0x35, 0x2F, 0x63, 0x6F, 0x6E,
  0x76, 0x32, 0x64, 0x5F, 0x33, 0x39, 0x2F, 0x42, 0x69, 0x61,
  0x73, 0x41, 0x64, 0x64, 0x3B, 0x6D, 0x6F, 0x64, 0x65, 0x6C,
  0x5F, 0x35, 0x2F, 0x63, 0x6F, 0x6E, 0x76, 0x32, 0x64, 0x5F,
  0x34, 0x31, 0x2F, 0x43, 0x6F, 0x6E, 0x76, 0x32, 0x44, 0x3B,
  0x6D, 0x6F, 0x64, 0x65, 0x6C, 0x5F, 0x35, 0x2F, 0x63, 0x6F,
  0x6E, 0x76, 0x32, 0x64, 0x5F, 0x33, 0x39, 0x2F, 0x43, 0x6F,
  0x6E, 0x76, 0x32, 0x44, 0x3B, 0x6D, 0x6F, 0x64, 0x65, 0x6C,
  0x5F, 0x35, 0x2F, 0x63, 0x6F, 0x6E, 0x76, 0x32, 0x64, 0x5F,
  0x33, 0x39, 0x2F, 0x42, 0x69, 0x61, 0x73, 0x41, 0x64, 0x64,
  0x2F, 0x52, 0x65, 0x61, 0x64, 0x56, 0x61, 0x72, 0x69, 0x61,
  0x62, 0x6C, 0x65, 0x4F, 0x70, 0x00, 0x04, 0x00, 0x00, 0x00,
  0x01, 0x00, 0x00, 0x00, 0x40, 0x00, 0x00, 0x00, 0x40, 0x00,
  0x00, 0x00, 0x08, 0x00, 0x00, 0x00, 0x7E, 0xFC, 0xFF, 0xFF,
  0x00, 0x00, 0x00, 0x01, 0x18, 0x00, 0x00, 0x00, 0x28, 0x00,
  0x00, 0x00, 0x44, 0x00, 0x00, 0x00, 0x15, 0x00, 0x00, 0x00,
  0x00, 0x00, 0x00, 0x09, 0xC8, 0x00, 0x00, 0x00, 0x04, 0x00,
  0x00, 0x00, 0xFF, 0xFF, 0xFF, 0xFF, 0x40, 0x00, 0x00, 0x00,
  0x40, 0x00, 0x00, 0x00, 0x10, 0x00, 0x00, 0x00, 0xEC, 0xEF,
  0xFF, 0xFF, 0x08, 0x00, 0x00, 0x00, 0x10, 0x00, 0x00, 0x00,
  0x01, 0x00, 0x00, 0x00, 0x80, 0xFF, 0xFF, 0xFF, 0xFF, 0xFF,
  0xFF, 0xFF, 0x01, 0x00, 0x00, 0x00, 0x8C, 0x9D, 0x1D, 0x3C,
  0x8B, 0x00, 0x00, 0x00, 0x6D, 0x6F, 0x64, 0x65, 0x6C, 0x5F,
  0x35, 0x2F, 0x63, 0x6F, 0x6E, 0x76, 0x32, 0x64, 0x5F, 0x33,
  0x38, 0x2F, 0x52, 0x65, 0x6C, 0x75, 0x3B, 0x6D, 0x6F, 0x64,
  0x65, 0x6C, 0x5F, 0x35, 0x2F, 0x63, 0x6F, 0x6E, 0x76, 0x32,
  0x64, 0x5F, 0x33, 0x38, 0x2F, 0x42, 0x69, 0x61, 0x73, 0x41,
  0x64, 0x64, 0x3B, 0x6D, 0x6F, 0x64, 0x65, 0x6C, 0x5F, 0x35,
  0x2F, 0x63, 0x6F, 0x6E, 0x76, 0x32, 0x64, 0x5F, 0x34, 0x30,
  0x2F, 0x43, 0x6F, 0x6E, 0x76, 0x32, 0x44, 0x3B, 0x6D, 0x6F,
  0x64, 0x65, 0x6C, 0x5F, 0x35, 0x2F, 0x63, 0x6F, 0x6E, 0x76,
  0x32, 0x64, 0x5F, 0x33, 0x38, 0x2F, 0x43, 0x6F, 0x6E, 0x76,
  0x32, 0x44, 0x3B, 0x6D, 0x6F, 0x64, 0x65, 0x6C, 0x5F, 0x35,
  0x2F, 0x63, 0x6F, 0x6E, 0x76, 0x32, 0x64, 0x5F, 0x33, 0x38,
  0x2F, 0x42, 0x69, 0x61, 0x73, 0x41, 0x64, 0x64, 0x2F, 0x52,
  0x65, 0x61, 0x64, 0x56, 0x61, 0x72, 0x69, 0x61, 0x62, 0x6C,
  0x65, 0x4F, 0x70, 0x00, 0x04, 0x00, 0x00, 0x00, 0x01, 0x00,
  0x00, 0x00, 0x40, 0x00, 0x00, 0x00, 0x40, 0x00, 0x00, 0x00,
  0x10, 0x00, 0x00, 0x00, 0x76, 0xFD, 0xFF, 0xFF, 0x00, 0x00,
  0x00, 0x01, 0x18, 0x00, 0x00, 0x00, 0x28, 0x00, 0x00, 0x00,
  0x48, 0x00, 0x00, 0x00, 0x14, 0x00, 0x00, 0x00, 0x00, 0x00,
  0x00, 0x09, 0x68, 0x00, 0x00, 0x00, 0x04, 0x00, 0x00, 0x00,
  0xFF, 0xFF, 0xFF, 0xFF, 0x40, 0x00, 0x00, 0x00, 0x40, 0x00,
  0x00, 0x00, 0x08, 0x00, 0x00, 0x00, 0xE4, 0xF0, 0xFF, 0xFF,
  0x08, 0x00, 0x00, 0x00, 0x14, 0x00, 0x00, 0x00, 0x01, 0x00,
  0x00, 0x00, 0x80, 0xFF, 0xFF, 0xFF, 0xFF, 0xFF, 0xFF, 0xFF,
  0x00, 0x00, 0x00, 0x00, 0x01, 0x00, 0x00, 0x00, 0xDE, 0x78,
  0x99, 0x3B, 0x24, 0x00, 0x00, 0x00, 0x6D, 0x6F, 0x64, 0x65,
  0x6C, 0x5F, 0x35, 0x2F, 0x61, 0x76, 0x65, 0x72, 0x61, 0x67,
  0x65, 0x5F, 0x70, 0x6F, 0x6F, 0x6C, 0x69, 0x6E, 0x67, 0x32,
  0x64, 0x5F, 0x31, 0x35, 0x2F, 0x41, 0x76, 0x67, 0x50, 0x6F,
  0x6F, 0x6C, 0x00, 0x00, 0x00, 0x00, 0x04, 0x00, 0x00, 0x00,
  0x01, 0x00, 0x00, 0x00, 0x40, 0x00, 0x00, 0x00, 0x40, 0x00,
  0x00, 0x00, 0x08, 0x00, 0x00, 0x00, 0x0E, 0xFE, 0xFF, 0xFF,
  0x00, 0x00, 0x00, 0x01, 0x18, 0x00, 0x00, 0x00, 0x28, 0x00,
  0x00, 0x00, 0x44, 0x00, 0x00, 0x00, 0x13, 0x00, 0x00, 0x00,
  0x00, 0x00, 0x00, 0x09, 0xC8, 0x00, 0x00, 0x00, 0x04, 0x00,
  0x00, 0x00, 0xFF, 0xFF, 0xFF, 0xFF, 0x80, 0x00, 0x00, 0x00,
  0x80, 0x00, 0x00, 0x00, 0x08, 0x00, 0x00, 0x00, 0x7C, 0xF1,
  0xFF, 0xFF, 0x08, 0x00, 0x00, 0x00, 0x10, 0x00, 0x00, 0x00,
  0x01, 0x00, 0x00, 0x00, 0x80, 0xFF, 0xFF, 0xFF, 0xFF, 0xFF,
  0xFF, 0xFF, 0x01, 0x00, 0x00, 0x00, 0xDE, 0x78, 0x99, 0x3B,
  0x8B, 0x00, 0x00, 0x00, 0x6D, 0x6F, 0x64, 0x65, 0x6C, 0x5F,
  0x35, 0x2F, 0x63, 0x6F, 0x6E, 0x76, 0x32, 0x64, 0x5F, 0x33,
  0x37, 0x2F, 0x52, 0x65, 0x6C, 0x75, 0x3B, 0x6D, 0x6F, 0x64,
  0x65, 0x6C, 0x5F, 0x35, 0x2F, 0x63, 0x6F, 0x6E, 0x76, 0x32,
  0x64, 0x5F, 0x33, 0x37, 0x2F, 0x42, 0x69, 0x61, 0x73, 0x41,
  0x64, 0x64, 0x3B, 0x6D, 0x6F, 0x64, 0x65, 0x6C, 0x5F, 0x35,
  0x2F, 0x63, 0x6F, 0x6E, 0x76, 0x32, 0x64, 0x5F, 0x34, 0x31,
  0x2F, 0x43, 0x6F, 0x6E, 0x76, 0x32, 0x44, 0x3B, 0x6D, 0x6F,
  0x64, 0x65, 0x6C, 0x5F, 0x35, 0x2F, 0x63, 0x6F, 0x6E, 0x76,
  0x32, 0x64, 0x5F, 0x33, 0x37, 0x2F, 0x43, 0x6F, 0x6E, 0x76,
  0x32, 0x44, 0x3B, 0x6D, 0x6F, 0x64, 0x65, 0x6C, 0x5F, 0x35,
  0x2F, 0x63, 0x6F, 0x6E, 0x76, 0x32, 0x64, 0x5F, 0x33, 0x37,
  0x2F, 0x42, 0x69, 0x61, 0x73, 0x41, 0x64, 0x64, 0x2F, 0x52,
  0x65, 0x61, 0x64, 0x56, 0x61, 0x72, 0x69, 0x61, 0x62, 0x6C,
  0x65, 0x4F, 0x70, 0x00, 0x04, 0x00, 0x00, 0x00, 0x01, 0x00,
  0x00, 0x00, 0x80, 0x00, 0x00, 0x00, 0x80, 0x00, 0x00, 0x00,
  0x08, 0x00, 0x00, 0x00, 0x06, 0xFF, 0xFF, 0xFF, 0x00, 0x00,
  0x00, 0x01, 0x18, 0x00, 0x00, 0x00, 0x28, 0x00, 0x00, 0x00,
  0x44, 0x00, 0x00, 0x00, 0x12, 0x00, 0x00, 0x00, 0x00, 0x00,
  0x00, 0x09, 0xC8, 0x00, 0x00, 0x00, 0x04, 0x00, 0x00, 0x00,
  0xFF, 0xFF, 0xFF, 0xFF, 0x80, 0x00, 0x00, 0x00, 0x80, 0x00,
  0x00, 0x00, 0x10, 0x00, 0x00, 0x00, 0x74, 0xF2, 0xFF, 0xFF,
  0x08, 0x00, 0x00, 0x00, 0x10, 0x00, 0x00, 0x00, 0x01, 0x00,
  0x00, 0x00, 0x80, 0xFF, 0xFF, 0xFF, 0xFF, 0xFF, 0xFF, 0xFF,
  0x01, 0x00, 0x00, 0x00, 0x0D, 0xD8, 0x4F, 0x3C, 0x8B, 0x00,
  0x00, 0x00, 0x6D, 0x6F, 0x64, 0x65, 0x6C, 0x5F, 0x35, 0x2F,
  0x63, 0x6F, 0x6E, 0x76, 0x32, 0x64, 0x5F, 0x33, 0x36, 0x2F,
  0x52, 0x65, 0x6C, 0x75, 0x3B, 0x6D, 0x6F, 0x64, 0x65, 0x6C,
  0x5F, 0x35, 0x2F, 0x63, 0x6F, 0x6E, 0x76, 0x32, 0x64, 0x5F,
  0x33, 0x36, 0x2F, 0x42, 0x69, 0x61, 0x73, 0x41, 0x64, 0x64,
  0x3B, 0x6D, 0x6F, 0x64, 0x65, 0x6C, 0x5F, 0x35, 0x2F, 0x63,
  0x6F, 0x6E, 0x76, 0x32, 0x64, 0x5F, 0x34, 0x30, 0x2F, 0x43,
  0x6F, 0x6E, 0x76, 0x32, 0x44, 0x3B, 0x6D, 0x6F, 0x64, 0x65,
  0x6C, 0x5F, 0x35, 0x2F, 0x63, 0x6F, 0x6E, 0x76, 0x32, 0x64,
  0x5F, 0x33, 0x36, 0x2F, 0x43, 0x6F, 0x6E, 0x76, 0x32, 0x44,
  0x3B, 0x6D, 0x6F, 0x64, 0x65, 0x6C, 0x5F, 0x35, 0x2F, 0x63,
  0x6F, 0x6E, 0x76, 0x32, 0x64, 0x5F, 0x33, 0x36, 0x2F, 0x42,
  0x69, 0x61, 0x73, 0x41, 0x64, 0x64, 0x2F, 0x52, 0x65, 0x61,
  0x64, 0x56, 0x61, 0x72, 0x69, 0x61, 0x62, 0x6C, 0x65, 0x4F,
  0x70, 0x00, 0x04, 0x00, 0x00, 0x00, 0x01, 0x00, 0x00, 0x00,
  0x80, 0x00, 0x00, 0x00, 0x80, 0x00, 0x00, 0x00, 0x10, 0x00,
  0x00, 0x00, 0x00, 0x00, 0x16, 0x00, 0x20, 0x00, 0x1C, 0x00,
  0x1B, 0x00, 0x14, 0x00, 0x10, 0x00, 0x0C, 0x00, 0x00, 0x00,
  0x00, 0x00, 0x08, 0x00, 0x07, 0x00, 0x16, 0x00, 0x00, 0x00,
  0x00, 0x00, 0x00, 0x01, 0x18, 0x00, 0x00, 0x00, 0x28, 0x00,
  0x00, 0x00, 0x48, 0x00, 0x00, 0x00, 0x11, 0x00, 0x00, 0x00,
  0x00, 0x00, 0x00, 0x09, 0x50, 0x00, 0x00, 0x00, 0x04, 0x00,
  0x00, 0x00, 0xFF, 0xFF, 0xFF, 0xFF, 0x80, 0x00, 0x00, 0x00,
  0x80, 0x00, 0x00, 0x00, 0x01, 0x00, 0x00, 0x00, 0x84, 0xF3,
  0xFF, 0xFF, 0x08, 0x00, 0x00, 0x00, 0x14, 0x00, 0x00, 0x00,
  0x01, 0x00, 0x00, 0x00, 0x80, 0xFF, 0xFF, 0xFF, 0xFF, 0xFF,
  0xFF, 0xFF, 0x00, 0x00, 0x00, 0x00, 0x01, 0x00, 0x00, 0x00,
  0x81, 0x80, 0x80, 0x3B, 0x0C, 0x00, 0x00, 0x00, 0x74, 0x66,
  0x6C, 0x2E, 0x71, 0x75, 0x61, 0x6E, 0x74, 0x69, 0x7A, 0x65,
  0x00, 0x00, 0x00, 0x00, 0x04, 0x00, 0x00, 0x00, 0x01, 0x00,
  0x00, 0x00, 0x80, 0x00, 0x00, 0x00, 0x80, 0x00, 0x00, 0x00,
  0x01, 0x00, 0x00, 0x00, 0x6A, 0xF3, 0xFF, 0xFF, 0x00, 0x00,
  0x00, 0x01, 0x14, 0x00, 0x00, 0x00, 0xE8, 0x00, 0x00, 0x00,
  0x10, 0x00, 0x00, 0x00, 0x00, 0x00, 0x00, 0x09, 0xFC, 0x00,
  0x00, 0x00, 0xEC, 0xF3, 0xFF, 0xFF, 0x08, 0x00, 0x00, 0x00,
  0x8C, 0x00, 0x00, 0x00, 0x10, 0x00, 0x00, 0x00, 0x00, 0x00,
  0x00, 0x00, 0x00, 0x00, 0x00, 0x00, 0x00, 0x00, 0x00, 0x00,
  0x00, 0x00, 0x00, 0x00, 0x00, 0x00, 0x00, 0x00, 0x00, 0x00,
  0x00, 0x00, 0x00, 0x00, 0x00, 0x00, 0x00, 0x00, 0x00, 0x00,
  0x00, 0x00, 0x00, 0x00, 0x00, 0x00, 0x00, 0x00, 0x00, 0x00,
  0x00, 0x00, 0x00, 0x00, 0x00, 0x00, 0x00, 0x00, 0x00, 0x00,
  0x00, 0x00, 0x00, 0x00, 0x00, 0x00, 0x00, 0x00, 0x00, 0x00,
  0x00, 0x00, 0x00, 0x00, 0x00, 0x00, 0x00, 0x00, 0x00, 0x00,
  0x00, 0x00, 0x00, 0x00, 0x00, 0x00, 0x00, 0x00, 0x00, 0x00,
  0x00, 0x00, 0x00, 0x00, 0x00, 0x00, 0x00, 0x00, 0x00, 0x00,
  0x00, 0x00, 0x00, 0x00, 0x00, 0x00, 0x00, 0x00, 0x00, 0x00,
  0x00, 0x00, 0x00, 0x00, 0x00, 0x00, 0x00, 0x00, 0x00, 0x00,
  0x00, 0x00, 0x00, 0x00, 0x00, 0x00, 0x00, 0x00, 0x00, 0x00,
  0x00, 0x00, 0x00, 0x00, 0x00, 0x00, 0x00, 0x00, 0x00, 0x00,
  0x10, 0x00, 0x00, 0x00, 0xB1, 0x36, 0x29, 0x3B, 0x56, 0x71,
  0xFD, 0x3A, 0x2A, 0xB1, 0x17, 0x3B, 0x05, 0x3D, 0x03, 0x3B,
  0xCA, 0x3D, 0x20, 0x3B, 0x0C, 0xCD, 0x21, 0x3B, 0x92, 0x1D,
  0xFB, 0x3A, 0xEC, 0xCC, 0x10, 0x3B, 0xEF, 0x12, 0x98, 0x3B,
  0x91, 0x47, 0x00, 0x3B, 0x1B, 0xFA, 0xD0, 0x3A, 0x33, 0x53,
  0xF1, 0x3A, 0xA0, 0xA0, 0x1A, 0x3B, 0x61, 0xAC, 0xFD, 0x3A,
  0x82, 0x3C, 0xF8, 0x3A, 0xE6, 0xDD, 0x12, 0x3B, 0x18, 0x00,
  0x00, 0x00, 0x6D, 0x6F, 0x64, 0x65, 0x6C, 0x5F, 0x35, 0x2F,
  0x63, 0x6F, 0x6E, 0x76, 0x32, 0x64, 0x5F, 0x33, 0x36, 0x2F,
  0x43, 0x6F, 0x6E, 0x76, 0x32, 0x44, 0x00, 0x00, 0x00, 0x00,
  0x04, 0x00, 0x00, 0x00, 0x10, 0x00, 0x00, 0x00, 0x04, 0x00,
  0x00, 0x00, 0x04, 0x00, 0x00, 0x00, 0x01, 0x00, 0x00, 0x00,
  0x92, 0xF4, 0xFF, 0xFF, 0x00, 0x00, 0x00, 0x01, 0x14, 0x00,
  0x00, 0x00, 0xE4, 0x00, 0x00, 0x00, 0x0F, 0x00, 0x00, 0x00,
  0x00, 0x00, 0x00, 0x02, 0x08, 0x01, 0x00, 0x00, 0x14, 0xF5,
  0xFF, 0xFF, 0x08, 0x00, 0x00, 0x00, 0x88, 0x00, 0x00, 0x00,
  0x10, 0x00, 0x00, 0x00, 0x00, 0x00, 0x00, 0x00, 0x00, 0x00,
  0x00, 0x00, 0x00, 0x00, 0x00, 0x00, 0x00, 0x00, 0x00, 0x00,
  0x00, 0x00, 0x00, 0x00, 0x00, 0x00, 0x00, 0x00, 0x00, 0x00,
  0x00, 0x00, 0x00, 0x00, 0x00, 0x00, 0x00, 0x00, 0x00, 0x00,
  0x00, 0x00, 0x00, 0x00, 0x00, 0x00, 0x00, 0x00, 0x00, 0x00,
  0x00, 0x00, 0x00, 0x00, 0x00, 0x00, 0x00, 0x00, 0x00, 0x00,
  0x00, 0x00, 0x00, 0x00, 0x00, 0x00, 0x00, 0x00, 0x00, 0x00,
  0x00, 0x00, 0x00, 0x00, 0x00, 0x00, 0x00, 0x00, 0x00, 0x00,
  0x00, 0x00, 0x00, 0x00, 0x00, 0x00, 0x00, 0x00, 0x00, 0x00,
  0x00, 0x00, 0x00, 0x00, 0x00, 0x00, 0x00, 0x00, 0x00, 0x00,
  0x00, 0x00, 0x00, 0x00, 0x00, 0x00, 0x00, 0x00, 0x00, 0x00,
  0x00, 0x00, 0x00, 0x00, 0x00, 0x00, 0x00, 0x00, 0x00, 0x00,
  0x00, 0x00, 0x00, 0x00, 0x00, 0x00, 0x00, 0x00, 0x00, 0x00,
  0x00, 0x00, 0x10, 0x00, 0x00, 0x00, 0x92, 0xE0, 0x29, 0x37,
  0xC7, 0x6F, 0xFE, 0x36, 0x74, 0x49, 0x18, 0x37, 0xC6, 0xC0,
  0x03, 0x37, 0xA9, 0xDE, 0x20, 0x37, 0x7C, 0x6F, 0x22, 0x37,
  0xAD, 0x19, 0xFC, 0x36, 0x4B, 0x5E, 0x11, 0x37, 0x9B, 0xAB,
  0x98, 0x37, 0x5A, 0xC8, 0x00, 0x37, 0xE8, 0xCB, 0xD1, 0x36,
  0x79, 0x45, 0xF2, 0x36, 0xDC, 0x3B, 0x1B, 0x37, 0x0D, 0xAB,
  0xFE, 0x36, 0xB9, 0x35, 0xF9, 0x36, 0x58, 0x71, 0x13, 0x37,
  0x28, 0x00, 0x00, 0x00, 0x6D, 0x6F, 0x64, 0x65, 0x6C, 0x5F,
  0x35, 0x2F, 0x63, 0x6F, 0x6E, 0x76, 0x32, 0x64, 0x5F, 0x33,
  0x36, 0x2F, 0x42, 0x69, 0x61, 0x73, 0x41, 0x64, 0x64, 0x2F,
  0x52, 0x65, 0x61, 0x64, 0x56, 0x61, 0x72, 0x69, 0x61, 0x62,
  0x6C, 0x65, 0x4F, 0x70, 0x00, 0x00, 0x00, 0x00, 0x01, 0x00,
  0x00, 0x00, 0x10, 0x00, 0x00, 0x00, 0xBA, 0xF5, 0xFF, 0xFF,
  0x00, 0x00, 0x00, 0x01, 0x14, 0x00, 0x00, 0x00, 0x88, 0x00,
  0x00, 0x00, 0x0E, 0x00, 0x00, 0x00, 0x00, 0x00, 0x00, 0x09,
  0x9C, 0x00, 0x00, 0x00, 0x3C, 0xF6, 0xFF, 0xFF, 0x08, 0x00,
  0x00, 0x00, 0x4C, 0x00, 0x00, 0x00, 0x08, 0x00, 0x00, 0x00,
  0x00, 0x00, 0x00, 0x00, 0x00, 0x00, 0x00, 0x00, 0x00, 0x00,
  0x00, 0x00, 0x00, 0x00, 0x00, 0x00, 0x00, 0x00, 0x00, 0x00,
  0x00, 0x00, 0x00, 0x00, 0x00, 0x00, 0x00, 0x00, 0x00, 0x00,
  0x00, 0x00, 0x00, 0x00, 0x00, 0x00, 0x00, 0x00, 0x00, 0x00,
  0x00, 0x00, 0x00, 0x00, 0x00, 0x00, 0x00, 0x00, 0x00, 0x00,
  0x00, 0x00, 0x00, 0x00, 0x00, 0x00, 0x00, 0x00, 0x00, 0x00,
  0x00, 0x00, 0x00, 0x00, 0x00, 0x00, 0x00, 0x00, 0x08, 0x00,
  0x00, 0x00, 0xA0, 0x5B, 0x05, 0x3C, 0xFD, 0xF0, 0xD5, 0x3B,
  0xEB, 0xF2, 0xD0, 0x3B, 0x68, 0x7B, 0x04, 0x3C, 0xA3, 0xFC,
  0x9F, 0x3B, 0xB0, 0x7C, 0x80, 0x3B, 0xA4, 0xEE, 0x8E, 0x3B,
  0xE9, 0xD6, 0xB5, 0x3B, 0x18, 0x00, 0x00, 0x00, 0x6D, 0x6F,
  0x64, 0x65, 0x6C, 0x5F, 0x35, 0x2F, 0x63, 0x6F, 0x6E, 0x76,
  0x32, 0x64, 0x5F, 0x33, 0x37, 0x2F, 0x43, 0x6F, 0x6E, 0x76,
  0x32, 0x44, 0x00, 0x00, 0x00, 0x00, 0x04, 0x00, 0x00, 0x00,
  0x08, 0x00, 0x00, 0x00, 0x02, 0x00, 0x00, 0x00, 0x02, 0x00,
  0x00, 0x00, 0x10, 0x00, 0x00, 0x00, 0x82, 0xF6, 0xFF, 0xFF,
  0x00, 0x00, 0x00, 0x01, 0x14, 0x00, 0x00, 0x00, 0x84, 0x00,
  0x00, 0x00, 0x0D, 0x00, 0x00, 0x00, 0x00, 0x00, 0x00, 0x02,
  0xA8, 0x00, 0x00, 0x00, 0x04, 0xF7, 0xFF, 0xFF, 0x08, 0x00,
  0x00, 0x00, 0x48, 0x00, 0x00, 0x00, 0x08, 0x00, 0x00, 0x00,
  0x00, 0x00, 0x00, 0x00, 0x00, 0x00, 0x00, 0x00, 0x00, 0x00,
  0x00, 0x00, 0x00, 0x00, 0x00, 0x00, 0x00, 0x00, 0x00, 0x00,
  0x00, 0x00, 0x00, 0x00, 0x00, 0x00, 0x00, 0x00, 0x00, 0x00,
  0x00, 0x00, 0x00, 0x00, 0x00, 0x00, 0x00, 0x00, 0x00, 0x00,
  0x00, 0x00, 0x00, 0x00, 0x00, 0x00, 0x00, 0x00, 0x00, 0x00,
  0x00, 0x00, 0x00, 0x00, 0x00, 0x00, 0x00, 0x00, 0x00, 0x00,
  0x00, 0x00, 0x00, 0x00, 0x08, 0x00, 0x00, 0x00, 0x45, 0x8B,
  0xD8, 0x38, 0x6B, 0xB2, 0xAD, 0x38, 0xC4, 0xA4, 0xA9, 0x38,
  0x30, 0x1F, 0xD7, 0x38, 0x4D, 0xE4, 0x81, 0x38, 0x84, 0xA2,
  0x50, 0x38, 0x2E, 0x17, 0x68, 0x38, 0x3D, 0xA2, 0x93, 0x38,
  0x28, 0x00, 0x00, 0x00, 0x6D, 0x6F, 0x64, 0x65, 0x6C, 0x5F,
  0x35, 0x2F, 0x63, 0x6F, 0x6E, 0x76, 0x32, 0x64, 0x5F, 0x33,
  0x37, 0x2F, 0x42, 0x69, 0x61, 0x73, 0x41, 0x64, 0x64, 0x2F,
  0x52, 0x65, 0x61, 0x64, 0x56, 0x61, 0x72, 0x69, 0x61, 0x62,
  0x6C, 0x65, 0x4F, 0x70, 0x00, 0x00, 0x00, 0x00, 0x01, 0x00,
  0x00, 0x00, 0x08, 0x00, 0x00, 0x00, 0x4A, 0xF7, 0xFF, 0xFF,
  0x00, 0x00, 0x00, 0x01, 0x14, 0x00, 0x00, 0x00, 0xE8, 0x00,
  0x00, 0x00, 0x0C, 0x00, 0x00, 0x00, 0x00, 0x00, 0x00, 0x09,
  0xFC, 0x00, 0x00, 0x00, 0xCC, 0xF7, 0xFF, 0xFF, 0x08, 0x00,
  0x00, 0x00, 0x8C, 0x00, 0x00, 0x00, 0x10, 0x00, 0x00, 0x00,
  0x00, 0x00, 0x00, 0x00, 0x00, 0x00, 0x00, 0x00, 0x00, 0x00,
  0x00, 0x00, 0x00, 0x00, 0x00, 0x00, 0x00, 0x00, 0x00, 0x00,
  0x00, 0x00, 0x00, 0x00, 0x00, 0x00, 0x00, 0x00, 0x00, 0x00,
  0x00, 0x00, 0x00, 0x00, 0x00, 0x00, 0x00, 0x00, 0x00, 0x00,
  0x00, 0x00, 0x00, 0x00, 0x00, 0x00, 0x00, 0x00, 0x00, 0x00,
  0x00, 0x00, 0x00, 0x00, 0x00, 0x00, 0x00, 0x00, 0x00, 0x00,
  0x00, 0x00, 0x00, 0x00, 0x00, 0x00, 0x00, 0x00, 0x00, 0x00,
  0x00, 0x00, 0x00, 0x00, 0x00, 0x00, 0x00, 0x00, 0x00, 0x00,
  0x00, 0x00, 0x00, 0x00, 0x00, 0x00, 0x00, 0x00, 0x00, 0x00,
  0x00, 0x00, 0x00, 0x00, 0x00, 0x00, 0x00, 0x00, 0x00, 0x00,
  0x00, 0x00, 0x00, 0x00, 0x00, 0x00, 0x00, 0x00, 0x00, 0x00,
  0x00, 0x00, 0x00, 0x00, 0x00, 0x00, 0x00, 0x00, 0x00, 0x00,
  0x00, 0x00, 0x00, 0x00, 0x00, 0x00, 0x00, 0x00, 0x00, 0x00,
  0x00, 0x00, 0x10, 0x00, 0x00, 0x00, 0x4E, 0x38, 0x9E, 0x3B,
  0xCB, 0x39, 0x87, 0x3B, 0x1C, 0x33, 0x9B, 0x3A, 0xDC, 0x59,
  0x83, 0x3B, 0xB9, 0xF8, 0x1E, 0x3C, 0x8B, 0xDA, 0x22, 0x3C,
  0x74, 0x9A, 0x17, 0x3C, 0x2B, 0xCC, 0xBF, 0x3B, 0x37, 0xE6,
  0xD5, 0x3B, 0xFA, 0xA3, 0x0F, 0x3B, 0x5E, 0xDA, 0x88, 0x3B,
  0x8D, 0xC2, 0x7A, 0x3B, 0x93, 0x2B, 0x99, 0x3B, 0x63, 0x92,
  0x8C, 0x3B, 0x5D, 0x89, 0xA5, 0x3B, 0xC7, 0x84, 0x71, 0x3B,
  0x18, 0x00, 0x00, 0x00, 0x6D, 0x6F, 0x64, 0x65, 0x6C, 0x5F,
  0x35, 0x2F, 0x63, 0x6F, 0x6E, 0x76, 0x32, 0x64, 0x5F, 0x33,
  0x38, 0x2F, 0x43, 0x6F, 0x6E, 0x76, 0x32, 0x44, 0x00, 0x00,
  0x00, 0x00, 0x04, 0x00, 0x00, 0x00, 0x10, 0x00, 0x00, 0x00,
  0x04, 0x00, 0x00, 0x00, 0x04, 0x00, 0x00, 0x00, 0x08, 0x00,
  0x00, 0x00, 0x72, 0xF8, 0xFF, 0xFF, 0x00, 0x00, 0x00, 0x01,
  0x14, 0x00, 0x00, 0x00, 0xE4, 0x00, 0x00, 0x00, 0x0B, 0x00,
  0x00, 0x00, 0x00, 0x00, 0x00, 0x02, 0x08, 0x01, 0x00, 0x00,
  0xF4, 0xF8, 0xFF, 0xFF, 0x08, 0x00, 0x00, 0x00, 0x88, 0x00,
  0x00, 0x00, 0x10, 0x00, 0x00, 0x00, 0x00, 0x00, 0x00, 0x00,
  0x00, 0x00, 0x00, 0x00, 0x00, 0x00, 0x00, 0x00, 0x00, 0x00,
  0x00, 0x00, 0x00, 0x00, 0x00, 0x00, 0x00, 0x00, 0x00, 0x00,
  0x00, 0x00, 0x00, 0x00, 0x00, 0x00, 0x00, 0x00, 0x00, 0x00,
  0x00, 0x00, 0x00, 0x00, 0x00, 0x00, 0x00, 0x00, 0x00, 0x00,
  0x00, 0x00, 0x00, 0x00, 0x00, 0x00, 0x00, 0x00, 0x00, 0x00,
  0x00, 0x00, 0x00, 0x00, 0x00, 0x00, 0x00, 0x00, 0x00, 0x00,
  0x00, 0x00, 0x00, 0x00, 0x00, 0x00, 0x00, 0x00, 0x00, 0x00,
  0x00, 0x00, 0x00, 0x00, 0x00, 0x00, 0x00, 0x00, 0x00, 0x00,
  0x00, 0x00, 0x00, 0x00, 0x00, 0x00, 0x00, 0x00, 0x00, 0x00,
  0x00, 0x00, 0x00, 0x00, 0x00, 0x00, 0x00, 0x00, 0x00, 0x00,
  0x00, 0x00, 0x00, 0x00, 0x00, 0x00, 0x00, 0x00, 0x00, 0x00,
  0x00, 0x00, 0x00, 0x00, 0x00, 0x00, 0x00, 0x00, 0x00, 0x00,
  0x00, 0x00, 0x00, 0x00, 0x10, 0x00, 0x00, 0x00, 0xB4, 0xB4,
  0xBD, 0x37, 0xC5, 0x22, 0xA2, 0x37, 0xA5, 0x15, 0xBA, 0x36,
  0x71, 0x7D, 0x9D, 0x37, 0x6A, 0x9B, 0x3E, 0x38, 0x01, 0x43,
  0x43, 0x38, 0xC6, 0xC5, 0x35, 0x38, 0x27, 0xF7, 0xE5, 0x37,
  0x94, 0x3B, 0x00, 0x38, 0xA4, 0x39, 0x2C, 0x37, 0x3E, 0x16,
  0xA4, 0x37, 0xAB, 0x54, 0x96, 0x37, 0xB8, 0xA6, 0xB7, 0x37,
  0xB7, 0x8B, 0xA8, 0x37, 0x81, 0x7A, 0xC6, 0x37, 0x63, 0xCA,
  0x90, 0x37, 0x28, 0x00, 0x00, 0x00, 0x6D, 0x6F, 0x64, 0x65,
  0x6C, 0x5F, 0x35, 0x2F, 0x63, 0x6F, 0x6E, 0x76, 0x32, 0x64,
  0x5F, 0x33, 0x38, 0x2F, 0x42, 0x69, 0x61, 0x73, 0x41, 0x64,
  0x64, 0x2F, 0x52, 0x65, 0x61, 0x64, 0x56, 0x61, 0x72, 0x69,
  0x61, 0x62, 0x6C, 0x65, 0x4F, 0x70, 0x00, 0x00, 0x00, 0x00,
  0x01, 0x00, 0x00, 0x00, 0x10, 0x00, 0x00, 0x00, 0x9A, 0xF9,
  0xFF, 0xFF, 0x00, 0x00, 0x00, 0x01, 0x14, 0x00, 0x00, 0x00,
  0x88, 0x00, 0x00, 0x00, 0x0A, 0x00, 0x00, 0x00, 0x00, 0x00,
  0x00, 0x09, 0x9C, 0x00, 0x00, 0x00, 0x1C, 0xFA, 0xFF, 0xFF,
  0x08, 0x00, 0x00, 0x00, 0x4C, 0x00, 0x00, 0x00, 0x08, 0x00,
  0x00, 0x00, 0x00, 0x00, 0x00, 0x00, 0x00, 0x00, 0x00, 0x00,
  0x00, 0x00, 0x00, 0x00, 0x00, 0x00, 0x00, 0x00, 0x00, 0x00,
  0x00, 0x00, 0x00, 0x00, 0x00, 0x00, 0x00, 0x00, 0x00, 0x00,
  0x00, 0x00, 0x00, 0x00, 0x00, 0x00, 0x00, 0x00, 0x00, 0x00,
  0x00, 0x00, 0x00, 0x00, 0x00, 0x00, 0x00, 0x00, 0x00, 0x00,
  0x00, 0x00, 0x00, 0x00, 0x00, 0x00, 0x00, 0x00, 0x00, 0x00,
  0x00, 0x00, 0x00, 0x00, 0x00, 0x00, 0x00, 0x00, 0x00, 0x00,
  0x08, 0x00, 0x00, 0x00, 0xB0, 0x71, 0x37, 0x3C, 0x8C, 0xA3,
  0x8A, 0x3B, 0xB2, 0xD4, 0xE2, 0x3B, 0xA8, 0x7C, 0x0E, 0x3C,
  0x1B, 0xCB, 0xAD, 0x3B, 0xA3, 0x59, 0x09, 0x3C, 0x5A, 0xA1,
  0x54, 0x3C, 0xF4, 0x90, 0xF8, 0x3B, 0x18, 0x00, 0x00, 0x00,
  0x6D, 0x6F, 0x64, 0x65, 0x6C, 0x5F, 0x35, 0x2F, 0x63, 0x6F,
  0x6E, 0x76, 0x32, 0x64, 0x5F, 0x33, 0x39, 0x2F, 0x43, 0x6F,
  0x6E, 0x76, 0x32, 0x44, 0x00, 0x00, 0x00, 0x00, 0x04, 0x00,
  0x00, 0x00, 0x08, 0x00, 0x00, 0x00, 0x02, 0x00, 0x00, 0x00,
  0x02, 0x00, 0x00, 0x00, 0x10, 0x00, 0x00, 0x00, 0x62, 0xFA,
  0xFF, 0xFF, 0x00, 0x00, 0x00, 0x01, 0x14, 0x00, 0x00, 0x00,
  0x84, 0x00, 0x00, 0x00, 0x09, 0x00, 0x00, 0x00, 0x00, 0x00,
  0x00, 0x02, 0xA8, 0x00, 0x00, 0x00, 0xE4, 0xFA, 0xFF, 0xFF,
  0x08, 0x00, 0x00, 0x00, 0x48, 0x00, 0x00, 0x00, 0x08, 0x00,
  0x00, 0x00, 0x00, 0x00, 0x00, 0x00, 0x00, 0x00, 0x00, 0x00,
  0x00, 0x00, 0x00, 0x00, 0x00, 0x00, 0x00, 0x00, 0x00, 0x00,
  0x00, 0x00, 0x00, 0x00, 0x00, 0x00, 0x00, 0x00, 0x00, 0x00,
  0x00, 0x00, 0x00, 0x00, 0x00, 0x00, 0x00, 0x00, 0x00, 0x00,
  0x00, 0x00, 0x00, 0x00, 0x00, 0x00, 0x00, 0x00, 0x00, 0x00,
  0x00, 0x00, 0x00, 0x00, 0x00, 0x00, 0x00, 0x00, 0x00, 0x00,
  0x00, 0x00, 0x00, 0x00, 0x00, 0x00, 0x08, 0x00, 0x00, 0x00,
  0x3C, 0xE3, 0xE1, 0x38, 0x3E, 0xB7, 0x2A, 0x38, 0x0A, 0xA8,
  0x8B, 0x38, 0x47, 0x74, 0xAF, 0x38, 0x08, 0x01, 0x56, 0x38,
  0x00, 0x21, 0xA9, 0x38, 0xCF, 0xE9, 0x02, 0x39, 0xDE, 0x09,
  0x99, 0x38, 0x28, 0x00, 0x00, 0x00, 0x6D, 0x6F, 0x64, 0x65,
  0x6C, 0x5F, 0x35, 0x2F, 0x63, 0x6F, 0x6E, 0x76, 0x32, 0x64,
  0x5F, 0x33, 0x39, 0x2F, 0x42, 0x69, 0x61, 0x73, 0x41, 0x64,
  0x64, 0x2F, 0x52, 0x65, 0x61, 0x64, 0x56, 0x61, 0x72, 0x69,
  0x61, 0x62, 0x6C, 0x65, 0x4F, 0x70, 0x00, 0x00, 0x00, 0x00,
  0x01, 0x00, 0x00, 0x00, 0x08, 0x00, 0x00, 0x00, 0x2A, 0xFB,
  0xFF, 0xFF, 0x00, 0x00, 0x00, 0x01, 0x14, 0x00, 0x00, 0x00,
  0xE8, 0x00, 0x00, 0x00, 0x08, 0x00, 0x00, 0x00, 0x00, 0x00,
  0x00, 0x09, 0xFC, 0x00, 0x00, 0x00, 0xAC, 0xFB, 0xFF, 0xFF,
  0x08, 0x00, 0x00, 0x00, 0x8C, 0x00, 0x00, 0x00, 0x10, 0x00,
  0x00, 0x00, 0x00, 0x00, 0x00, 0x00, 0x00, 0x00, 0x00, 0x00,
  0x00, 0x00, 0x00, 0x00, 0x00, 0x00, 0x00, 0x00, 0x00, 0x00,
  0x00, 0x00, 0x00, 0x00, 0x00, 0x00, 0x00, 0x00, 0x00, 0x00,
  0x00, 0x00, 0x00, 0x00, 0x00, 0x00, 0x00, 0x00, 0x00, 0x00,
  0x00, 0x00, 0x00, 0x00, 0x00, 0x00, 0x00, 0x00, 0x00, 0x00,
  0x00, 0x00, 0x00, 0x00, 0x00, 0x00, 0x00, 0x00, 0x00, 0x00,
  0x00, 0x00, 0x00, 0x00, 0x00, 0x00, 0x00, 0x00, 0x00, 0x00,
  0x00, 0x00, 0x00, 0x00, 0x00, 0x00, 0x00, 0x00, 0x00, 0x00,
  0x00, 0x00, 0x00, 0x00, 0x00, 0x00, 0x00, 0x00, 0x00, 0x00,
  0x00, 0x00, 0x00, 0x00, 0x00, 0x00, 0x00, 0x00, 0x00, 0x00,
  0x00, 0x00, 0x00, 0x00, 0x00, 0x00, 0x00, 0x00, 0x00, 0x00,
  0x00, 0x00, 0x00, 0x00, 0x00, 0x00, 0x00, 0x00, 0x00, 0x00,
  0x00, 0x00, 0x00, 0x00, 0x00, 0x00, 0x00, 0x00, 0x00, 0x00,
  0x00, 0x00, 0x00, 0x00, 0x10, 0x00, 0x00, 0x00, 0xE7, 0xA7,
  0x8E, 0x3B, 0x81, 0x15, 0x90, 0x3B, 0x5F, 0x7F, 0xA2, 0x3B,
  0xCA, 0x39, 0x0C, 0x3C, 0x97, 0xE4, 0x6C, 0x3B, 0xDF, 0x4D,
  0x2C, 0x3C, 0x04, 0x1F, 0xBE, 0x3B, 0xC7, 0x77, 0x99, 0x3B,
  0x2F, 0x90, 0x08, 0x3C, 0x2E, 0x52, 0x77, 0x3B, 0x06, 0xF4,
  0x3C, 0x3B, 0xEB, 0x34, 0x9F, 0x3B, 0xCF, 0xDC, 0x55, 0x3B,
  0x30, 0xDF, 0x80, 0x3B, 0x11, 0x93, 0xD8, 0x3B, 0x36, 0xF6,
  0xA3, 0x3B, 0x18, 0x00, 0x00, 0x00, 0x6D, 0x6F, 0x64, 0x65,
  0x6C, 0x5F, 0x35, 0x2F, 0x63, 0x6F, 0x6E, 0x76, 0x32, 0x64,
  0x5F, 0x34, 0x30, 0x2F, 0x43, 0x6F, 0x6E, 0x76, 0x32, 0x44,
  0x00, 0x00, 0x00, 0x00, 0x04, 0x00, 0x00, 0x00, 0x10, 0x00,
  0x00, 0x00, 0x04, 0x00, 0x00, 0x00, 0x04, 0x00, 0x00, 0x00,
  0x08, 0x00, 0x00, 0x00, 0x52, 0xFC, 0xFF, 0xFF, 0x00, 0x00,
  0x00, 0x01, 0x14, 0x00, 0x00, 0x00, 0xE4, 0x00, 0x00, 0x00,
  0x07, 0x00, 0x00, 0x00, 0x00, 0x00, 0x00, 0x02, 0x08, 0x01,
  0x00, 0x00, 0xD4, 0xFC, 0xFF, 0xFF, 0x08, 0x00, 0x00, 0x00,
  0x88, 0x00, 0x00, 0x00, 0x10, 0x00, 0x00, 0x00, 0x00, 0x00,
  0x00, 0x00, 0x00, 0x00, 0x00, 0x00, 0x00, 0x00, 0x00, 0x00,
  0x00, 0x00, 0x00, 0x00, 0x00, 0x00, 0x00, 0x00, 0x00, 0x00,
  0x00, 0x00, 0x00, 0x00, 0x00, 0x00, 0x00, 0x00, 0x00, 0x00,
  0x00, 0x00, 0x00, 0x00, 0x00, 0x00, 0x00, 0x00, 0x00, 0x00,
  0x00, 0x00, 0x00, 0x00, 0x00, 0x00, 0x00, 0x00, 0x00, 0x00,
  0x00, 0x00, 0x00, 0x00, 0x00, 0x00, 0x00, 0x00, 0x00, 0x00,
  0x00, 0x00, 0x00, 0x00, 0x00, 0x00, 0x00, 0x00, 0x00, 0x00,
  0x00, 0x00, 0x00, 0x00, 0x00, 0x00, 0x00, 0x00, 0x00, 0x00,
  0x00, 0x00, 0x00, 0x00, 0x00, 0x00, 0x00, 0x00, 0x00, 0x00,
  0x00, 0x00, 0x00, 0x00, 0x00, 0x00, 0x00, 0x00, 0x00, 0x00,
  0x00, 0x00, 0x00, 0x00, 0x00, 0x00, 0x00, 0x00, 0x00, 0x00,
  0x00, 0x00, 0x00, 0x00, 0x00, 0x00, 0x00, 0x00, 0x00, 0x00,
  0x00, 0x00, 0x00, 0x00, 0x00, 0x00, 0x10, 0x00, 0x00, 0x00,
  0xC3, 0x67, 0x1F, 0x38, 0x4A, 0x00, 0x21, 0x38, 0x9F, 0x93,
  0x35, 0x38, 0x9B, 0xB0, 0x9C, 0x38, 0x7C, 0x5A, 0x04, 0x38,
  0xE2, 0x88, 0xC0, 0x38, 0x8F, 0x71, 0x54, 0x38, 0x9E, 0x7C,
  0x2B, 0x38, 0xEA, 0x98, 0x98, 0x38, 0x00, 0x2E, 0x0A, 0x38,
  0x76, 0x23, 0xD3, 0x37, 0x41, 0xE6, 0x31, 0x38, 0xF4, 0xF8,
  0xEE, 0x37, 0xBC, 0x00, 0x10, 0x38, 0xBA, 0x00, 0x72, 0x38,
  0x79, 0x36, 0x37, 0x38, 0x28, 0x00, 0x00, 0x00, 0x6D, 0x6F,
  0x64, 0x65, 0x6C, 0x5F, 0x35, 0x2F, 0x63, 0x6F, 0x6E, 0x76,
  0x32, 0x64, 0x5F, 0x34, 0x30, 0x2F, 0x42, 0x69, 0x61, 0x73,
  0x41, 0x64, 0x64, 0x2F, 0x52, 0x65, 0x61, 0x64, 0x56, 0x61,
  0x72, 0x69, 0x61, 0x62, 0x6C, 0x65, 0x4F, 0x70, 0x00, 0x00,
  0x00, 0x00, 0x01, 0x00, 0x00, 0x00, 0x10, 0x00, 0x00, 0x00,
  0x7A, 0xFD, 0xFF, 0xFF, 0x00, 0x00, 0x00, 0x01, 0x14, 0x00,
  0x00, 0x00, 0x88, 0x00, 0x00, 0x00, 0x06, 0x00, 0x00, 0x00,
  0x00, 0x00, 0x00, 0x09, 0x9C, 0x00, 0x00, 0x00, 0xFC, 0xFD,
  0xFF, 0xFF, 0x08, 0x00, 0x00, 0x00, 0x4C, 0x00, 0x00, 0x00,
  0x08, 0x00, 0x00, 0x00, 0x00, 0x00, 0x00, 0x00, 0x00, 0x00,
  0x00, 0x00, 0x00, 0x00, 0x00, 0x00, 0x00, 0x00, 0x00, 0x00,
  0x00, 0x00, 0x00, 0x00, 0x00, 0x00, 0x00, 0x00, 0x00, 0x00,
  0x00, 0x00, 0x00, 0x00, 0x00, 0x00, 0x00, 0x00, 0x00, 0x00,
  0x00, 0x00, 0x00, 0x00, 0x00, 0x00, 0x00, 0x00, 0x00, 0x00,
  0x00, 0x00, 0x00, 0x00, 0x00, 0x00, 0x00, 0x00, 0x00, 0x00,
  0x00, 0x00, 0x00, 0x00, 0x00, 0x00, 0x00, 0x00, 0x00, 0x00,
  0x00, 0x00, 0x08, 0x00, 0x00, 0x00, 0x2B, 0x28, 0x87, 0x3B,
  0x2E, 0xB2, 0xBA, 0x3B, 0xFE, 0x4A, 0xC4, 0x3B, 0x3A, 0xA9,
  0x58, 0x3C, 0xCC, 0x49, 0x93, 0x3B, 0xB4, 0x70, 0x01, 0x3C,
  0xFC, 0x89, 0x90, 0x3B, 0xFA, 0xD6, 0x69, 0x3B, 0x18, 0x00,
  0x00, 0x00, 0x6D, 0x6F, 0x64, 0x65, 0x6C, 0x5F, 0x35, 0x2F,
  0x63, 0x6F, 0x6E, 0x76, 0x32, 0x64, 0x5F, 0x34, 0x31, 0x2F,
  0x43, 0x6F, 0x6E, 0x76, 0x32, 0x44, 0x00, 0x00, 0x00, 0x00,
  0x04, 0x00, 0x00, 0x00, 0x08, 0x00, 0x00, 0x00, 0x02, 0x00,
  0x00, 0x00, 0x02, 0x00, 0x00, 0x00, 0x10, 0x00, 0x00, 0x00,
  0x42, 0xFE, 0xFF, 0xFF, 0x00, 0x00, 0x00, 0x01, 0x14, 0x00,
  0x00, 0x00, 0x84, 0x00, 0x00, 0x00, 0x05, 0x00, 0x00, 0x00,
  0x00, 0x00, 0x00, 0x02, 0xA8, 0x00, 0x00, 0x00, 0xC4, 0xFE,
  0xFF, 0xFF, 0x08, 0x00, 0x00, 0x00, 0x48, 0x00, 0x00, 0x00,
  0x08, 0x00, 0x00, 0x00, 0x00, 0x00, 0x00, 0x00, 0x00, 0x00,
  0x00, 0x00, 0x00, 0x00, 0x00, 0x00, 0x00, 0x00, 0x00, 0x00,
  0x00, 0x00, 0x00, 0x00, 0x00, 0x00, 0x00, 0x00, 0x00, 0x00,
  0x00, 0x00, 0x00, 0x00, 0x00, 0x00, 0x00, 0x00, 0x00, 0x00,
  0x00, 0x00, 0x00, 0x00, 0x00, 0x00, 0x00, 0x00, 0x00, 0x00,
  0x00, 0x00, 0x00, 0x00, 0x00, 0x00, 0x00, 0x00, 0x00, 0x00,
  0x00, 0x00, 0x00, 0x00, 0x00, 0x00, 0x00, 0x00, 0x08, 0x00,
  0x00, 0x00, 0xF0, 0xEB, 0x59, 0x38, 0xB8, 0x82, 0x96, 0x38,
  0x5B, 0x3F, 0x9E, 0x38, 0xF7, 0xAA, 0x2E, 0x39, 0x55, 0x7B,
  0x6D, 0x38, 0x4E, 0xB4, 0xD0, 0x38, 0x88, 0x0C, 0x69, 0x38,
  0x58, 0x84, 0x3C, 0x38, 0x28, 0x00, 0x00, 0x00, 0x6D, 0x6F,
  0x64, 0x65, 0x6C, 0x5F, 0x35, 0x2F, 0x63, 0x6F, 0x6E, 0x76,
  0x32, 0x64, 0x5F, 0x34, 0x31, 0x2F, 0x42, 0x69, 0x61, 0x73,
  0x41, 0x64, 0x64, 0x2F, 0x52, 0x65, 0x61, 0x64, 0x56, 0x61,
  0x72, 0x69, 0x61, 0x62, 0x6C, 0x65, 0x4F, 0x70, 0x00, 0x00,
  0x00, 0x00, 0x01, 0x00, 0x00, 0x00, 0x08, 0x00, 0x00, 0x00,
  0x0A, 0xFF, 0xFF, 0xFF, 0x00, 0x00, 0x00, 0x01, 0x14, 0x00,
  0x00, 0x00, 0x34, 0x00, 0x00, 0x00, 0x04, 0x00, 0x00, 0x00,
  0x00, 0x00, 0x00, 0x09, 0x48, 0x00, 0x00, 0x00, 0x8C, 0xFF,
  0xFF, 0xFF, 0x08, 0x00, 0x00, 0x00, 0x14, 0x00, 0x00, 0x00,
  0x01, 0x00, 0x00, 0x00, 0x00, 0x00, 0x00, 0x00, 0x00, 0x00,
  0x00, 0x00, 0x00, 0x00, 0x00, 0x00, 0x01, 0x00, 0x00, 0x00,
  0x7C, 0x72, 0x37, 0x3C, 0x18, 0x00, 0x00, 0x00, 0x6D, 0x6F,
  0x64, 0x65, 0x6C, 0x5F, 0x35, 0x2F, 0x63, 0x6F, 0x6E, 0x76,
  0x32, 0x64, 0x5F, 0x34, 0x32, 0x2F, 0x43, 0x6F, 0x6E, 0x76,
  0x32, 0x44, 0x00, 0x00, 0x00, 0x00, 0x04, 0x00, 0x00, 0x00,
  0x01, 0x00, 0x00, 0x00, 0x01, 0x00, 0x00, 0x00, 0x01, 0x00,
  0x00, 0x00, 0x18, 0x00, 0x00, 0x00, 0x7E, 0xFF, 0xFF, 0xFF,
  0x00, 0x00, 0x00, 0x01, 0x20, 0x00, 0x00, 0x00, 0x3C, 0x00,
  0x00, 0x00, 0x03, 0x00, 0x00, 0x00, 0x00, 0x00, 0x00, 0x02,
  0x60, 0x00, 0x00, 0x00, 0x0C, 0x00, 0x0C, 0x00, 0x00, 0x00,
  0x00, 0x00, 0x08, 0x00, 0x04, 0x00, 0x0C, 0x00, 0x00, 0x00,
  0x08, 0x00, 0x00, 0x00, 0x10, 0x00, 0x00, 0x00, 0x01, 0x00,
  0x00, 0x00, 0x00, 0x00, 0x00, 0x00, 0x00, 0x00, 0x00, 0x00,
  0x01, 0x00, 0x00, 0x00, 0x64, 0xF0, 0x14, 0x39, 0x28, 0x00,
  0x00, 0x00, 0x6D, 0x6F, 0x64, 0x65, 0x6C, 0x5F, 0x35, 0x2F,
  0x63, 0x6F, 0x6E, 0x76, 0x32, 0x64, 0x5F, 0x34, 0x32, 0x2F,
  0x42, 0x69, 0x61, 0x73, 0x41, 0x64, 0x64, 0x2F, 0x52, 0x65,
  0x61, 0x64, 0x56, 0x61, 0x72, 0x69, 0x61, 0x62, 0x6C, 0x65,
  0x4F, 0x70, 0x00, 0x00, 0x00, 0x00, 0x01, 0x00, 0x00, 0x00,
  0x01, 0x00, 0x00, 0x00, 0x00, 0x00, 0x16, 0x00, 0x1C, 0x00,
  0x18, 0x00, 0x17, 0x00, 0x10, 0x00, 0x0C, 0x00, 0x08, 0x00,
  0x00, 0x00, 0x00, 0x00, 0x00, 0x00, 0x07, 0x00, 0x16, 0x00,
  0x00, 0x00, 0x00, 0x00, 0x00, 0x01, 0x14, 0x00, 0x00, 0x00,
  0x14, 0x00, 0x00, 0x00, 0x02, 0x00, 0x00, 0x00, 0x00, 0x00,
  0x00, 0x02, 0x2C, 0x00, 0x00, 0x00, 0x88, 0xFF, 0xFF, 0xFF,
  0x1E, 0x00, 0x00, 0x00, 0x6D, 0x6F, 0x64, 0x65, 0x6C, 0x5F,
  0x35, 0x2F, 0x72, 0x65, 0x73, 0x69, 0x7A, 0x69, 0x6E, 0x67,
  0x5F, 0x36, 0x2F, 0x72, 0x65, 0x73, 0x69, 0x7A, 0x65, 0x2F,
  0x73, 0x69, 0x7A, 0x65, 0x00, 0x00, 0x01, 0x00, 0x00, 0x00,
  0x02, 0x00, 0x00, 0x00, 0x00, 0x00, 0x16, 0x00, 0x1C, 0x00,
  0x18, 0x00, 0x00, 0x00, 0x14, 0x00, 0x10, 0x00, 0x0C, 0x00,
  0x00, 0x00, 0x00, 0x00, 0x08, 0x00, 0x07, 0x00, 0x16, 0x00,
  0x00, 0x00, 0x00, 0x00, 0x00, 0x01, 0x14, 0x00, 0x00, 0x00,
  0x28, 0x00, 0x00, 0x00, 0x28, 0x00, 0x00, 0x00, 0x01, 0x00,
  0x00, 0x00, 0x40, 0x00, 0x00, 0x00, 0x04, 0x00, 0x00, 0x00,
  0xFF, 0xFF, 0xFF, 0xFF, 0x80, 0x00, 0x00, 0x00, 0x80, 0x00,
  0x00, 0x00, 0x01, 0x00, 0x00, 0x00, 0x04, 0x00, 0x04, 0x00,
  0x04, 0x00, 0x00, 0x00, 0x19, 0x00, 0x00, 0x00, 0x73, 0x65,
  0x72, 0x76, 0x69, 0x6E, 0x67, 0x5F, 0x64, 0x65, 0x66, 0x61,
  0x75, 0x6C, 0x74, 0x5F, 0x69, 0x6E, 0x70, 0x75, 0x74, 0x5F,
  0x37, 0x3A, 0x30, 0x00, 0x00, 0x00, 0x04, 0x00, 0x00, 0x00,
  0x01, 0x00, 0x00, 0x00, 0x80, 0x00, 0x00, 0x00, 0x80, 0x00,
  0x00, 0x00, 0x01, 0x00, 0x00, 0x00, 0x06, 0x00, 0x00, 0x00,
  0x80, 0x00, 0x00, 0x00, 0x60, 0x00, 0x00, 0x00, 0x40, 0x00,
  0x00, 0x00, 0x2C, 0x00, 0x00, 0x00, 0x18, 0x00, 0x00, 0x00,
  0x04, 0x00, 0x00, 0x00, 0xC0, 0xFF, 0xFF, 0xFF, 0x06, 0x00,
  0x00, 0x00, 0x02, 0x00, 0x00, 0x00, 0x00, 0x00, 0x00, 0x06,
  0xD0, 0xFF, 0xFF, 0xFF, 0x02, 0x00, 0x00, 0x00, 0x02, 0x00,
  0x00, 0x00, 0x00, 0x00, 0x00, 0x02, 0xE0, 0xFF, 0xFF, 0xFF,
  0x17, 0x00, 0x00, 0x00, 0x03, 0x00, 0x00, 0x00, 0x00, 0x00,
  0x00, 0x17, 0xF0, 0xFF, 0xFF, 0xFF, 0x01, 0x00, 0x00, 0x00,
  0x02, 0x00, 0x00, 0x00, 0x00, 0x00, 0x00, 0x01, 0x0C, 0x00,
  0x10, 0x00, 0x0F, 0x00, 0x00, 0x00, 0x08, 0x00, 0x04, 0x00,
  0x0C, 0x00, 0x00, 0x00, 0x03, 0x00, 0x00, 0x00, 0x03, 0x00,
  0x00, 0x00, 0x00, 0x00, 0x00, 0x03, 0x0C, 0x00, 0x0C, 0x00,
  0x0B, 0x00, 0x00, 0x00, 0x00, 0x00, 0x04, 0x00, 0x0C, 0x00,
  0x00, 0x00, 0x72, 0x00, 0x00, 0x00, 0x00, 0x00, 0x00, 0x72
};
unsigned int model_tflite_len = 14320;