const unsigned char model_tflite[] = {
  0x20, 0x00, 0x00, 0x00, 0x54, 0x46, 0x4C, 0x33, 0x00, 0x00,
  0x00, 0x00, 0x14, 0x00, 0x20, 0x00, 0x1C, 0x00, 0x18, 0x00,
  0x14, 0x00, 0x10, 0x00, 0x0C, 0x00, 0x00, 0x00, 0x08, 0x00,
  0x04, 0x00, 0x14, 0x00, 0x00, 0x00, 0x1C, 0x00, 0x00, 0x00,
  0x80, 0x00, 0x00, 0x00, 0xD8, 0x00, 0x00, 0x00, 0xDC, 0x09,
  0x00, 0x00, 0xEC, 0x09, 0x00, 0x00, 0x18, 0x22, 0x00, 0x00,
  0x03, 0x00, 0x00, 0x00, 0x01, 0x00, 0x00, 0x00, 0x04, 0x00,
  0x00, 0x00, 0x32, 0xF5, 0xFF, 0xFF, 0x0C, 0x00, 0x00, 0x00,
  0x1C, 0x00, 0x00, 0x00, 0x38, 0x00, 0x00, 0x00, 0x0F, 0x00,
  0x00, 0x00, 0x73, 0x65, 0x72, 0x76, 0x69, 0x6E, 0x67, 0x5F,
  0x64, 0x65, 0x66, 0x61, 0x75, 0x6C, 0x74, 0x00, 0x01, 0x00,
  0x00, 0x00, 0x04, 0x00, 0x00, 0x00, 0x9C, 0xFF, 0xFF, 0xFF,
  0x1D, 0x00, 0x00, 0x00, 0x04, 0x00, 0x00, 0x00, 0x05, 0x00,
  0x00, 0x00, 0x64, 0x65, 0x6E, 0x73, 0x65, 0x00, 0x00, 0x00,
  0x01, 0x00, 0x00, 0x00, 0x04, 0x00, 0x00, 0x00, 0xAA, 0xF6,
  0xFF, 0xFF, 0x04, 0x00, 0x00, 0x00, 0x07, 0x00, 0x00, 0x00,
  0x69, 0x6E, 0x70, 0x75, 0x74, 0x5F, 0x31, 0x00, 0x02, 0x00,
  0x00, 0x00, 0x34, 0x00, 0x00, 0x00, 0x04, 0x00, 0x00, 0x00,
  0xDC, 0xFF, 0xFF, 0xFF, 0x20, 0x00, 0x00, 0x00, 0x04, 0x00,
  0x00, 0x00, 0x13, 0x00, 0x00, 0x00, 0x43, 0x4F, 0x4E, 0x56,
  0x45, 0x52, 0x53, 0x49, 0x4F, 0x4E, 0x5F, 0x4D, 0x45, 0x54,
  0x41, 0x44, 0x41, 0x54, 0x41, 0x00, 0x08, 0x00, 0x0C, 0x00,
  0x08, 0x00, 0x04, 0x00, 0x08, 0x00, 0x00, 0x00, 0x1F, 0x00,
  0x00, 0x00, 0x04, 0x00, 0x00, 0x00, 0x13, 0x00, 0x00, 0x00,
  0x6D, 0x69, 0x6E, 0x5F, 0x72, 0x75, 0x6E, 0x74, 0x69, 0x6D,
  0x65, 0x5F, 0x76, 0x65, 0x72, 0x73, 0x69, 0x6F, 0x6E, 0x00,
  0x21, 0x00, 0x00, 0x00, 0x00, 0x09, 0x00, 0x00, 0xF8, 0x08,
  0x00, 0x00, 0xE0, 0x08, 0x00, 0x00, 0xC4, 0x08, 0x00, 0x00,
  0xA4, 0x08, 0x00, 0x00, 0x84, 0x08, 0x00, 0x00, 0xE4, 0x07,
  0x00, 0x00, 0xC4, 0x07, 0x00, 0x00, 0x94, 0x06, 0x00, 0x00,
  0x64, 0x06, 0x00, 0x00, 0x14, 0x04, 0x00, 0x00, 0xE4, 0x03,
  0x00, 0x00, 0x94, 0x01, 0x00, 0x00, 0x64, 0x01, 0x00, 0x00,
  0x0C, 0x01, 0x00, 0x00, 0x04, 0x01, 0x00, 0x00, 0xFC, 0x00,
  0x00, 0x00, 0xF4, 0x00, 0x00, 0x00, 0xEC, 0x00, 0x00, 0x00,
  0xE4, 0x00, 0x00, 0x00, 0xDC, 0x00, 0x00, 0x00, 0xD4, 0x00,
  0x00, 0x00, 0xCC, 0x00, 0x00, 0x00, 0xC4, 0x00, 0x00, 0x00,
  0xBC, 0x00, 0x00, 0x00, 0xB4, 0x00, 0x00, 0x00, 0xAC, 0x00,
  0x00, 0x00, 0xA4, 0x00, 0x00, 0x00, 0x9C, 0x00, 0x00, 0x00,
  0x94, 0x00, 0x00, 0x00, 0x8C, 0x00, 0x00, 0x00, 0x6C, 0x00,
  0x00, 0x00, 0x04, 0x00, 0x00, 0x00, 0xA2, 0xF7, 0xFF, 0xFF,
  0x04, 0x00, 0x00, 0x00, 0x58, 0x00, 0x00, 0x00, 0x0C, 0x00,
  0x00, 0x00, 0x08, 0x00, 0x0E, 0x00, 0x08, 0x00, 0x04, 0x00,
  0x08, 0x00, 0x00, 0x00, 0x10, 0x00, 0x00, 0x00, 0x28, 0x00,
  0x00, 0x00, 0x00, 0x00, 0x06, 0x00, 0x08, 0x00, 0x04, 0x00,
  0x06, 0x00, 0x00, 0x00, 0x04, 0x00, 0x00, 0x00, 0x01, 0x00,
  0x00, 0x00, 0xEB, 0x03, 0x00, 0x00, 0x00, 0x00, 0x0A, 0x00,
  0x10, 0x00, 0x0C, 0x00, 0x08, 0x00, 0x04, 0x00, 0x0A, 0x00,
  0x00, 0x00, 0x02, 0x00, 0x00, 0x00, 0x02, 0x00, 0x00, 0x00,
  0x04, 0x00, 0x00, 0x00, 0x06, 0x00, 0x00, 0x00, 0x32, 0x2E,
  0x31, 0x31, 0x2E, 0x30, 0x00, 0x00, 0x06, 0xF8, 0xFF, 0xFF,
  0x04, 0x00, 0x00, 0x00, 0x10, 0x00, 0x00, 0x00, 0x31, 0x2E,
  0x31, 0x34, 0x2E, 0x30, 0x00, 0x00, 0x00, 0x00, 0x00, 0x00,
  0x00, 0x00, 0x00, 0x00, 0xF8, 0xDF, 0xFF, 0xFF, 0xFC, 0xDF,
  0xFF, 0xFF, 0x00, 0xE0, 0xFF, 0xFF, 0x04, 0xE0, 0xFF, 0xFF,
  0x08, 0xE0, 0xFF, 0xFF, 0x0C, 0xE0, 0xFF, 0xFF, 0x10, 0xE0,
  0xFF, 0xFF, 0x14, 0xE0, 0xFF, 0xFF, 0x18, 0xE0, 0xFF, 0xFF,
  0x1C, 0xE0, 0xFF, 0xFF, 0x20, 0xE0, 0xFF, 0xFF, 0x24, 0xE0,
  0xFF, 0xFF, 0x28, 0xE0, 0xFF, 0xFF, 0x2C, 0xE0, 0xFF, 0xFF,
  0x30, 0xE0, 0xFF, 0xFF, 0x34, 0xE0, 0xFF, 0xFF, 0x62, 0xF8,
  0xFF, 0xFF, 0x04, 0x00, 0x00, 0x00, 0x48, 0x00, 0x00, 0x00,
  0x81, 0xFA, 0x22, 0x4F, 0xFF, 0x2C, 0x27, 0xBB, 0x0F, 0xEB,
  0x10, 0x36, 0x65, 0xA4, 0x64, 0x81, 0x42, 0xA6, 0x45, 0xF6,
  0x81, 0xE7, 0x51, 0x07, 0x09, 0x14, 0xFC, 0xC1, 0xE7, 0x3C,
  0xF7, 0x7F, 0xFD, 0xAF, 0xE6, 0x60, 0x3E, 0xE2, 0x22, 0xD8,
  0x81, 0x22, 0x3E, 0xD8, 0x36, 0x40, 0xEB, 0x3A, 0xF4, 0xB4,
  0x2E, 0xB3, 0x81, 0x08, 0x25, 0xD4, 0xEF, 0x81, 0x14, 0x17,
  0x0A, 0x1A, 0x50, 0x1C, 0x4D, 0x44, 0x81, 0xA7, 0xC0, 0xFD,
  0x59, 0xF9, 0xB6, 0xF8, 0xFF, 0xFF, 0x04, 0x00, 0x00, 0x00,
  0x20, 0x00, 0x00, 0x00, 0xD8, 0x01, 0x00, 0x00, 0xC1, 0x1F,
  0x00, 0x00, 0xA4, 0xFE, 0xFF, 0xFF, 0xC7, 0x33, 0x00, 0x00,
  0xC3, 0xD2, 0xFF, 0xFF, 0x82, 0x17, 0x00, 0x00, 0xBB, 0x01,
  0x00, 0x00, 0xEC, 0x0A, 0x00, 0x00, 0xE2, 0xF8, 0xFF, 0xFF,
  0x04, 0x00, 0x00, 0x00, 0x40, 0x02, 0x00, 0x00, 0xC0, 0x4C,
  0xDB, 0xF3, 0xD9, 0xF3, 0x9A, 0x4D, 0x9D, 0xC6, 0xA0, 0x56,
  0x9C, 0xCC, 0xC6, 0x30, 0xFF, 0x8C, 0xB7, 0x19, 0xB2, 0x24,
  0x2E, 0x17, 0x10, 0xC0, 0xA4, 0x81, 0xC0, 0xFE, 0xA4, 0x0D,
  0x5F, 0xA8, 0x29, 0xBE, 0x61, 0xBE, 0xE7, 0xB8, 0x63, 0x96,
  0x63, 0x8A, 0x45, 0x14, 0xA1, 0xB1, 0x0A, 0x3D, 0xF2, 0xEE,
  0xAA, 0x3D, 0x48, 0x40, 0x45, 0x1A, 0x4B, 0xDA, 0x5A, 0xE7,
  0x41, 0xB9, 0x4A, 0x19, 0xFB, 0xEF, 0x4A, 0xE1, 0xEA, 0x4F,
  0xCE, 0x49, 0x53, 0xD9, 0xE6, 0x46, 0xCB, 0x41, 0x41, 0x64,
  0x44, 0xB5, 0x6F, 0x5B, 0x6F, 0xE7, 0x7F, 0xBB, 0xEB, 0x1C,
  0xA8, 0x4C, 0x4C, 0x2B, 0x27, 0xF8, 0x03, 0xE3, 0x25, 0x2E,
  0x26, 0xBC, 0x22, 0xE7, 0xD6, 0x0E, 0x27, 0xF6, 0x2B, 0xE9,
  0xA6, 0xD3, 0xFA, 0x1F, 0xFD, 0xDA, 0xD3, 0x18, 0x4E, 0xAF,
  0x2F, 0xF8, 0xD2, 0x39, 0x33, 0xCD, 0x3A, 0x3B, 0xDD, 0x20,
  0x47, 0x45, 0xF4, 0xDA, 0xB9, 0xB6, 0xD5, 0xB5, 0xF3, 0x2C,
  0x28, 0x21, 0xFC, 0x17, 0x44, 0xE2, 0xEC, 0x59, 0xF1, 0x4F,
  0x58, 0x4F, 0x1D, 0xD2, 0x0A, 0x7F, 0x0D, 0x38, 0xF0, 0x23,
  0xB6, 0x0D, 0xEF, 0x4E, 0x40, 0x1A, 0x08, 0xEC, 0x7F, 0x19,
  0x02, 0xE9, 0x31, 0x31, 0x4B, 0x2E, 0x56, 0x29, 0x19, 0x0C,
  0xFB, 0x62, 0x3A, 0xE2, 0xFA, 0x09, 0x08, 0x0B, 0xF3, 0x6D,
  0xE2, 0xD7, 0x39, 0xF2, 0xD8, 0x32, 0x13, 0xF9, 0x38, 0xFE,
  0xE6, 0x06, 0x0D, 0xED, 0x17, 0xEE, 0x46, 0x05, 0xE2, 0x09,
  0xC7, 0x37, 0x19, 0x28, 0x07, 0xE3, 0xF2, 0xFA, 0x06, 0x34,
  0xC9, 0x16, 0xBE, 0x1A, 0xD8, 0xF8, 0xCB, 0xEC, 0x8C, 0xF1,
  0xCC, 0xC0, 0x0D, 0xC9, 0xCA, 0x39, 0x34, 0xEB, 0x0D, 0x02,
  0xD0, 0x4E, 0x2C, 0x4C, 0xEA, 0x61, 0x12, 0x7A, 0xCE, 0xE1,
  0x08, 0x5E, 0x45, 0x19, 0x04, 0x7F, 0xFF, 0xF4, 0x08, 0x66,
  0x05, 0x4D, 0x49, 0xE4, 0x36, 0xD4, 0x1C, 0x07, 0xFE, 0x07,
  0x7B, 0x1E, 0x7A, 0xD5, 0x38, 0x26, 0x63, 0x47, 0x61, 0x3B,
  0xC5, 0x26, 0x12, 0x33, 0x58, 0x7D, 0xDC, 0xD2, 0xFC, 0x1D,
  0xE3, 0xE6, 0xF8, 0xE8, 0xE5, 0xE2, 0xF4, 0x1B, 0x14, 0xFF,
  0xC3, 0xD3, 0xEF, 0x33, 0xEC, 0x14, 0xDF, 0x2F, 0x01, 0xF6,
  0x2C, 0x26, 0x07, 0xE7, 0x18, 0x0E, 0xF7, 0x1D, 0x32, 0x19,
  0x0C, 0x02, 0x18, 0x28, 0xFD, 0x2D, 0x13, 0x48, 0x2C, 0xFF,
  0x1F, 0x44, 0x5E, 0x30, 0x02, 0x0C, 0x42, 0xF4, 0xDB, 0x1C,
  0x2A, 0x05, 0x43, 0xEC, 0x7F, 0xCE, 0x17, 0x1E, 0x3E, 0x4A,
  0x50, 0xFF, 0x3F, 0xE2, 0xF6, 0x0E, 0x58, 0x39, 0x11, 0xD5,
  0xF4, 0x22, 0x0E, 0x0B, 0xAC, 0x32, 0x02, 0x2B, 0x33, 0x03,
  0xF5, 0x46, 0xD0, 0x2A, 0xFF, 0x43, 0xF8, 0xEF, 0x03, 0x2D,
  0x23, 0x63, 0xC3, 0x00, 0x29, 0xDC, 0xFD, 0xFC, 0xE8, 0x3C,
  0xF6, 0xF8, 0x6B, 0xEB, 0x01, 0x1C, 0x0F, 0x1C, 0x7F, 0x37,
  0x2B, 0x0E, 0x28, 0x37, 0x20, 0x6B, 0xD3, 0xF0, 0x20, 0xDB,
  0xF5, 0x06, 0x1C, 0x07, 0xEE, 0xA9, 0x10, 0x20, 0x11, 0xD2,
  0xF2, 0x13, 0x08, 0xEB, 0x1A, 0xDE, 0x13, 0x1E, 0x21, 0xFC,
  0x47, 0x3A, 0x15, 0xE4, 0xFF, 0x72, 0xC0, 0x2E, 0xE6, 0x6B,
  0xF2, 0x20, 0xE9, 0x36, 0x14, 0x61, 0x2C, 0x38, 0xB4, 0xE9,
  0xF6, 0x38, 0x4B, 0x50, 0x1A, 0x4A, 0x76, 0xEE, 0xFB, 0x45,
  0x2B, 0x3B, 0x7F, 0x31, 0xEA, 0x10, 0x29, 0x28, 0x5A, 0x22,
  0x3C, 0x14, 0x0D, 0x01, 0xD1, 0xFF, 0x06, 0x22, 0x24, 0xB5,
  0x55, 0x0F, 0x0D, 0xF0, 0x1C, 0xE0, 0x31, 0x01, 0x4A, 0xCA,
  0x11, 0xF5, 0xFC, 0x04, 0x0F, 0xD3, 0xEE, 0x12, 0x00, 0xF7,
  0xED, 0x0F, 0x0C, 0x01, 0xF0, 0x09, 0x0A, 0x24, 0xD2, 0x1A,
  0xD8, 0x06, 0xE7, 0xE0, 0x09, 0x41, 0xDB, 0xE3, 0xC7, 0x0B,
  0xC3, 0xDE, 0xE8, 0x24, 0xCE, 0xE6, 0x17, 0x26, 0xFA, 0x04,
  0x15, 0x3D, 0xAF, 0x34, 0x29, 0x31, 0xEE, 0x20, 0x1B, 0x49,
  0x10, 0x45, 0x24, 0x4A, 0x1D, 0x13, 0xE4, 0x45, 0x10, 0x4C,
  0xEB, 0xD6, 0x32, 0xEB, 0xF9, 0xFD, 0xF9, 0x29, 0x43, 0x18,
  0x71, 0xF1, 0xD9, 0xEA, 0x39, 0x39, 0x7F, 0xE2, 0xF7, 0xF0,
  0xF4, 0x04, 0x31, 0x5E, 0x2E, 0xFB, 0xFF, 0xFF, 0x04, 0x00,
  0x00, 0x00, 0x20, 0x00, 0x00, 0x00, 0xE5, 0xC5, 0xFF, 0xFF,
  0x40, 0xF0, 0xFF, 0xFF, 0xDA, 0xE2, 0xFF, 0xFF, 0x49, 0x11,
  0x00, 0x00, 0x50, 0x19, 0x00, 0x00, 0x6F, 0xF8, 0xFF, 0xFF,
  0x24, 0xE6, 0xFF, 0xFF, 0xC3, 0xFC, 0xFF, 0xFF, 0x5A, 0xFB,
  0xFF, 0xFF, 0x04, 0x00, 0x00, 0x00, 0x40, 0x02, 0x00, 0x00,
  0xA2, 0xDC, 0x21, 0x1D, 0xCE, 0x97, 0xFD, 0x26, 0x18, 0x5C,
  0xCA, 0xF2, 0x81, 0xF0, 0x45, 0x13, 0xC5, 0xBD, 0xF1, 0xF8,
  0x0B, 0xF3, 0x4E, 0x4F, 0xE8, 0x5A, 0xC6, 0x38, 0xE0, 0x00,
  0xCC, 0xC2, 0x4B, 0xC0, 0x95, 0xDF, 0x99, 0xDF, 0xCB, 0xF1,
  0x05, 0x52, 0x18, 0xC3, 0xAA, 0xD0, 0xA6, 0xF6, 0x50, 0x05,
  0xBE, 0x0B, 0x07, 0x21, 0x02, 0x0A, 0xDB, 0xAD, 0xB8, 0xDF,
  0xC5, 0xF4, 0xAF, 0xB5, 0x14, 0x3B, 0xA5, 0x28, 0x99, 0xB1,
  0x0C, 0x15, 0xE7, 0x15, 0xFC, 0x0B, 0xC5, 0xBB, 0x12, 0x13,
  0xEE, 0xDD, 0xAC, 0xA4, 0x04, 0x0B, 0xC1, 0xF7, 0x17, 0xEE,
  0xFF, 0xD5, 0xEF, 0x13, 0x14, 0xC6, 0xD6, 0xD0, 0x24, 0x11,
  0xD6, 0xFC, 0xE2, 0x11, 0x09, 0xE1, 0x10, 0x47, 0x35, 0x2F,
  0x3E, 0x40, 0x1A, 0xEF, 0xD3, 0xF3, 0xFC, 0xE1, 0xE8, 0xD5,
  0x18, 0xE8, 0x31, 0x00, 0x12, 0x1E, 0xF9, 0x3F, 0xCE, 0xC3,
  0x76, 0x29, 0x49, 0x7F, 0x69, 0x21, 0xEA, 0xFD, 0x03, 0x3B,
  0x55, 0xD7, 0xE9, 0x0B, 0x03, 0x2C, 0x09, 0x05, 0x44, 0xCA,
  0xDD, 0x35, 0xC1, 0xF0, 0xCB, 0xD8, 0xCB, 0x07, 0xF1, 0x22,
  0xBA, 0x0D, 0xAE, 0x36, 0x2F, 0xD6, 0xDE, 0x01, 0xD2, 0xB4,
  0xB9, 0x00, 0x2C, 0x3A, 0xE9, 0x17, 0xB1, 0x9F, 0x2E, 0x26,
  0x47, 0x53, 0x25, 0x57, 0xBC, 0xAF, 0x7F, 0x4C, 0x38, 0x60,
  0x65, 0x53, 0x0B, 0xC3, 0xB5, 0xF0, 0x8C, 0xF4, 0xE4, 0x0D,
  0xB1, 0xD8, 0x05, 0xF2, 0xA6, 0xEE, 0x17, 0x09, 0xE9, 0xD2,
  0x33, 0x8C, 0x9E, 0x46, 0xB5, 0xEE, 0x2B, 0xDA, 0xDE, 0x33,
  0xF3, 0x33, 0xD0, 0xEE, 0x05, 0x0D, 0xDE, 0x04, 0x0A, 0xC5,
  0x08, 0x22, 0x2E, 0x4A, 0xCD, 0xFB, 0x0E, 0xE1, 0xB9, 0xC7,
  0x33, 0x30, 0x5A, 0x3A, 0x7C, 0x40, 0x43, 0x7D, 0xEF, 0x4A,
  0x21, 0x7F, 0x22, 0x00, 0x5F, 0x1D, 0x34, 0xD8, 0xD8, 0xDB,
  0x41, 0x05, 0x17, 0xFE, 0x0F, 0x19, 0x63, 0x17, 0xFD, 0x6C,
  0x1A, 0xC9, 0xD9, 0x04, 0x5A, 0x14, 0xB2, 0x56, 0x4B, 0x3E,
  0x1A, 0xFB, 0xF9, 0xEE, 0x97, 0xF5, 0x0C, 0xEF, 0xCC, 0xF1,
  0xDC, 0xD2, 0xFF, 0xC1, 0xBC, 0xAF, 0xEA, 0xCC, 0x0C, 0x09,
  0xBD, 0x9D, 0xA0, 0xDC, 0xF9, 0x32, 0xD2, 0xC1, 0xD8, 0x26,
  0xCE, 0xDC, 0xED, 0xE5, 0x10, 0x73, 0x4C, 0x20, 0x4E, 0x69,
  0xF7, 0x1C, 0x28, 0x4E, 0x3D, 0x3B, 0x3D, 0x20, 0xE7, 0xE8,
  0x05, 0xE1, 0x2B, 0xFC, 0x35, 0x2A, 0x13, 0x2B, 0x37, 0xDA,
  0x23, 0x7F, 0x17, 0x03, 0x0F, 0x2E, 0x54, 0xCE, 0xC7, 0x14,
  0x49, 0xEE, 0x28, 0x23, 0x02, 0xFB, 0xBA, 0xCE, 0xEC, 0xE5,
  0x22, 0x2F, 0xDC, 0xD9, 0xD9, 0xCE, 0xDB, 0xE4, 0xE6, 0xF6,
  0x1A, 0xD2, 0x2E, 0x14, 0x9B, 0xDD, 0xCE, 0x32, 0xD6, 0x01,
  0x2D, 0x3C, 0x02, 0x56, 0xE7, 0xBE, 0xEA, 0x7F, 0x6A, 0x40,
  0x17, 0x7C, 0xE6, 0x38, 0x09, 0x5A, 0xF2, 0x48, 0x58, 0x59,
  0x3B, 0xE7, 0x5C, 0xC6, 0xBC, 0x01, 0x34, 0x39, 0xF2, 0x07,
  0xE8, 0x0C, 0xE2, 0x65, 0x2B, 0xEB, 0xDC, 0x36, 0x19, 0xC1,
  0xE4, 0xD6, 0x1E, 0xC7, 0xFA, 0xD8, 0x14, 0x9C, 0x13, 0xFE,
  0xA0, 0x23, 0x20, 0x55, 0x05, 0xFE, 0x0D, 0x5D, 0x4F, 0x3E,
  0xEF, 0xCD, 0xBE, 0x3B, 0xF3, 0x25, 0xBC, 0xEA, 0xCB, 0x2B,
  0x0C, 0xAD, 0xD8, 0xA0, 0x93, 0xC3, 0x24, 0xA7, 0x7F, 0x60,
  0x7B, 0x60, 0x5F, 0x6B, 0xE0, 0xB7, 0xFB, 0x3B, 0xF7, 0xC8,
  0x44, 0x37, 0x3B, 0x22, 0xFD, 0xE4, 0xE0, 0xE0, 0xAC, 0xC3,
  0xC1, 0x42, 0x0A, 0xEE, 0xB4, 0x00, 0x13, 0x09, 0xE8, 0xFB,
  0x4C, 0x9A, 0xA8, 0x39, 0x44, 0x19, 0xC9, 0x0F, 0xDF, 0xDF,
  0xC3, 0xA3, 0xEC, 0xCB, 0xD6, 0xE6, 0xBF, 0x22, 0xF5, 0xFD,
  0xB6, 0xEA, 0x0C, 0x26, 0xB8, 0xC4, 0xE9, 0x0A, 0x33, 0xB1,
  0x1F, 0x44, 0xE5, 0x05, 0xEC, 0xAB, 0x45, 0xE2, 0xC3, 0xFC,
  0x2F, 0x30, 0xED, 0xCA, 0xEB, 0xEA, 0xF1, 0x17, 0xF5, 0x14,
  0xE3, 0xF4, 0xBE, 0xF9, 0xBE, 0x0C, 0xAA, 0x18, 0x21, 0xCA,
  0xCE, 0x54, 0xE9, 0x28, 0x07, 0x6F, 0x74, 0x7F, 0x18, 0x4A,
  0x1A, 0xF5, 0x44, 0x5E, 0xEA, 0xC5, 0x5B, 0x25, 0xE3, 0x55,
  0xB5, 0xBF, 0xB3, 0xBA, 0xEB, 0x14, 0xA6, 0xFD, 0xFF, 0xFF,
  0x04, 0x00, 0x00, 0x00, 0x20, 0x00, 0x00, 0x00, 0xB4, 0xF3,
  0xFF, 0xFF, 0x79, 0xF8, 0xFF, 0xFF, 0x1C, 0x07, 0x00, 0x00,
  0x03, 0xF4, 0xFF, 0xFF, 0x0C, 0x00, 0x00, 0x00, 0x7E, 0xF8,
  0xFF, 0xFF, 0x12, 0x12, 0x00, 0x00, 0x10, 0x0B, 0x00, 0x00,
  0xD2, 0xFD, 0xFF, 0xFF, 0x04, 0x00, 0x00, 0x00, 0x20, 0x01,
  0x00, 0x00, 0x19, 0x16, 0xF9, 0x33, 0x0D, 0x42, 0x02, 0x4F,
  0x36, 0xD9, 0xD7, 0xF6, 0xDD, 0x24, 0x2C, 0xE2, 0x14, 0xEE,
  0xBF, 0xBF, 0x03, 0xEE, 0x17, 0x14, 0x2F, 0xDB, 0xF7, 0x42,
  0x54, 0x28, 0x51, 0x7F, 0x1F, 0xB4, 0x14, 0xCE, 0x07, 0xC4,
  0x32, 0xCE, 0xC8, 0xD0, 0xC9, 0xDD, 0xDD, 0xE4, 0xF0, 0x18,
  0xF4, 0x18, 0xF3, 0x33, 0x12, 0xFA, 0x02, 0x1D, 0x2B, 0xC0,
  0xEE, 0x11, 0xB2, 0xF5, 0xBF, 0xDA, 0x29, 0x13, 0x26, 0xE2,
  0xD1, 0x2C, 0xCF, 0xE4, 0x65, 0x16, 0xED, 0xD9, 0xC7, 0x7F,
  0x0A, 0x73, 0xC5, 0x15, 0x3A, 0x76, 0xD6, 0xE9, 0xC6, 0x57,
  0x1F, 0xBA, 0x0C, 0x1A, 0xA5, 0x79, 0x6F, 0x20, 0x92, 0xBB,
  0xC2, 0x1F, 0xC4, 0x50, 0xBB, 0x37, 0xD2, 0xA3, 0xD7, 0x40,
  0xB5, 0x0E, 0xF3, 0xA1, 0x51, 0x44, 0x4F, 0x5F, 0x66, 0x0F,
  0x43, 0xF3, 0xFF, 0xA1, 0x91, 0x9F, 0xA2, 0x50, 0xE4, 0x04,
  0xC7, 0x8F, 0xA8, 0xA8, 0x42, 0x04, 0xC3, 0xEF, 0xA0, 0xAB,
  0x9F, 0xD8, 0x0A, 0x22, 0x1D, 0xD0, 0xED, 0xEA, 0x1D, 0x23,
  0xE4, 0xE4, 0x1F, 0xE0, 0xDD, 0x09, 0xED, 0xDE, 0xC2, 0x01,
  0xAC, 0x2F, 0xD6, 0xD7, 0xE8, 0xCD, 0xD7, 0xBB, 0xEB, 0xFD,
  0x1A, 0x1E, 0x14, 0xD6, 0xDF, 0xED, 0xE0, 0x0D, 0xFD, 0xD3,
  0x05, 0xC7, 0xD7, 0xD5, 0x09, 0x41, 0x3E, 0x39, 0xEC, 0xE9,
  0xE1, 0xBB, 0xF2, 0x61, 0x3A, 0xDB, 0x30, 0xF9, 0xFB, 0xDD,
  0x24, 0x47, 0xEE, 0x43, 0x10, 0x24, 0x1F, 0x2D, 0x2F, 0x40,
  0xDC, 0x2F, 0x4B, 0x45, 0x7F, 0x5E, 0x50, 0x56, 0x3E, 0xD2,
  0x0A, 0xD4, 0xD4, 0xE2, 0xCD, 0x3C, 0x17, 0x06, 0xEB, 0x04,
  0xD0, 0xF0, 0x17, 0x0B, 0xF3, 0xD9, 0xCE, 0xBE, 0x0A, 0xF8,
  0xB8, 0x21, 0xFC, 0x2C, 0x12, 0xE5, 0x07, 0x08, 0xE9, 0x22,
  0x0B, 0xF0, 0xE0, 0xE8, 0xE5, 0x0C, 0xFE, 0x5A, 0xF8, 0x28,
  0xEE, 0xFC, 0x4C, 0x05, 0x38, 0x37, 0xF8, 0xEC, 0x3A, 0xBA,
  0x1F, 0x01, 0xF8, 0x34, 0x03, 0xC5, 0x45, 0xCB, 0xDC, 0xDD,
  0x51, 0xF8, 0x08, 0x55, 0x5C, 0x5D, 0x3F, 0x50, 0x7F, 0x3C,
  0xFE, 0xFE, 0xFF, 0xFF, 0x04, 0x00, 0x00, 0x00, 0x10, 0x00,
  0x00, 0x00, 0x3F, 0xFF, 0xFF, 0xFF, 0xFD, 0xFD, 0xFF, 0xFF,
  0x55, 0xFC, 0xFF, 0xFF, 0x08, 0xFE, 0xFF, 0xFF, 0x1A, 0xFF,
  0xFF, 0xFF, 0x04, 0x00, 0x00, 0x00, 0x90, 0x00, 0x00, 0x00,
  0x0E, 0x40, 0x3E, 0xFE, 0x4D, 0x01, 0x66, 0x10, 0x00, 0xE8,
  0x12, 0x41, 0x39, 0xE0, 0x1F, 0x02, 0xF1, 0x25, 0xD5, 0x1E,
  0x7F, 0xFF, 0xE6, 0xFB, 0x46, 0x39, 0xFF, 0xE4, 0x55, 0xC8,
  0xF8, 0xF6, 0xE6, 0xEB, 0xED, 0x5C, 0xCE, 0xD1, 0xE1, 0x1B,
  0xEB, 0x01, 0xEE, 0xDB, 0xE9, 0xD8, 0xD3, 0x19, 0x7F, 0xBC,
  0x11, 0x94, 0xD1, 0xF2, 0xD4, 0x2A, 0xE0, 0xCE, 0xEF, 0x28,
  0x23, 0x09, 0x1F, 0x01, 0xF7, 0x27, 0x39, 0xE4, 0xEF, 0xF8,
  0x0A, 0xED, 0xA9, 0xCE, 0x9A, 0x22, 0x0F, 0x91, 0xD2, 0xE8,
  0x47, 0x24, 0xF8, 0xC6, 0xD5, 0x06, 0x22, 0xD1, 0xE3, 0xB7,
  0x9D, 0x05, 0xE7, 0x09, 0xF0, 0xFD, 0x0E, 0xFA, 0xE8, 0xBC,
  0x22, 0xD4, 0xB5, 0xC4, 0x18, 0x25, 0x07, 0x81, 0x3F, 0xC1,
  0xD4, 0x13, 0xE9, 0xE5, 0x19, 0xE1, 0x21, 0x2E, 0x0D, 0xF4,
  0x0B, 0x39, 0x3F, 0x3D, 0xE9, 0x2D, 0x37, 0xCA, 0x24, 0x05,
  0xEA, 0xB9, 0xEA, 0x0F, 0x7C, 0x7F, 0x68, 0xDA, 0x32, 0x3B,
  0x6A, 0x3E, 0x60, 0x41, 0xB6, 0xFF, 0xFF, 0xFF, 0x04, 0x00,
  0x00, 0x00, 0x10, 0x00, 0x00, 0x00, 0xA8, 0xFD, 0xFF, 0xFF,
  0x17, 0x00, 0x00, 0x00, 0xE9, 0xF8, 0xFF, 0xFF, 0x30, 0xFE,
  0xFF, 0xFF, 0xD2, 0xFF, 0xFF, 0xFF, 0x04, 0x00, 0x00, 0x00,
  0x10, 0x00, 0x00, 0x00, 0xA6, 0x39, 0x18, 0xA2, 0xC0, 0x81,
  0x29, 0xA7, 0x9E, 0xFD, 0xFF, 0x31, 0xA3, 0x15, 0x15, 0x16,
  0xEE, 0xFF, 0xFF, 0xFF, 0x04, 0x00, 0x00, 0x00, 0x04, 0x00,
  0x00, 0x00, 0xEA, 0x01, 0x00, 0x00, 0x00, 0x00, 0x06, 0x00,
  0x08, 0x00, 0x04, 0x00, 0x06, 0x00, 0x00, 0x00, 0x04, 0x00,
  0x00, 0x00, 0x08, 0x00, 0x00, 0x00, 0xFF, 0xFF, 0xFF, 0xFF,
  0x10, 0x00, 0x00, 0x00, 0xF0, 0xE7, 0xFF, 0xFF, 0xF4, 0xE7,
  0xFF, 0xFF, 0x0F, 0x00, 0x00, 0x00, 0x4D, 0x4C, 0x49, 0x52,
  0x20, 0x43, 0x6F, 0x6E, 0x76, 0x65, 0x72, 0x74, 0x65, 0x64,
  0x2E, 0x00, 0x01, 0x00, 0x00, 0x00, 0x14, 0x00, 0x00, 0x00,
  0x00, 0x00, 0x0E, 0x00, 0x18, 0x00, 0x14, 0x00, 0x10, 0x00,
  0x0C, 0x00, 0x08, 0x00, 0x04, 0x00, 0x0E, 0x00, 0x00, 0x00,
  0x14, 0x00, 0x00, 0x00, 0x1C, 0x00, 0x00, 0x00, 0xFC, 0x03,
  0x00, 0x00, 0x00, 0x04, 0x00, 0x00, 0x04, 0x04, 0x00, 0x00,
  0x04, 0x00, 0x00, 0x00, 0x6D, 0x61, 0x69, 0x6E, 0x00, 0x00,
  0x00, 0x00, 0x10, 0x00, 0x00, 0x00, 0xC4, 0x03, 0x00, 0x00,
  0x68, 0x03, 0x00, 0x00, 0x08, 0x03, 0x00, 0x00, 0xC4, 0x02,
  0x00, 0x00, 0x84, 0x02, 0x00, 0x00, 0x40, 0x02, 0x00, 0x00,
  0x00, 0x02, 0x00, 0x00, 0xBC, 0x01, 0x00, 0x00, 0x7C, 0x01,
  0x00, 0x00, 0x38, 0x01, 0x00, 0x00, 0xF8, 0x00, 0x00, 0x00,
  0xB8, 0x00, 0x00, 0x00, 0x90, 0x00, 0x00, 0x00, 0x4C, 0x00,
  0x00, 0x00, 0x28, 0x00, 0x00, 0x00, 0x04, 0x00, 0x00, 0x00,
  0x8A, 0xFF, 0xFF, 0xFF, 0x0C, 0x00, 0x00, 0x00, 0x10, 0x00,
  0x00, 0x00, 0x06, 0x00, 0x00, 0x00, 0x01, 0x00, 0x00, 0x00,
  0x1D, 0x00, 0x00, 0x00, 0x01, 0x00, 0x00, 0x00, 0x1C, 0x00,
  0x00, 0x00, 0xAA, 0xFF, 0xFF, 0xFF, 0x0C, 0x00, 0x00, 0x00,
  0x10, 0x00, 0x00, 0x00, 0x05, 0x00, 0x00, 0x00, 0x01, 0x00,
  0x00, 0x00, 0x1C, 0x00, 0x00, 0x00, 0x01, 0x00, 0x00, 0x00,
  0x1B, 0x00, 0x00, 0x00, 0x22, 0xFD, 0xFF, 0xFF, 0x14, 0x00,
  0x00, 0x00, 0x00, 0x00, 0x00, 0x08, 0x10, 0x00, 0x00, 0x00,
  0x14, 0x00, 0x00, 0x00, 0x04, 0x00, 0x00, 0x00, 0xE4, 0xE8,
  0xFF, 0xFF, 0x01, 0x00, 0x00, 0x00, 0x1B, 0x00, 0x00, 0x00,
  0x03, 0x00, 0x00, 0x00, 0x1A, 0x00, 0x00, 0x00, 0x03, 0x00,
  0x00, 0x00, 0x02, 0x00, 0x00, 0x00, 0x00, 0x00, 0x0A, 0x00,
  0x10, 0x00, 0x0C, 0x00, 0x08, 0x00, 0x04, 0x00, 0x0A, 0x00,
  0x00, 0x00, 0x0C, 0x00, 0x00, 0x00, 0x10, 0x00, 0x00, 0x00,
  0x03, 0x00, 0x00, 0x00, 0x01, 0x00, 0x00, 0x00, 0x1A, 0x00,
  0x00, 0x00, 0x02, 0x00, 0x00, 0x00, 0x19, 0x00, 0x00, 0x00,
  0x01, 0x00, 0x00, 0x00, 0x86, 0xFD, 0xFF, 0xFF, 0x14, 0x00,
  0x00, 0x00, 0x00, 0x00, 0x00, 0x05, 0x20, 0x00, 0x00, 0x00,
  0x24, 0x00, 0x00, 0x00, 0x02, 0x00, 0x00, 0x00, 0xD2, 0xFD,
  0xFF, 0xFF, 0x02, 0x00, 0x00, 0x00, 0x02, 0x00, 0x00, 0x00,
  0x02, 0x00, 0x00, 0x00, 0x02, 0x00, 0x00, 0x00, 0x01, 0x00,
  0x00, 0x00, 0x19, 0x00, 0x00, 0x00, 0x01, 0x00, 0x00, 0x00,
  0x18, 0x00, 0x00, 0x00, 0xC2, 0xFD, 0xFF, 0xFF, 0x14, 0x00,
  0x00, 0x00, 0x00, 0x00, 0x00, 0x05, 0x20, 0x00, 0x00, 0x00,
  0x24, 0x00, 0x00, 0x00, 0x02, 0x00, 0x00, 0x00, 0x0E, 0xFE,
  0xFF, 0xFF, 0x02, 0x00, 0x00, 0x00, 0x02, 0x00, 0x00, 0x00,
  0x02, 0x00, 0x00, 0x00, 0x02, 0x00, 0x00, 0x00, 0x01, 0x00,
  0x00, 0x00, 0x18, 0x00, 0x00, 0x00, 0x01, 0x00, 0x00, 0x00,
  0x17, 0x00, 0x00, 0x00, 0xFE, 0xFD, 0xFF, 0xFF, 0x14, 0x00,
  0x00, 0x00, 0x00, 0x00, 0x00, 0x01, 0x1C, 0x00, 0x00, 0x00,
  0x20, 0x00, 0x00, 0x00, 0x01, 0x00, 0x00, 0x00, 0xF0, 0xFD,
  0xFF, 0xFF, 0x00, 0x00, 0x00, 0x01, 0x01, 0x00, 0x00, 0x00,
  0x01, 0x00, 0x00, 0x00, 0x01, 0x00, 0x00, 0x00, 0x17, 0x00,
  0x00, 0x00, 0x03, 0x00, 0x00, 0x00, 0x16, 0x00, 0x00, 0x00,
  0x05, 0x00, 0x00, 0x00, 0x04, 0x00, 0x00, 0x00, 0x3E, 0xFE,
  0xFF, 0xFF, 0x14, 0x00, 0x00, 0x00, 0x00, 0x00, 0x00, 0x05,
  0x20, 0x00, 0x00, 0x00, 0x24, 0x00, 0x00, 0x00, 0x02, 0x00,
  0x00, 0x00, 0x8A, 0xFE, 0xFF, 0xFF, 0x02, 0x00, 0x00, 0x00,
  0x02, 0x00, 0x00, 0x00, 0x02, 0x00, 0x00, 0x00, 0x02, 0x00,
  0x00, 0x00, 0x01, 0x00, 0x00, 0x00, 0x16, 0x00, 0x00, 0x00,
  0x01, 0x00, 0x00, 0x00, 0x15, 0x00, 0x00, 0x00, 0x7A, 0xFE,
  0xFF, 0xFF, 0x14, 0x00, 0x00, 0x00, 0x00, 0x00, 0x00, 0x01,
  0x1C, 0x00, 0x00, 0x00, 0x20, 0x00, 0x00, 0x00, 0x01, 0x00,
  0x00, 0x00, 0x6C, 0xFE, 0xFF, 0xFF, 0x00, 0x00, 0x00, 0x01,
  0x01, 0x00, 0x00, 0x00, 0x01, 0x00, 0x00, 0x00, 0x01, 0x00,
  0x00, 0x00, 0x15, 0x00, 0x00, 0x00, 0x03, 0x00, 0x00, 0x00,
  0x14, 0x00, 0x00, 0x00, 0x07, 0x00, 0x00, 0x00, 0x06, 0x00,
  0x00, 0x00, 0xBA, 0xFE, 0xFF, 0xFF, 0x14, 0x00, 0x00, 0x00,
  0x00, 0x00, 0x00, 0x05, 0x20, 0x00, 0x00, 0x00, 0x24, 0x00,
  0x00, 0x00, 0x02, 0x00, 0x00, 0x00, 0x06, 0xFF, 0xFF, 0xFF,
  0x02, 0x00, 0x00, 0x00, 0x02, 0x00, 0x00, 0x00, 0x02, 0x00,
  0x00, 0x00, 0x02, 0x00, 0x00, 0x00, 0x01, 0x00, 0x00, 0x00,
  0x14, 0x00, 0x00, 0x00, 0x01, 0x00, 0x00, 0x00, 0x13, 0x00,
  0x00, 0x00, 0xF6, 0xFE, 0xFF, 0xFF, 0x14, 0x00, 0x00, 0x00,
  0x00, 0x00, 0x00, 0x01, 0x1C, 0x00, 0x00, 0x00, 0x20, 0x00,
  0x00, 0x00, 0x01, 0x00, 0x00, 0x00, 0xE8, 0xFE, 0xFF, 0xFF,
  0x00, 0x00, 0x00, 0x01, 0x01, 0x00, 0x00, 0x00, 0x01, 0x00,
  0x00, 0x00, 0x01, 0x00, 0x00, 0x00, 0x13, 0x00, 0x00, 0x00,
  0x03, 0x00, 0x00, 0x00, 0x12, 0x00, 0x00, 0x00, 0x09, 0x00,
  0x00, 0x00, 0x08, 0x00, 0x00, 0x00, 0x36, 0xFF, 0xFF, 0xFF,
  0x14, 0x00, 0x00, 0x00, 0x00, 0x00, 0x00, 0x05, 0x20, 0x00,
  0x00, 0x00, 0x24, 0x00, 0x00, 0x00, 0x02, 0x00, 0x00, 0x00,
  0x82, 0xFF, 0xFF, 0xFF, 0x02, 0x00, 0x00, 0x00, 0x02, 0x00,
  0x00, 0x00, 0x02, 0x00, 0x00, 0x00, 0x02, 0x00, 0x00, 0x00,
  0x01, 0x00, 0x00, 0x00, 0x12, 0x00, 0x00, 0x00, 0x01, 0x00,
  0x00, 0x00, 0x11, 0x00, 0x00, 0x00, 0x72, 0xFF, 0xFF, 0xFF,
  0x14, 0x00, 0x00, 0x00, 0x00, 0x00, 0x00, 0x01, 0x1C, 0x00,
  0x00, 0x00, 0x20, 0x00, 0x00, 0x00, 0x01, 0x00, 0x00, 0x00,
  0x64, 0xFF, 0xFF, 0xFF, 0x00, 0x00, 0x00, 0x01, 0x01, 0x00,
  0x00, 0x00, 0x01, 0x00, 0x00, 0x00, 0x01, 0x00, 0x00, 0x00,
  0x11, 0x00, 0x00, 0x00, 0x03, 0x00, 0x00, 0x00, 0x10, 0x00,
  0x00, 0x00, 0x0B, 0x00, 0x00, 0x00, 0x0A, 0x00, 0x00, 0x00,
  0xB2, 0xFF, 0xFF, 0xFF, 0x24, 0x00, 0x00, 0x00, 0x00, 0x00,
  0x00, 0x05, 0x30, 0x00, 0x00, 0x00, 0x34, 0x00, 0x00, 0x00,
  0x02, 0x00, 0x00, 0x00, 0x00, 0x00, 0x0E, 0x00, 0x14, 0x00,
  0x00, 0x00, 0x10, 0x00, 0x0C, 0x00, 0x08, 0x00, 0x04, 0x00,
  0x0E, 0x00, 0x00, 0x00, 0x02, 0x00, 0x00, 0x00, 0x02, 0x00,
  0x00, 0x00, 0x02, 0x00, 0x00, 0x00, 0x02, 0x00, 0x00, 0x00,
  0x01, 0x00, 0x00, 0x00, 0x10, 0x00, 0x00, 0x00, 0x01, 0x00,
  0x00, 0x00, 0x0F, 0x00, 0x00, 0x00, 0x00, 0x00, 0x0E, 0x00,
  0x18, 0x00, 0x14, 0x00, 0x10, 0x00, 0x0C, 0x00, 0x0B, 0x00,
  0x04, 0x00, 0x0E, 0x00, 0x00, 0x00, 0x20, 0x00, 0x00, 0x00,
  0x00, 0x00, 0x00, 0x01, 0x28, 0x00, 0x00, 0x00, 0x2C, 0x00,
  0x00, 0x00, 0x01, 0x00, 0x00, 0x00, 0x0C, 0x00, 0x10, 0x00,
  0x00, 0x00, 0x0C, 0x00, 0x08, 0x00, 0x07, 0x00, 0x0C, 0x00,
  0x00, 0x00, 0x00, 0x00, 0x00, 0x01, 0x01, 0x00, 0x00, 0x00,
  0x01, 0x00, 0x00, 0x00, 0x01, 0x00, 0x00, 0x00, 0x0F, 0x00,
  0x00, 0x00, 0x03, 0x00, 0x00, 0x00, 0x0E, 0x00, 0x00, 0x00,
  0x0D, 0x00, 0x00, 0x00, 0x0C, 0x00, 0x00, 0x00, 0x00, 0x00,
  0x0A, 0x00, 0x0C, 0x00, 0x00, 0x00, 0x08, 0x00, 0x04, 0x00,
  0x0A, 0x00, 0x00, 0x00, 0x08, 0x00, 0x00, 0x00, 0x0C, 0x00,
  0x00, 0x00, 0x01, 0x00, 0x00, 0x00, 0x0E, 0x00, 0x00, 0x00,
  0x01, 0x00, 0x00, 0x00, 0x00, 0x00, 0x00, 0x00, 0x01, 0x00,
  0x00, 0x00, 0x1D, 0x00, 0x00, 0x00, 0x01, 0x00, 0x00, 0x00,
  0x00, 0x00, 0x00, 0x00, 0x1E, 0x00, 0x00, 0x00, 0x90, 0x13,
  0x00, 0x00, 0x2C, 0x13, 0x00, 0x00, 0x94, 0x12, 0x00, 0x00,
  0x2C, 0x12, 0x00, 0x00, 0x90, 0x11, 0x00, 0x00, 0xF4, 0x10,
  0x00, 0x00, 0x58, 0x10, 0x00, 0x00, 0xBC, 0x0F, 0x00, 0x00,
  0xF0, 0x0E, 0x00, 0x00, 0x24, 0x0E, 0x00, 0x00, 0x58, 0x0D,
  0x00, 0x00, 0x8C, 0x0C, 0x00, 0x00, 0xC0, 0x0B, 0x00, 0x00,
  0xF4, 0x0A, 0x00, 0x00, 0x70, 0x0A, 0x00, 0x00, 0x54, 0x09,
  0x00, 0x00, 0xC0, 0x08, 0x00, 0x00, 0xB4, 0x07, 0x00, 0x00,
  0x20, 0x07, 0x00, 0x00, 0x34, 0x06, 0x00, 0x00, 0xA0, 0x05,
  0x00, 0x00, 0x94, 0x04, 0x00, 0x00, 0x00, 0x04, 0x00, 0x00,
  0x14, 0x03, 0x00, 0x00, 0x80, 0x02, 0x00, 0x00, 0xEC, 0x01,
  0x00, 0x00, 0x70, 0x01, 0x00, 0x00, 0xDC, 0x00, 0x00, 0x00,
  0x60, 0x00, 0x00, 0x00, 0x04, 0x00, 0x00, 0x00, 0xFE, 0xEC,
  0xFF, 0xFF, 0x00, 0x00, 0x00, 0x01, 0x14, 0x00, 0x00, 0x00,
  0x1C, 0x00, 0x00, 0x00, 0x1C, 0x00, 0x00, 0x00, 0x1E, 0x00,
  0x00, 0x00, 0x34, 0x00, 0x00, 0x00, 0x02, 0x00, 0x00, 0x00,
  0xFF, 0xFF, 0xFF, 0xFF, 0x01, 0x00, 0x00, 0x00, 0xE0, 0xEC,
  0xFF, 0xFF, 0x19, 0x00, 0x00, 0x00, 0x53, 0x74, 0x61, 0x74,
  0x65, 0x66, 0x75, 0x6C, 0x50, 0x61, 0x72, 0x74, 0x69, 0x74,
  0x69, 0x6F, 0x6E, 0x65, 0x64, 0x43, 0x61, 0x6C, 0x6C, 0x3A,
  0x30, 0x00, 0x00, 0x00, 0x02, 0x00, 0x00, 0x00, 0x01, 0x00,
  0x00, 0x00, 0x01, 0x00, 0x00, 0x00, 0x3E, 0xF6, 0xFF, 0xFF,
  0x00, 0x00, 0x00, 0x01, 0x18, 0x00, 0x00, 0x00, 0x20, 0x00,
  0x00, 0x00, 0x3C, 0x00, 0x00, 0x00, 0x1D, 0x00, 0x00, 0x00,
  0x00, 0x00, 0x00, 0x09, 0x50, 0x00, 0x00, 0x00, 0x02, 0x00,
  0x00, 0x00, 0xFF, 0xFF, 0xFF, 0xFF, 0x01, 0x00, 0x00, 0x00,
  0x44, 0xEE, 0xFF, 0xFF, 0x08, 0x00, 0x00, 0x00, 0x10, 0x00,
  0x00, 0x00, 0x01, 0x00, 0x00, 0x00, 0x80, 0xFF, 0xFF, 0xFF,
  0xFF, 0xFF, 0xFF, 0xFF, 0x01, 0x00, 0x00, 0x00, 0x00, 0x00,
  0x80, 0x3B, 0x1A, 0x00, 0x00, 0x00, 0x53, 0x74, 0x61, 0x74,
  0x65, 0x66, 0x75, 0x6C, 0x50, 0x61, 0x72, 0x74, 0x69, 0x74,
  0x69, 0x6F, 0x6E, 0x65, 0x64, 0x43, 0x61, 0x6C, 0x6C, 0x3A,
  0x30, 0x31, 0x00, 0x00, 0x02, 0x00, 0x00, 0x00, 0x01, 0x00,
  0x00, 0x00, 0x01, 0x00, 0x00, 0x00, 0xB6, 0xF6, 0xFF, 0xFF,
  0x00, 0x00, 0x00, 0x01, 0x18, 0x00, 0x00, 0x00, 0x20, 0x00,
  0x00, 0x00, 0x3C, 0x00, 0x00, 0x00, 0x1C, 0x00, 0x00, 0x00,
  0x00, 0x00, 0x00, 0x09, 0x68, 0x00, 0x00, 0x00, 0x02, 0x00,
  0x00, 0x00, 0xFF, 0xFF, 0xFF, 0xFF, 0x01, 0x00, 0x00, 0x00,
  0xBC, 0xEE, 0xFF, 0xFF, 0x08, 0x00, 0x00, 0x00, 0x10, 0x00,
  0x00, 0x00, 0x01, 0x00, 0x00, 0x00, 0x74, 0x00, 0x00, 0x00,
  0x00, 0x00, 0x00, 0x00, 0x01, 0x00, 0x00, 0x00, 0x92, 0x35,
  0xFA, 0x3D, 0x30, 0x00, 0x00, 0x00, 0x73, 0x65, 0x71, 0x75,
  0x65, 0x6E, 0x74, 0x69, 0x61, 0x6C, 0x2F, 0x64, 0x65, 0x6E,
  0x73, 0x65, 0x2F, 0x4D, 0x61, 0x74, 0x4D, 0x75, 0x6C, 0x3B,
  0x73, 0x65, 0x71, 0x75, 0x65, 0x6E, 0x74, 0x69, 0x61, 0x6C,
  0x2F, 0x64, 0x65, 0x6E, 0x73, 0x65, 0x2F, 0x42, 0x69, 0x61,
  0x73, 0x41, 0x64, 0x64, 0x00, 0x00, 0x00, 0x00, 0x02, 0x00,
  0x00, 0x00, 0x01, 0x00, 0x00, 0x00, 0x01, 0x00, 0x00, 0x00,
  0x46, 0xF7, 0xFF, 0xFF, 0x00, 0x00, 0x00, 0x01, 0x18, 0x00,
  0x00, 0x00, 0x20, 0x00, 0x00, 0x00, 0x3C, 0x00, 0x00, 0x00,
  0x1B, 0x00, 0x00, 0x00, 0x00, 0x00, 0x00, 0x09, 0x50, 0x00,
  0x00, 0x00, 0x02, 0x00, 0x00, 0x00, 0xFF, 0xFF, 0xFF, 0xFF,
  0x10, 0x00, 0x00, 0x00, 0x4C, 0xEF, 0xFF, 0xFF, 0x08, 0x00,
  0x00, 0x00, 0x10, 0x00, 0x00, 0x00, 0x01, 0x00, 0x00, 0x00,
  0x80, 0xFF, 0xFF, 0xFF, 0xFF, 0xFF, 0xFF, 0xFF, 0x01, 0x00,
  0x00, 0x00, 0xEE, 0x50, 0x33, 0x3D, 0x1A, 0x00, 0x00, 0x00,
  0x73, 0x65, 0x71, 0x75, 0x65, 0x6E, 0x74, 0x69, 0x61, 0x6C,
  0x2F, 0x66, 0x6C, 0x61, 0x74, 0x74, 0x65, 0x6E, 0x2F, 0x52,
  0x65, 0x73, 0x68, 0x61, 0x70, 0x65, 0x00, 0x00, 0x02, 0x00,
  0x00, 0x00, 0x01, 0x00, 0x00, 0x00, 0x10, 0x00, 0x00, 0x00,
  0xBE, 0xF7, 0xFF, 0xFF, 0x00, 0x00, 0x00, 0x01, 0x18, 0x00,
  0x00, 0x00, 0x28, 0x00, 0x00, 0x00, 0x44, 0x00, 0x00, 0x00,
  0x1A, 0x00, 0x00, 0x00, 0x00, 0x00, 0x00, 0x09, 0x60, 0x00,
  0x00, 0x00, 0x04, 0x00, 0x00, 0x00, 0xFF, 0xFF, 0xFF, 0xFF,
  0x02, 0x00, 0x00, 0x00, 0x02, 0x00, 0x00, 0x00, 0x04, 0x00,
  0x00, 0x00, 0xCC, 0xEF, 0xFF, 0xFF, 0x08, 0x00, 0x00, 0x00,
  0x10, 0x00, 0x00, 0x00, 0x01, 0x00, 0x00, 0x00, 0x80, 0xFF,
  0xFF, 0xFF, 0xFF, 0xFF, 0xFF, 0xFF, 0x01, 0x00, 0x00, 0x00,
  0xEE, 0x50, 0x33, 0x3D, 0x22, 0x00, 0x00, 0x00, 0x73, 0x65,
  0x71, 0x75, 0x65, 0x6E, 0x74, 0x69, 0x61, 0x6C, 0x2F, 0x6D,
  0x61, 0x78, 0x5F, 0x70, 0x6F, 0x6F, 0x6C, 0x69, 0x6E, 0x67,
  0x32, 0x64, 0x5F, 0x35, 0x2F, 0x4D, 0x61, 0x78, 0x50, 0x6F,
  0x6F, 0x6C, 0x00, 0x00, 0x04, 0x00, 0x00, 0x00, 0x01, 0x00,
  0x00, 0x00, 0x02, 0x00, 0x00, 0x00, 0x02, 0x00, 0x00, 0x00,
  0x04, 0x00, 0x00, 0x00, 0x4E, 0xF8, 0xFF, 0xFF, 0x00, 0x00,
  0x00, 0x01, 0x18, 0x00, 0x00, 0x00, 0x28, 0x00, 0x00, 0x00,
  0x44, 0x00, 0x00, 0x00, 0x19, 0x00, 0x00, 0x00, 0x00, 0x00,
  0x00, 0x09, 0x60, 0x00, 0x00, 0x00, 0x04, 0x00, 0x00, 0x00,
  0xFF, 0xFF, 0xFF, 0xFF, 0x04, 0x00, 0x00, 0x00, 0x04, 0x00,
  0x00, 0x00, 0x04, 0x00, 0x00, 0x00, 0x5C, 0xF0, 0xFF, 0xFF,
  0x08, 0x00, 0x00, 0x00, 0x10, 0x00, 0x00, 0x00, 0x01, 0x00,
  0x00, 0x00, 0x80, 0xFF, 0xFF, 0xFF, 0xFF, 0xFF, 0xFF, 0xFF,
  0x01, 0x00, 0x00, 0x00, 0xEE, 0x50, 0x33, 0x3D, 0x22, 0x00,
  0x00, 0x00, 0x73, 0x65, 0x71, 0x75, 0x65, 0x6E, 0x74, 0x69,
  0x61, 0x6C, 0x2F, 0x6D, 0x61, 0x78, 0x5F, 0x70, 0x6F, 0x6F,
  0x6C, 0x69, 0x6E, 0x67, 0x32, 0x64, 0x5F, 0x34, 0x2F, 0x4D,
  0x61, 0x78, 0x50, 0x6F, 0x6F, 0x6C, 0x00, 0x00, 0x04, 0x00,
  0x00, 0x00, 0x01, 0x00, 0x00, 0x00, 0x04, 0x00, 0x00, 0x00,
  0x04, 0x00, 0x00, 0x00, 0x04, 0x00, 0x00, 0x00, 0xDE, 0xF8,
  0xFF, 0xFF, 0x00, 0x00, 0x00, 0x01, 0x18, 0x00, 0x00, 0x00,
  0x28, 0x00, 0x00, 0x00, 0x44, 0x00, 0x00, 0x00, 0x18, 0x00,
  0x00, 0x00, 0x00, 0x00, 0x00, 0x09, 0xB8, 0x00, 0x00, 0x00,
  0x04, 0x00, 0x00, 0x00, 0xFF, 0xFF, 0xFF, 0xFF, 0x08, 0x00,
  0x00, 0x00, 0x08, 0x00, 0x00, 0x00, 0x04, 0x00, 0x00, 0x00,
  0xEC, 0xF0, 0xFF, 0xFF, 0x08, 0x00, 0x00, 0x00, 0x10, 0x00,
  0x00, 0x00, 0x01, 0x00, 0x00, 0x00, 0x80, 0xFF, 0xFF, 0xFF,
  0xFF, 0xFF, 0xFF, 0xFF, 0x01, 0x00, 0x00, 0x00, 0xEE, 0x50,
  0x33, 0x3D, 0x7A, 0x00, 0x00, 0x00, 0x73, 0x65, 0x71, 0x75,
  0x65, 0x6E, 0x74, 0x69, 0x61, 0x6C, 0x2F, 0x63, 0x6F, 0x6E,
  0x76, 0x32, 0x64, 0x5F, 0x34, 0x2F, 0x52, 0x65, 0x6C, 0x75,
  0x3B, 0x73, 0x65, 0x71, 0x75, 0x65, 0x6E, 0x74, 0x69, 0x61,
  0x6C, 0x2F, 0x63, 0x6F, 0x6E, 0x76, 0x32, 0x64, 0x5F, 0x34,
  0x2F, 0x42, 0x69, 0x61, 0x73, 0x41, 0x64, 0x64, 0x3B, 0x73,
  0x65, 0x71, 0x75, 0x65, 0x6E, 0x74, 0x69, 0x61, 0x6C, 0x2F,
  0x63, 0x6F, 0x6E, 0x76, 0x32, 0x64, 0x5F, 0x34, 0x2F, 0x43,
  0x6F, 0x6E, 0x76, 0x32, 0x44, 0x3B, 0x73, 0x65, 0x71, 0x75,
  0x65, 0x6E, 0x74, 0x69, 0x61, 0x6C, 0x2F, 0x63, 0x6F, 0x6E,
  0x76, 0x32, 0x64, 0x5F, 0x34, 0x2F, 0x42, 0x69, 0x61, 0x73,
  0x41, 0x64, 0x64, 0x2F, 0x52, 0x65, 0x61, 0x64, 0x56, 0x61,
  0x72, 0x69, 0x61, 0x62, 0x6C, 0x65, 0x4F, 0x70, 0x00, 0x00,
  0x04, 0x00, 0x00, 0x00, 0x01, 0x00, 0x00, 0x00, 0x08, 0x00,
  0x00, 0x00, 0x08, 0x00, 0x00, 0x00, 0x04, 0x00, 0x00, 0x00,
  0xC6, 0xF9, 0xFF, 0xFF, 0x00, 0x00, 0x00, 0x01, 0x18, 0x00,
  0x00, 0x00, 0x28, 0x00, 0x00, 0x00, 0x44, 0x00, 0x00, 0x00,
  0x17, 0x00, 0x00, 0x00, 0x00, 0x00, 0x00, 0x09, 0x60, 0x00,
  0x00, 0x00, 0x04, 0x00, 0x00, 0x00, 0xFF, 0xFF, 0xFF, 0xFF,
  0x08, 0x00, 0x00, 0x00, 0x08, 0x00, 0x00, 0x00, 0x04, 0x00,
  0x00, 0x00, 0xD4, 0xF1, 0xFF, 0xFF, 0x08, 0x00, 0x00, 0x00,
  0x10, 0x00, 0x00, 0x00, 0x01, 0x00, 0x00, 0x00, 0x80, 0xFF,
  0xFF, 0xFF, 0xFF, 0xFF, 0xFF, 0xFF, 0x01, 0x00, 0x00, 0x00,
  0xFA, 0x96, 0xEC, 0x3C, 0x22, 0x00, 0x00, 0x00, 0x73, 0x65,
  0x71, 0x75, 0x65, 0x6E, 0x74, 0x69, 0x61, 0x6C, 0x2F, 0x6D,
  0x61, 0x78, 0x5F, 0x70, 0x6F, 0x6F, 0x6C, 0x69, 0x6E, 0x67,
  0x32, 0x64, 0x5F, 0x33, 0x2F, 0x4D, 0x61, 0x78, 0x50, 0x6F,
  0x6F, 0x6C, 0x00, 0x00, 0x04, 0x00, 0x00, 0x00, 0x01, 0x00,
  0x00, 0x00, 0x08, 0x00, 0x00, 0x00, 0x08, 0x00, 0x00, 0x00,
  0x04, 0x00, 0x00, 0x00, 0x56, 0xFA, 0xFF, 0xFF, 0x00, 0x00,
  0x00, 0x01, 0x18, 0x00, 0x00, 0x00, 0x28, 0x00, 0x00, 0x00,
  0x48, 0x00, 0x00, 0x00, 0x16, 0x00, 0x00, 0x00, 0x00, 0x00,
  0x00, 0x09, 0xD8, 0x00, 0x00, 0x00, 0x04, 0x00, 0x00, 0x00,
  0xFF, 0xFF, 0xFF, 0xFF, 0x10, 0x00, 0x00, 0x00, 0x10, 0x00,
  0x00, 0x00, 0x04, 0x00, 0x00, 0x00, 0x64, 0xF2, 0xFF, 0xFF,
  0x08, 0x00, 0x00, 0x00, 0x14, 0x00, 0x00, 0x00, 0x01, 0x00,
  0x00, 0x00, 0x80, 0xFF, 0xFF, 0xFF, 0xFF, 0xFF, 0xFF, 0xFF,
  0x00, 0x00, 0x00, 0x00, 0x01, 0x00, 0x00, 0x00, 0xFA, 0x96,
  0xEC, 0x3C, 0x95, 0x00, 0x00, 0x00, 0x73, 0x65, 0x71, 0x75,
  0x65, 0x6E, 0x74, 0x69, 0x61, 0x6C, 0x2F, 0x63, 0x6F, 0x6E,
  0x76, 0x32, 0x64, 0x5F, 0x33, 0x2F, 0x52, 0x65, 0x6C, 0x75,
  0x3B, 0x73, 0x65, 0x71, 0x75, 0x65, 0x6E, 0x74, 0x69, 0x61,
  0x6C, 0x2F, 0x63, 0x6F, 0x6E, 0x76, 0x32, 0x64, 0x5F, 0x33,
  0x2F, 0x42, 0x69, 0x61, 0x73, 0x41, 0x64, 0x64, 0x3B, 0x73,
  0x65, 0x71, 0x75, 0x65, 0x6E, 0x74, 0x69, 0x61, 0x6C, 0x2F,
  0x63, 0x6F, 0x6E, 0x76, 0x32, 0x64, 0x5F, 0x34, 0x2F, 0x43,
  0x6F, 0x6E, 0x76, 0x32, 0x44, 0x3B, 0x73, 0x65, 0x71, 0x75,
  0x65, 0x6E, 0x74, 0x69, 0x61, 0x6C, 0x2F, 0x63, 0x6F, 0x6E,
  0x76, 0x32, 0x64, 0x5F, 0x33, 0x2F, 0x43, 0x6F, 0x6E, 0x76,
  0x32, 0x44, 0x3B, 0x73, 0x65, 0x71, 0x75, 0x65, 0x6E, 0x74,
  0x69, 0x61, 0x6C, 0x2F, 0x63, 0x6F, 0x6E, 0x76, 0x32, 0x64,
  0x5F, 0x33, 0x2F, 0x42, 0x69, 0x61, 0x73, 0x41, 0x64, 0x64,
  0x2F, 0x52, 0x65, 0x61, 0x64, 0x56, 0x61, 0x72, 0x69, 0x61,
  0x62, 0x6C, 0x65, 0x4F, 0x70, 0x00, 0x00, 0x00, 0x04, 0x00,
  0x00, 0x00, 0x01, 0x00, 0x00, 0x00, 0x10, 0x00, 0x00, 0x00,
  0x10, 0x00, 0x00, 0x00, 0x04, 0x00, 0x00, 0x00, 0x5E, 0xFB,
  0xFF, 0xFF, 0x00, 0x00, 0x00, 0x01, 0x18, 0x00, 0x00, 0x00,
  0x28, 0x00, 0x00, 0x00, 0x44, 0x00, 0x00, 0x00, 0x15, 0x00,
  0x00, 0x00, 0x00, 0x00, 0x00, 0x09, 0x60, 0x00, 0x00, 0x00,
  0x04, 0x00, 0x00, 0x00, 0xFF, 0xFF, 0xFF, 0xFF, 0x10, 0x00,
  0x00, 0x00, 0x10, 0x00, 0x00, 0x00, 0x08, 0x00, 0x00, 0x00,
  0x6C, 0xF3, 0xFF, 0xFF, 0x08, 0x00, 0x00, 0x00, 0x10, 0x00,
  0x00, 0x00, 0x01, 0x00, 0x00, 0x00, 0x80, 0xFF, 0xFF, 0xFF,
  0xFF, 0xFF, 0xFF, 0xFF, 0x01, 0x00, 0x00, 0x00, 0x0E, 0x82,
  0x8B, 0x3C, 0x22, 0x00, 0x00, 0x00, 0x73, 0x65, 0x71, 0x75,
  0x65, 0x6E, 0x74, 0x69, 0x61, 0x6C, 0x2F, 0x6D, 0x61, 0x78,
  0x5F, 0x70, 0x6F, 0x6F, 0x6C, 0x69, 0x6E, 0x67, 0x32, 0x64,
  0x5F, 0x32, 0x2F, 0x4D, 0x61, 0x78, 0x50, 0x6F, 0x6F, 0x6C,
  0x00, 0x00, 0x04, 0x00, 0x00, 0x00, 0x01, 0x00, 0x00, 0x00,
  0x10, 0x00, 0x00, 0x00, 0x10, 0x00, 0x00, 0x00, 0x08, 0x00,
  0x00, 0x00, 0xEE, 0xFB, 0xFF, 0xFF, 0x00, 0x00, 0x00, 0x01,
  0x18, 0x00, 0x00, 0x00, 0x28, 0x00, 0x00, 0x00, 0x44, 0x00,
  0x00, 0x00, 0x14, 0x00, 0x00, 0x00, 0x00, 0x00, 0x00, 0x09,
  0xB8, 0x00, 0x00, 0x00, 0x04, 0x00, 0x00, 0x00, 0xFF, 0xFF,
  0xFF, 0xFF, 0x20, 0x00, 0x00, 0x00, 0x20, 0x00, 0x00, 0x00,
  0x08, 0x00, 0x00, 0x00, 0xFC, 0xF3, 0xFF, 0xFF, 0x08, 0x00,
  0x00, 0x00, 0x10, 0x00, 0x00, 0x00, 0x01, 0x00, 0x00, 0x00,
  0x80, 0xFF, 0xFF, 0xFF, 0xFF, 0xFF, 0xFF, 0xFF, 0x01, 0x00,
  0x00, 0x00, 0x0E, 0x82, 0x8B, 0x3C, 0x7A, 0x00, 0x00, 0x00,
  0x73, 0x65, 0x71, 0x75, 0x65, 0x6E, 0x74, 0x69, 0x61, 0x6C,
  0x2F, 0x63, 0x6F, 0x6E, 0x76, 0x32, 0x64, 0x5F, 0x32, 0x2F,
  0x52, 0x65, 0x6C, 0x75, 0x3B, 0x73, 0x65, 0x71, 0x75, 0x65,
  0x6E, 0x74, 0x69, 0x61, 0x6C, 0x2F, 0x63, 0x6F, 0x6E, 0x76,
  0x32, 0x64, 0x5F, 0x32, 0x2F, 0x42, 0x69, 0x61, 0x73, 0x41,
  0x64, 0x64, 0x3B, 0x73, 0x65, 0x71, 0x75, 0x65, 0x6E, 0x74,
  0x69, 0x61, 0x6C, 0x2F, 0x63, 0x6F, 0x6E, 0x76, 0x32, 0x64,
  0x5F, 0x32, 0x2F, 0x43, 0x6F, 0x6E, 0x76, 0x32, 0x44, 0x3B,
  0x73, 0x65, 0x71, 0x75, 0x65, 0x6E, 0x74, 0x69, 0x61, 0x6C,
  0x2F, 0x63, 0x6F, 0x6E, 0x76, 0x32, 0x64, 0x5F, 0x32, 0x2F,
  0x42, 0x69, 0x61, 0x73, 0x41, 0x64, 0x64, 0x2F, 0x52, 0x65,
  0x61, 0x64, 0x56, 0x61, 0x72, 0x69, 0x61, 0x62, 0x6C, 0x65,
  0x4F, 0x70, 0x00, 0x00, 0x04, 0x00, 0x00, 0x00, 0x01, 0x00,
  0x00, 0x00, 0x20, 0x00, 0x00, 0x00, 0x20, 0x00, 0x00, 0x00,
  0x08, 0x00, 0x00, 0x00, 0xD6, 0xFC, 0xFF, 0xFF, 0x00, 0x00,
  0x00, 0x01, 0x18, 0x00, 0x00, 0x00, 0x28, 0x00, 0x00, 0x00,
  0x44, 0x00, 0x00, 0x00, 0x13, 0x00, 0x00, 0x00, 0x00, 0x00,
  0x00, 0x09, 0x60, 0x00, 0x00, 0x00, 0x04, 0x00, 0x00, 0x00,
  0xFF, 0xFF, 0xFF, 0xFF, 0x20, 0x00, 0x00, 0x00, 0x20, 0x00,
  0x00, 0x00, 0x08, 0x00, 0x00, 0x00, 0xE4, 0xF4, 0xFF, 0xFF,
  0x08, 0x00, 0x00, 0x00, 0x10, 0x00, 0x00, 0x00, 0x01, 0x00,
  0x00, 0x00, 0x80, 0xFF, 0xFF, 0xFF, 0xFF, 0xFF, 0xFF, 0xFF,
  0x01, 0x00, 0x00, 0x00, 0xDE, 0x3C, 0xA3, 0x3B, 0x22, 0x00,
  0x00, 0x00, 0x73, 0x65, 0x71, 0x75, 0x65, 0x6E, 0x74, 0x69,
  0x61, 0x6C, 0x2F, 0x6D, 0x61, 0x78, 0x5F, 0x70, 0x6F, 0x6F,
  0x6C, 0x69, 0x6E, 0x67, 0x32, 0x64, 0x5F, 0x31, 0x2F, 0x4D,
  0x61, 0x78, 0x50, 0x6F, 0x6F, 0x6C, 0x00, 0x00, 0x04, 0x00,
  0x00, 0x00, 0x01, 0x00, 0x00, 0x00, 0x20, 0x00, 0x00, 0x00,
  0x20, 0x00, 0x00, 0x00, 0x08, 0x00, 0x00, 0x00, 0x66, 0xFD,
  0xFF, 0xFF, 0x00, 0x00, 0x00, 0x01, 0x18, 0x00, 0x00, 0x00,
  0x28, 0x00, 0x00, 0x00, 0x48, 0x00, 0x00, 0x00, 0x12, 0x00,
  0x00, 0x00, 0x00, 0x00, 0x00, 0x09, 0xD8, 0x00, 0x00, 0x00,
  0x04, 0x00, 0x00, 0x00, 0xFF, 0xFF, 0xFF, 0xFF, 0x40, 0x00,
  0x00, 0x00, 0x40, 0x00, 0x00, 0x00, 0x08, 0x00, 0x00, 0x00,
  0x74, 0xF5, 0xFF, 0xFF, 0x08, 0x00, 0x00, 0x00, 0x14, 0x00,
  0x00, 0x00, 0x01, 0x00, 0x00, 0x00, 0x80, 0xFF, 0xFF, 0xFF,
  0xFF, 0xFF, 0xFF, 0xFF, 0x00, 0x00, 0x00, 0x00, 0x01, 0x00,
  0x00, 0x00, 0xDE, 0x3C, 0xA3, 0x3B, 0x95, 0x00, 0x00, 0x00,
  0x73, 0x65, 0x71, 0x75, 0x65, 0x6E, 0x74, 0x69, 0x61, 0x6C,
  0x2F, 0x63, 0x6F, 0x6E, 0x76, 0x32, 0x64, 0x5F, 0x31, 0x2F,
  0x52, 0x65, 0x6C, 0x75, 0x3B, 0x73, 0x65, 0x71, 0x75, 0x65,
  0x6E, 0x74, 0x69, 0x61, 0x6C, 0x2F, 0x63, 0x6F, 0x6E, 0x76,
  0x32, 0x64, 0x5F, 0x31, 0x2F, 0x42, 0x69, 0x61, 0x73, 0x41,
  0x64, 0x64, 0x3B, 0x73, 0x65, 0x71, 0x75, 0x65, 0x6E, 0x74,
  0x69, 0x61, 0x6C, 0x2F, 0x63, 0x6F, 0x6E, 0x76, 0x32, 0x64,
  0x5F, 0x32, 0x2F, 0x43, 0x6F, 0x6E, 0x76, 0x32, 0x44, 0x3B,
  0x73, 0x65, 0x71, 0x75, 0x65, 0x6E, 0x74, 0x69, 0x61, 0x6C,
  0x2F, 0x63, 0x6F, 0x6E, 0x76, 0x32, 0x64, 0x5F, 0x31, 0x2F,
  0x43, 0x6F, 0x6E, 0x76, 0x32, 0x44, 0x3B, 0x73, 0x65, 0x71,
  0x75, 0x65, 0x6E, 0x74, 0x69, 0x61, 0x6C, 0x2F, 0x63, 0x6F,
  0x6E, 0x76, 0x32, 0x64, 0x5F, 0x31, 0x2F, 0x42, 0x69, 0x61,
  0x73, 0x41, 0x64, 0x64, 0x2F, 0x52, 0x65, 0x61, 0x64, 0x56,
  0x61, 0x72, 0x69, 0x61, 0x62, 0x6C, 0x65, 0x4F, 0x70, 0x00,
  0x00, 0x00, 0x04, 0x00, 0x00, 0x00, 0x01, 0x00, 0x00, 0x00,
  0x40, 0x00, 0x00, 0x00, 0x40, 0x00, 0x00, 0x00, 0x08, 0x00,
  0x00, 0x00, 0x6E, 0xFE, 0xFF, 0xFF, 0x00, 0x00, 0x00, 0x01,
  0x18, 0x00, 0x00, 0x00, 0x28, 0x00, 0x00, 0x00, 0x44, 0x00,
  0x00, 0x00, 0x11, 0x00, 0x00, 0x00, 0x00, 0x00, 0x00, 0x09,
  0x60, 0x00, 0x00, 0x00, 0x04, 0x00, 0x00, 0x00, 0xFF, 0xFF,
  0xFF, 0xFF, 0x40, 0x00, 0x00, 0x00, 0x40, 0x00, 0x00, 0x00,
  0x08, 0x00, 0x00, 0x00, 0x7C, 0xF6, 0xFF, 0xFF, 0x08, 0x00,
  0x00, 0x00, 0x10, 0x00, 0x00, 0x00, 0x01, 0x00, 0x00, 0x00,
  0x80, 0xFF, 0xFF, 0xFF, 0xFF, 0xFF, 0xFF, 0xFF, 0x01, 0x00,
  0x00, 0x00, 0x78, 0x8B, 0xFB, 0x3A, 0x20, 0x00, 0x00, 0x00,
  0x73, 0x65, 0x71, 0x75, 0x65, 0x6E, 0x74, 0x69, 0x61, 0x6C,
  0x2F, 0x6D, 0x61, 0x78, 0x5F, 0x70, 0x6F, 0x6F, 0x6C, 0x69,
  0x6E, 0x67, 0x32, 0x64, 0x2F, 0x4D, 0x61, 0x78, 0x50, 0x6F,
  0x6F, 0x6C, 0x00, 0x00, 0x00, 0x00, 0x04, 0x00, 0x00, 0x00,
  0x01, 0x00, 0x00, 0x00, 0x40, 0x00, 0x00, 0x00, 0x40, 0x00,
  0x00, 0x00, 0x08, 0x00, 0x00, 0x00, 0xFE, 0xFE, 0xFF, 0xFF,
  0x00, 0x00, 0x00, 0x01, 0x18, 0x00, 0x00, 0x00, 0x28, 0x00,
  0x00, 0x00, 0x48, 0x00, 0x00, 0x00, 0x10, 0x00, 0x00, 0x00,
  0x00, 0x00, 0x00, 0x09, 0xD0, 0x00, 0x00, 0x00, 0x04, 0x00,
  0x00, 0x00, 0xFF, 0xFF, 0xFF, 0xFF, 0x80, 0x00, 0x00, 0x00,
  0x80, 0x00, 0x00, 0x00, 0x08, 0x00, 0x00, 0x00, 0x0C, 0xF7,
  0xFF, 0xFF, 0x08, 0x00, 0x00, 0x00, 0x14, 0x00, 0x00, 0x00,
  0x01, 0x00, 0x00, 0x00, 0x80, 0xFF, 0xFF, 0xFF, 0xFF, 0xFF,
  0xFF, 0xFF, 0x00, 0x00, 0x00, 0x00, 0x01, 0x00, 0x00, 0x00,
  0x78, 0x8B, 0xFB, 0x3A, 0x8D, 0x00, 0x00, 0x00, 0x73, 0x65,
  0x71, 0x75, 0x65, 0x6E, 0x74, 0x69, 0x61, 0x6C, 0x2F, 0x63,
  0x6F, 0x6E, 0x76, 0x32, 0x64, 0x2F, 0x52, 0x65, 0x6C, 0x75,
  0x3B, 0x73, 0x65, 0x71, 0x75, 0x65, 0x6E, 0x74, 0x69, 0x61,
  0x6C, 0x2F, 0x63, 0x6F, 0x6E, 0x76, 0x32, 0x64, 0x2F, 0x42,
  0x69, 0x61, 0x73, 0x41, 0x64, 0x64, 0x3B, 0x73, 0x65, 0x71,
  0x75, 0x65, 0x6E, 0x74, 0x69, 0x61, 0x6C, 0x2F, 0x63, 0x6F,
  0x6E, 0x76, 0x32, 0x64, 0x5F, 0x32, 0x2F, 0x43, 0x6F, 0x6E,
  0x76, 0x32, 0x44, 0x3B, 0x73, 0x65, 0x71, 0x75, 0x65, 0x6E,
  0x74, 0x69, 0x61, 0x6C, 0x2F, 0x63, 0x6F, 0x6E, 0x76, 0x32,
  0x64, 0x2F, 0x43, 0x6F, 0x6E, 0x76, 0x32, 0x44, 0x3B, 0x73,
  0x65, 0x71, 0x75, 0x65, 0x6E, 0x74, 0x69, 0x61, 0x6C, 0x2F,
  0x63, 0x6F, 0x6E, 0x76, 0x32, 0x64, 0x2F, 0x42, 0x69, 0x61,
  0x73, 0x41, 0x64, 0x64, 0x2F, 0x52, 0x65, 0x61, 0x64, 0x56,
  0x61, 0x72, 0x69, 0x61, 0x62, 0x6C, 0x65, 0x4F, 0x70, 0x00,
  0x00, 0x00, 0x04, 0x00, 0x00, 0x00, 0x01, 0x00, 0x00, 0x00,
  0x80, 0x00, 0x00, 0x00, 0x80, 0x00, 0x00, 0x00, 0x08, 0x00,
  0x00, 0x00, 0x00, 0x00, 0x16, 0x00, 0x20, 0x00, 0x1C, 0x00,
  0x1B, 0x00, 0x14, 0x00, 0x10, 0x00, 0x0C, 0x00, 0x00, 0x00,
  0x00, 0x00, 0x08, 0x00, 0x07, 0x00, 0x16, 0x00, 0x00, 0x00,
  0x00, 0x00, 0x00, 0x01, 0x18, 0x00, 0x00, 0x00, 0x28, 0x00,
  0x00, 0x00, 0x48, 0x00, 0x00, 0x00, 0x0F, 0x00, 0x00, 0x00,
  0x00, 0x00, 0x00, 0x09, 0x50, 0x00, 0x00, 0x00, 0x04, 0x00,
  0x00, 0x00, 0xFF, 0xFF, 0xFF, 0xFF, 0x80, 0x00, 0x00, 0x00,
  0x80, 0x00, 0x00, 0x00, 0x01, 0x00, 0x00, 0x00, 0x24, 0xF8,
  0xFF, 0xFF, 0x08, 0x00, 0x00, 0x00, 0x14, 0x00, 0x00, 0x00,
  0x01, 0x00, 0x00, 0x00, 0x80, 0xFF, 0xFF, 0xFF, 0xFF, 0xFF,
  0xFF, 0xFF, 0x00, 0x00, 0x00, 0x00, 0x01, 0x00, 0x00, 0x00,
  0x81, 0x80, 0x80, 0x3B, 0x0C, 0x00, 0x00, 0x00, 0x74, 0x66,
  0x6C, 0x2E, 0x71, 0x75, 0x61, 0x6E, 0x74, 0x69, 0x7A, 0x65,
  0x00, 0x00, 0x00, 0x00, 0x04, 0x00, 0x00, 0x00, 0x01, 0x00,
  0x00, 0x00, 0x80, 0x00, 0x00, 0x00, 0x80, 0x00, 0x00, 0x00,
  0x01, 0x00, 0x00, 0x00, 0x0E, 0xF8, 0xFF, 0xFF, 0x00, 0x00,
  0x00, 0x01, 0x14, 0x00, 0x00, 0x00, 0x88, 0x00, 0x00, 0x00,
  0x0E, 0x00, 0x00, 0x00, 0x00, 0x00, 0x00, 0x09, 0x9C, 0x00,
  0x00, 0x00, 0x8C, 0xF8, 0xFF, 0xFF, 0x08, 0x00, 0x00, 0x00,
  0x4C, 0x00, 0x00, 0x00, 0x08, 0x00, 0x00, 0x00, 0x00, 0x00,
  0x00, 0x00, 0x00, 0x00, 0x00, 0x00, 0x00, 0x00, 0x00, 0x00,
  0x00, 0x00, 0x00, 0x00, 0x00, 0x00, 0x00, 0x00, 0x00, 0x00,
  0x00, 0x00, 0x00, 0x00, 0x00, 0x00, 0x00, 0x00, 0x00, 0x00,
  0x00, 0x00, 0x00, 0x00, 0x00, 0x00, 0x00, 0x00, 0x00, 0x00,
  0x00, 0x00, 0x00, 0x00, 0x00, 0x00, 0x00, 0x00, 0x00, 0x00,
  0x00, 0x00, 0x00, 0x00, 0x00, 0x00, 0x00, 0x00, 0x00, 0x00,
  0x00, 0x00, 0x00, 0x00, 0x00, 0x00, 0x08, 0x00, 0x00, 0x00,
  0x96, 0xDF, 0x14, 0x3B, 0x1C, 0xDE, 0x1A, 0x3B, 0xBD, 0xD6,
  0x42, 0x3B, 0x2A, 0xC0, 0xE4, 0x3A, 0x7C, 0x78, 0x2B, 0x3B,
  0xF3, 0x21, 0x5F, 0x3B, 0x78, 0xAE, 0xF9, 0x3A, 0x75, 0x44,
  0x21, 0x3B, 0x18, 0x00, 0x00, 0x00, 0x73, 0x65, 0x71, 0x75,
  0x65, 0x6E, 0x74, 0x69, 0x61, 0x6C, 0x2F, 0x63, 0x6F, 0x6E,
  0x76, 0x32, 0x64, 0x2F, 0x43, 0x6F, 0x6E, 0x76, 0x32, 0x44,
  0x00, 0x00, 0x00, 0x00, 0x04, 0x00, 0x00, 0x00, 0x08, 0x00,
  0x00, 0x00, 0x03, 0x00, 0x00, 0x00, 0x03, 0x00, 0x00, 0x00,
  0x01, 0x00, 0x00, 0x00, 0xD6, 0xF8, 0xFF, 0xFF, 0x00, 0x00,
  0x00, 0x01, 0x14, 0x00, 0x00, 0x00, 0x84, 0x00, 0x00, 0x00,
  0x0D, 0x00, 0x00, 0x00, 0x00, 0x00, 0x00, 0x02, 0xA8, 0x00,
  0x00, 0x00, 0x54, 0xF9, 0xFF, 0xFF, 0x08, 0x00, 0x00, 0x00,
  0x48, 0x00, 0x00, 0x00, 0x08, 0x00, 0x00, 0x00, 0x00, 0x00,
  0x00, 0x00, 0x00, 0x00, 0x00, 0x00, 0x00, 0x00, 0x00, 0x00,
  0x00, 0x00, 0x00, 0x00, 0x00, 0x00, 0x00, 0x00, 0x00, 0x00,
  0x00, 0x00, 0x00, 0x00, 0x00, 0x00, 0x00, 0x00, 0x00, 0x00,
  0x00, 0x00, 0x00, 0x00, 0x00, 0x00, 0x00, 0x00, 0x00, 0x00,
  0x00, 0x00, 0x00, 0x00, 0x00, 0x00, 0x00, 0x00, 0x00, 0x00,
  0x00, 0x00, 0x00, 0x00, 0x00, 0x00, 0x00, 0x00, 0x00, 0x00,
  0x00, 0x00, 0x08, 0x00, 0x00, 0x00, 0x0C, 0x75, 0x15, 0x37,
  0x96, 0x79, 0x1B, 0x37, 0x58, 0x9A, 0x43, 0x37, 0xD1, 0xA5,
  0xE5, 0x36, 0xA1, 0x24, 0x2C, 0x37, 0xF6, 0x01, 0x60, 0x37,
  0x22, 0xA9, 0xFA, 0x36, 0x5C, 0xE6, 0x21, 0x37, 0x28, 0x00,
  0x00, 0x00, 0x73, 0x65, 0x71, 0x75, 0x65, 0x6E, 0x74, 0x69,
  0x61, 0x6C, 0x2F, 0x63, 0x6F, 0x6E, 0x76, 0x32, 0x64, 0x2F,
  0x42, 0x69, 0x61, 0x73, 0x41, 0x64, 0x64, 0x2F, 0x52, 0x65,
  0x61, 0x64, 0x56, 0x61, 0x72, 0x69, 0x61, 0x62, 0x6C, 0x65,
  0x4F, 0x70, 0x00, 0x00, 0x00, 0x00, 0x01, 0x00, 0x00, 0x00,
  0x08, 0x00, 0x00, 0x00, 0x9E, 0xF9, 0xFF, 0xFF, 0x00, 0x00,
  0x00, 0x01, 0x14, 0x00, 0x00, 0x00, 0x88, 0x00, 0x00, 0x00,
  0x0C, 0x00, 0x00, 0x00, 0x00, 0x00, 0x00, 0x09, 0x9C, 0x00,
  0x00, 0x00, 0x1C, 0xFA, 0xFF, 0xFF, 0x08, 0x00, 0x00, 0x00,
  0x4C, 0x00, 0x00, 0x00, 0x08, 0x00, 0x00, 0x00, 0x00, 0x00,
  0x00, 0x00, 0x00, 0x00, 0x00, 0x00, 0x00, 0x00, 0x00, 0x00,
  0x00, 0x00, 0x00, 0x00, 0x00, 0x00, 0x00, 0x00, 0x00, 0x00,
  0x00, 0x00, 0x00, 0x00, 0x00, 0x00, 0x00, 0x00, 0x00, 0x00,
  0x00, 0x00, 0x00, 0x00, 0x00, 0x00, 0x00, 0x00, 0x00, 0x00,
  0x00, 0x00, 0x00, 0x00, 0x00, 0x00, 0x00, 0x00, 0x00, 0x00,
  0x00, 0x00, 0x00, 0x00, 0x00, 0x00, 0x00, 0x00, 0x00, 0x00,
  0x00, 0x00, 0x00, 0x00, 0x00, 0x00, 0x08, 0x00, 0x00, 0x00,
  0x4E, 0xB5, 0xF3, 0x3A, 0x14, 0xAC, 0x0D, 0x3B, 0x7B, 0xA1,
  0x87, 0x3B, 0x13, 0x88, 0x4D, 0x3B, 0x69, 0x5D, 0xB6, 0x3B,
  0xA5, 0x56, 0x9E, 0x3B, 0xBC, 0xE4, 0x8E, 0x3B, 0x93, 0x02,
  0x9E, 0x3B, 0x1A, 0x00, 0x00, 0x00, 0x73, 0x65, 0x71, 0x75,
  0x65, 0x6E, 0x74, 0x69, 0x61, 0x6C, 0x2F, 0x63, 0x6F, 0x6E,
  0x76, 0x32, 0x64, 0x5F, 0x31, 0x2F, 0x43, 0x6F, 0x6E, 0x76,
  0x32, 0x44, 0x00, 0x00, 0x04, 0x00, 0x00, 0x00, 0x08, 0x00,
  0x00, 0x00, 0x03, 0x00, 0x00, 0x00, 0x03, 0x00, 0x00, 0x00,
  0x08, 0x00, 0x00, 0x00, 0x66, 0xFA, 0xFF, 0xFF, 0x00, 0x00,
  0x00, 0x01, 0x14, 0x00, 0x00, 0x00, 0x84, 0x00, 0x00, 0x00,
  0x0B, 0x00, 0x00, 0x00, 0x00, 0x00, 0x00, 0x02, 0xA8, 0x00,
  0x00, 0x00, 0xE4, 0xFA, 0xFF, 0xFF, 0x08, 0x00, 0x00, 0x00,
  0x48, 0x00, 0x00, 0x00, 0x08, 0x00, 0x00, 0x00, 0x00, 0x00,
  0x00, 0x00, 0x00, 0x00, 0x00, 0x00, 0x00, 0x00, 0x00, 0x00,
  0x00, 0x00, 0x00, 0x00, 0x00, 0x00, 0x00, 0x00, 0x00, 0x00,
  0x00, 0x00, 0x00, 0x00, 0x00, 0x00, 0x00, 0x00, 0x00, 0x00,
  0x00, 0x00, 0x00, 0x00, 0x00, 0x00, 0x00, 0x00, 0x00, 0x00,
  0x00, 0x00, 0x00, 0x00, 0x00, 0x00, 0x00, 0x00, 0x00, 0x00,
  0x00, 0x00, 0x00, 0x00, 0x00, 0x00, 0x00, 0x00, 0x00, 0x00,
  0x00, 0x00, 0x08, 0x00, 0x00, 0x00, 0x89, 0x77, 0x6F, 0x36,
  0xE6, 0x34, 0x8B, 0x36, 0x38, 0x45, 0x05, 0x37, 0x64, 0xF4,
  0xC9, 0x36, 0xF0, 0x30, 0x33, 0x37, 0x37, 0x95, 0x1B, 0x37,
  0x1E, 0x68, 0x0C, 0x37, 0x9C, 0x42, 0x1B, 0x37, 0x2A, 0x00,
  0x00, 0x00, 0x73, 0x65, 0x71, 0x75, 0x65, 0x6E, 0x74, 0x69,
  0x61, 0x6C, 0x2F, 0x63, 0x6F, 0x6E, 0x76, 0x32, 0x64, 0x5F,
  0x31, 0x2F, 0x42, 0x69, 0x61, 0x73, 0x41, 0x64, 0x64, 0x2F,
  0x52, 0x65, 0x61, 0x64, 0x56, 0x61, 0x72, 0x69, 0x61, 0x62,
  0x6C, 0x65, 0x4F, 0x70, 0x00, 0x00, 0x01, 0x00, 0x00, 0x00,
  0x08, 0x00, 0x00, 0x00, 0x2E, 0xFB, 0xFF, 0xFF, 0x00, 0x00,
  0x00, 0x01, 0x14, 0x00, 0x00, 0x00, 0x88, 0x00, 0x00, 0x00,
  0x0A, 0x00, 0x00, 0x00, 0x00, 0x00, 0x00, 0x09, 0x9C, 0x00,
  0x00, 0x00, 0xAC, 0xFB, 0xFF, 0xFF, 0x08, 0x00, 0x00, 0x00,
  0x4C, 0x00, 0x00, 0x00, 0x08, 0x00, 0x00, 0x00, 0x00, 0x00,
  0x00, 0x00, 0x00, 0x00, 0x00, 0x00, 0x00, 0x00, 0x00, 0x00,
  0x00, 0x00, 0x00, 0x00, 0x00, 0x00, 0x00, 0x00, 0x00, 0x00,
  0x00, 0x00, 0x00, 0x00, 0x00, 0x00, 0x00, 0x00, 0x00, 0x00,
  0x00, 0x00, 0x00, 0x00, 0x00, 0x00, 0x00, 0x00, 0x00, 0x00,
  0x00, 0x00, 0x00, 0x00, 0x00, 0x00, 0x00, 0x00, 0x00, 0x00,
  0x00, 0x00, 0x00, 0x00, 0x00, 0x00, 0x00, 0x00, 0x00, 0x00,
  0x00, 0x00, 0x00, 0x00, 0x00, 0x00, 0x08, 0x00, 0x00, 0x00,
  0x2A, 0xAA, 0x0C, 0x3B, 0x5B, 0xF0, 0x5F, 0x3B, 0x22, 0x01,
  0x2F, 0x3B, 0x38, 0xB0, 0x80, 0x3B, 0x0C, 0xC6, 0x6B, 0x3B,
  0x88, 0x42, 0x4B, 0x3B, 0x6B, 0xDB, 0x24, 0x3B, 0x60, 0x49,
  0x27, 0x3B, 0x1A, 0x00, 0x00, 0x00, 0x73, 0x65, 0x71, 0x75,
  0x65, 0x6E, 0x74, 0x69, 0x61, 0x6C, 0x2F, 0x63, 0x6F, 0x6E,
  0x76, 0x32, 0x64, 0x5F, 0x32, 0x2F, 0x43, 0x6F, 0x6E, 0x76,
  0x32, 0x44, 0x00, 0x00, 0x04, 0x00, 0x00, 0x00, 0x08, 0x00,
  0x00, 0x00, 0x03, 0x00, 0x00, 0x00, 0x03, 0x00, 0x00, 0x00,
  0x08, 0x00, 0x00, 0x00, 0xF6, 0xFB, 0xFF, 0xFF, 0x00, 0x00,
  0x00, 0x01, 0x14, 0x00, 0x00, 0x00, 0x84, 0x00, 0x00, 0x00,
  0x09, 0x00, 0x00, 0x00, 0x00, 0x00, 0x00, 0x02, 0xA8, 0x00,
  0x00, 0x00, 0x74, 0xFC, 0xFF, 0xFF, 0x08, 0x00, 0x00, 0x00,
  0x48, 0x00, 0x00, 0x00, 0x08, 0x00, 0x00, 0x00, 0x00, 0x00,
  0x00, 0x00, 0x00, 0x00, 0x00, 0x00, 0x00, 0x00, 0x00, 0x00,
  0x00, 0x00, 0x00, 0x00, 0x00, 0x00, 0x00, 0x00, 0x00, 0x00,
  0x00, 0x00, 0x00, 0x00, 0x00, 0x00, 0x00, 0x00, 0x00, 0x00,
  0x00, 0x00, 0x00, 0x00, 0x00, 0x00, 0x00, 0x00, 0x00, 0x00,
  0x00, 0x00, 0x00, 0x00, 0x00, 0x00, 0x00, 0x00, 0x00, 0x00,
  0x00, 0x00, 0x00, 0x00, 0x00, 0x00, 0x00, 0x00, 0x00, 0x00,
  0x00, 0x00, 0x08, 0x00, 0x00, 0x00, 0x95, 0x63, 0x33, 0x37,
  0x48, 0xCB, 0x8E, 0x37, 0xA9, 0x2E, 0x5F, 0x37, 0x99, 0x1D,
  0xA4, 0x37, 0x29, 0x57, 0x96, 0x37, 0xB0, 0x9B, 0x81, 0x37,
  0xCF, 0x3D, 0x52, 0x37, 0xFD, 0x56, 0x55, 0x37, 0x2A, 0x00,
  0x00, 0x00, 0x73, 0x65, 0x71, 0x75, 0x65, 0x6E, 0x74, 0x69,
  0x61, 0x6C, 0x2F, 0x63, 0x6F, 0x6E, 0x76, 0x32, 0x64, 0x5F,
  0x32, 0x2F, 0x42, 0x69, 0x61, 0x73, 0x41, 0x64, 0x64, 0x2F,
  0x52, 0x65, 0x61, 0x64, 0x56, 0x61, 0x72, 0x69, 0x61, 0x62,
  0x6C, 0x65, 0x4F, 0x70, 0x00, 0x00, 0x01, 0x00, 0x00, 0x00,
  0x08, 0x00, 0x00, 0x00, 0xBE, 0xFC, 0xFF, 0xFF, 0x00, 0x00,
  0x00, 0x01, 0x14, 0x00, 0x00, 0x00, 0x58, 0x00, 0x00, 0x00,
  0x08, 0x00, 0x00, 0x00, 0x00, 0x00, 0x00, 0x09, 0x6C, 0x00,
  0x00, 0x00, 0x3C, 0xFD, 0xFF, 0xFF, 0x08, 0x00, 0x00, 0x00,
  0x2C, 0x00, 0x00, 0x00, 0x04, 0x00, 0x00, 0x00, 0x00, 0x00,
  0x00, 0x00, 0x00, 0x00, 0x00, 0x00, 0x00, 0x00, 0x00, 0x00,
  0x00, 0x00, 0x00, 0x00, 0x00, 0x00, 0x00, 0x00, 0x00, 0x00,
  0x00, 0x00, 0x00, 0x00, 0x00, 0x00, 0x00, 0x00, 0x00, 0x00,
  0x00, 0x00, 0x00, 0x00, 0x04, 0x00, 0x00, 0x00, 0x5F, 0x9C,
  0x80, 0x3B, 0xA1, 0x6D, 0x06, 0x3B, 0xE4, 0x5C, 0x86, 0x3B,
  0x17, 0xFB, 0x84, 0x3B, 0x1A, 0x00, 0x00, 0x00, 0x73, 0x65,
  0x71, 0x75, 0x65, 0x6E, 0x74, 0x69, 0x61, 0x6C, 0x2F, 0x63,
  0x6F, 0x6E, 0x76, 0x32, 0x64, 0x5F, 0x33, 0x2F, 0x43, 0x6F,
  0x6E, 0x76, 0x32, 0x44, 0x00, 0x00, 0x04, 0x00, 0x00, 0x00,
  0x04, 0x00, 0x00, 0x00, 0x03, 0x00, 0x00, 0x00, 0x03, 0x00,
  0x00, 0x00, 0x08, 0x00, 0x00, 0x00, 0x56, 0xFD, 0xFF, 0xFF,
  0x00, 0x00, 0x00, 0x01, 0x14, 0x00, 0x00, 0x00, 0x54, 0x00,
  0x00, 0x00, 0x07, 0x00, 0x00, 0x00, 0x00, 0x00, 0x00, 0x02,
  0x78, 0x00, 0x00, 0x00, 0xD4, 0xFD, 0xFF, 0xFF, 0x08, 0x00,
  0x00, 0x00, 0x28, 0x00, 0x00, 0x00, 0x04, 0x00, 0x00, 0x00,
  0x00, 0x00, 0x00, 0x00, 0x00, 0x00, 0x00, 0x00, 0x00, 0x00,
  0x00, 0x00, 0x00, 0x00, 0x00, 0x00, 0x00, 0x00, 0x00, 0x00,
  0x00, 0x00, 0x00, 0x00, 0x00, 0x00, 0x00, 0x00, 0x00, 0x00,
  0x00, 0x00, 0x04, 0x00, 0x00, 0x00, 0x7C, 0x2C, 0x8C, 0x38,
  0xA3, 0x83, 0x12, 0x38, 0x65, 0x71, 0x92, 0x38, 0xC9, 0xEF,
  0x90, 0x38, 0x2A, 0x00, 0x00, 0x00, 0x73, 0x65, 0x71, 0x75,
  0x65, 0x6E, 0x74, 0x69, 0x61, 0x6C, 0x2F, 0x63, 0x6F, 0x6E,
  0x76, 0x32, 0x64, 0x5F, 0x33, 0x2F, 0x42, 0x69, 0x61, 0x73,
  0x41, 0x64, 0x64, 0x2F, 0x52, 0x65, 0x61, 0x64, 0x56, 0x61,
  0x72, 0x69, 0x61, 0x62, 0x6C, 0x65, 0x4F, 0x70, 0x00, 0x00,
  0x01, 0x00, 0x00, 0x00, 0x04, 0x00, 0x00, 0x00, 0xEE, 0xFD,
  0xFF, 0xFF, 0x00, 0x00, 0x00, 0x01, 0x14, 0x00, 0x00, 0x00,
  0x58, 0x00, 0x00, 0x00, 0x06, 0x00, 0x00, 0x00, 0x00, 0x00,
  0x00, 0x09, 0x6C, 0x00, 0x00, 0x00, 0x6C, 0xFE, 0xFF, 0xFF,
  0x08, 0x00, 0x00, 0x00, 0x2C, 0x00, 0x00, 0x00, 0x04, 0x00,
  0x00, 0x00, 0x00, 0x00, 0x00, 0x00, 0x00, 0x00, 0x00, 0x00,
  0x00, 0x00, 0x00, 0x00, 0x00, 0x00, 0x00, 0x00, 0x00, 0x00,
  0x00, 0x00, 0x00, 0x00, 0x00, 0x00, 0x00, 0x00, 0x00, 0x00,
  0x00, 0x00, 0x00, 0x00, 0x00, 0x00, 0x00, 0x00, 0x04, 0x00,
  0x00, 0x00, 0x7B, 0x20, 0x8E, 0x3B, 0xB9, 0x9C, 0x7A, 0x3B,
  0x74, 0x3D, 0x41, 0x3B, 0x5F, 0x5E, 0x7F, 0x3B, 0x1A, 0x00,
  0x00, 0x00, 0x73, 0x65, 0x71, 0x75, 0x65, 0x6E, 0x74, 0x69,
  0x61, 0x6C, 0x2F, 0x63, 0x6F, 0x6E, 0x76, 0x32, 0x64, 0x5F,
  0x34, 0x2F, 0x43, 0x6F, 0x6E, 0x76, 0x32, 0x44, 0x00, 0x00,
  0x04, 0x00, 0x00, 0x00, 0x04, 0x00, 0x00, 0x00, 0x03, 0x00,
  0x00, 0x00, 0x03, 0x00, 0x00, 0x00, 0x04, 0x00, 0x00, 0x00,
  0x86, 0xFE, 0xFF, 0xFF, 0x00, 0x00, 0x00, 0x01, 0x14, 0x00,
  0x00, 0x00, 0x54, 0x00, 0x00, 0x00, 0x05, 0x00, 0x00, 0x00,
  0x00, 0x00, 0x00, 0x02, 0x78, 0x00, 0x00, 0x00, 0x04, 0xFF,
  0xFF, 0xFF, 0x08, 0x00, 0x00, 0x00, 0x28, 0x00, 0x00, 0x00,
  0x04, 0x00, 0x00, 0x00, 0x00, 0x00, 0x00, 0x00, 0x00, 0x00,
  0x00, 0x00, 0x00, 0x00, 0x00, 0x00, 0x00, 0x00, 0x00, 0x00,
  0x00, 0x00, 0x00, 0x00, 0x00, 0x00, 0x00, 0x00, 0x00, 0x00,
  0x00, 0x00, 0x00, 0x00, 0x00, 0x00, 0x04, 0x00, 0x00, 0x00,
  0xC3, 0x59, 0x03, 0x39, 0x47, 0x9C, 0xE7, 0x38, 0x9E, 0x96,
  0xB2, 0x38, 0x9A, 0x01, 0xEC, 0x38, 0x2A, 0x00, 0x00, 0x00,
  0x73, 0x65, 0x71, 0x75, 0x65, 0x6E, 0x74, 0x69, 0x61, 0x6C,
  0x2F, 0x63, 0x6F, 0x6E, 0x76, 0x32, 0x64, 0x5F, 0x34, 0x2F,
  0x42, 0x69, 0x61, 0x73, 0x41, 0x64, 0x64, 0x2F, 0x52, 0x65,
  0x61, 0x64, 0x56, 0x61, 0x72, 0x69, 0x61, 0x62, 0x6C, 0x65,
  0x4F, 0x70, 0x00, 0x00, 0x01, 0x00, 0x00, 0x00, 0x04, 0x00,
  0x00, 0x00, 0x1E, 0xFF, 0xFF, 0xFF, 0x00, 0x00, 0x00, 0x01,
  0x14, 0x00, 0x00, 0x00, 0x30, 0x00, 0x00, 0x00, 0x04, 0x00,
  0x00, 0x00, 0x00, 0x00, 0x00, 0x09, 0x40, 0x00, 0x00, 0x00,
  0x9C, 0xFF, 0xFF, 0xFF, 0x08, 0x00, 0x00, 0x00, 0x10, 0x00,
  0x00, 0x00, 0x01, 0x00, 0x00, 0x00, 0x00, 0x00, 0x00, 0x00,
  0x00, 0x00, 0x00, 0x00, 0x01, 0x00, 0x00, 0x00, 0x7D, 0xAF,
  0xF9, 0x3B, 0x17, 0x00, 0x00, 0x00, 0x73, 0x65, 0x71, 0x75,
  0x65, 0x6E, 0x74, 0x69, 0x61, 0x6C, 0x2F, 0x64, 0x65, 0x6E,
  0x73, 0x65, 0x2F, 0x4D, 0x61, 0x74, 0x4D, 0x75, 0x6C, 0x00,
  0x02, 0x00, 0x00, 0x00, 0x01, 0x00, 0x00, 0x00, 0x10, 0x00,
  0x00, 0x00, 0x82, 0xFF, 0xFF, 0xFF, 0x00, 0x00, 0x00, 0x01,
  0x20, 0x00, 0x00, 0x00, 0x3C, 0x00, 0x00, 0x00, 0x03, 0x00,
  0x00, 0x00, 0x00, 0x00, 0x00, 0x02, 0x5C, 0x00, 0x00, 0x00,
  0x0C, 0x00, 0x0C, 0x00, 0x00, 0x00, 0x00, 0x00, 0x08, 0x00,
  0x04, 0x00, 0x0C, 0x00, 0x00, 0x00, 0x08, 0x00, 0x00, 0x00,
  0x10, 0x00, 0x00, 0x00, 0x01, 0x00, 0x00, 0x00, 0x00, 0x00,
  0x00, 0x00, 0x00, 0x00, 0x00, 0x00, 0x01, 0x00, 0x00, 0x00,
  0xA3, 0xE4, 0xAE, 0x39, 0x27, 0x00, 0x00, 0x00, 0x73, 0x65,
  0x71, 0x75, 0x65, 0x6E, 0x74, 0x69, 0x61, 0x6C, 0x2F, 0x64,
  0x65, 0x6E, 0x73, 0x65, 0x2F, 0x42, 0x69, 0x61, 0x73, 0x41,
  0x64, 0x64, 0x2F, 0x52, 0x65, 0x61, 0x64, 0x56, 0x61, 0x72,
  0x69, 0x61, 0x62, 0x6C, 0x65, 0x4F, 0x70, 0x00, 0x01, 0x00,
  0x00, 0x00, 0x01, 0x00, 0x00, 0x00, 0x00, 0x00, 0x16, 0x00,
  0x1C, 0x00, 0x18, 0x00, 0x17, 0x00, 0x10, 0x00, 0x0C, 0x00,
  0x08, 0x00, 0x00, 0x00, 0x00, 0x00, 0x00, 0x00, 0x07, 0x00,
  0x16, 0x00, 0x00, 0x00, 0x00, 0x00, 0x00, 0x01, 0x14, 0x00,
  0x00, 0x00, 0x14, 0x00, 0x00, 0x00, 0x02, 0x00, 0x00, 0x00,
  0x00, 0x00, 0x00, 0x02, 0x28, 0x00, 0x00, 0x00, 0x8C, 0xFF,
  0xFF, 0xFF, 0x18, 0x00, 0x00, 0x00, 0x73, 0x65, 0x71, 0x75,
  0x65, 0x6E, 0x74, 0x69, 0x61, 0x6C, 0x2F, 0x66, 0x6C, 0x61,
  0x74, 0x74, 0x65, 0x6E, 0x2F, 0x43, 0x6F, 0x6E, 0x73, 0x74,
  0x00, 0x00, 0x00, 0x00, 0x01, 0x00, 0x00, 0x00, 0x02, 0x00,
  0x00, 0x00, 0x00, 0x00, 0x16, 0x00, 0x1C, 0x00, 0x18, 0x00,
  0x00, 0x00, 0x14, 0x00, 0x10, 0x00, 0x0C, 0x00, 0x00, 0x00,
  0x00, 0x00, 0x08, 0x00, 0x07, 0x00, 0x16, 0x00, 0x00, 0x00,
  0x00, 0x00, 0x00, 0x01, 0x14, 0x00, 0x00, 0x00, 0x28, 0x00,
  0x00, 0x00, 0x28, 0x00, 0x00, 0x00, 0x01, 0x00, 0x00, 0x00,
  0x40, 0x00, 0x00, 0x00, 0x04, 0x00, 0x00, 0x00, 0xFF, 0xFF,
  0xFF, 0xFF, 0x80, 0x00, 0x00, 0x00, 0x80, 0x00, 0x00, 0x00,
  0x01, 0x00, 0x00, 0x00, 0x04, 0x00, 0x04, 0x00, 0x04, 0x00,
  0x00, 0x00, 0x19, 0x00, 0x00, 0x00, 0x73, 0x65, 0x72, 0x76,
  0x69, 0x6E, 0x67, 0x5F, 0x64, 0x65, 0x66, 0x61, 0x75, 0x6C,
  0x74, 0x5F, 0x69, 0x6E, 0x70, 0x75, 0x74, 0x5F, 0x31, 0x3A,
  0x30, 0x00, 0x00, 0x00, 0x04, 0x00, 0x00, 0x00, 0x01, 0x00,
  0x00, 0x00, 0x80, 0x00, 0x00, 0x00, 0x80, 0x00, 0x00, 0x00,
  0x01, 0x00, 0x00, 0x00, 0x07, 0x00, 0x00, 0x00, 0x90, 0x00,
  0x00, 0x00, 0x70, 0x00, 0x00, 0x00, 0x50, 0x00, 0x00, 0x00,
  0x40, 0x00, 0x00, 0x00, 0x2C, 0x00, 0x00, 0x00, 0x18, 0x00,
  0x00, 0x00, 0x04, 0x00, 0x00, 0x00, 0xB4, 0xFF, 0xFF, 0xFF,
  0x06, 0x00, 0x00, 0x00, 0x02, 0x00, 0x00, 0x00, 0x00, 0x00,
  0x00, 0x06, 0xC4, 0xFF, 0xFF, 0xFF, 0x0E, 0x00, 0x00, 0x00,
  0x02, 0x00, 0x00, 0x00, 0x00, 0x00, 0x00, 0x0E, 0xD4, 0xFF,
  0xFF, 0xFF, 0x09, 0x00, 0x00, 0x00, 0x04, 0x00, 0x00, 0x00,
  0x00, 0x00, 0x00, 0x09, 0xC8, 0xFF, 0xFF, 0xFF, 0x16, 0x00,
  0x00, 0x00, 0x00, 0x00, 0x00, 0x16, 0xF0, 0xFF, 0xFF, 0xFF,
  0x11, 0x00, 0x00, 0x00, 0x02, 0x00, 0x00, 0x00, 0x00, 0x00,
  0x00, 0x11, 0x0C, 0x00, 0x10, 0x00, 0x0F, 0x00, 0x00, 0x00,
  0x08, 0x00, 0x04, 0x00, 0x0C, 0x00, 0x00, 0x00, 0x03, 0x00,
  0x00, 0x00, 0x03, 0x00, 0x00, 0x00, 0x00, 0x00, 0x00, 0x03,
  0x0C, 0x00, 0x0C, 0x00, 0x0B, 0x00, 0x00, 0x00, 0x00, 0x00,
  0x04, 0x00, 0x0C, 0x00, 0x00, 0x00, 0x72, 0x00, 0x00, 0x00,
  0x00, 0x00, 0x00, 0x72
};
unsigned int model_tflite_len = 8944;