const unsigned char model_tflite[] = {
  0x1C, 0x00, 0x00, 0x00, 0x54, 0x46, 0x4C, 0x33, 0x14, 0x00,
  0x20, 0x00, 0x1C, 0x00, 0x18, 0x00, 0x14, 0x00, 0x10, 0x00,
  0x0C, 0x00, 0x00, 0x00, 0x08, 0x00, 0x04, 0x00, 0x14, 0x00,
  0x00, 0x00, 0x1C, 0x00, 0x00, 0x00, 0x84, 0x00, 0x00, 0x00,
  0xDC, 0x00, 0x00, 0x00, 0x18, 0x1B, 0x00, 0x00, 0x28, 0x1B,
  0x00, 0x00, 0x2C, 0x37, 0x00, 0x00, 0x03, 0x00, 0x00, 0x00,
  0x01, 0x00, 0x00, 0x00, 0x04, 0x00, 0x00, 0x00, 0x72, 0xE4,
  0xFF, 0xFF, 0x0C, 0x00, 0x00, 0x00, 0x1C, 0x00, 0x00, 0x00,
  0x3C, 0x00, 0x00, 0x00, 0x0F, 0x00, 0x00, 0x00, 0x73, 0x65,
  0x72, 0x76, 0x69, 0x6E, 0x67, 0x5F, 0x64, 0x65, 0x66, 0x61,
  0x75, 0x6C, 0x74, 0x00, 0x01, 0x00, 0x00, 0x00, 0x04, 0x00,
  0x00, 0x00, 0x98, 0xFF, 0xFF, 0xFF, 0x1D, 0x00, 0x00, 0x00,
  0x04, 0x00, 0x00, 0x00, 0x09, 0x00, 0x00, 0x00, 0x63, 0x6F,
  0x6E, 0x76, 0x32, 0x64, 0x5F, 0x33, 0x35, 0x00, 0x00, 0x00,
  0x01, 0x00, 0x00, 0x00, 0x04, 0x00, 0x00, 0x00, 0x3E, 0xE4,
  0xFF, 0xFF, 0x04, 0x00, 0x00, 0x00, 0x07, 0x00, 0x00, 0x00,
  0x69, 0x6E, 0x70, 0x75, 0x74, 0x5F, 0x36, 0x00, 0x02, 0x00,
  0x00, 0x00, 0x34, 0x00, 0x00, 0x00, 0x04, 0x00, 0x00, 0x00,
  0xDC, 0xFF, 0xFF, 0xFF, 0x20, 0x00, 0x00, 0x00, 0x04, 0x00,
  0x00, 0x00, 0x13, 0x00, 0x00, 0x00, 0x43, 0x4F, 0x4E, 0x56,
  0x45, 0x52, 0x53, 0x49, 0x4F, 0x4E, 0x5F, 0x4D, 0x45, 0x54,
  0x41, 0x44, 0x41, 0x54, 0x41, 0x00, 0x08, 0x00, 0x0C, 0x00,
  0x08, 0x00, 0x04, 0x00, 0x08, 0x00, 0x00, 0x00, 0x1F, 0x00,
  0x00, 0x00, 0x04, 0x00, 0x00, 0x00, 0x13, 0x00, 0x00, 0x00,
  0x6D, 0x69, 0x6E, 0x5F, 0x72, 0x75, 0x6E, 0x74, 0x69, 0x6D,
  0x65, 0x5F, 0x76, 0x65, 0x72, 0x73, 0x69, 0x6F, 0x6E, 0x00,
  0x21, 0x00, 0x00, 0x00, 0x38, 0x1A, 0x00, 0x00, 0x30, 0x1A,
  0x00, 0x00, 0x18, 0x1A, 0x00, 0x00, 0x04, 0x1A, 0x00, 0x00,
  0xDC, 0x19, 0x00, 0x00, 0xAC, 0x19, 0x00, 0x00, 0x9C, 0x17,
  0x00, 0x00, 0x4C, 0x17, 0x00, 0x00, 0x3C, 0x0F, 0x00, 0x00,
  0x0C, 0x0F, 0x00, 0x00, 0xFC, 0x0C, 0x00, 0x00, 0xAC, 0x0C,
  0x00, 0x00, 0x9C, 0x04, 0x00, 0x00, 0x6C, 0x04, 0x00, 0x00,
  0x5C, 0x02, 0x00, 0x00, 0x0C, 0x02, 0x00, 0x00, 0xFC, 0x00,
  0x00, 0x00, 0xF4, 0x00, 0x00, 0x00, 0xEC, 0x00, 0x00, 0x00,
  0xE4, 0x00, 0x00, 0x00, 0xDC, 0x00, 0x00, 0x00, 0xD4, 0x00,
  0x00, 0x00, 0xCC, 0x00, 0x00, 0x00, 0xC4, 0x00, 0x00, 0x00,
  0xBC, 0x00, 0x00, 0x00, 0xB4, 0x00, 0x00, 0x00, 0xAC, 0x00,
  0x00, 0x00, 0xA4, 0x00, 0x00, 0x00, 0x9C, 0x00, 0x00, 0x00,
  0x94, 0x00, 0x00, 0x00, 0x8C, 0x00, 0x00, 0x00, 0x6C, 0x00,
  0x00, 0x00, 0x04, 0x00, 0x00, 0x00, 0x36, 0xE5, 0xFF, 0xFF,
  0x04, 0x00, 0x00, 0x00, 0x58, 0x00, 0x00, 0x00, 0x0C, 0x00,
  0x00, 0x00, 0x08, 0x00, 0x0E, 0x00, 0x08, 0x00, 0x04, 0x00,
  0x08, 0x00, 0x00, 0x00, 0x10, 0x00, 0x00, 0x00, 0x28, 0x00,
  0x00, 0x00, 0x00, 0x00, 0x06, 0x00, 0x08, 0x00, 0x04, 0x00,
  0x06, 0x00, 0x00, 0x00, 0x04, 0x00, 0x00, 0x00, 0x01, 0x00,
  0x00, 0x00, 0xEB, 0x03, 0x00, 0x00, 0x00, 0x00, 0x0A, 0x00,
  0x10, 0x00, 0x0C, 0x00, 0x08, 0x00, 0x04, 0x00, 0x0A, 0x00,
  0x00, 0x00, 0x02, 0x00, 0x00, 0x00, 0x02, 0x00, 0x00, 0x00,
  0x04, 0x00, 0x00, 0x00, 0x06, 0x00, 0x00, 0x00, 0x32, 0x2E,
  0x31, 0x31, 0x2E, 0x30, 0x00, 0x00, 0x9A, 0xE5, 0xFF, 0xFF,
  0x04, 0x00, 0x00, 0x00, 0x10, 0x00, 0x00, 0x00, 0x32, 0x2E,
  0x32, 0x2E, 0x30, 0x00, 0x00, 0x00, 0x00, 0x00, 0x00, 0x00,
  0x00, 0x00, 0x00, 0x00, 0xE8, 0xCA, 0xFF, 0xFF, 0xEC, 0xCA,
  0xFF, 0xFF, 0xF0, 0xCA, 0xFF, 0xFF, 0xF4, 0xCA, 0xFF, 0xFF,
  0xF8, 0xCA, 0xFF, 0xFF, 0xFC, 0xCA, 0xFF, 0xFF, 0x00, 0xCB,
  0xFF, 0xFF, 0x04, 0xCB, 0xFF, 0xFF, 0x08, 0xCB, 0xFF, 0xFF,
  0x0C, 0xCB, 0xFF, 0xFF, 0x10, 0xCB, 0xFF, 0xFF, 0x14, 0xCB,
  0xFF, 0xFF, 0x18, 0xCB, 0xFF, 0xFF, 0x1C, 0xCB, 0xFF, 0xFF,
  0xEE, 0xE5, 0xFF, 0xFF, 0x04, 0x00, 0x00, 0x00, 0x00, 0x01,
  0x00, 0x00, 0x25, 0x81, 0xC0, 0x2F, 0x2A, 0xDB, 0x23, 0x42,
  0x18, 0x06, 0x11, 0xD9, 0xF2, 0x10, 0xEB, 0xFA, 0x81, 0xB4,
  0x28, 0x4A, 0xD6, 0xEF, 0x05, 0xED, 0x0A, 0x60, 0x32, 0xDB,
  0xEE, 0x2A, 0xEF, 0xD9, 0xFB, 0x25, 0xC6, 0x20, 0x06, 0x81,
  0x84, 0x3C, 0x25, 0x69, 0xE9, 0x48, 0x06, 0xC9, 0x20, 0xDF,
  0x5E, 0x47, 0xF4, 0xDB, 0x7F, 0xF2, 0xF0, 0x0F, 0x39, 0x48,
  0xF1, 0xD4, 0x31, 0xF2, 0xF1, 0x0B, 0xEF, 0x05, 0x21, 0xE2,
  0x2E, 0x7F, 0x40, 0xF5, 0x0E, 0x3F, 0x0B, 0x17, 0xE7, 0xFB,
  0xE3, 0x00, 0x7F, 0x41, 0x17, 0xBF, 0xDA, 0x9D, 0x2A, 0xCE,
  0xA9, 0xDB, 0xE1, 0x32, 0xEC, 0xF4, 0x47, 0x2D, 0x3A, 0xD1,
  0xEC, 0xDD, 0x42, 0x19, 0x2F, 0x65, 0xF7, 0x81, 0x82, 0x49,
  0xF8, 0x22, 0xF5, 0xE8, 0xE3, 0xBB, 0xF5, 0x44, 0xB7, 0xCA,
  0xFF, 0x01, 0xA8, 0x81, 0xF6, 0x5C, 0xD3, 0xFC, 0x30, 0x2F,
  0xFE, 0xEB, 0x65, 0x04, 0x2F, 0x81, 0xD7, 0x09, 0x19, 0xCF,
  0x1F, 0xF4, 0x05, 0x24, 0x01, 0xF6, 0x0D, 0x7F, 0xC2, 0x08,
  0xCB, 0x7C, 0x83, 0xEA, 0xDD, 0xA7, 0x41, 0xF3, 0xFB, 0x27,
  0x0A, 0x0C, 0x05, 0xF8, 0x05, 0x2C, 0x39, 0xF3, 0x81, 0xCE,
  0x14, 0xF3, 0x3B, 0x2F, 0xE8, 0xEE, 0xED, 0x1A, 0x55, 0x20,
  0x35, 0xD6, 0x05, 0x07, 0x81, 0xC3, 0x1F, 0xF9, 0x42, 0x0E,
  0x0A, 0xF0, 0xF3, 0x2D, 0x2B, 0xE6, 0xF8, 0xFA, 0xFA, 0x81,
  0xE3, 0xF7, 0x0B, 0xA1, 0x9A, 0xDF, 0xFD, 0xC3, 0xB8, 0x0B,
  0xDF, 0x3C, 0x13, 0xFF, 0x1A, 0x7F, 0x24, 0x0C, 0x04, 0x1B,
  0x05, 0xCC, 0xC7, 0x0B, 0xF3, 0x2E, 0x23, 0x6F, 0xC5, 0x09,
  0x42, 0x54, 0xA3, 0x9D, 0xBF, 0x76, 0xBB, 0xC9, 0x1B, 0x1A,
  0x0D, 0x81, 0xE8, 0xE9, 0x51, 0xD7, 0x01, 0xB4, 0x7F, 0xC4,
  0x1A, 0x3E, 0xC1, 0xEC, 0xF5, 0x0D, 0xC1, 0x2B, 0xFA, 0xE6,
  0xFF, 0xFF, 0x04, 0x00, 0x00, 0x00, 0x40, 0x00, 0x00, 0x00,
  0xF6, 0x01, 0x00, 0x00, 0x06, 0x0B, 0x00, 0x00, 0x34, 0x05,
  0x00, 0x00, 0xCA, 0xF3, 0xFF, 0xFF, 0xD0, 0x73, 0xFF, 0xFF,
  0x84, 0xF9, 0xFF, 0xFF, 0x47, 0xFD, 0xFF, 0xFF, 0xEF, 0x1E,
  0x00, 0x00, 0xB3, 0xFD, 0xFF, 0xFF, 0x44, 0xFF, 0xFF, 0xFF,
  0xAC, 0x00, 0x00, 0x00, 0xD1, 0xBD, 0xFF, 0xFF, 0x61, 0x2E,
  0x00, 0x00, 0x63, 0xED, 0xFF, 0xFF, 0xD7, 0xF8, 0xFF, 0xFF,
  0x1A, 0x07, 0x00, 0x00, 0x46, 0xE7, 0xFF, 0xFF, 0x04, 0x00,
  0x00, 0x00, 0x00, 0x02, 0x00, 0x00, 0xE0, 0x07, 0xD2, 0x05,
  0xF9, 0x0E, 0xFF, 0x17, 0xF6, 0x28, 0xF0, 0xFA, 0x81, 0x12,
  0x30, 0xE3, 0xED, 0xCA, 0xD0, 0x17, 0x0B, 0x0A, 0x08, 0xD7,
  0xEE, 0xEF, 0x02, 0x14, 0x8B, 0x03, 0x25, 0xE4, 0xDF, 0x03,
  0xA8, 0x04, 0x05, 0xFB, 0xFB, 0x19, 0xE5, 0xFF, 0xF4, 0xF6,
  0xBB, 0x0F, 0x28, 0xE7, 0x0B, 0xE7, 0x00, 0x05, 0xFB, 0x16,
  0x0B, 0xF8, 0xFB, 0xF6, 0x0D, 0x08, 0xBF, 0xF0, 0x1E, 0xDB,
  0xE9, 0xC5, 0xFE, 0xC6, 0x15, 0x0C, 0x39, 0x64, 0x7F, 0xD4,
  0x3A, 0xFF, 0x09, 0xF0, 0x28, 0x01, 0xF4, 0x37, 0xEE, 0x32,
  0x46, 0xD4, 0xFD, 0x55, 0x3B, 0x2F, 0xE5, 0xF6, 0x1D, 0xEF,
  0x14, 0x18, 0x03, 0xD4, 0x65, 0x00, 0x49, 0x0E, 0x2A, 0x19,
  0x42, 0x38, 0x1F, 0x35, 0x25, 0x32, 0x0D, 0x28, 0x48, 0x7A,
  0x16, 0xD4, 0xF1, 0x2A, 0x3F, 0x69, 0x28, 0x46, 0xEC, 0xEC,
  0x0F, 0x34, 0x54, 0x23, 0x1A, 0x38, 0x19, 0xED, 0x59, 0x9F,
  0x5F, 0xE3, 0x50, 0x72, 0x7E, 0xF6, 0x04, 0x16, 0xE9, 0x63,
  0x1D, 0x1E, 0x34, 0x0A, 0xD9, 0xC6, 0x2C, 0xC6, 0x78, 0x5D,
  0x2E, 0xD1, 0xF4, 0xD5, 0x8F, 0x12, 0x40, 0xAE, 0x05, 0x15,
  0x38, 0x2A, 0xE4, 0x09, 0x7F, 0x0D, 0x4B, 0x30, 0x01, 0xD7,
  0xDF, 0x4C, 0x30, 0xD0, 0x08, 0xEC, 0xCD, 0xA7, 0x03, 0x13,
  0x42, 0x4E, 0x62, 0x03, 0xFA, 0xCA, 0x0C, 0xCC, 0x32, 0x2D,
  0x01, 0x05, 0x18, 0x1C, 0x31, 0x81, 0xF8, 0x1F, 0x12, 0x29,
  0x18, 0xFA, 0x35, 0xBD, 0xFE, 0x1F, 0x2C, 0xFF, 0x3B, 0x1A,
  0x10, 0xCE, 0x08, 0x08, 0x07, 0xFA, 0x36, 0x17, 0x08, 0xE9,
  0x0A, 0x15, 0xD0, 0xE5, 0x13, 0x25, 0x0E, 0x03, 0xBA, 0x13,
  0x20, 0xC0, 0xFF, 0x07, 0x35, 0x0D, 0x1A, 0x8F, 0x08, 0xC6,
  0xEE, 0xFF, 0x2D, 0xE2, 0x14, 0xF0, 0xEE, 0xA4, 0x14, 0xED,
  0xC8, 0xE8, 0xED, 0xE1, 0x06, 0xEF, 0x34, 0x29, 0x44, 0xE6,
  0x1F, 0x4E, 0x1D, 0x3B, 0x1B, 0x0A, 0xCD, 0x2E, 0x22, 0x15,
  0x07, 0xE5, 0xBA, 0x45, 0x03, 0x4B, 0x0D, 0x19, 0x7F, 0x43,
  0x1C, 0xDC, 0xB5, 0xCA, 0x3F, 0x0F, 0x4A, 0x26, 0x27, 0x22,
  0x21, 0xF4, 0x3D, 0xE6, 0x22, 0x1B, 0x1C, 0xF4, 0xFF, 0xEA,
  0xF8, 0x41, 0x30, 0x15, 0x02, 0xFC, 0xE4, 0x54, 0x4A, 0xC2,
  0xEC, 0xC4, 0xFF, 0xE8, 0x02, 0xD3, 0x1A, 0x09, 0x07, 0xCF,
  0xDD, 0x09, 0x12, 0x41, 0x09, 0x81, 0xFC, 0x49, 0x01, 0xAC,
  0xF1, 0xF6, 0xEE, 0x10, 0xE1, 0xE5, 0xA6, 0xE6, 0xDA, 0x34,
  0xDB, 0x07, 0xC3, 0x49, 0xF7, 0xEA, 0x60, 0x14, 0x2D, 0x07,
  0xF3, 0xCB, 0xFC, 0x14, 0xFD, 0x17, 0xFB, 0xBD, 0xF5, 0x39,
  0xE1, 0xDB, 0xE5, 0x11, 0xED, 0x06, 0xF7, 0xED, 0xAF, 0xDF,
  0x10, 0x07, 0xFD, 0x29, 0xDE, 0xF6, 0x2B, 0xDD, 0x02, 0x2F,
  0xFA, 0x09, 0xC4, 0x12, 0x0E, 0x05, 0xD4, 0x03, 0xA8, 0xCC,
  0x9A, 0x16, 0x94, 0x06, 0x26, 0xAE, 0xF3, 0xF5, 0xCE, 0xFA,
  0xFF, 0xDB, 0xDF, 0x3C, 0x9A, 0xC8, 0xAB, 0xF4, 0xA2, 0x0D,
  0xF6, 0x04, 0xE5, 0xFA, 0xFA, 0xF7, 0xF3, 0xCA, 0xE6, 0xEC,
  0xD7, 0x0C, 0xBD, 0xF6, 0xFC, 0x0D, 0x09, 0xD1, 0xC2, 0xE6,
  0x09, 0x0A, 0xFF, 0xDD, 0x09, 0x20, 0x8A, 0xC0, 0xD2, 0x0C,
  0x81, 0x0A, 0xF0, 0x18, 0x43, 0xFA, 0x35, 0x2C, 0x1B, 0x2E,
  0x59, 0xA6, 0x7B, 0xEB, 0x63, 0xDA, 0xCE, 0xE2, 0xF6, 0x1C,
  0x04, 0xD1, 0x20, 0x0E, 0x34, 0xFE, 0x18, 0xD4, 0x45, 0x07,
  0x00, 0x09, 0xC9, 0x11, 0x3B, 0xF7, 0x2C, 0x11, 0xF8, 0xEC,
  0xD2, 0x1A, 0x06, 0xFC, 0x43, 0x26, 0x28, 0xFA, 0x84, 0x0B,
  0x0A, 0xD3, 0x28, 0x02, 0xE9, 0xD5, 0x1A, 0xED, 0x2E, 0xE7,
  0x7F, 0xFA, 0x50, 0xDE, 0xC9, 0xD2, 0x1B, 0x0A, 0x52, 0xE9,
  0xFF, 0xFF, 0x04, 0x00, 0x00, 0x00, 0x20, 0x00, 0x00, 0x00,
  0xD3, 0xFE, 0xFF, 0xFF, 0xF5, 0xFF, 0xFF, 0xFF, 0x90, 0xFF,
  0xFF, 0xFF, 0x3E, 0xFD, 0xFF, 0xFF, 0xC0, 0xFE, 0xFF, 0xFF,
  0x24, 0x04, 0x00, 0x00, 0x8E, 0x00, 0x00, 0x00, 0x11, 0x00,
  0x00, 0x00, 0x7E, 0xE9, 0xFF, 0xFF, 0x04, 0x00, 0x00, 0x00,
  0x00, 0x08, 0x00, 0x00, 0x00, 0x34, 0x13, 0x17, 0xC4, 0x33,
  0x03, 0x97, 0xEC, 0x29, 0x55, 0x10, 0x97, 0xB4, 0xCA, 0xA2,
  0x07, 0x4B, 0x02, 0xB2, 0xB4, 0x31, 0x1A, 0xCF, 0x01, 0xD4,
  0x81, 0x06, 0xB0, 0x05, 0xB8, 0x50, 0x99, 0xF2, 0x63, 0xEB,
  0xBA, 0xD4, 0xA5, 0xCE, 0xA9, 0xF1, 0xC7, 0xBB, 0x1D, 0x2A,
  0xF9, 0xE6, 0xF3, 0x1E, 0xD6, 0x28, 0x5B, 0x17, 0xAC, 0xB8,
  0x33, 0xB5, 0x47, 0x9D, 0xD2, 0x53, 0x3A, 0x0D, 0x37, 0x96,
  0xC5, 0xA5, 0xC1, 0x46, 0xD1, 0xB0, 0xAA, 0xC0, 0x5F, 0x3C,
  0x91, 0xCC, 0xF6, 0x4B, 0x58, 0x8A, 0xB7, 0xDA, 0xAA, 0x9A,
  0x4B, 0x9E, 0x88, 0x28, 0xC5, 0xF0, 0xAB, 0x2D, 0xCB, 0x4B,
  0x47, 0xBB, 0xCD, 0xE1, 0x3D, 0x45, 0xDA, 0x91, 0xA4, 0x08,
  0x09, 0x00, 0x99, 0x12, 0x07, 0x8A, 0xAF, 0x56, 0x52, 0x1E,
  0xA1, 0xC9, 0xE4, 0x36, 0x08, 0x26, 0xDB, 0x45, 0xCC, 0x45,
  0xCE, 0xE9, 0x1A, 0xED, 0xD6, 0xE9, 0xD5, 0x0B, 0x44, 0xD1,
  0x21, 0xEE, 0x08, 0xD9, 0xDF, 0x34, 0x22, 0xE7, 0x13, 0x06,
  0x0C, 0x26, 0x1B, 0x1C, 0x09, 0x1F, 0x02, 0xED, 0xF0, 0xFD,
  0x13, 0xCA, 0x01, 0xF4, 0x2A, 0x00, 0x11, 0x7F, 0x06, 0x44,
  0x2C, 0x0B, 0x11, 0xF2, 0x03, 0x3D, 0x03, 0x6E, 0xFB, 0xF2,
  0xEE, 0xF2, 0x04, 0x5A, 0x0D, 0x2C, 0xFE, 0x07, 0x0A, 0xF8,
  0xE6, 0x15, 0xEF, 0xE9, 0xFA, 0xF6, 0x0B, 0xFC, 0x18, 0x3E,
  0x15, 0x20, 0x08, 0x1A, 0x15, 0xFC, 0xF8, 0x25, 0xFB, 0x62,
  0xF9, 0x08, 0x08, 0xEC, 0x03, 0x18, 0xF7, 0x0D, 0xEB, 0xFB,
  0xF3, 0x09, 0xE1, 0xFC, 0xCC, 0xED, 0x07, 0x04, 0x08, 0x13,
  0x12, 0x1E, 0xF4, 0xE2, 0xE1, 0x18, 0x19, 0x04, 0x0B, 0x0A,
  0xDA, 0x2A, 0x03, 0x10, 0x17, 0x03, 0x0A, 0xF5, 0xC8, 0xFC,
  0xF6, 0x06, 0x00, 0x11, 0xFF, 0xE8, 0xC8, 0xD3, 0xFF, 0x19,
  0x0D, 0xFF, 0x3E, 0x84, 0x37, 0x13, 0x44, 0x04, 0xFC, 0xFE,
  0x25, 0xFF, 0x59, 0xCC, 0xFB, 0x36, 0xD3, 0xDD, 0xFA, 0x56,
  0xF8, 0xDE, 0x10, 0x03, 0xEF, 0xF5, 0xE8, 0x07, 0x2A, 0x95,
  0xFA, 0xFF, 0xE7, 0xC5, 0x21, 0x52, 0x19, 0x03, 0x22, 0x04,
  0xE3, 0x13, 0x15, 0x29, 0x39, 0x29, 0x0E, 0x27, 0x11, 0x2B,
  0xDE, 0x7F, 0x3B, 0x36, 0xF2, 0x24, 0x00, 0xEB, 0xE5, 0x40,
  0x0D, 0x4C, 0x30, 0xC4, 0xE8, 0xE6, 0xF2, 0x1E, 0xEE, 0x41,
  0xF7, 0xE2, 0x0F, 0xD4, 0x1C, 0x1C, 0xE9, 0x1F, 0xE5, 0x01,
  0xC3, 0x09, 0xDB, 0x68, 0x15, 0x57, 0xEE, 0xFE, 0xFF, 0xF7,
  0xEC, 0x22, 0x39, 0x04, 0xE6, 0xF4, 0xE2, 0xE7, 0x51, 0xF0,
  0x49, 0xF3, 0x07, 0xD7, 0x0A, 0xE2, 0xCF, 0x54, 0x43, 0xD4,
  0x31, 0xBD, 0xF8, 0xF9, 0xED, 0x3B, 0x2E, 0xC8, 0xFD, 0xF3,
  0x1F, 0x21, 0xD4, 0x53, 0x53, 0xA1, 0xEA, 0xF2, 0xFA, 0x30,
  0x0F, 0x81, 0x47, 0xEE, 0xC9, 0xF1, 0x0D, 0x20, 0xF8, 0xE1,
  0x3F, 0x02, 0xB8, 0xF0, 0x00, 0x16, 0xF7, 0xCA, 0x18, 0xE7,
  0xFB, 0xF9, 0xEB, 0x00, 0xD8, 0xBB, 0x15, 0xCB, 0xE8, 0xC5,
  0x05, 0x21, 0x0B, 0xEF, 0x3F, 0xED, 0xBD, 0x05, 0xF4, 0x26,
  0xFF, 0x02, 0x3B, 0xDE, 0xC6, 0xFA, 0xF5, 0x0A, 0xF3, 0x38,
  0x11, 0x0C, 0xD2, 0x05, 0xF5, 0xDA, 0xE4, 0x49, 0x1E, 0x01,
  0xE5, 0xE0, 0x19, 0x2F, 0x07, 0xD1, 0x41, 0xDA, 0xD8, 0x12,
  0x0D, 0x11, 0xFC, 0x1C, 0x11, 0xF4, 0xEA, 0x07, 0x1A, 0xFB,
  0xE8, 0x2D, 0x22, 0x14, 0xE1, 0xF5, 0xE1, 0x03, 0xF5, 0x15,
  0xF9, 0x1A, 0x0C, 0x00, 0x0D, 0x17, 0xF2, 0xCB, 0x0F, 0xDE,
  0x11, 0x00, 0xFC, 0xE8, 0x09, 0xF6, 0x26, 0xE8, 0xFF, 0x05,
  0xFE, 0x00, 0xE3, 0x39, 0x0B, 0xF1, 0x19, 0x08, 0x0C, 0xF1,
  0xE2, 0x62, 0xF1, 0x0B, 0x1B, 0xEF, 0x1D, 0xEA, 0x40, 0xCA,
  0x25, 0x55, 0x2B, 0x03, 0xD5, 0xCE, 0x43, 0x81, 0x44, 0x1B,
  0x11, 0x0A, 0xD4, 0xE2, 0x42, 0xB8, 0x14, 0xFA, 0xED, 0xE1,
  0xC3, 0xEE, 0x39, 0xFF, 0x35, 0xBF, 0xDF, 0x04, 0x22, 0xDB,
  0x1E, 0xE5, 0x2C, 0x53, 0x2E, 0x01, 0xCF, 0xF5, 0x3E, 0x8A,
  0x27, 0x2F, 0x1A, 0x07, 0xC8, 0xE5, 0x28, 0xC2, 0x2E, 0xEE,
  0x02, 0xE7, 0xD5, 0xD8, 0xE0, 0xCA, 0x25, 0xE9, 0xED, 0xD8,
  0x20, 0x04, 0x2B, 0x75, 0xFD, 0x60, 0x14, 0xF6, 0xD2, 0xF7,
  0x2E, 0xC9, 0x48, 0x2B, 0xFE, 0xF9, 0xA9, 0x1A, 0x3E, 0xC7,
  0x3A, 0xFF, 0xDA, 0x03, 0xDC, 0xE2, 0xE3, 0xBD, 0x2F, 0xF1,
  0xE7, 0xDE, 0x4B, 0x06, 0x36, 0x74, 0x00, 0x55, 0x2B, 0x17,
  0x05, 0xFB, 0x38, 0x06, 0x40, 0x5A, 0x08, 0x09, 0xE0, 0x07,
  0x1C, 0x1C, 0x2A, 0x34, 0x06, 0x0B, 0xEC, 0xE8, 0xE9, 0x36,
  0x37, 0xF7, 0xF3, 0xFC, 0xDB, 0xA5, 0x1E, 0x8C, 0x09, 0xEC,
  0x49, 0x29, 0xD8, 0xD4, 0x16, 0x88, 0x4C, 0x19, 0x04, 0x0A,
  0xCC, 0xCC, 0xEF, 0x27, 0x49, 0xEE, 0x28, 0xF6, 0x05, 0x16,
  0x55, 0xEA, 0x15, 0xE3, 0x11, 0xE0, 0xE5, 0xEC, 0x58, 0x08,
  0x4A, 0x1F, 0x37, 0x16, 0xC2, 0x04, 0xE0, 0xF6, 0x4D, 0xF6,
  0x21, 0xFE, 0x17, 0x19, 0x02, 0x7F, 0x3F, 0x42, 0xC9, 0xF5,
  0xF1, 0x35, 0xE7, 0x34, 0x62, 0x31, 0x10, 0x0C, 0xF8, 0xD7,
  0x10, 0xF2, 0x04, 0x24, 0xC5, 0x52, 0xD5, 0xBC, 0xEB, 0x62,
  0xF3, 0x2E, 0xEE, 0x10, 0x23, 0x2F, 0x08, 0x70, 0xDB, 0x2E,
  0xF9, 0xF3, 0x26, 0x42, 0xB4, 0x04, 0x04, 0x34, 0xFF, 0x20,
  0xE1, 0xF3, 0xD1, 0xBC, 0x5A, 0x23, 0xE3, 0x03, 0xDF, 0xB8,
  0xE3, 0xF9, 0x42, 0xFB, 0xFD, 0x02, 0x39, 0xF6, 0xD3, 0x3F,
  0x26, 0xBE, 0xEF, 0xE1, 0x31, 0x34, 0xC6, 0x45, 0x6C, 0xE3,
  0x12, 0xC3, 0x18, 0xEC, 0xC8, 0xFA, 0xEE, 0x07, 0x08, 0xF5,
  0xF8, 0xE1, 0xAF, 0xF5, 0xF0, 0x0E, 0x10, 0x04, 0xF8, 0xEE,
  0x9F, 0xFD, 0xFA, 0x0B, 0x0E, 0x01, 0x0C, 0xF7, 0xCE, 0x11,
  0x0A, 0x02, 0x14, 0x03, 0x09, 0xFE, 0xB1, 0xEE, 0x08, 0x0D,
  0xF3, 0x0A, 0xFF, 0xDB, 0xB3, 0x08, 0xE4, 0x27, 0x0E, 0x13,
  0xF4, 0xF5, 0xBE, 0x06, 0xED, 0x29, 0xF7, 0x2D, 0xF0, 0xEA,
  0xFE, 0x2E, 0x0C, 0x01, 0xFA, 0x2B, 0x0E, 0xF6, 0x81, 0x44,
  0x16, 0x1C, 0xFC, 0xF5, 0x03, 0xC3, 0xAD, 0x47, 0xE2, 0x33,
  0x09, 0x03, 0x01, 0xDD, 0xA7, 0x21, 0xE4, 0x33, 0x08, 0x31,
  0x03, 0xED, 0x00, 0x29, 0x04, 0x0E, 0x04, 0x1F, 0xFC, 0x09,
  0x81, 0x27, 0xF8, 0xDF, 0xEF, 0xE6, 0x04, 0x00, 0x9B, 0x29,
  0xEA, 0xFD, 0x09, 0x18, 0x02, 0xF5, 0xB8, 0xF4, 0xE1, 0x0A,
  0x05, 0x19, 0x08, 0xFD, 0xF8, 0x20, 0xF0, 0x11, 0x18, 0x25,
  0xFB, 0xCD, 0x03, 0xC0, 0x1C, 0xA6, 0x24, 0xBB, 0x0B, 0xFC,
  0xFA, 0x6C, 0x3F, 0xE2, 0x0F, 0x0F, 0xE9, 0x20, 0xF3, 0x61,
  0x2F, 0x0A, 0x2A, 0xF6, 0xEE, 0x2D, 0x24, 0x14, 0x15, 0x00,
  0x42, 0x17, 0xD3, 0x11, 0xF6, 0xD7, 0x56, 0xE1, 0xCD, 0x24,
  0xC5, 0x0D, 0x01, 0x10, 0x32, 0x20, 0xF4, 0xEE, 0xF5, 0x09,
  0x17, 0x0A, 0x12, 0x0B, 0xFF, 0x05, 0xE3, 0x00, 0x1B, 0x24,
  0x35, 0xFC, 0x01, 0xE8, 0x06, 0x09, 0xF1, 0x26, 0x03, 0xBB,
  0x1F, 0xF3, 0xE3, 0x27, 0x21, 0x3B, 0x05, 0x34, 0x06, 0xF8,
  0xD1, 0x22, 0x39, 0x38, 0x16, 0x28, 0xDD, 0x17, 0xF7, 0xF4,
  0x1F, 0x13, 0x40, 0xCF, 0xD7, 0x2C, 0xEE, 0xD8, 0x1E, 0x7F,
  0xE3, 0xF7, 0x38, 0xF7, 0x41, 0xDB, 0x13, 0x62, 0x28, 0xFF,
  0x1D, 0x02, 0xE3, 0x26, 0x21, 0x34, 0x33, 0x35, 0x10, 0xDF,
  0xE4, 0xFB, 0x12, 0x58, 0x15, 0xDF, 0xF8, 0xF3, 0x0A, 0xE1,
  0xD0, 0xC2, 0xA4, 0x81, 0x1B, 0xFD, 0x05, 0xFE, 0xF3, 0x40,
  0xF0, 0x9F, 0x10, 0xF0, 0xEE, 0xF7, 0x06, 0x2E, 0xFF, 0xB4,
  0xFD, 0x0E, 0x07, 0x0A, 0x24, 0x2C, 0x0D, 0x20, 0xED, 0x0B,
  0x0C, 0xF7, 0xEF, 0xC9, 0xF7, 0xE8, 0x0C, 0xF8, 0x06, 0x06,
  0x14, 0x26, 0x15, 0x06, 0x12, 0xE8, 0xF0, 0xFB, 0x08, 0x23,
  0xFC, 0xC1, 0xF4, 0xED, 0xF1, 0x0A, 0x0D, 0x34, 0x0C, 0x15,
  0xEB, 0xEF, 0xE9, 0x00, 0xFA, 0xDC, 0x04, 0xF2, 0xF6, 0x0F,
  0xF0, 0xEB, 0xE7, 0x1D, 0xF8, 0xF1, 0x01, 0xEF, 0xF6, 0x01,
  0xF4, 0x35, 0x02, 0xBF, 0xF9, 0xEA, 0x03, 0x13, 0x02, 0x3A,
  0xFF, 0x16, 0x05, 0xED, 0xE6, 0xFB, 0x12, 0xE6, 0x17, 0xFB,
  0xFF, 0x02, 0xF2, 0xF9, 0x0C, 0x11, 0x0A, 0xE3, 0x0E, 0x06,
  0xFD, 0x04, 0x06, 0x13, 0x1D, 0xF1, 0x0C, 0xFA, 0xED, 0x13,
  0xF0, 0x36, 0x1B, 0x0A, 0xFF, 0xF0, 0x00, 0xFC, 0x28, 0x01,
  0x3A, 0x14, 0xF1, 0x21, 0xFC, 0x00, 0x15, 0x7F, 0x40, 0xC1,
  0x0D, 0x22, 0xE1, 0xFB, 0xFA, 0x77, 0x0C, 0xD2, 0xFC, 0x0E,
  0xF4, 0xEE, 0xF8, 0x47, 0x14, 0xE0, 0xF2, 0xFE, 0xF9, 0x1C,
  0x17, 0x30, 0x2C, 0x28, 0xEC, 0xF5, 0xEB, 0x07, 0xF2, 0x11,
  0x19, 0xCA, 0x0E, 0xF9, 0xF3, 0xEB, 0xF9, 0x1A, 0xF4, 0xB0,
  0x19, 0xE4, 0xE8, 0x02, 0x15, 0x4C, 0x0F, 0xBF, 0xEA, 0xF8,
  0x0B, 0x0E, 0x10, 0x1B, 0x1C, 0x18, 0x12, 0x07, 0x04, 0x03,
  0x0B, 0xF7, 0x0F, 0xF4, 0x15, 0xE6, 0xED, 0x13, 0x08, 0x1A,
  0x1D, 0xC3, 0x03, 0xFA, 0x00, 0xFF, 0x08, 0x3A, 0x18, 0xE6,
  0x07, 0xE9, 0x0B, 0x11, 0x0A, 0x12, 0x07, 0x3F, 0x0E, 0x03,
  0x18, 0xFE, 0x0C, 0x04, 0x1E, 0x20, 0x0F, 0x0E, 0x01, 0x06,
  0xE9, 0x06, 0x16, 0xF2, 0x17, 0x04, 0xF1, 0xED, 0x07, 0x3E,
  0x31, 0xF1, 0x15, 0xE2, 0xFA, 0xBE, 0x69, 0x38, 0x01, 0xEF,
  0x20, 0x3E, 0xCE, 0x09, 0x54, 0x1D, 0xFD, 0xE6, 0xCF, 0x40,
  0xCF, 0xF7, 0x37, 0x5E, 0xE5, 0xF1, 0x00, 0xFE, 0xE2, 0x07,
  0x1E, 0x6F, 0xD7, 0x39, 0x3C, 0x26, 0xFD, 0xFE, 0x71, 0x7F,
  0x04, 0x03, 0xE2, 0x2C, 0xEB, 0xF5, 0x34, 0xF9, 0x11, 0x28,
  0x00, 0x25, 0xF1, 0xFD, 0x07, 0x50, 0xF2, 0x18, 0x05, 0xE8,
  0xE8, 0xF7, 0x2E, 0x29, 0x11, 0x11, 0x0C, 0xDE, 0xF6, 0xEF,
  0x1D, 0x31, 0xE0, 0xE2, 0x28, 0x07, 0xE3, 0xE2, 0x2A, 0x1D,
  0xDD, 0x03, 0x1E, 0x10, 0x01, 0x08, 0x10, 0xE0, 0xC1, 0x22,
  0x1E, 0xF4, 0xED, 0x21, 0x2C, 0xBA, 0x00, 0x07, 0xF5, 0xF9,
  0x26, 0xF6, 0x17, 0x67, 0xF1, 0xEB, 0x28, 0xF4, 0x12, 0xFC,
  0x22, 0xDC, 0xE3, 0xF3, 0x1F, 0xE1, 0xF2, 0x2D, 0x29, 0xFA,
  0x0A, 0x05, 0x22, 0xE4, 0x0D, 0x0E, 0x3B, 0xCB, 0x04, 0xE3,
  0xD3, 0x11, 0x23, 0xE0, 0xD4, 0x05, 0xDC, 0x2E, 0xE4, 0xD6,
  0xF1, 0x05, 0xDD, 0x3E, 0x02, 0x38, 0x1F, 0x10, 0xE9, 0xBF,
  0x2B, 0x00, 0x31, 0x54, 0x2C, 0xF3, 0xFF, 0xCA, 0x10, 0x70,
  0x41, 0x39, 0x1D, 0x01, 0x12, 0x01, 0x40, 0x2B, 0x1B, 0x55,
  0x04, 0x06, 0xF1, 0x0C, 0xED, 0x0E, 0xF0, 0x0C, 0xB0, 0x00,
  0xFC, 0xFA, 0x17, 0x7F, 0xF2, 0x4A, 0xE0, 0xEA, 0x1A, 0xF3,
  0x25, 0x62, 0x4D, 0x01, 0x49, 0x11, 0xF4, 0xDE, 0xED, 0x97,
  0xF7, 0x12, 0xF8, 0xAD, 0x2E, 0x1E, 0xF8, 0x30, 0x1F, 0xFF,
  0xCF, 0x20, 0xE1, 0xE6, 0xF7, 0xEE, 0x0F, 0xBB, 0xCC, 0xFF,
  0x13, 0xF5, 0xD4, 0x28, 0x1B, 0xC1, 0x1F, 0xDC, 0x38, 0x01,
  0xD9, 0x4B, 0xA1, 0xF1, 0x33, 0xE6, 0x31, 0xF2, 0xB7, 0x5C,
  0x99, 0xB5, 0x0E, 0xC1, 0x17, 0x00, 0x37, 0x39, 0xFD, 0x8B,
  0xE3, 0x1A, 0xF1, 0xD6, 0x2D, 0x57, 0x20, 0x9E, 0x35, 0xE5,
  0x16, 0x32, 0xD8, 0x6E, 0xFB, 0xD6, 0x81, 0x19, 0x1B, 0x05,
  0x20, 0xA4, 0x03, 0xDF, 0x82, 0x01, 0xF8, 0x1C, 0xFE, 0xBD,
  0x02, 0x28, 0xA1, 0x01, 0x1F, 0x0D, 0xEC, 0xAC, 0x2C, 0x0D,
  0xA9, 0x31, 0x19, 0x0B, 0x00, 0x18, 0xFD, 0xF4, 0x94, 0x21,
  0x02, 0x15, 0xEC, 0xDD, 0x13, 0xDA, 0x91, 0xDD, 0x0F, 0x23,
  0x0E, 0xBE, 0x13, 0x16, 0xA3, 0x18, 0x08, 0xE8, 0x37, 0xCC,
  0x09, 0xF1, 0xA7, 0x2A, 0xDC, 0x1E, 0x31, 0xF8, 0x39, 0xE8,
  0xA5, 0x08, 0xE3, 0x0E, 0x06, 0xBA, 0x16, 0x12, 0xC3, 0x2D,
  0xFD, 0xFB, 0x06, 0x8A, 0xF9, 0x29, 0xB4, 0x22, 0xFD, 0xFA,
  0xFF, 0xA6, 0x32, 0x25, 0xD3, 0xF2, 0xD9, 0x0D, 0x2A, 0xDD,
  0xEB, 0xF1, 0xDF, 0xF2, 0xD2, 0xDE, 0x20, 0x86, 0xFE, 0xF6,
  0x05, 0x00, 0xE0, 0x0C, 0xF9, 0x85, 0x24, 0x22, 0xF6, 0x1D,
  0xBB, 0xF8, 0xFA, 0x84, 0x22, 0x26, 0xCE, 0x0E, 0x26, 0xD4,
  0xCD, 0xA2, 0xB4, 0x2C, 0x44, 0xE4, 0x24, 0xF2, 0xEB, 0xBA,
  0xDF, 0x40, 0x23, 0xEE, 0x19, 0xF3, 0x09, 0x81, 0xDA, 0x03,
  0xFE, 0x07, 0xE0, 0xE3, 0xFD, 0xAD, 0xD6, 0xEB, 0xFC, 0x14,
  0x10, 0xFF, 0xFC, 0x44, 0xCE, 0x5C, 0x1A, 0xFC, 0x1A, 0x0F,
  0xF5, 0x28, 0xF5, 0x4C, 0x1D, 0xF7, 0x0C, 0x0A, 0xF9, 0x12,
  0xF3, 0x38, 0x07, 0xFF, 0xFF, 0x00, 0x0D, 0xFD, 0xEF, 0x0D,
  0x03, 0x23, 0x12, 0xF2, 0x0D, 0x4B, 0xDC, 0x36, 0x21, 0x13,
  0x02, 0x06, 0xFF, 0xEC, 0xE2, 0x2E, 0xFF, 0x1C, 0x09, 0x04,
  0x05, 0xDA, 0xF4, 0x25, 0x02, 0x14, 0x01, 0x10, 0xF4, 0xCB,
  0xEE, 0x11, 0x17, 0xFD, 0xEB, 0xFA, 0x01, 0x36, 0xD6, 0x4E,
  0x0D, 0x06, 0x02, 0xFF, 0x09, 0xF7, 0xD8, 0x30, 0xF2, 0x15,
  0xFA, 0x31, 0x05, 0xDF, 0xCE, 0x0F, 0xF1, 0x13, 0x08, 0x11,
  0xFF, 0xE5, 0xB4, 0x00, 0x15, 0x22, 0xF6, 0xC1, 0x31, 0xF2,
  0x08, 0xE7, 0x28, 0x0C, 0xE1, 0xF5, 0x1C, 0x81, 0xFB, 0xBF,
  0x00, 0xE3, 0xF8, 0x06, 0x45, 0x11, 0xE7, 0x09, 0x19, 0x2D,
  0x21, 0xFF, 0x14, 0xCF, 0x0B, 0xF1, 0x0F, 0xF4, 0xDC, 0xE0,
  0x1E, 0x39, 0x2E, 0x00, 0x3A, 0x27, 0xE4, 0xD6, 0xFB, 0xEE,
  0x01, 0xE9, 0x02, 0xEF, 0x18, 0x03, 0x10, 0x0F, 0x14, 0x08,
  0x27, 0x06, 0x1D, 0xE3, 0x15, 0xD6, 0x08, 0xFF, 0x27, 0xEC,
  0x1E, 0x0C, 0x03, 0x60, 0x18, 0xE0, 0x1F, 0x1C, 0xDF, 0xDB,
  0x1B, 0x2C, 0x26, 0x1A, 0x0A, 0xE6, 0x1B, 0xF3, 0x10, 0x34,
  0x0D, 0x0A, 0xFD, 0xE3, 0x24, 0xFB, 0x04, 0xC8, 0xEC, 0xF1,
  0x09, 0xF0, 0x27, 0xE4, 0x2C, 0x56, 0xF5, 0x02, 0x27, 0x18,
  0xEA, 0xD8, 0x1F, 0x33, 0x09, 0xDB, 0x1A, 0x06, 0xE8, 0xE7,
  0xE3, 0x2C, 0xF1, 0x0F, 0xFB, 0xD6, 0xF8, 0xDE, 0xF3, 0x03,
  0x23, 0xDA, 0x0D, 0xF6, 0xE0, 0x17, 0xBF, 0xF6, 0xCC, 0xDB,
  0x27, 0x0D, 0xAB, 0xF3, 0x1A, 0x29, 0x16, 0xD0, 0xD1, 0xF7,
  0x81, 0x18, 0xB3, 0x9E, 0xF9, 0xA7, 0xC1, 0x14, 0xF9, 0xF3,
  0xAD, 0xD1, 0xE4, 0x1E, 0xE4, 0xCD, 0xB7, 0x26, 0x0C, 0xD5,
  0xAA, 0xD4, 0xBD, 0xA4, 0x1A, 0x19, 0xCB, 0x23, 0x22, 0xC8,
  0xFB, 0x19, 0x14, 0xB2, 0x9D, 0x0E, 0xC0, 0xF5, 0xE4, 0x27,
  0xB8, 0x2C, 0x05, 0xB4, 0xDC, 0xB4, 0xAC, 0xC1, 0x33, 0xE3,
  0xD8, 0xBA, 0xCC, 0x2D, 0x15, 0xF5, 0xB3, 0x08, 0xE6, 0xA7,
  0xBD, 0x36, 0xC1, 0xE3, 0xF3, 0xCF, 0x0B, 0xE2, 0xD0, 0x2D,
  0x0E, 0x2F, 0xB6, 0xE8, 0x1D, 0x01, 0x29, 0x8F, 0xDB, 0xDD,
  0xAB, 0xEC, 0xC3, 0x27, 0xDD, 0xCB, 0x13, 0xCF, 0xE5, 0xB7,
  0xED, 0xAA, 0x13, 0xF4, 0xEB, 0xB0, 0xDF, 0x3C, 0x27, 0x14,
  0x41, 0x09, 0x1D, 0xAB, 0x1F, 0xFB, 0x22, 0x04, 0xC9, 0x08,
  0x39, 0x2C, 0x8A, 0xF1, 0xFF, 0xFF, 0x04, 0x00, 0x00, 0x00,
  0x40, 0x00, 0x00, 0x00, 0x94, 0xDA, 0xFF, 0xFF, 0x83, 0x01,
  0x00, 0x00, 0x59, 0x16, 0x00, 0x00, 0xA8, 0xFF, 0xFF, 0xFF,
  0xE5, 0x00, 0x00, 0x00, 0xC0, 0x1E, 0x00, 0x00, 0x6D, 0x10,
  0x00, 0x00, 0x70, 0x10, 0x00, 0x00, 0x66, 0x01, 0x00, 0x00,
  0x25, 0x04, 0x00, 0x00, 0x89, 0x04, 0x00, 0x00, 0xB2, 0xFE,
  0xFF, 0xFF, 0x36, 0x23, 0x00, 0x00, 0xBE, 0x0A, 0x00, 0x00,
  0x56, 0x09, 0x00, 0x00, 0x61, 0xE1, 0xFF, 0xFF, 0xD6, 0xF1,
  0xFF, 0xFF, 0x04, 0x00, 0x00, 0x00, 0x00, 0x02, 0x00, 0x00,
  0x21, 0xD0, 0x01, 0x3E, 0x08, 0x08, 0xFF, 0x21, 0x7F, 0x07,
  0xFE, 0xFF, 0x2B, 0xD8, 0x14, 0xF6, 0xF7, 0x0E, 0x15, 0x12,
  0x10, 0xFD, 0x08, 0x25, 0x67, 0x08, 0xF6, 0x32, 0x10, 0xEA,
  0x12, 0xE1, 0x0C, 0x00, 0xD9, 0xE0, 0xDC, 0xF6, 0xE6, 0x0F,
  0x34, 0xE5, 0xD0, 0xF0, 0xFF, 0x0F, 0x1A, 0xE1, 0xDD, 0xEA,
  0xE1, 0xE2, 0xFC, 0xE4, 0xCD, 0x0C, 0x63, 0xE7, 0xE9, 0x1F,
  0x2A, 0x26, 0x27, 0xF5, 0xDA, 0xE0, 0xD0, 0x3D, 0x3C, 0xDE,
  0xDD, 0x01, 0xD7, 0x04, 0xE2, 0xE4, 0xFE, 0xB1, 0xDB, 0xE7,
  0xDD, 0x0A, 0x19, 0x2E, 0x2A, 0xD8, 0x9E, 0x43, 0xEB, 0x3F,
  0x04, 0xFE, 0x44, 0xB2, 0xFB, 0xFD, 0xF7, 0xDC, 0x14, 0x0A,
  0xD4, 0x0D, 0xED, 0xFD, 0xB4, 0x53, 0x48, 0xBB, 0x3A, 0x21,
  0x37, 0x10, 0x12, 0xF2, 0xDC, 0x1A, 0x26, 0xCD, 0x2F, 0x17,
  0x81, 0x25, 0x12, 0x05, 0x3D, 0xCB, 0xEC, 0x37, 0x0C, 0x24,
  0x01, 0x23, 0x01, 0xEC, 0xC2, 0x1B, 0x6C, 0x2A, 0x0E, 0x36,
  0xF2, 0x05, 0xE1, 0x14, 0xFA, 0xC4, 0x0A, 0xE5, 0xF3, 0x03,
  0xE4, 0xDB, 0x50, 0x0E, 0xF5, 0x1A, 0xDF, 0xD6, 0xD8, 0xE3,
  0x18, 0xF3, 0x17, 0x05, 0x1D, 0xFF, 0x42, 0x26, 0x7F, 0x11,
  0xF0, 0x3E, 0x14, 0x1A, 0xFE, 0x0C, 0xF7, 0xD6, 0xC9, 0x01,
  0xEE, 0xE4, 0x2C, 0x0B, 0x3F, 0x02, 0x01, 0x3E, 0x14, 0x04,
  0xE4, 0x00, 0xFF, 0xDD, 0x36, 0xFD, 0x3F, 0x20, 0xB8, 0x17,
  0x61, 0x1B, 0x3F, 0x62, 0xAF, 0x03, 0x3B, 0xFF, 0x03, 0xBB,
  0x08, 0xC1, 0x26, 0xE6, 0x99, 0x05, 0x53, 0xF6, 0x32, 0x2A,
  0x0D, 0xEC, 0x34, 0xF8, 0x28, 0xBC, 0x13, 0xCD, 0x48, 0x3C,
  0x04, 0xF6, 0x1F, 0x16, 0x5C, 0x1B, 0x06, 0xC1, 0x30, 0x22,
  0x24, 0xE6, 0x14, 0x22, 0xF1, 0x2A, 0xDA, 0xF2, 0x7F, 0xD7,
  0x3C, 0x40, 0xCD, 0x18, 0xF2, 0x1E, 0xFE, 0xEB, 0x1E, 0x57,
  0x10, 0x35, 0x50, 0x01, 0x1E, 0xF3, 0xB4, 0x81, 0x19, 0xE9,
  0xFC, 0xF4, 0xE5, 0xEE, 0x1C, 0x46, 0xCD, 0x36, 0x36, 0xF5,
  0xEB, 0x06, 0xC4, 0x96, 0xFF, 0x09, 0x02, 0x21, 0x09, 0xE6,
  0x14, 0x3F, 0xBC, 0x10, 0x54, 0x24, 0xFF, 0xF4, 0xC7, 0xB5,
  0x03, 0xE2, 0xDE, 0xED, 0x24, 0xE0, 0x37, 0x2E, 0xCE, 0xEA,
  0x43, 0x24, 0x92, 0x25, 0xCD, 0xB5, 0xEE, 0xE0, 0xF9, 0x07,
  0xD1, 0x2F, 0x2A, 0xF9, 0x1A, 0xFE, 0x0E, 0x0C, 0x18, 0x36,
  0x22, 0x57, 0x81, 0xFC, 0x26, 0x04, 0x2E, 0xED, 0xDC, 0x25,
  0xDB, 0x2C, 0xFE, 0xDD, 0x4C, 0xE3, 0x23, 0x2D, 0x99, 0x0D,
  0x0C, 0x27, 0x19, 0x13, 0x15, 0xD9, 0x28, 0x0C, 0xFA, 0x23,
  0x47, 0x2D, 0x1F, 0x08, 0x9F, 0xCF, 0xFA, 0x29, 0x32, 0xC4,
  0xFC, 0x08, 0x0B, 0xE2, 0xCA, 0x13, 0x76, 0x28, 0xE3, 0x32,
  0xFD, 0xD2, 0xDA, 0xED, 0x3F, 0x7F, 0x0A, 0x2C, 0x07, 0x06,
  0x11, 0xE1, 0x27, 0xCA, 0x47, 0x4B, 0xC2, 0x45, 0x5A, 0xD1,
  0xDF, 0x31, 0x0C, 0xFB, 0x16, 0xF9, 0x0F, 0x20, 0x54, 0xF0,
  0xD4, 0x48, 0x16, 0x34, 0xD0, 0x08, 0xEF, 0x67, 0x2A, 0xF3,
  0xC9, 0x2F, 0xC7, 0x2F, 0xF9, 0xF9, 0x12, 0x09, 0x28, 0x60,
  0xE1, 0xF5, 0x4A, 0x4D, 0x8F, 0x5A, 0xC0, 0xFF, 0xF2, 0xF8,
  0xA1, 0xB1, 0x1E, 0x18, 0x45, 0x46, 0x15, 0x4D, 0x24, 0x21,
  0x55, 0xE5, 0x3B, 0x30, 0x8C, 0x3D, 0x2B, 0x0C, 0x45, 0xF5,
  0xCB, 0xD6, 0x1F, 0xC3, 0xD6, 0xDF, 0x17, 0xCB, 0xF6, 0x54,
  0x81, 0x53, 0xF1, 0x47, 0x2A, 0x04, 0xF5, 0x09, 0x1D, 0x35,
  0xD3, 0xC7, 0x09, 0xC0, 0x1C, 0x15, 0x88, 0x28, 0xE3, 0x21,
  0x1B, 0x4E, 0x96, 0x02, 0x12, 0xF5, 0xE5, 0xD4, 0x1D, 0xEE,
  0xD7, 0x37, 0xCD, 0x08, 0xDA, 0xDD, 0x05, 0xEE, 0xBF, 0x1B,
  0xB5, 0xCE, 0xE2, 0xF3, 0xFF, 0xFF, 0x04, 0x00, 0x00, 0x00,
  0x20, 0x00, 0x00, 0x00, 0x6C, 0x02, 0x00, 0x00, 0xE8, 0x01,
  0x00, 0x00, 0xD7, 0xF2, 0xFF, 0xFF, 0x96, 0x04, 0x00, 0x00,
  0x8E, 0x0B, 0x00, 0x00, 0xC9, 0x03, 0x00, 0x00, 0xA9, 0xF7,
  0xFF, 0xFF, 0x46, 0x1B, 0x00, 0x00, 0x0E, 0xF4, 0xFF, 0xFF,
  0x04, 0x00, 0x00, 0x00, 0x00, 0x08, 0x00, 0x00, 0xFC, 0xEB,
  0x7F, 0xF4, 0x01, 0x21, 0x12, 0x0A, 0x09, 0xEE, 0x35, 0x00,
  0xF4, 0x02, 0x15, 0x12, 0x14, 0xEE, 0x04, 0x0A, 0x00, 0x1A,
  0x24, 0x04, 0x13, 0xFC, 0x23, 0x04, 0xF8, 0xF7, 0x06, 0x04,
  0x0B, 0xF8, 0x3B, 0x10, 0xF7, 0x15, 0xF0, 0x17, 0x22, 0xFC,
  0x0D, 0xF2, 0x15, 0x0D, 0xED, 0xF3, 0x20, 0xEE, 0x0C, 0xFE,
  0x04, 0x0F, 0xFC, 0xF4, 0x0D, 0x08, 0x0C, 0x1B, 0x10, 0x12,
  0xF6, 0x13, 0xFE, 0x05, 0xE9, 0x05, 0x0C, 0x1B, 0xFD, 0x10,
  0xF0, 0xFB, 0xF8, 0xFD, 0xF2, 0x11, 0x19, 0xF9, 0xFA, 0x07,
  0xFA, 0x09, 0x11, 0x0C, 0x15, 0xFD, 0xF3, 0xF6, 0x18, 0xF7,
  0xEE, 0x07, 0x0F, 0x08, 0xFD, 0xF5, 0xC8, 0x07, 0xF7, 0x1A,
  0x17, 0x13, 0xFF, 0x01, 0x05, 0xFA, 0x12, 0xFC, 0x19, 0x0A,
  0xEB, 0x02, 0x0E, 0xF7, 0x06, 0x13, 0xFF, 0xFF, 0xE1, 0xF9,
  0x09, 0xFD, 0x08, 0x17, 0xFD, 0x10, 0xF1, 0x49, 0x7F, 0xF2,
  0x15, 0xFF, 0x0D, 0xCD, 0x15, 0x0A, 0x0A, 0xEF, 0x2F, 0x10,
  0xC4, 0xE8, 0x1F, 0x04, 0x18, 0x0F, 0x0D, 0xF2, 0xD3, 0xEE,
  0x4C, 0x12, 0xAD, 0x26, 0xFB, 0xFF, 0xF6, 0xE2, 0xEA, 0x22,
  0x0D, 0x04, 0x28, 0xEA, 0x38, 0xE3, 0xE6, 0xEB, 0x1B, 0x08,
  0x20, 0xFD, 0x17, 0xF5, 0xE2, 0xF9, 0x35, 0x02, 0xF3, 0x0B,
  0x06, 0x04, 0x1F, 0x05, 0xE8, 0xF0, 0x13, 0x1C, 0x10, 0xDF,
  0x02, 0x12, 0xFA, 0x09, 0x13, 0xF0, 0x0B, 0xEC, 0xE3, 0x13,
  0xDE, 0xF4, 0x27, 0xFF, 0xF1, 0xF7, 0xFD, 0x03, 0x10, 0x14,
  0x08, 0x1B, 0xF8, 0xE9, 0x1C, 0x13, 0xCE, 0x1B, 0x18, 0x0F,
  0x09, 0x05, 0xFC, 0xFB, 0x19, 0x11, 0x10, 0xFC, 0x25, 0xED,
  0xEF, 0x0A, 0xEB, 0x15, 0xDD, 0x35, 0x05, 0xEE, 0xB0, 0xF4,
  0x25, 0x16, 0x03, 0x2B, 0x02, 0x07, 0x12, 0xEA, 0xD0, 0x22,
  0x09, 0x1B, 0x25, 0xE5, 0x81, 0xDF, 0x47, 0xF3, 0xDB, 0x02,
  0x08, 0x2C, 0x96, 0xF0, 0xE3, 0xEA, 0xCB, 0xF6, 0x0D, 0x13,
  0x07, 0xEB, 0x06, 0x07, 0x04, 0x03, 0xFF, 0xFB, 0x08, 0xEB,
  0xAC, 0x22, 0x10, 0x14, 0x07, 0x18, 0x09, 0xDF, 0x3E, 0x18,
  0x11, 0xF3, 0x00, 0x0D, 0xDD, 0x0B, 0xF7, 0xF2, 0xDF, 0xDE,
  0xE5, 0xF2, 0x13, 0xCE, 0xE5, 0x0D, 0xF1, 0x04, 0x09, 0x06,
  0x12, 0xDF, 0xD2, 0x09, 0x15, 0x07, 0xF7, 0x06, 0x34, 0xEA,
  0xED, 0xC8, 0x45, 0xE4, 0x08, 0xD9, 0x1C, 0x2A, 0xB4, 0xEE,
  0x26, 0x02, 0xE6, 0xF5, 0x08, 0x09, 0xDD, 0xFE, 0x1C, 0x06,
  0xFF, 0x03, 0xFA, 0x01, 0x18, 0x08, 0x19, 0x00, 0xFF, 0xF1,
  0x1A, 0xEB, 0xC8, 0x22, 0xFE, 0x04, 0x05, 0xF9, 0xBE, 0x29,
  0x8E, 0x04, 0xEC, 0xFA, 0xF5, 0xF5, 0xC4, 0x0A, 0x9A, 0xF6,
  0xF6, 0xD5, 0x07, 0xE5, 0x0C, 0xFC, 0x08, 0x09, 0xD5, 0x06,
  0x08, 0xEA, 0x25, 0x9C, 0x81, 0xA8, 0x17, 0xDA, 0xEE, 0xB6,
  0x22, 0x11, 0xF9, 0xFE, 0x3B, 0xC2, 0xF8, 0xE9, 0x03, 0x05,
  0xD3, 0x07, 0x14, 0xEF, 0xFC, 0x07, 0x10, 0xF1, 0xDC, 0xF3,
  0x0C, 0xFD, 0x00, 0x0D, 0x00, 0xB2, 0xAD, 0xC7, 0x03, 0x08,
  0x17, 0xEB, 0xF4, 0xE5, 0x30, 0xFB, 0x31, 0xD3, 0xFC, 0xFA,
  0x02, 0x01, 0xE3, 0xFF, 0x02, 0xE4, 0x05, 0x0F, 0x08, 0x06,
  0xEE, 0xF9, 0x16, 0xF1, 0x09, 0x0C, 0x16, 0x07, 0xD6, 0xEE,
  0x22, 0x00, 0x05, 0x0D, 0x1A, 0x01, 0x26, 0xF0, 0x1B, 0xCE,
  0xFD, 0x03, 0x1F, 0x05, 0x00, 0x04, 0x06, 0xF7, 0x0F, 0x07,
  0x00, 0xFA, 0xE2, 0xFE, 0x15, 0x01, 0xFD, 0x04, 0xF3, 0x0E,
  0xF5, 0x00, 0x11, 0x07, 0x07, 0xFE, 0x14, 0x06, 0x2F, 0xF9,
  0x13, 0xFA, 0xFA, 0x03, 0x17, 0xFC, 0xEB, 0xF4, 0x12, 0xFB,
  0x0A, 0xFF, 0x0D, 0xEF, 0xD5, 0x07, 0x1F, 0xEE, 0x0E, 0xFA,
  0xFF, 0x07, 0xAB, 0x23, 0x31, 0x44, 0x4B, 0x03, 0x06, 0x47,
  0xF0, 0x15, 0xE1, 0x4D, 0x23, 0x3A, 0x25, 0x17, 0x0A, 0xF7,
  0xFD, 0x17, 0xF4, 0xE1, 0x81, 0x3A, 0x8F, 0xDE, 0x30, 0x11,
  0xF4, 0xEB, 0xEE, 0x29, 0xEA, 0x20, 0xAA, 0xFB, 0x21, 0xFE,
  0xF1, 0x16, 0x03, 0x12, 0xD7, 0xE6, 0xFE, 0x21, 0xFC, 0x1E,
  0x4D, 0x17, 0xF1, 0xE9, 0xDC, 0x1C, 0xBF, 0x22, 0xF3, 0xC7,
  0xF8, 0xFA, 0xD8, 0xD4, 0x36, 0x07, 0x16, 0xCF, 0x9C, 0xCD,
  0x17, 0x23, 0xCA, 0x41, 0xE4, 0xDD, 0xF1, 0xE2, 0x14, 0xE9,
  0xCB, 0x35, 0x27, 0xFA, 0x02, 0x1B, 0xFF, 0xEC, 0xC5, 0xEB,
  0xA1, 0xDE, 0xB3, 0x15, 0x12, 0x09, 0x28, 0x2E, 0xC0, 0xCB,
  0xEF, 0xDB, 0xD5, 0x2F, 0xE0, 0x07, 0xDB, 0xE4, 0xB1, 0xE4,
  0xF8, 0x18, 0x09, 0x0C, 0x07, 0xB1, 0xF2, 0x1F, 0xE1, 0x0C,
  0xB0, 0xE9, 0xCC, 0xF7, 0xC1, 0x47, 0xF9, 0x06, 0xAC, 0xAE,
  0x26, 0x37, 0x06, 0xF3, 0xF2, 0x04, 0x31, 0x2D, 0x0A, 0x38,
  0xC6, 0x13, 0x11, 0x23, 0xDE, 0xE2, 0xCF, 0x09, 0x0F, 0x11,
  0x24, 0xF9, 0x0F, 0x1D, 0xDE, 0xCF, 0xF6, 0xFC, 0x14, 0x44,
  0x13, 0xCB, 0x15, 0x10, 0xFA, 0x37, 0xEC, 0x28, 0x7D, 0x13,
  0x02, 0xF2, 0x09, 0x03, 0x06, 0x31, 0xE3, 0xDE, 0xDE, 0x23,
  0x30, 0xFB, 0xFD, 0x04, 0x18, 0xF3, 0x31, 0xB1, 0x1F, 0x05,
  0x06, 0xEC, 0xD9, 0xF5, 0xDD, 0xF8, 0x01, 0xF1, 0xED, 0x2F,
  0xFD, 0x14, 0x4D, 0xE1, 0xFF, 0xEC, 0xEC, 0xFC, 0xED, 0x04,
  0xDC, 0x27, 0x0E, 0xFE, 0xE4, 0xF1, 0xA9, 0xF9, 0x32, 0xDC,
  0xCC, 0xD2, 0x02, 0x0F, 0x81, 0xEC, 0xC7, 0xF9, 0x49, 0xDF,
  0x18, 0x20, 0xD1, 0xFB, 0x4E, 0xD7, 0x12, 0xCF, 0x1E, 0xF9,
  0x06, 0xD0, 0xEF, 0xD6, 0x17, 0xCE, 0xD5, 0xEF, 0x13, 0xD8,
  0x17, 0x13, 0xF0, 0xD8, 0xF2, 0x1E, 0x0C, 0xF8, 0x34, 0xEF,
  0xFF, 0x04, 0x15, 0xE9, 0xF6, 0x04, 0x29, 0x00, 0x06, 0x03,
  0x10, 0xF8, 0xF4, 0x15, 0xDD, 0xFF, 0x04, 0x00, 0x01, 0x00,
  0x02, 0x1C, 0x0B, 0x00, 0xEC, 0xF2, 0xFF, 0xF9, 0xB6, 0xD4,
  0xBF, 0xD3, 0x1B, 0x07, 0x04, 0xF6, 0xF7, 0xBD, 0x16, 0xDF,
  0x1B, 0x0A, 0x18, 0x0A, 0xE2, 0xF0, 0xE1, 0x04, 0x05, 0x05,
  0x08, 0x08, 0xE7, 0x08, 0x0B, 0x08, 0x01, 0xF0, 0xF7, 0xF4,
  0xDD, 0xF0, 0x81, 0x06, 0xFA, 0x0E, 0xED, 0x02, 0x13, 0xE1,
  0x1C, 0xE3, 0xFC, 0xFB, 0x01, 0xF2, 0x1C, 0x18, 0xFD, 0x14,
  0xF6, 0xF7, 0xEF, 0x06, 0x16, 0x19, 0x02, 0x03, 0xFF, 0xF1,
  0xFA, 0x05, 0x10, 0xF9, 0x93, 0xF3, 0x0A, 0xE9, 0xEB, 0xFC,
  0xF5, 0x10, 0x16, 0xD9, 0x0A, 0xFE, 0x06, 0xED, 0xEE, 0xF6,
  0xF2, 0x09, 0xEF, 0xFD, 0x03, 0xF9, 0x0E, 0x03, 0xE7, 0x0F,
  0xFD, 0xF4, 0x07, 0xF8, 0x38, 0x08, 0x07, 0xFB, 0xF7, 0xE9,
  0xF3, 0xD1, 0x23, 0x21, 0x60, 0xCC, 0xEE, 0xE8, 0xFE, 0xFA,
  0x32, 0x1F, 0xE1, 0x15, 0xEA, 0xF4, 0xF6, 0x25, 0x09, 0xD0,
  0xA7, 0xFC, 0xF1, 0x2C, 0x0F, 0xDE, 0x39, 0x2A, 0x81, 0xF0,
  0x37, 0xEC, 0x08, 0x01, 0x58, 0x02, 0x21, 0xEE, 0x0D, 0xE2,
  0x08, 0xED, 0x71, 0x09, 0xF5, 0x16, 0x1A, 0x20, 0x15, 0x20,
  0x2D, 0xE2, 0xCB, 0x15, 0x2E, 0xF8, 0x2C, 0x08, 0x3B, 0x09,
  0x96, 0x09, 0x09, 0x2F, 0xC6, 0xF2, 0x50, 0x0A, 0x42, 0x03,
  0x05, 0xF1, 0x0C, 0x18, 0x2C, 0xFA, 0x13, 0x2B, 0xF5, 0xEC,
  0x16, 0x1F, 0x15, 0xFF, 0xF5, 0x1E, 0x34, 0xFB, 0x24, 0xFC,
  0x34, 0x0B, 0x9E, 0x3F, 0x1F, 0x2F, 0xE5, 0x15, 0x48, 0xFA,
  0x60, 0x16, 0x0E, 0x08, 0x08, 0x13, 0x54, 0x01, 0xE7, 0x1C,
  0x07, 0xEE, 0xEF, 0xF6, 0x30, 0xE7, 0x08, 0xFC, 0x23, 0x2C,
  0x33, 0x20, 0xD5, 0xA9, 0x02, 0x17, 0xFD, 0xEB, 0x12, 0x15,
  0x0C, 0xE1, 0x3F, 0xF7, 0x01, 0xF5, 0x11, 0x1F, 0xF7, 0xDA,
  0xEE, 0x07, 0xF7, 0x0A, 0x01, 0x0E, 0xF3, 0xDB, 0x1C, 0xEF,
  0xF8, 0xFE, 0xFD, 0xEC, 0x00, 0xB1, 0xE9, 0x0F, 0x12, 0xCD,
  0x04, 0x25, 0x1D, 0xB9, 0x0F, 0xF3, 0xE8, 0xDA, 0x11, 0xF5,
  0xF7, 0xAB, 0xD5, 0x11, 0xF2, 0x16, 0x1C, 0x15, 0xFA, 0xF7,
  0x18, 0xFB, 0xEF, 0x0F, 0xF9, 0xEB, 0xF7, 0x97, 0x81, 0x18,
  0x1F, 0xE9, 0xF1, 0xFC, 0x00, 0x86, 0x0C, 0xE6, 0xE6, 0xF0,
  0xF4, 0xF2, 0xF4, 0xC0, 0xB1, 0x02, 0xF7, 0x0F, 0x02, 0x0E,
  0x00, 0xE6, 0x11, 0xF0, 0x05, 0x01, 0xFF, 0xE8, 0xF4, 0xAD,
  0x9B, 0x2D, 0x08, 0x1A, 0xEF, 0x10, 0xFD, 0xB8, 0x27, 0x0F,
  0x10, 0x13, 0xED, 0xF1, 0x13, 0xFB, 0xCA, 0xE4, 0x17, 0x11,
  0x02, 0xF6, 0xDC, 0xE3, 0x0B, 0xE9, 0x0C, 0x32, 0xF2, 0xF9,
  0x0F, 0xF6, 0x1E, 0xFC, 0xD8, 0xFA, 0xE3, 0xED, 0xDE, 0xE8,
  0x2B, 0x1F, 0x16, 0x2C, 0xF7, 0xF3, 0x43, 0xE3, 0xF5, 0x13,
  0xDA, 0x0E, 0x05, 0xF9, 0x1F, 0xB1, 0x48, 0x01, 0x06, 0x2E,
  0xFE, 0xF8, 0x22, 0x1A, 0x0B, 0x08, 0x0D, 0xEF, 0x0B, 0x07,
  0xEC, 0x11, 0x00, 0xF9, 0x10, 0xF6, 0x09, 0x05, 0x1F, 0x11,
  0xE6, 0x27, 0xF6, 0xF8, 0x0D, 0x0B, 0x2E, 0xF6, 0xE3, 0x03,
  0x05, 0x0E, 0x03, 0x10, 0x06, 0xE8, 0xB3, 0x15, 0xF2, 0xDA,
  0x02, 0x03, 0xFB, 0x07, 0xAD, 0xEE, 0xFB, 0xEC, 0xFC, 0x11,
  0xFF, 0x0B, 0xC9, 0x09, 0x01, 0x18, 0x10, 0x17, 0x0A, 0xEA,
  0xC0, 0xF3, 0x05, 0x2D, 0x0E, 0xFA, 0x21, 0x05, 0x81, 0x1C,
  0xF7, 0xFE, 0x19, 0x11, 0x10, 0x10, 0xB3, 0x23, 0xF3, 0x0B,
  0x0B, 0x18, 0x33, 0x04, 0xE0, 0x0A, 0xE0, 0x1C, 0x1E, 0x24,
  0xFE, 0xF2, 0xBE, 0xE9, 0x28, 0xFC, 0x12, 0xF7, 0x12, 0x20,
  0x9D, 0xF0, 0x1F, 0xF1, 0x00, 0xF0, 0xF5, 0x06, 0x81, 0xF8,
  0x08, 0x03, 0x08, 0x01, 0xF1, 0x16, 0xE9, 0x03, 0x13, 0x01,
  0x0B, 0x07, 0xF2, 0x17, 0x05, 0xFE, 0x01, 0xEC, 0xF8, 0xF8,
  0xFF, 0x07, 0xAB, 0xFD, 0x19, 0xEC, 0x08, 0xF9, 0xEE, 0x06,
  0x9D, 0xF9, 0xFC, 0xF3, 0x13, 0x0B, 0xF0, 0x11, 0xFA, 0xFD,
  0x10, 0xFC, 0x11, 0xFA, 0xEF, 0xFE, 0x04, 0xF7, 0x06, 0xFC,
  0xFD, 0x05, 0xFD, 0x12, 0xE4, 0xF7, 0x0D, 0xF3, 0xFE, 0xFE,
  0xF5, 0x09, 0xC2, 0xF8, 0x0E, 0xF9, 0x0D, 0x0C, 0xF3, 0x07,
  0x03, 0xFE, 0x00, 0xEB, 0xF8, 0x03, 0xE6, 0x0A, 0x01, 0x0B,
  0xF4, 0xF6, 0x06, 0xF9, 0x0E, 0x08, 0x06, 0xF4, 0x09, 0xD8,
  0xF2, 0x08, 0xEB, 0x07, 0xEA, 0x04, 0x09, 0xEC, 0xFE, 0xFA,
  0xD9, 0x17, 0x0F, 0xF9, 0x0F, 0xFE, 0x06, 0xFD, 0xD5, 0x01,
  0x07, 0xF9, 0x02, 0xD9, 0x0D, 0xFD, 0xD8, 0xEA, 0x7F, 0x12,
  0xD8, 0x12, 0x07, 0x17, 0x04, 0xE5, 0x3B, 0x20, 0xF5, 0x17,
  0xFA, 0xFE, 0x0F, 0xEB, 0x06, 0x0B, 0xE7, 0x02, 0xF9, 0x02,
  0x03, 0xE4, 0x07, 0x12, 0xFD, 0x1A, 0xFA, 0xFE, 0xDC, 0xEA,
  0x6C, 0x17, 0xDB, 0x06, 0xF5, 0x0A, 0x0E, 0xF5, 0x1D, 0x0A,
  0xED, 0x0F, 0xF9, 0x11, 0x15, 0xF2, 0x04, 0x08, 0xFF, 0xF8,
  0x09, 0x03, 0x01, 0xF7, 0x02, 0x0F, 0x07, 0x15, 0x04, 0xF6,
  0xD7, 0xFA, 0xF8, 0x15, 0xE0, 0x16, 0xF7, 0x0F, 0xF5, 0xF9,
  0x14, 0x01, 0xF0, 0x0D, 0x06, 0x05, 0xF9, 0xF3, 0x0F, 0x04,
  0xFD, 0x00, 0xF8, 0x05, 0x02, 0xFC, 0xF6, 0x13, 0x0A, 0x02,
  0xFA, 0xF7, 0xDD, 0xE6, 0xD4, 0x17, 0xFC, 0x10, 0x01, 0x12,
  0xEB, 0xE4, 0x16, 0xFD, 0x06, 0x12, 0xFF, 0xFC, 0xFF, 0xF7,
  0x0E, 0x0C, 0x05, 0x01, 0xFB, 0xFF, 0x02, 0xF0, 0xDF, 0x05,
  0x0F, 0x0E, 0x08, 0xF9, 0x03, 0xD0, 0xB5, 0xF3, 0x15, 0x81,
  0xD4, 0x11, 0xE4, 0xF4, 0xCA, 0xFF, 0x13, 0x8C, 0xFB, 0xFB,
  0xED, 0xEF, 0x0A, 0x1F, 0xE8, 0xFC, 0xE5, 0xEF, 0x1F, 0xE4,
  0x20, 0x31, 0xC0, 0x29, 0xE4, 0x15, 0x02, 0xCC, 0xD4, 0x1C,
  0x0A, 0xD1, 0xDD, 0x07, 0xFF, 0x1C, 0xE4, 0xF1, 0x18, 0xBD,
  0xF0, 0xFB, 0x23, 0x01, 0xF4, 0x16, 0xF0, 0x0E, 0xE8, 0x0F,
  0x27, 0x0D, 0x17, 0x21, 0xEE, 0xE2, 0xF4, 0x0C, 0xF2, 0xBC,
  0xC3, 0xFC, 0x08, 0xDB, 0xF6, 0x1C, 0x0F, 0xF0, 0xEC, 0x0F,
  0x23, 0xD7, 0xFF, 0xF0, 0x09, 0x04, 0xEE, 0x06, 0xE9, 0xDD,
  0xF0, 0x05, 0x00, 0x10, 0xF7, 0x03, 0x27, 0x03, 0xEB, 0xF4,
  0xFF, 0xE3, 0xFA, 0x15, 0xE9, 0xFD, 0xEC, 0xF7, 0xFE, 0xFF,
  0xFE, 0x0B, 0x07, 0xC7, 0xD9, 0x14, 0xFB, 0x1C, 0x0C, 0x05,
  0x2F, 0xD3, 0xD9, 0xEB, 0x0C, 0x11, 0x12, 0xFA, 0x22, 0xEC,
  0xF9, 0xF4, 0xC3, 0x44, 0x08, 0xD6, 0x13, 0xC2, 0xC1, 0xD9,
  0x1E, 0x1B, 0x81, 0xF3, 0x0C, 0xCE, 0xE8, 0xE9, 0xF1, 0x23,
  0xB4, 0xEA, 0x0B, 0xDD, 0xF9, 0xE4, 0xAB, 0x2F, 0xE0, 0xE2,
  0x0E, 0xEE, 0xF8, 0xEF, 0xB2, 0x18, 0xA8, 0x00, 0xE9, 0xF8,
  0x0D, 0x05, 0x15, 0x1A, 0xDD, 0x0D, 0x18, 0x06, 0x1D, 0x0D,
  0x14, 0x0E, 0xF7, 0xF3, 0xFE, 0xF2, 0x05, 0x0A, 0xDC, 0x0C,
  0xF4, 0xEA, 0x1E, 0xEF, 0xF6, 0x12, 0x03, 0x23, 0xAF, 0x12,
  0x0C, 0xE6, 0x1D, 0x07, 0x06, 0x28, 0x07, 0xF7, 0x0C, 0xED,
  0x29, 0x13, 0x13, 0x20, 0xDD, 0xF1, 0xF0, 0xD8, 0xF8, 0x10,
  0xF4, 0xFC, 0xE4, 0xEC, 0x00, 0xDA, 0xFE, 0x02, 0xD5, 0x06,
  0xBC, 0xFB, 0x21, 0xFD, 0x1F, 0xF1, 0xD1, 0x1C, 0x19, 0xFF,
  0x0E, 0x10, 0x21, 0x0F, 0xE3, 0x09, 0x16, 0xF8, 0x09, 0x0D,
  0xE7, 0xFC, 0xFC, 0xEF, 0x06, 0xEC, 0x0E, 0x05, 0xF2, 0x07,
  0x32, 0x2E, 0x81, 0x0D, 0x04, 0xF9, 0xE4, 0xFF, 0xF6, 0x1D,
  0xB4, 0x1F, 0x06, 0x15, 0xF5, 0x17, 0xFA, 0x12, 0xE7, 0x0B,
  0x0F, 0x08, 0x08, 0x03, 0xD9, 0x04, 0x08, 0x10, 0x0B, 0xF0,
  0xFE, 0x0D, 0xFC, 0x18, 0xB8, 0x0D, 0xEA, 0xFD, 0xFD, 0x0A,
  0xEE, 0x0D, 0xDB, 0xFD, 0xFD, 0x0B, 0xF0, 0x03, 0xFB, 0x18,
  0xE6, 0x07, 0xE8, 0x07, 0x01, 0x05, 0xE1, 0x01, 0xE9, 0x0A,
  0x0A, 0xFE, 0xF1, 0x04, 0x04, 0x0F, 0xF2, 0x0D, 0x07, 0xFF,
  0x0E, 0xFD, 0xFB, 0x1A, 0xD5, 0x0B, 0xFE, 0xED, 0x0C, 0x0E,
  0x03, 0x0F, 0xE1, 0x0C, 0xF9, 0x0C, 0xEC, 0xF9, 0xF4, 0x15,
  0xE3, 0x0B, 0x01, 0xEA, 0xEA, 0xFC, 0x1B, 0x11, 0x02, 0xFF,
  0xF5, 0x0D, 0x02, 0x00, 0xFC, 0x06, 0xD8, 0x21, 0x13, 0x03,
  0x05, 0xFC, 0xE8, 0x06, 0x0A, 0x04, 0x0D, 0xF7, 0xFD, 0xF5,
  0xF7, 0x02, 0xFF, 0x08, 0x13, 0xF1, 0xF5, 0x03, 0x25, 0xF9,
  0xD3, 0x1A, 0xE8, 0xF5, 0xF4, 0x0A, 0x11, 0xF2, 0x2A, 0xF6,
  0x0C, 0xF1, 0xEE, 0xF6, 0x05, 0xF8, 0x07, 0xFA, 0x16, 0x0A,
  0xF7, 0x04, 0xF2, 0xC8, 0xFA, 0xE7, 0x2A, 0xFC, 0x0D, 0xE1,
  0x37, 0x09, 0xED, 0xFC, 0x1E, 0xEE, 0xEB, 0x04, 0x24, 0x00,
  0x0D, 0xF7, 0x08, 0xF4, 0x08, 0xFD, 0x11, 0xE6, 0xFA, 0x01,
  0x0E, 0xF7, 0x06, 0xF7, 0x20, 0xE7, 0x14, 0x15, 0x20, 0x07,
  0x04, 0xF0, 0x1E, 0x10, 0x02, 0x0F, 0x0D, 0x14, 0xFF, 0x08,
  0x02, 0xF0, 0x13, 0x06, 0x03, 0x0D, 0x10, 0xFD, 0xF0, 0xD7,
  0xFD, 0x0F, 0x00, 0x1E, 0x00, 0xFF, 0xE9, 0xA2, 0x03, 0xD8,
  0x0B, 0x05, 0x00, 0xE3, 0x16, 0x08, 0x3E, 0xEC, 0x24, 0x05,
  0x03, 0xEB, 0x20, 0xED, 0x2F, 0xF8, 0x10, 0xFC, 0x13, 0xEA,
  0x04, 0xCC, 0xE7, 0xE8, 0xF8, 0x13, 0xFE, 0xDD, 0xAB, 0x81,
  0xF0, 0xC3, 0xED, 0x10, 0xFB, 0xC5, 0x1A, 0xFC, 0xFF, 0xFF,
  0x04, 0x00, 0x00, 0x00, 0x40, 0x00, 0x00, 0x00, 0x6D, 0x09,
  0x00, 0x00, 0xE1, 0xF7, 0xFF, 0xFF, 0xA9, 0x00, 0x00, 0x00,
  0x3A, 0x04, 0x00, 0x00, 0x37, 0x09, 0x00, 0x00, 0x2E, 0x1D,
  0x00, 0x00, 0x1F, 0x00, 0x00, 0x00, 0x0F, 0x07, 0x00, 0x00,
  0x8D, 0x09, 0x00, 0x00, 0x4F, 0x05, 0x00, 0x00, 0xB2, 0x00,
  0x00, 0x00, 0x85, 0x02, 0x00, 0x00, 0xD4, 0x01, 0x00, 0x00,
  0xA2, 0x17, 0x00, 0x00, 0x41, 0xFD, 0xFF, 0xFF, 0x5F, 0x00,
  0x00, 0x00, 0x66, 0xFC, 0xFF, 0xFF, 0x04, 0x00, 0x00, 0x00,
  0x00, 0x02, 0x00, 0x00, 0xF7, 0xF5, 0xD2, 0xDD, 0xA4, 0x0E,
  0xC8, 0x0E, 0xF5, 0xD7, 0x39, 0xEF, 0xE5, 0xBF, 0xFD, 0x6B,
  0xDC, 0x46, 0x02, 0xFD, 0xBF, 0x5C, 0xBE, 0x15, 0x5D, 0x0B,
  0x0B, 0x1C, 0xA9, 0x00, 0xE0, 0x08, 0x2D, 0xBD, 0xF1, 0x31,
  0x33, 0x26, 0xAC, 0x34, 0xDF, 0x23, 0x7F, 0x2E, 0x22, 0xA1,
  0xBC, 0x12, 0xD4, 0x10, 0x7B, 0xDD, 0xD0, 0x09, 0xCC, 0x21,
  0xFF, 0xDD, 0x02, 0x0A, 0xE6, 0x26, 0xD4, 0x61, 0x1D, 0xCE,
  0x7F, 0xD3, 0x2C, 0xFB, 0x8E, 0xED, 0x43, 0xDE, 0xB2, 0xE4,
  0xDE, 0xF0, 0xB6, 0x20, 0xE9, 0xBF, 0x1A, 0x1B, 0xFC, 0x32,
  0x00, 0x29, 0x24, 0xFF, 0x32, 0xF3, 0xD4, 0x21, 0x07, 0x32,
  0xEA, 0xFF, 0x4C, 0x1F, 0xD9, 0x30, 0xD7, 0x29, 0x28, 0xF3,
  0xBE, 0x15, 0xF8, 0x00, 0xE6, 0x1B, 0xE1, 0xD4, 0x0F, 0xF9,
  0xBD, 0xF5, 0x11, 0xF9, 0x20, 0x0C, 0x07, 0x10, 0xF0, 0x26,
  0x3B, 0x0C, 0xFC, 0x1D, 0xBC, 0x36, 0x1A, 0xEA, 0x2A, 0x18,
  0xD4, 0xFB, 0x38, 0xB5, 0x61, 0x2C, 0x1E, 0x05, 0x0A, 0x1E,
  0xEE, 0xF5, 0x19, 0x06, 0x48, 0xF4, 0xF2, 0xF4, 0x29, 0xE6,
  0xE4, 0x24, 0xE9, 0xE3, 0xEF, 0xE0, 0x81, 0xF2, 0xFB, 0xED,
  0x55, 0x0A, 0xDC, 0x0C, 0x25, 0xBC, 0x26, 0x07, 0x03, 0x2E,
  0x13, 0xCD, 0xD2, 0xF5, 0x30, 0x19, 0x36, 0xF8, 0x15, 0xD9,
  0x1F, 0xE7, 0xD5, 0xE2, 0xE7, 0xD1, 0xD9, 0x0D, 0xA6, 0x4A,
  0x13, 0x26, 0xEE, 0x02, 0x84, 0xF6, 0x03, 0x8A, 0x6C, 0x29,
  0x33, 0xE6, 0xE9, 0xE9, 0x25, 0xED, 0xF9, 0x1A, 0x74, 0xFF,
  0xE8, 0xF9, 0x01, 0x9F, 0x42, 0xDD, 0xD4, 0xD4, 0xEC, 0x0A,
  0x81, 0x3E, 0x45, 0xEB, 0xF8, 0xD1, 0xC0, 0x21, 0xF9, 0xB9,
  0x34, 0x0D, 0x01, 0x35, 0x27, 0xD2, 0x01, 0x0F, 0x32, 0x2E,
  0x53, 0xE1, 0x05, 0xD5, 0x08, 0xCC, 0x42, 0x0D, 0x09, 0xE0,
  0xEE, 0x0E, 0xC4, 0x24, 0xEC, 0xEB, 0x0A, 0xF3, 0x15, 0x14,
  0xEA, 0x8E, 0x20, 0x08, 0xF7, 0xE7, 0x20, 0xFD, 0xCC, 0xEE,
  0xDB, 0xFB, 0xD5, 0x10, 0x15, 0x12, 0x12, 0x96, 0x2D, 0x18,
  0x0B, 0xD7, 0x14, 0xE4, 0xDB, 0xF6, 0xE0, 0x13, 0x1C, 0xFB,
  0x24, 0x11, 0xF7, 0x81, 0x34, 0xF9, 0x07, 0xDF, 0xF9, 0x09,
  0xB1, 0xB3, 0x9B, 0x01, 0xE2, 0x18, 0x23, 0x0A, 0x04, 0x90,
  0xFA, 0xE9, 0x00, 0xB0, 0xFA, 0xFB, 0xF0, 0xE3, 0xD2, 0xFD,
  0xDB, 0xE7, 0x81, 0xF2, 0x1A, 0xC6, 0x2C, 0x0A, 0x2A, 0xD2,
  0x17, 0xD5, 0x18, 0x0C, 0x0A, 0x1F, 0x01, 0xFA, 0xF3, 0xF9,
  0xF4, 0xD6, 0x3C, 0x11, 0xEA, 0xE1, 0x0F, 0xF7, 0x0F, 0xFC,
  0x0D, 0x1B, 0xAA, 0xE2, 0xE4, 0x04, 0x00, 0xED, 0xFA, 0x1B,
  0x10, 0xEF, 0x0F, 0xCE, 0x0A, 0x16, 0x18, 0x0F, 0xF6, 0xEF,
  0xF7, 0xF2, 0xD6, 0xED, 0x4E, 0x04, 0xE6, 0xFA, 0x1C, 0x0E,
  0x7F, 0xF1, 0x27, 0x26, 0x86, 0xF5, 0x3A, 0xE7, 0xBF, 0x0A,
  0xFB, 0xE4, 0xE1, 0xDC, 0x12, 0xD7, 0x33, 0xEF, 0xE3, 0x13,
  0xCE, 0x1F, 0xF3, 0x04, 0xD5, 0xFD, 0x11, 0xE7, 0x04, 0x0A,
  0x13, 0x01, 0x6E, 0xE4, 0x02, 0xF7, 0x8E, 0x04, 0x0E, 0xFE,
  0xB8, 0xF5, 0x17, 0x2D, 0xEE, 0x18, 0xF9, 0xE3, 0x1E, 0x26,
  0xFD, 0x1B, 0xD6, 0x21, 0xF2, 0x0C, 0xFA, 0xF5, 0xE8, 0x0B,
  0xF4, 0x2E, 0xF6, 0x23, 0x75, 0xC5, 0x33, 0xF4, 0xC7, 0x0D,
  0x54, 0xF9, 0xF8, 0xCE, 0xC0, 0x22, 0x12, 0x34, 0x34, 0xEA,
  0x18, 0xE3, 0x0E, 0xDD, 0xD5, 0xF1, 0xE6, 0x18, 0x50, 0xF1,
  0xF9, 0x25, 0x2A, 0x1B, 0x13, 0x12, 0x7F, 0x2B, 0x02, 0x3C,
  0xEC, 0x19, 0x41, 0x04, 0xED, 0x0E, 0xEE, 0x3E, 0xD9, 0x07,
  0x34, 0xEB, 0x41, 0x49, 0x01, 0xFA, 0xB9, 0xF4, 0xC5, 0x02,
  0x04, 0xFF, 0xF1, 0x0B, 0x20, 0xEA, 0x72, 0xFE, 0xFF, 0xFF,
  0x04, 0x00, 0x00, 0x00, 0x20, 0x00, 0x00, 0x00, 0xF1, 0xF5,
  0xFF, 0xFF, 0x14, 0x0A, 0x00, 0x00, 0x9C, 0xFE, 0xFF, 0xFF,
  0x7D, 0x11, 0x00, 0x00, 0x80, 0x02, 0x00, 0x00, 0xB0, 0x02,
  0x00, 0x00, 0x50, 0x08, 0x00, 0x00, 0x58, 0x0E, 0x00, 0x00,
  0x9E, 0xFE, 0xFF, 0xFF, 0x04, 0x00, 0x00, 0x00, 0x18, 0x00,
  0x00, 0x00, 0xF5, 0xF6, 0xF8, 0x09, 0xCB, 0x06, 0xE9, 0xF1,
  0xFA, 0xF6, 0x08, 0xEB, 0x81, 0xEF, 0xE9, 0x09, 0xE6, 0x13,
  0xE6, 0xCC, 0xD1, 0xB8, 0x1A, 0x14, 0xC2, 0xFE, 0xFF, 0xFF,
  0x04, 0x00, 0x00, 0x00, 0x04, 0x00, 0x00, 0x00, 0x0A, 0x03,
  0x00, 0x00, 0xD2, 0xFE, 0xFF, 0xFF, 0x04, 0x00, 0x00, 0x00,
  0x08, 0x00, 0x00, 0x00, 0x40, 0x00, 0x00, 0x00, 0x40, 0x00,
  0x00, 0x00, 0x18, 0xE4, 0xFF, 0xFF, 0x1C, 0xE4, 0xFF, 0xFF,
  0x0F, 0x00, 0x00, 0x00, 0x4D, 0x4C, 0x49, 0x52, 0x20, 0x43,
  0x6F, 0x6E, 0x76, 0x65, 0x72, 0x74, 0x65, 0x64, 0x2E, 0x00,
  0x01, 0x00, 0x00, 0x00, 0x14, 0x00, 0x00, 0x00, 0x00, 0x00,
  0x0E, 0x00, 0x18, 0x00, 0x14, 0x00, 0x10, 0x00, 0x0C, 0x00,
  0x08, 0x00, 0x04, 0x00, 0x0E, 0x00, 0x00, 0x00, 0x14, 0x00,
  0x00, 0x00, 0x1C, 0x00, 0x00, 0x00, 0xC4, 0x03, 0x00, 0x00,
  0xC8, 0x03, 0x00, 0x00, 0xCC, 0x03, 0x00, 0x00, 0x04, 0x00,
  0x00, 0x00, 0x6D, 0x61, 0x69, 0x6E, 0x00, 0x00, 0x00, 0x00,
  0x0E, 0x00, 0x00, 0x00, 0x8C, 0x03, 0x00, 0x00, 0x30, 0x03,
  0x00, 0x00, 0xDC, 0x02, 0x00, 0x00, 0x8C, 0x02, 0x00, 0x00,
  0x48, 0x02, 0x00, 0x00, 0x04, 0x02, 0x00, 0x00, 0xC4, 0x01,
  0x00, 0x00, 0x80, 0x01, 0x00, 0x00, 0x3C, 0x01, 0x00, 0x00,
  0xFC, 0x00, 0x00, 0x00, 0xB8, 0x00, 0x00, 0x00, 0x78, 0x00,
  0x00, 0x00, 0x34, 0x00, 0x00, 0x00, 0x10, 0x00, 0x00, 0x00,
  0x00, 0x00, 0x0A, 0x00, 0x10, 0x00, 0x0C, 0x00, 0x08, 0x00,
  0x04, 0x00, 0x0A, 0x00, 0x00, 0x00, 0x0C, 0x00, 0x00, 0x00,
  0x10, 0x00, 0x00, 0x00, 0x05, 0x00, 0x00, 0x00, 0x01, 0x00,
  0x00, 0x00, 0x1D, 0x00, 0x00, 0x00, 0x01, 0x00, 0x00, 0x00,
  0x1C, 0x00, 0x00, 0x00, 0x3E, 0xFD, 0xFF, 0xFF, 0x14, 0x00,
  0x00, 0x00, 0x00, 0x00, 0x00, 0x01, 0x1C, 0x00, 0x00, 0x00,
  0x20, 0x00, 0x00, 0x00, 0x01, 0x00, 0x00, 0x00, 0x30, 0xFD,
  0xFF, 0xFF, 0x00, 0x00, 0x00, 0x01, 0x01, 0x00, 0x00, 0x00,
  0x01, 0x00, 0x00, 0x00, 0x01, 0x00, 0x00, 0x00, 0x1C, 0x00,
  0x00, 0x00, 0x03, 0x00, 0x00, 0x00, 0x1B, 0x00, 0x00, 0x00,
  0x03, 0x00, 0x00, 0x00, 0x02, 0x00, 0x00, 0x00, 0x7E, 0xFD,
  0xFF, 0xFF, 0x1C, 0x00, 0x00, 0x00, 0x00, 0x00, 0x00, 0x0A,
  0x1C, 0x00, 0x00, 0x00, 0x20, 0x00, 0x00, 0x00, 0x04, 0x00,
  0x00, 0x00, 0x00, 0x00, 0x06, 0x00, 0x08, 0x00, 0x04, 0x00,
  0x06, 0x00, 0x00, 0x00, 0x03, 0x00, 0x00, 0x00, 0x01, 0x00,
  0x00, 0x00, 0x1B, 0x00, 0x00, 0x00, 0x02, 0x00, 0x00, 0x00,
  0x11, 0x00, 0x00, 0x00, 0x1A, 0x00, 0x00, 0x00, 0xBA, 0xFD,
  0xFF, 0xFF, 0x20, 0x00, 0x00, 0x00, 0x00, 0x00, 0x00, 0x0F,
  0x20, 0x00, 0x00, 0x00, 0x24, 0x00, 0x00, 0x00, 0x03, 0x00,
  0x00, 0x00, 0x0C, 0x00, 0x08, 0x00, 0x00, 0x00, 0x00, 0x00,
  0x00, 0x00, 0x07, 0x00, 0x0C, 0x00, 0x00, 0x00, 0x00, 0x00,
  0x00, 0x01, 0x01, 0x00, 0x00, 0x00, 0x1A, 0x00, 0x00, 0x00,
  0x02, 0x00, 0x00, 0x00, 0x19, 0x00, 0x00, 0x00, 0x01, 0x00,
  0x00, 0x00, 0xFA, 0xFD, 0xFF, 0xFF, 0x14, 0x00, 0x00, 0x00,
  0x00, 0x00, 0x00, 0x05, 0x20, 0x00, 0x00, 0x00, 0x24, 0x00,
  0x00, 0x00, 0x02, 0x00, 0x00, 0x00, 0x86, 0xFE, 0xFF, 0xFF,
  0x02, 0x00, 0x00, 0x00, 0x02, 0x00, 0x00, 0x00, 0x02, 0x00,
  0x00, 0x00, 0x02, 0x00, 0x00, 0x00, 0x01, 0x00, 0x00, 0x00,
  0x19, 0x00, 0x00, 0x00, 0x01, 0x00, 0x00, 0x00, 0x18, 0x00,
  0x00, 0x00, 0x36, 0xFE, 0xFF, 0xFF, 0x14, 0x00, 0x00, 0x00,
  0x00, 0x00, 0x00, 0x01, 0x1C, 0x00, 0x00, 0x00, 0x20, 0x00,
  0x00, 0x00, 0x01, 0x00, 0x00, 0x00, 0x28, 0xFE, 0xFF, 0xFF,
  0x00, 0x00, 0x00, 0x01, 0x01, 0x00, 0x00, 0x00, 0x01, 0x00,
  0x00, 0x00, 0x01, 0x00, 0x00, 0x00, 0x18, 0x00, 0x00, 0x00,
  0x03, 0x00, 0x00, 0x00, 0x17, 0x00, 0x00, 0x00, 0x05, 0x00,
  0x00, 0x00, 0x04, 0x00, 0x00, 0x00, 0x76, 0xFE, 0xFF, 0xFF,
  0x14, 0x00, 0x00, 0x00, 0x00, 0x00, 0x00, 0x01, 0x1C, 0x00,
  0x00, 0x00, 0x20, 0x00, 0x00, 0x00, 0x01, 0x00, 0x00, 0x00,
  0x68, 0xFE, 0xFF, 0xFF, 0x00, 0x00, 0x00, 0x01, 0x01, 0x00,
  0x00, 0x00, 0x01, 0x00, 0x00, 0x00, 0x01, 0x00, 0x00, 0x00,
  0x17, 0x00, 0x00, 0x00, 0x03, 0x00, 0x00, 0x00, 0x16, 0x00,
  0x00, 0x00, 0x07, 0x00, 0x00, 0x00, 0x06, 0x00, 0x00, 0x00,
  0xB6, 0xFE, 0xFF, 0xFF, 0x14, 0x00, 0x00, 0x00, 0x00, 0x00,
  0x00, 0x05, 0x20, 0x00, 0x00, 0x00, 0x24, 0x00, 0x00, 0x00,
  0x02, 0x00, 0x00, 0x00, 0x42, 0xFF, 0xFF, 0xFF, 0x02, 0x00,
  0x00, 0x00, 0x02, 0x00, 0x00, 0x00, 0x02, 0x00, 0x00, 0x00,
  0x02, 0x00, 0x00, 0x00, 0x01, 0x00, 0x00, 0x00, 0x16, 0x00,
  0x00, 0x00, 0x01, 0x00, 0x00, 0x00, 0x15, 0x00, 0x00, 0x00,
  0xF2, 0xFE, 0xFF, 0xFF, 0x14, 0x00, 0x00, 0x00, 0x00, 0x00,
  0x00, 0x01, 0x1C, 0x00, 0x00, 0x00, 0x20, 0x00, 0x00, 0x00,
  0x01, 0x00, 0x00, 0x00, 0xE4, 0xFE, 0xFF, 0xFF, 0x00, 0x00,
  0x00, 0x01, 0x01, 0x00, 0x00, 0x00, 0x01, 0x00, 0x00, 0x00,
  0x01, 0x00, 0x00, 0x00, 0x15, 0x00, 0x00, 0x00, 0x03, 0x00,
  0x00, 0x00, 0x14, 0x00, 0x00, 0x00, 0x09, 0x00, 0x00, 0x00,
  0x08, 0x00, 0x00, 0x00, 0x32, 0xFF, 0xFF, 0xFF, 0x14, 0x00,
  0x00, 0x00, 0x00, 0x00, 0x00, 0x01, 0x1C, 0x00, 0x00, 0x00,
  0x20, 0x00, 0x00, 0x00, 0x01, 0x00, 0x00, 0x00, 0x24, 0xFF,
  0xFF, 0xFF, 0x00, 0x00, 0x00, 0x01, 0x01, 0x00, 0x00, 0x00,
  0x01, 0x00, 0x00, 0x00, 0x01, 0x00, 0x00, 0x00, 0x14, 0x00,
  0x00, 0x00, 0x03, 0x00, 0x00, 0x00, 0x13, 0x00, 0x00, 0x00,
  0x0B, 0x00, 0x00, 0x00, 0x0A, 0x00, 0x00, 0x00, 0x72, 0xFF,
  0xFF, 0xFF, 0x24, 0x00, 0x00, 0x00, 0x00, 0x00, 0x00, 0x05,
  0x30, 0x00, 0x00, 0x00, 0x34, 0x00, 0x00, 0x00, 0x02, 0x00,
  0x00, 0x00, 0x00, 0x00, 0x0E, 0x00, 0x14, 0x00, 0x00, 0x00,
  0x10, 0x00, 0x0C, 0x00, 0x08, 0x00, 0x04, 0x00, 0x0E, 0x00,
  0x00, 0x00, 0x02, 0x00, 0x00, 0x00, 0x02, 0x00, 0x00, 0x00,
  0x02, 0x00, 0x00, 0x00, 0x02, 0x00, 0x00, 0x00, 0x01, 0x00,
  0x00, 0x00, 0x13, 0x00, 0x00, 0x00, 0x01, 0x00, 0x00, 0x00,
  0x12, 0x00, 0x00, 0x00, 0xBE, 0xFF, 0xFF, 0xFF, 0x14, 0x00,
  0x00, 0x00, 0x00, 0x00, 0x00, 0x01, 0x1C, 0x00, 0x00, 0x00,
  0x20, 0x00, 0x00, 0x00, 0x01, 0x00, 0x00, 0x00, 0xB0, 0xFF,
  0xFF, 0xFF, 0x00, 0x00, 0x00, 0x01, 0x01, 0x00, 0x00, 0x00,
  0x01, 0x00, 0x00, 0x00, 0x01, 0x00, 0x00, 0x00, 0x12, 0x00,
  0x00, 0x00, 0x03, 0x00, 0x00, 0x00, 0x11, 0x00, 0x00, 0x00,
  0x0D, 0x00, 0x00, 0x00, 0x0C, 0x00, 0x00, 0x00, 0x00, 0x00,
  0x0E, 0x00, 0x18, 0x00, 0x14, 0x00, 0x10, 0x00, 0x0C, 0x00,
  0x0B, 0x00, 0x04, 0x00, 0x0E, 0x00, 0x00, 0x00, 0x20, 0x00,
  0x00, 0x00, 0x00, 0x00, 0x00, 0x01, 0x28, 0x00, 0x00, 0x00,
  0x2C, 0x00, 0x00, 0x00, 0x01, 0x00, 0x00, 0x00, 0x0C, 0x00,
  0x10, 0x00, 0x00, 0x00, 0x0C, 0x00, 0x08, 0x00, 0x07, 0x00,
  0x0C, 0x00, 0x00, 0x00, 0x00, 0x00, 0x00, 0x01, 0x01, 0x00,
  0x00, 0x00, 0x01, 0x00, 0x00, 0x00, 0x01, 0x00, 0x00, 0x00,
  0x11, 0x00, 0x00, 0x00, 0x03, 0x00, 0x00, 0x00, 0x10, 0x00,
  0x00, 0x00, 0x0F, 0x00, 0x00, 0x00, 0x0E, 0x00, 0x00, 0x00,
  0x00, 0x00, 0x0A, 0x00, 0x0C, 0x00, 0x00, 0x00, 0x08, 0x00,
  0x04, 0x00, 0x0A, 0x00, 0x00, 0x00, 0x08, 0x00, 0x00, 0x00,
  0x0C, 0x00, 0x00, 0x00, 0x01, 0x00, 0x00, 0x00, 0x10, 0x00,
  0x00, 0x00, 0x01, 0x00, 0x00, 0x00, 0x00, 0x00, 0x00, 0x00,
  0x01, 0x00, 0x00, 0x00, 0x1D, 0x00, 0x00, 0x00, 0x01, 0x00,
  0x00, 0x00, 0x00, 0x00, 0x00, 0x00, 0x1E, 0x00, 0x00, 0x00,
  0xA0, 0x17, 0x00, 0x00, 0x38, 0x17, 0x00, 0x00, 0x9C, 0x16,
  0x00, 0x00, 0x24, 0x16, 0x00, 0x00, 0x58, 0x15, 0x00, 0x00,
  0x8C, 0x14, 0x00, 0x00, 0x60, 0x13, 0x00, 0x00, 0x34, 0x12,
  0x00, 0x00, 0x68, 0x11, 0x00, 0x00, 0x9C, 0x10, 0x00, 0x00,
  0x70, 0x0F, 0x00, 0x00, 0x44, 0x0E, 0x00, 0x00, 0x78, 0x0D,
  0x00, 0x00, 0xAC, 0x0C, 0x00, 0x00, 0x80, 0x0B, 0x00, 0x00,
  0x54, 0x0A, 0x00, 0x00, 0xD0, 0x09, 0x00, 0x00, 0xBC, 0x08,
  0x00, 0x00, 0xC0, 0x07, 0x00, 0x00, 0x24, 0x07, 0x00, 0x00,
  0x28, 0x06, 0x00, 0x00, 0x2C, 0x05, 0x00, 0x00, 0x90, 0x04,
  0x00, 0x00, 0xAC, 0x03, 0x00, 0x00, 0xC8, 0x02, 0x00, 0x00,
  0x2C, 0x02, 0x00, 0x00, 0x90, 0x01, 0x00, 0x00, 0xFC, 0x00,
  0x00, 0x00, 0x70, 0x00, 0x00, 0x00, 0x04, 0x00, 0x00, 0x00,
  0xEE, 0xE8, 0xFF, 0xFF, 0x00, 0x00, 0x00, 0x01, 0x14, 0x00,
  0x00, 0x00, 0x24, 0x00, 0x00, 0x00, 0x24, 0x00, 0x00, 0x00,
  0x1E, 0x00, 0x00, 0x00, 0x3C, 0x00, 0x00, 0x00, 0x04, 0x00,
  0x00, 0x00, 0xFF, 0xFF, 0xFF, 0xFF, 0x40, 0x00, 0x00, 0x00,
  0x40, 0x00, 0x00, 0x00, 0x01, 0x00, 0x00, 0x00, 0xD8, 0xE8,
  0xFF, 0xFF, 0x19, 0x00, 0x00, 0x00, 0x53, 0x74, 0x61, 0x74,
  0x65, 0x66, 0x75, 0x6C, 0x50, 0x61, 0x72, 0x74, 0x69, 0x74,
  0x69, 0x6F, 0x6E, 0x65, 0x64, 0x43, 0x61, 0x6C, 0x6C, 0x3A,
  0x30, 0x00, 0x00, 0x00, 0x04, 0x00, 0x00, 0x00, 0x01, 0x00,
  0x00, 0x00, 0x40, 0x00, 0x00, 0x00, 0x40, 0x00, 0x00, 0x00,
  0x01, 0x00, 0x00, 0x00, 0xE6, 0xF6, 0xFF, 0xFF, 0x00, 0x00,
  0x00, 0x01, 0x18, 0x00, 0x00, 0x00, 0x28, 0x00, 0x00, 0x00,
  0x44, 0x00, 0x00, 0x00, 0x1D, 0x00, 0x00, 0x00, 0x00, 0x00,
  0x00, 0x09, 0x58, 0x00, 0x00, 0x00, 0x04, 0x00, 0x00, 0x00,
  0xFF, 0xFF, 0xFF, 0xFF, 0x40, 0x00, 0x00, 0x00, 0x40, 0x00,
  0x00, 0x00, 0x01, 0x00, 0x00, 0x00, 0x54, 0xEA, 0xFF, 0xFF,
  0x08, 0x00, 0x00, 0x00, 0x10, 0x00, 0x00, 0x00, 0x01, 0x00,
  0x00, 0x00, 0x80, 0xFF, 0xFF, 0xFF, 0xFF, 0xFF, 0xFF, 0xFF,
  0x01, 0x00, 0x00, 0x00, 0x2D, 0x22, 0xC8, 0x3B, 0x1A, 0x00,
  0x00, 0x00, 0x53, 0x74, 0x61, 0x74, 0x65, 0x66, 0x75, 0x6C,
  0x50, 0x61, 0x72, 0x74, 0x69, 0x74, 0x69, 0x6F, 0x6E, 0x65,
  0x64, 0x43, 0x61, 0x6C, 0x6C, 0x3A, 0x30, 0x31, 0x00, 0x00,
  0x04, 0x00, 0x00, 0x00, 0x01, 0x00, 0x00, 0x00, 0x40, 0x00,
  0x00, 0x00, 0x40, 0x00, 0x00, 0x00, 0x01, 0x00, 0x00, 0x00,
  0x6E, 0xF7, 0xFF, 0xFF, 0x00, 0x00, 0x00, 0x01, 0x18, 0x00,
  0x00, 0x00, 0x28, 0x00, 0x00, 0x00, 0x48, 0x00, 0x00, 0x00,
  0x1C, 0x00, 0x00, 0x00, 0x00, 0x00, 0x00, 0x09, 0x60, 0x00,
  0x00, 0x00, 0x04, 0x00, 0x00, 0x00, 0xFF, 0xFF, 0xFF, 0xFF,
  0x40, 0x00, 0x00, 0x00, 0x40, 0x00, 0x00, 0x00, 0x18, 0x00,
  0x00, 0x00, 0xDC, 0xEA, 0xFF, 0xFF, 0x08, 0x00, 0x00, 0x00,
  0x14, 0x00, 0x00, 0x00, 0x01, 0x00, 0x00, 0x00, 0x80, 0xFF,
  0xFF, 0xFF, 0xFF, 0xFF, 0xFF, 0xFF, 0x00, 0x00, 0x00, 0x00,
  0x01, 0x00, 0x00, 0x00, 0x03, 0x16, 0x46, 0x3C, 0x1C, 0x00,
  0x00, 0x00, 0x6D, 0x6F, 0x64, 0x65, 0x6C, 0x5F, 0x34, 0x2F,
  0x63, 0x6F, 0x6E, 0x63, 0x61, 0x74, 0x65, 0x6E, 0x61, 0x74,
  0x65, 0x5F, 0x34, 0x2F, 0x63, 0x6F, 0x6E, 0x63, 0x61, 0x74,
  0x00, 0x00, 0x00, 0x00, 0x04, 0x00, 0x00, 0x00, 0x01, 0x00,
  0x00, 0x00, 0x40, 0x00, 0x00, 0x00, 0x40, 0x00, 0x00, 0x00,
  0x18, 0x00, 0x00, 0x00, 0xFE, 0xF7, 0xFF, 0xFF, 0x00, 0x00,
  0x00, 0x01, 0x18, 0x00, 0x00, 0x00, 0x28, 0x00, 0x00, 0x00,
  0x44, 0x00, 0x00, 0x00, 0x1B, 0x00, 0x00, 0x00, 0x00, 0x00,
  0x00, 0x09, 0x68, 0x00, 0x00, 0x00, 0x04, 0x00, 0x00, 0x00,
  0xFF, 0xFF, 0xFF, 0xFF, 0x40, 0x00, 0x00, 0x00, 0x40, 0x00,
  0x00, 0x00, 0x08, 0x00, 0x00, 0x00, 0x6C, 0xEB, 0xFF, 0xFF,
  0x08, 0x00, 0x00, 0x00, 0x10, 0x00, 0x00, 0x00, 0x01, 0x00,
  0x00, 0x00, 0x80, 0xFF, 0xFF, 0xFF, 0xFF, 0xFF, 0xFF, 0xFF,
  0x01, 0x00, 0x00, 0x00, 0x03, 0x16, 0x46, 0x3C, 0x28, 0x00,
  0x00, 0x00, 0x6D, 0x6F, 0x64, 0x65, 0x6C, 0x5F, 0x34, 0x2F,
  0x72, 0x65, 0x73, 0x69, 0x7A, 0x69, 0x6E, 0x67, 0x5F, 0x35,
  0x2F, 0x72, 0x65, 0x73, 0x69, 0x7A, 0x65, 0x2F, 0x52, 0x65,
  0x73, 0x69, 0x7A, 0x65, 0x42, 0x69, 0x6C, 0x69, 0x6E, 0x65,
  0x61, 0x72, 0x00, 0x00, 0x00, 0x00, 0x04, 0x00, 0x00, 0x00,
  0x01, 0x00, 0x00, 0x00, 0x40, 0x00, 0x00, 0x00, 0x40, 0x00,
  0x00, 0x00, 0x08, 0x00, 0x00, 0x00, 0x96, 0xF8, 0xFF, 0xFF,
  0x00, 0x00, 0x00, 0x01, 0x18, 0x00, 0x00, 0x00, 0x28, 0x00,
  0x00, 0x00, 0x48, 0x00, 0x00, 0x00, 0x1A, 0x00, 0x00, 0x00,
  0x00, 0x00, 0x00, 0x09, 0x68, 0x00, 0x00, 0x00, 0x04, 0x00,
  0x00, 0x00, 0xFF, 0xFF, 0xFF, 0xFF, 0x08, 0x00, 0x00, 0x00,
  0x08, 0x00, 0x00, 0x00, 0x08, 0x00, 0x00, 0x00, 0x04, 0xEC,
  0xFF, 0xFF, 0x08, 0x00, 0x00, 0x00, 0x14, 0x00, 0x00, 0x00,
  0x01, 0x00, 0x00, 0x00, 0x80, 0xFF, 0xFF, 0xFF, 0xFF, 0xFF,
  0xFF, 0xFF, 0x00, 0x00, 0x00, 0x00, 0x01, 0x00, 0x00, 0x00,
  0x03, 0x16, 0x46, 0x3C, 0x24, 0x00, 0x00, 0x00, 0x6D, 0x6F,
  0x64, 0x65, 0x6C, 0x5F, 0x34, 0x2F, 0x61, 0x76, 0x65, 0x72,
  0x61, 0x67, 0x65, 0x5F, 0x70, 0x6F, 0x6F, 0x6C, 0x69, 0x6E,
  0x67, 0x32, 0x64, 0x5F, 0x31, 0x34, 0x2F, 0x41, 0x76, 0x67,
  0x50, 0x6F, 0x6F, 0x6C, 0x00, 0x00, 0x00, 0x00, 0x04, 0x00,
  0x00, 0x00, 0x01, 0x00, 0x00, 0x00, 0x08, 0x00, 0x00, 0x00,
  0x08, 0x00, 0x00, 0x00, 0x08, 0x00, 0x00, 0x00, 0x2E, 0xF9,
  0xFF, 0xFF, 0x00, 0x00, 0x00, 0x01, 0x18, 0x00, 0x00, 0x00,
  0x28, 0x00, 0x00, 0x00, 0x44, 0x00, 0x00, 0x00, 0x19, 0x00,
  0x00, 0x00, 0x00, 0x00, 0x00, 0x09, 0xB0, 0x00, 0x00, 0x00,
  0x04, 0x00, 0x00, 0x00, 0xFF, 0xFF, 0xFF, 0xFF, 0x10, 0x00,
  0x00, 0x00, 0x10, 0x00, 0x00, 0x00, 0x08, 0x00, 0x00, 0x00,
  0x9C, 0xEC, 0xFF, 0xFF, 0x08, 0x00, 0x00, 0x00, 0x10, 0x00,
  0x00, 0x00, 0x01, 0x00, 0x00, 0x00, 0x80, 0xFF, 0xFF, 0xFF,
  0xFF, 0xFF, 0xFF, 0xFF, 0x01, 0x00, 0x00, 0x00, 0x03, 0x16,
  0x46, 0x3C, 0x72, 0x00, 0x00, 0x00, 0x6D, 0x6F, 0x64, 0x65,
  0x6C, 0x5F, 0x34, 0x2F, 0x63, 0x6F, 0x6E, 0x76, 0x32, 0x64,
  0x5F, 0x33, 0x34, 0x2F, 0x52, 0x65, 0x6C, 0x75, 0x3B, 0x6D,
  0x6F, 0x64, 0x65, 0x6C, 0x5F, 0x34, 0x2F, 0x63, 0x6F, 0x6E,
  0x76, 0x32, 0x64, 0x5F, 0x33, 0x34, 0x2F, 0x42, 0x69, 0x61,
  0x73, 0x41, 0x64, 0x64, 0x3B, 0x6D, 0x6F, 0x64, 0x65, 0x6C,
  0x5F, 0x34, 0x2F, 0x63, 0x6F, 0x6E, 0x76, 0x32, 0x64, 0x5F,
  0x33, 0x34, 0x2F, 0x43, 0x6F, 0x6E, 0x76, 0x32, 0x44, 0x3B,
  0x6D, 0x6F, 0x64, 0x65, 0x6C, 0x5F, 0x34, 0x2F, 0x63, 0x6F,
  0x6E, 0x76, 0x32, 0x64, 0x5F, 0x33, 0x34, 0x2F, 0x42, 0x69,
  0x61, 0x73, 0x41, 0x64, 0x64, 0x2F, 0x52, 0x65, 0x61, 0x64,
  0x56, 0x61, 0x72, 0x69, 0x61, 0x62, 0x6C, 0x65, 0x4F, 0x70,
  0x00, 0x00, 0x04, 0x00, 0x00, 0x00, 0x01, 0x00, 0x00, 0x00,
  0x10, 0x00, 0x00, 0x00, 0x10, 0x00, 0x00, 0x00, 0x08, 0x00,
  0x00, 0x00, 0x0E, 0xFA, 0xFF, 0xFF, 0x00, 0x00, 0x00, 0x01,
  0x18, 0x00, 0x00, 0x00, 0x28, 0x00, 0x00, 0x00, 0x44, 0x00,
  0x00, 0x00, 0x18, 0x00, 0x00, 0x00, 0x00, 0x00, 0x00, 0x09,
  0xB0, 0x00, 0x00, 0x00, 0x04, 0x00, 0x00, 0x00, 0xFF, 0xFF,
  0xFF, 0xFF, 0x10, 0x00, 0x00, 0x00, 0x10, 0x00, 0x00, 0x00,
  0x10, 0x00, 0x00, 0x00, 0x7C, 0xED, 0xFF, 0xFF, 0x08, 0x00,
  0x00, 0x00, 0x10, 0x00, 0x00, 0x00, 0x01, 0x00, 0x00, 0x00,
  0x80, 0xFF, 0xFF, 0xFF, 0xFF, 0xFF, 0xFF, 0xFF, 0x01, 0x00,
  0x00, 0x00, 0x14, 0xD2, 0x4B, 0x3C, 0x72, 0x00, 0x00, 0x00,
  0x6D, 0x6F, 0x64, 0x65, 0x6C, 0x5F, 0x34, 0x2F, 0x63, 0x6F,
  0x6E, 0x76, 0x32, 0x64, 0x5F, 0x33, 0x33, 0x2F, 0x52, 0x65,
  0x6C, 0x75, 0x3B, 0x6D, 0x6F, 0x64, 0x65, 0x6C, 0x5F, 0x34,
  0x2F, 0x63, 0x6F, 0x6E, 0x76, 0x32, 0x64, 0x5F, 0x33, 0x33,
  0x2F, 0x42, 0x69, 0x61, 0x73, 0x41, 0x64, 0x64, 0x3B, 0x6D,
  0x6F, 0x64, 0x65, 0x6C, 0x5F, 0x34, 0x2F, 0x63, 0x6F, 0x6E,
  0x76, 0x32, 0x64, 0x5F, 0x33, 0x33, 0x2F, 0x43, 0x6F, 0x6E,
  0x76, 0x32, 0x44, 0x3B, 0x6D, 0x6F, 0x64, 0x65, 0x6C, 0x5F,
  0x34, 0x2F, 0x63, 0x6F, 0x6E, 0x76, 0x32, 0x64, 0x5F, 0x33,
  0x33, 0x2F, 0x42, 0x69, 0x61, 0x73, 0x41, 0x64, 0x64, 0x2F,
  0x52, 0x65, 0x61, 0x64, 0x56, 0x61, 0x72, 0x69, 0x61, 0x62,
  0x6C, 0x65, 0x4F, 0x70, 0x00, 0x00, 0x04, 0x00, 0x00, 0x00,
  0x01, 0x00, 0x00, 0x00, 0x10, 0x00, 0x00, 0x00, 0x10, 0x00,
  0x00, 0x00, 0x10, 0x00, 0x00, 0x00, 0xEE, 0xFA, 0xFF, 0xFF,
  0x00, 0x00, 0x00, 0x01, 0x18, 0x00, 0x00, 0x00, 0x28, 0x00,
  0x00, 0x00, 0x48, 0x00, 0x00, 0x00, 0x17, 0x00, 0x00, 0x00,
  0x00, 0x00, 0x00, 0x09, 0x68, 0x00, 0x00, 0x00, 0x04, 0x00,
  0x00, 0x00, 0xFF, 0xFF, 0xFF, 0xFF, 0x10, 0x00, 0x00, 0x00,
  0x10, 0x00, 0x00, 0x00, 0x08, 0x00, 0x00, 0x00, 0x5C, 0xEE,
  0xFF, 0xFF, 0x08, 0x00, 0x00, 0x00, 0x14, 0x00, 0x00, 0x00,
  0x01, 0x00, 0x00, 0x00, 0x80, 0xFF, 0xFF, 0xFF, 0xFF, 0xFF,
  0xFF, 0xFF, 0x00, 0x00, 0x00, 0x00, 0x01, 0x00, 0x00, 0x00,
  0x59, 0x1B, 0x2B, 0x3C, 0x24, 0x00, 0x00, 0x00, 0x6D, 0x6F,
  0x64, 0x65, 0x6C, 0x5F, 0x34, 0x2F, 0x61, 0x76, 0x65, 0x72,
  0x61, 0x67, 0x65, 0x5F, 0x70, 0x6F, 0x6F, 0x6C, 0x69, 0x6E,
  0x67, 0x32, 0x64, 0x5F, 0x31, 0x33, 0x2F, 0x41, 0x76, 0x67,
  0x50, 0x6F, 0x6F, 0x6C, 0x00, 0x00, 0x00, 0x00, 0x04, 0x00,
  0x00, 0x00, 0x01, 0x00, 0x00, 0x00, 0x10, 0x00, 0x00, 0x00,
  0x10, 0x00, 0x00, 0x00, 0x08, 0x00, 0x00, 0x00, 0x86, 0xFB,
  0xFF, 0xFF, 0x00, 0x00, 0x00, 0x01, 0x18, 0x00, 0x00, 0x00,
  0x28, 0x00, 0x00, 0x00, 0x44, 0x00, 0x00, 0x00, 0x16, 0x00,
  0x00, 0x00, 0x00, 0x00, 0x00, 0x09, 0xC8, 0x00, 0x00, 0x00,
  0x04, 0x00, 0x00, 0x00, 0xFF, 0xFF, 0xFF, 0xFF, 0x20, 0x00,
  0x00, 0x00, 0x20, 0x00, 0x00, 0x00, 0x08, 0x00, 0x00, 0x00,
  0xF4, 0xEE, 0xFF, 0xFF, 0x08, 0x00, 0x00, 0x00, 0x10, 0x00,
  0x00, 0x00, 0x01, 0x00, 0x00, 0x00, 0x80, 0xFF, 0xFF, 0xFF,
  0xFF, 0xFF, 0xFF, 0xFF, 0x01, 0x00, 0x00, 0x00, 0x59, 0x1B,
  0x2B, 0x3C, 0x8B, 0x00, 0x00, 0x00, 0x6D, 0x6F, 0x64, 0x65,
  0x6C, 0x5F, 0x34, 0x2F, 0x63, 0x6F, 0x6E, 0x76, 0x32, 0x64,
  0x5F, 0x33, 0x32, 0x2F, 0x52, 0x65, 0x6C, 0x75, 0x3B, 0x6D,
  0x6F, 0x64, 0x65, 0x6C, 0x5F, 0x34, 0x2F, 0x63, 0x6F, 0x6E,
  0x76, 0x32, 0x64, 0x5F, 0x33, 0x32, 0x2F, 0x42, 0x69, 0x61,
  0x73, 0x41, 0x64, 0x64, 0x3B, 0x6D, 0x6F, 0x64, 0x65, 0x6C,
  0x5F, 0x34, 0x2F, 0x63, 0x6F, 0x6E, 0x76, 0x32, 0x64, 0x5F,
  0x33, 0x34, 0x2F, 0x43, 0x6F, 0x6E, 0x76, 0x32, 0x44, 0x3B,
  0x6D, 0x6F, 0x64, 0x65, 0x6C, 0x5F, 0x34, 0x2F, 0x63, 0x6F,
  0x6E, 0x76, 0x32, 0x64, 0x5F, 0x33, 0x32, 0x2F, 0x43, 0x6F,
  0x6E, 0x76, 0x32, 0x44, 0x3B, 0x6D, 0x6F, 0x64, 0x65, 0x6C,
  0x5F, 0x34, 0x2F, 0x63, 0x6F, 0x6E, 0x76, 0x32, 0x64, 0x5F,
  0x33, 0x32, 0x2F, 0x42, 0x69, 0x61, 0x73, 0x41, 0x64, 0x64,
  0x2F, 0x52, 0x65, 0x61, 0x64, 0x56, 0x61, 0x72, 0x69, 0x61,
  0x62, 0x6C, 0x65, 0x4F, 0x70, 0x00, 0x04, 0x00, 0x00, 0x00,
  0x01, 0x00, 0x00, 0x00, 0x20, 0x00, 0x00, 0x00, 0x20, 0x00,
  0x00, 0x00, 0x08, 0x00, 0x00, 0x00, 0x7E, 0xFC, 0xFF, 0xFF,
  0x00, 0x00, 0x00, 0x01, 0x18, 0x00, 0x00, 0x00, 0x28, 0x00,
  0x00, 0x00, 0x44, 0x00, 0x00, 0x00, 0x15, 0x00, 0x00, 0x00,
  0x00, 0x00, 0x00, 0x09, 0xC8, 0x00, 0x00, 0x00, 0x04, 0x00,
  0x00, 0x00, 0xFF, 0xFF, 0xFF, 0xFF, 0x20, 0x00, 0x00, 0x00,
  0x20, 0x00, 0x00, 0x00, 0x10, 0x00, 0x00, 0x00, 0xEC, 0xEF,
  0xFF, 0xFF, 0x08, 0x00, 0x00, 0x00, 0x10, 0x00, 0x00, 0x00,
  0x01, 0x00, 0x00, 0x00, 0x80, 0xFF, 0xFF, 0xFF, 0xFF, 0xFF,
  0xFF, 0xFF, 0x01, 0x00, 0x00, 0x00, 0x40, 0xCC, 0xC5, 0x3B,
  0x8B, 0x00, 0x00, 0x00, 0x6D, 0x6F, 0x64, 0x65, 0x6C, 0x5F,
  0x34, 0x2F, 0x63, 0x6F, 0x6E, 0x76, 0x32, 0x64, 0x5F, 0x33,
  0x31, 0x2F, 0x52, 0x65, 0x6C, 0x75, 0x3B, 0x6D, 0x6F, 0x64,
  0x65, 0x6C, 0x5F, 0x34, 0x2F, 0x63, 0x6F, 0x6E, 0x76, 0x32,
  0x64, 0x5F, 0x33, 0x31, 0x2F, 0x42, 0x69, 0x61, 0x73, 0x41,
  0x64, 0x64, 0x3B, 0x6D, 0x6F, 0x64, 0x65, 0x6C, 0x5F, 0x34,
  0x2F, 0x63, 0x6F, 0x6E, 0x76, 0x32, 0x64, 0x5F, 0x33, 0x33,
  0x2F, 0x43, 0x6F, 0x6E, 0x76, 0x32, 0x44, 0x3B, 0x6D, 0x6F,
  0x64, 0x65, 0x6C, 0x5F, 0x34, 0x2F, 0x63, 0x6F, 0x6E, 0x76,
  0x32, 0x64, 0x5F, 0x33, 0x31, 0x2F, 0x43, 0x6F, 0x6E, 0x76,
  0x32, 0x44, 0x3B, 0x6D, 0x6F, 0x64, 0x65, 0x6C, 0x5F, 0x34,
  0x2F, 0x63, 0x6F, 0x6E, 0x76, 0x32, 0x64, 0x5F, 0x33, 0x31,
  0x2F, 0x42, 0x69, 0x61, 0x73, 0x41, 0x64, 0x64, 0x2F, 0x52,
  0x65, 0x61, 0x64, 0x56, 0x61, 0x72, 0x69, 0x61, 0x62, 0x6C,
  0x65, 0x4F, 0x70, 0x00, 0x04, 0x00, 0x00, 0x00, 0x01, 0x00,
  0x00, 0x00, 0x20, 0x00, 0x00, 0x00, 0x20, 0x00, 0x00, 0x00,
  0x10, 0x00, 0x00, 0x00, 0x76, 0xFD, 0xFF, 0xFF, 0x00, 0x00,
  0x00, 0x01, 0x18, 0x00, 0x00, 0x00, 0x28, 0x00, 0x00, 0x00,
  0x48, 0x00, 0x00, 0x00, 0x14, 0x00, 0x00, 0x00, 0x00, 0x00,
  0x00, 0x09, 0x68, 0x00, 0x00, 0x00, 0x04, 0x00, 0x00, 0x00,
  0xFF, 0xFF, 0xFF, 0xFF, 0x20, 0x00, 0x00, 0x00, 0x20, 0x00,
  0x00, 0x00, 0x08, 0x00, 0x00, 0x00, 0xE4, 0xF0, 0xFF, 0xFF,
  0x08, 0x00, 0x00, 0x00, 0x14, 0x00, 0x00, 0x00, 0x01, 0x00,
  0x00, 0x00, 0x80, 0xFF, 0xFF, 0xFF, 0xFF, 0xFF, 0xFF, 0xFF,
  0x00, 0x00, 0x00, 0x00, 0x01, 0x00, 0x00, 0x00, 0x89, 0x2E,
  0x9C, 0x3B, 0x24, 0x00, 0x00, 0x00, 0x6D, 0x6F, 0x64, 0x65,
  0x6C, 0x5F, 0x34, 0x2F, 0x61, 0x76, 0x65, 0x72, 0x61, 0x67,
  0x65, 0x5F, 0x70, 0x6F, 0x6F, 0x6C, 0x69, 0x6E, 0x67, 0x32,
  0x64, 0x5F, 0x31, 0x32, 0x2F, 0x41, 0x76, 0x67, 0x50, 0x6F,
  0x6F, 0x6C, 0x00, 0x00, 0x00, 0x00, 0x04, 0x00, 0x00, 0x00,
  0x01, 0x00, 0x00, 0x00, 0x20, 0x00, 0x00, 0x00, 0x20, 0x00,
  0x00, 0x00, 0x08, 0x00, 0x00, 0x00, 0x0E, 0xFE, 0xFF, 0xFF,
  0x00, 0x00, 0x00, 0x01, 0x18, 0x00, 0x00, 0x00, 0x28, 0x00,
  0x00, 0x00, 0x44, 0x00, 0x00, 0x00, 0x13, 0x00, 0x00, 0x00,
  0x00, 0x00, 0x00, 0x09, 0xC8, 0x00, 0x00, 0x00, 0x04, 0x00,
  0x00, 0x00, 0xFF, 0xFF, 0xFF, 0xFF, 0x40, 0x00, 0x00, 0x00,
  0x40, 0x00, 0x00, 0x00, 0x08, 0x00, 0x00, 0x00, 0x7C, 0xF1,
  0xFF, 0xFF, 0x08, 0x00, 0x00, 0x00, 0x10, 0x00, 0x00, 0x00,
  0x01, 0x00, 0x00, 0x00, 0x80, 0xFF, 0xFF, 0xFF, 0xFF, 0xFF,
  0xFF, 0xFF, 0x01, 0x00, 0x00, 0x00, 0x89, 0x2E, 0x9C, 0x3B,
  0x8B, 0x00, 0x00, 0x00, 0x6D, 0x6F, 0x64, 0x65, 0x6C, 0x5F,
  0x34, 0x2F, 0x63, 0x6F, 0x6E, 0x76, 0x32, 0x64, 0x5F, 0x33,
  0x30, 0x2F, 0x52, 0x65, 0x6C, 0x75, 0x3B, 0x6D, 0x6F, 0x64,
  0x65, 0x6C, 0x5F, 0x34, 0x2F, 0x63, 0x6F, 0x6E, 0x76, 0x32,
  0x64, 0x5F, 0x33, 0x30, 0x2F, 0x42, 0x69, 0x61, 0x73, 0x41,
  0x64, 0x64, 0x3B, 0x6D, 0x6F, 0x64, 0x65, 0x6C, 0x5F, 0x34,
  0x2F, 0x63, 0x6F, 0x6E, 0x76, 0x32, 0x64, 0x5F, 0x33, 0x34,
  0x2F, 0x43, 0x6F, 0x6E, 0x76, 0x32, 0x44, 0x3B, 0x6D, 0x6F,
  0x64, 0x65, 0x6C, 0x5F, 0x34, 0x2F, 0x63, 0x6F, 0x6E, 0x76,
  0x32, 0x64, 0x5F, 0x33, 0x30, 0x2F, 0x43, 0x6F, 0x6E, 0x76,
  0x32, 0x44, 0x3B, 0x6D, 0x6F, 0x64, 0x65, 0x6C, 0x5F, 0x34,
  0x2F, 0x63, 0x6F, 0x6E, 0x76, 0x32, 0x64, 0x5F, 0x33, 0x30,
  0x2F, 0x42, 0x69, 0x61, 0x73, 0x41, 0x64, 0x64, 0x2F, 0x52,
  0x65, 0x61, 0x64, 0x56, 0x61, 0x72, 0x69, 0x61, 0x62, 0x6C,
  0x65, 0x4F, 0x70, 0x00, 0x04, 0x00, 0x00, 0x00, 0x01, 0x00,
  0x00, 0x00, 0x40, 0x00, 0x00, 0x00, 0x40, 0x00, 0x00, 0x00,
  0x08, 0x00, 0x00, 0x00, 0x06, 0xFF, 0xFF, 0xFF, 0x00, 0x00,
  0x00, 0x01, 0x18, 0x00, 0x00, 0x00, 0x28, 0x00, 0x00, 0x00,
  0x44, 0x00, 0x00, 0x00, 0x12, 0x00, 0x00, 0x00, 0x00, 0x00,
  0x00, 0x09, 0xC8, 0x00, 0x00, 0x00, 0x04, 0x00, 0x00, 0x00,
  0xFF, 0xFF, 0xFF, 0xFF, 0x40, 0x00, 0x00, 0x00, 0x40, 0x00,
  0x00, 0x00, 0x10, 0x00, 0x00, 0x00, 0x74, 0xF2, 0xFF, 0xFF,
  0x08, 0x00, 0x00, 0x00, 0x10, 0x00, 0x00, 0x00, 0x01, 0x00,
  0x00, 0x00, 0x80, 0xFF, 0xFF, 0xFF, 0xFF, 0xFF, 0xFF, 0xFF,
  0x01, 0x00, 0x00, 0x00, 0x03, 0x16, 0x46, 0x3C, 0x8B, 0x00,
  0x00, 0x00, 0x6D, 0x6F, 0x64, 0x65, 0x6C, 0x5F, 0x34, 0x2F,
  0x63, 0x6F, 0x6E, 0x76, 0x32, 0x64, 0x5F, 0x32, 0x39, 0x2F,
  0x52, 0x65, 0x6C, 0x75, 0x3B, 0x6D, 0x6F, 0x64, 0x65, 0x6C,
  0x5F, 0x34, 0x2F, 0x63, 0x6F, 0x6E, 0x76, 0x32, 0x64, 0x5F,
  0x32, 0x39, 0x2F, 0x42, 0x69, 0x61, 0x73, 0x41, 0x64, 0x64,
  0x3B, 0x6D, 0x6F, 0x64, 0x65, 0x6C, 0x5F, 0x34, 0x2F, 0x63,
  0x6F, 0x6E, 0x76, 0x32, 0x64, 0x5F, 0x33, 0x33, 0x2F, 0x43,
  0x6F, 0x6E, 0x76, 0x32, 0x44, 0x3B, 0x6D, 0x6F, 0x64, 0x65,
  0x6C, 0x5F, 0x34, 0x2F, 0x63, 0x6F, 0x6E, 0x76, 0x32, 0x64,
  0x5F, 0x32, 0x39, 0x2F, 0x43, 0x6F, 0x6E, 0x76, 0x32, 0x44,
  0x3B, 0x6D, 0x6F, 0x64, 0x65, 0x6C, 0x5F, 0x34, 0x2F, 0x63,
  0x6F, 0x6E, 0x76, 0x32, 0x64, 0x5F, 0x32, 0x39, 0x2F, 0x42,
  0x69, 0x61, 0x73, 0x41, 0x64, 0x64, 0x2F, 0x52, 0x65, 0x61,
  0x64, 0x56, 0x61, 0x72, 0x69, 0x61, 0x62, 0x6C, 0x65, 0x4F,
  0x70, 0x00, 0x04, 0x00, 0x00, 0x00, 0x01, 0x00, 0x00, 0x00,
  0x40, 0x00, 0x00, 0x00, 0x40, 0x00, 0x00, 0x00, 0x10, 0x00,
  0x00, 0x00, 0x00, 0x00, 0x16, 0x00, 0x20, 0x00, 0x1C, 0x00,
  0x1B, 0x00, 0x14, 0x00, 0x10, 0x00, 0x0C, 0x00, 0x00, 0x00,
  0x00, 0x00, 0x08, 0x00, 0x07, 0x00, 0x16, 0x00, 0x00, 0x00,
  0x00, 0x00, 0x00, 0x01, 0x18, 0x00, 0x00, 0x00, 0x28, 0x00,
  0x00, 0x00, 0x48, 0x00, 0x00, 0x00, 0x11, 0x00, 0x00, 0x00,
  0x00, 0x00, 0x00, 0x09, 0x50, 0x00, 0x00, 0x00, 0x04, 0x00,
  0x00, 0x00, 0xFF, 0xFF, 0xFF, 0xFF, 0x40, 0x00, 0x00, 0x00,
  0x40, 0x00, 0x00, 0x00, 0x01, 0x00, 0x00, 0x00, 0x84, 0xF3,
  0xFF, 0xFF, 0x08, 0x00, 0x00, 0x00, 0x14, 0x00, 0x00, 0x00,
  0x01, 0x00, 0x00, 0x00, 0x80, 0xFF, 0xFF, 0xFF, 0xFF, 0xFF,
  0xFF, 0xFF, 0x00, 0x00, 0x00, 0x00, 0x01, 0x00, 0x00, 0x00,
  0x81, 0x80, 0x80, 0x3B, 0x0C, 0x00, 0x00, 0x00, 0x74, 0x66,
  0x6C, 0x2E, 0x71, 0x75, 0x61, 0x6E, 0x74, 0x69, 0x7A, 0x65,
  0x00, 0x00, 0x00, 0x00, 0x04, 0x00, 0x00, 0x00, 0x01, 0x00,
  0x00, 0x00, 0x40, 0x00, 0x00, 0x00, 0x40, 0x00, 0x00, 0x00,
  0x01, 0x00, 0x00, 0x00, 0x6A, 0xF3, 0xFF, 0xFF, 0x00, 0x00,
  0x00, 0x01, 0x14, 0x00, 0x00, 0x00, 0xE8, 0x00, 0x00, 0x00,
  0x10, 0x00, 0x00, 0x00, 0x00, 0x00, 0x00, 0x09, 0xFC, 0x00,
  0x00, 0x00, 0xEC, 0xF3, 0xFF, 0xFF, 0x08, 0x00, 0x00, 0x00,
  0x8C, 0x00, 0x00, 0x00, 0x10, 0x00, 0x00, 0x00, 0x00, 0x00,
  0x00, 0x00, 0x00, 0x00, 0x00, 0x00, 0x00, 0x00, 0x00, 0x00,
  0x00, 0x00, 0x00, 0x00, 0x00, 0x00, 0x00, 0x00, 0x00, 0x00,
  0x00, 0x00, 0x00, 0x00, 0x00, 0x00, 0x00, 0x00, 0x00, 0x00,
  0x00, 0x00, 0x00, 0x00, 0x00, 0x00, 0x00, 0x00, 0x00, 0x00,
  0x00, 0x00, 0x00, 0x00, 0x00, 0x00, 0x00, 0x00, 0x00, 0x00,
  0x00, 0x00, 0x00, 0x00, 0x00, 0x00, 0x00, 0x00, 0x00, 0x00,
  0x00, 0x00, 0x00, 0x00, 0x00, 0x00, 0x00, 0x00, 0x00, 0x00,
  0x00, 0x00, 0x00, 0x00, 0x00, 0x00, 0x00, 0x00, 0x00, 0x00,
  0x00, 0x00, 0x00, 0x00, 0x00, 0x00, 0x00, 0x00, 0x00, 0x00,
  0x00, 0x00, 0x00, 0x00, 0x00, 0x00, 0x00, 0x00, 0x00, 0x00,
  0x00, 0x00, 0x00, 0x00, 0x00, 0x00, 0x00, 0x00, 0x00, 0x00,
  0x00, 0x00, 0x00, 0x00, 0x00, 0x00, 0x00, 0x00, 0x00, 0x00,
  0x00, 0x00, 0x00, 0x00, 0x00, 0x00, 0x00, 0x00, 0x00, 0x00,
  0x10, 0x00, 0x00, 0x00, 0xDE, 0xE7, 0x39, 0x3B, 0xB0, 0x4D,
  0x40, 0x3B, 0x5E, 0xF1, 0x0A, 0x3B, 0x21, 0xB5, 0xAD, 0x3A,
  0x44, 0xB7, 0x3C, 0x3B, 0x4B, 0x8E, 0x06, 0x3B, 0xBB, 0x35,
  0x05, 0x3B, 0x5D, 0x19, 0x1D, 0x3B, 0xFD, 0x16, 0x50, 0x3B,
  0x4D, 0xC0, 0xFD, 0x3A, 0x76, 0x44, 0x58, 0x3B, 0x58, 0x15,
  0x0E, 0x3B, 0x37, 0x13, 0x7C, 0x3B, 0x81, 0xA8, 0x18, 0x3B,
  0x79, 0x68, 0xF7, 0x3A, 0x36, 0x27, 0x2C, 0x3B, 0x18, 0x00,
  0x00, 0x00, 0x6D, 0x6F, 0x64, 0x65, 0x6C, 0x5F, 0x34, 0x2F,
  0x63, 0x6F, 0x6E, 0x76, 0x32, 0x64, 0x5F, 0x32, 0x39, 0x2F,
  0x43, 0x6F, 0x6E, 0x76, 0x32, 0x44, 0x00, 0x00, 0x00, 0x00,
  0x04, 0x00, 0x00, 0x00, 0x10, 0x00, 0x00, 0x00, 0x04, 0x00,
  0x00, 0x00, 0x04, 0x00, 0x00, 0x00, 0x01, 0x00, 0x00, 0x00,
  0x92, 0xF4, 0xFF, 0xFF, 0x00, 0x00, 0x00, 0x01, 0x14, 0x00,
  0x00, 0x00, 0xE4, 0x00, 0x00, 0x00, 0x0F, 0x00, 0x00, 0x00,
  0x00, 0x00, 0x00, 0x02, 0x08, 0x01, 0x00, 0x00, 0x14, 0xF5,
  0xFF, 0xFF, 0x08, 0x00, 0x00, 0x00, 0x88, 0x00, 0x00, 0x00,
  0x10, 0x00, 0x00, 0x00, 0x00, 0x00, 0x00, 0x00, 0x00, 0x00,
  0x00, 0x00, 0x00, 0x00, 0x00, 0x00, 0x00, 0x00, 0x00, 0x00,
  0x00, 0x00, 0x00, 0x00, 0x00, 0x00, 0x00, 0x00, 0x00, 0x00,
  0x00, 0x00, 0x00, 0x00, 0x00, 0x00, 0x00, 0x00, 0x00, 0x00,
  0x00, 0x00, 0x00, 0x00, 0x00, 0x00, 0x00, 0x00, 0x00, 0x00,
  0x00, 0x00, 0x00, 0x00, 0x00, 0x00, 0x00, 0x00, 0x00, 0x00,
  0x00, 0x00, 0x00, 0x00, 0x00, 0x00, 0x00, 0x00, 0x00, 0x00,
  0x00, 0x00, 0x00, 0x00, 0x00, 0x00, 0x00, 0x00, 0x00, 0x00,
  0x00, 0x00, 0x00, 0x00, 0x00, 0x00, 0x00, 0x00, 0x00, 0x00,
  0x00, 0x00, 0x00, 0x00, 0x00, 0x00, 0x00, 0x00, 0x00, 0x00,
  0x00, 0x00, 0x00, 0x00, 0x00, 0x00, 0x00, 0x00, 0x00, 0x00,
  0x00, 0x00, 0x00, 0x00, 0x00, 0x00, 0x00, 0x00, 0x00, 0x00,
  0x00, 0x00, 0x00, 0x00, 0x00, 0x00, 0x00, 0x00, 0x00, 0x00,
  0x00, 0x00, 0x10, 0x00, 0x00, 0x00, 0x81, 0xA2, 0x3A, 0x37,
  0xBF, 0x0E, 0x41, 0x37, 0xDB, 0x7C, 0x0B, 0x37, 0x85, 0x63,
  0xAE, 0x36, 0xB9, 0x74, 0x3D, 0x37, 0x61, 0x15, 0x07, 0x37,
  0x77, 0xBB, 0x05, 0x37, 0x15, 0xB7, 0x1D, 0x37, 0xE6, 0xE7,
  0x50, 0x37, 0x0D, 0xBF, 0xFE, 0x36, 0x94, 0x1D, 0x59, 0x37,
  0xFD, 0xA3, 0x0E, 0x37, 0x48, 0x10, 0x7D, 0x37, 0xC3, 0x41,
  0x19, 0x37, 0xDB, 0x60, 0xF8, 0x36, 0x0B, 0xD4, 0x2C, 0x37,
  0x28, 0x00, 0x00, 0x00, 0x6D, 0x6F, 0x64, 0x65, 0x6C, 0x5F,
  0x34, 0x2F, 0x63, 0x6F, 0x6E, 0x76, 0x32, 0x64, 0x5F, 0x32,
  0x39, 0x2F, 0x42, 0x69, 0x61, 0x73, 0x41, 0x64, 0x64, 0x2F,
  0x52, 0x65, 0x61, 0x64, 0x56, 0x61, 0x72, 0x69, 0x61, 0x62,
  0x6C, 0x65, 0x4F, 0x70, 0x00, 0x00, 0x00, 0x00, 0x01, 0x00,
  0x00, 0x00, 0x10, 0x00, 0x00, 0x00, 0xBA, 0xF5, 0xFF, 0xFF,
  0x00, 0x00, 0x00, 0x01, 0x14, 0x00, 0x00, 0x00, 0x88, 0x00,
  0x00, 0x00, 0x0E, 0x00, 0x00, 0x00, 0x00, 0x00, 0x00, 0x09,
  0x9C, 0x00, 0x00, 0x00, 0x3C, 0xF6, 0xFF, 0xFF, 0x08, 0x00,
  0x00, 0x00, 0x4C, 0x00, 0x00, 0x00, 0x08, 0x00, 0x00, 0x00,
  0x00, 0x00, 0x00, 0x00, 0x00, 0x00, 0x00, 0x00, 0x00, 0x00,
  0x00, 0x00, 0x00, 0x00, 0x00, 0x00, 0x00, 0x00, 0x00, 0x00,
  0x00, 0x00, 0x00, 0x00, 0x00, 0x00, 0x00, 0x00, 0x00, 0x00,
  0x00, 0x00, 0x00, 0x00, 0x00, 0x00, 0x00, 0x00, 0x00, 0x00,
  0x00, 0x00, 0x00, 0x00, 0x00, 0x00, 0x00, 0x00, 0x00, 0x00,
  0x00, 0x00, 0x00, 0x00, 0x00, 0x00, 0x00, 0x00, 0x00, 0x00,
  0x00, 0x00, 0x00, 0x00, 0x00, 0x00, 0x00, 0x00, 0x08, 0x00,
  0x00, 0x00, 0x60, 0x5A, 0x31, 0x3C, 0x6F, 0x36, 0x6D, 0x3B,
  0xCF, 0x12, 0x85, 0x3B, 0x45, 0x92, 0xDE, 0x3B, 0xEB, 0x47,
  0xAA, 0x3B, 0xB6, 0x52, 0xF9, 0x3B, 0xBE, 0x3A, 0x39, 0x3C,
  0x6F, 0x40, 0xA9, 0x3B, 0x18, 0x00, 0x00, 0x00, 0x6D, 0x6F,
  0x64, 0x65, 0x6C, 0x5F, 0x34, 0x2F, 0x63, 0x6F, 0x6E, 0x76,
  0x32, 0x64, 0x5F, 0x33, 0x30, 0x2F, 0x43, 0x6F, 0x6E, 0x76,
  0x32, 0x44, 0x00, 0x00, 0x00, 0x00, 0x04, 0x00, 0x00, 0x00,
  0x08, 0x00, 0x00, 0x00, 0x02, 0x00, 0x00, 0x00, 0x02, 0x00,
  0x00, 0x00, 0x10, 0x00, 0x00, 0x00, 0x82, 0xF6, 0xFF, 0xFF,
  0x00, 0x00, 0x00, 0x01, 0x14, 0x00, 0x00, 0x00, 0x84, 0x00,
  0x00, 0x00, 0x0D, 0x00, 0x00, 0x00, 0x00, 0x00, 0x00, 0x02,
  0xA8, 0x00, 0x00, 0x00, 0x04, 0xF7, 0xFF, 0xFF, 0x08, 0x00,
  0x00, 0x00, 0x48, 0x00, 0x00, 0x00, 0x08, 0x00, 0x00, 0x00,
  0x00, 0x00, 0x00, 0x00, 0x00, 0x00, 0x00, 0x00, 0x00, 0x00,
  0x00, 0x00, 0x00, 0x00, 0x00, 0x00, 0x00, 0x00, 0x00, 0x00,
  0x00, 0x00, 0x00, 0x00, 0x00, 0x00, 0x00, 0x00, 0x00, 0x00,
  0x00, 0x00, 0x00, 0x00, 0x00, 0x00, 0x00, 0x00, 0x00, 0x00,
  0x00, 0x00, 0x00, 0x00, 0x00, 0x00, 0x00, 0x00, 0x00, 0x00,
  0x00, 0x00, 0x00, 0x00, 0x00, 0x00, 0x00, 0x00, 0x00, 0x00,
  0x00, 0x00, 0x00, 0x00, 0x08, 0x00, 0x00, 0x00, 0x26, 0x3B,
  0x09, 0x39, 0x7F, 0x8C, 0x37, 0x38, 0xFB, 0xEF, 0x4D, 0x38,
  0x45, 0x38, 0xAC, 0x38, 0x44, 0xC2, 0x83, 0x38, 0x69, 0xEB,
  0xC0, 0x38, 0x5C, 0x53, 0x0F, 0x39, 0x63, 0xF6, 0x82, 0x38,
  0x28, 0x00, 0x00, 0x00, 0x6D, 0x6F, 0x64, 0x65, 0x6C, 0x5F,
  0x34, 0x2F, 0x63, 0x6F, 0x6E, 0x76, 0x32, 0x64, 0x5F, 0x33,
  0x30, 0x2F, 0x42, 0x69, 0x61, 0x73, 0x41, 0x64, 0x64, 0x2F,
  0x52, 0x65, 0x61, 0x64, 0x56, 0x61, 0x72, 0x69, 0x61, 0x62,
  0x6C, 0x65, 0x4F, 0x70, 0x00, 0x00, 0x00, 0x00, 0x01, 0x00,
  0x00, 0x00, 0x08, 0x00, 0x00, 0x00, 0x4A, 0xF7, 0xFF, 0xFF,
  0x00, 0x00, 0x00, 0x01, 0x14, 0x00, 0x00, 0x00, 0xE8, 0x00,
  0x00, 0x00, 0x0C, 0x00, 0x00, 0x00, 0x00, 0x00, 0x00, 0x09,
  0xFC, 0x00, 0x00, 0x00, 0xCC, 0xF7, 0xFF, 0xFF, 0x08, 0x00,
  0x00, 0x00, 0x8C, 0x00, 0x00, 0x00, 0x10, 0x00, 0x00, 0x00,
  0x00, 0x00, 0x00, 0x00, 0x00, 0x00, 0x00, 0x00, 0x00, 0x00,
  0x00, 0x00, 0x00, 0x00, 0x00, 0x00, 0x00, 0x00, 0x00, 0x00,
  0x00, 0x00, 0x00, 0x00, 0x00, 0x00, 0x00, 0x00, 0x00, 0x00,
  0x00, 0x00, 0x00, 0x00, 0x00, 0x00, 0x00, 0x00, 0x00, 0x00,
  0x00, 0x00, 0x00, 0x00, 0x00, 0x00, 0x00, 0x00, 0x00, 0x00,
  0x00, 0x00, 0x00, 0x00, 0x00, 0x00, 0x00, 0x00, 0x00, 0x00,
  0x00, 0x00, 0x00, 0x00, 0x00, 0x00, 0x00, 0x00, 0x00, 0x00,
  0x00, 0x00, 0x00, 0x00, 0x00, 0x00, 0x00, 0x00, 0x00, 0x00,
  0x00, 0x00, 0x00, 0x00, 0x00, 0x00, 0x00, 0x00, 0x00, 0x00,
  0x00, 0x00, 0x00, 0x00, 0x00, 0x00, 0x00, 0x00, 0x00, 0x00,
  0x00, 0x00, 0x00, 0x00, 0x00, 0x00, 0x00, 0x00, 0x00, 0x00,
  0x00, 0x00, 0x00, 0x00, 0x00, 0x00, 0x00, 0x00, 0x00, 0x00,
  0x00, 0x00, 0x00, 0x00, 0x00, 0x00, 0x00, 0x00, 0x00, 0x00,
  0x00, 0x00, 0x10, 0x00, 0x00, 0x00, 0x1C, 0x0E, 0x93, 0x3A,
  0x77, 0x36, 0xE5, 0x3B, 0x01, 0x1A, 0x59, 0x3B, 0xDE, 0x9D,
  0xB1, 0x3B, 0xDB, 0x28, 0x9B, 0x3B, 0x9E, 0x27, 0x14, 0x3B,
  0x7B, 0x98, 0xF5, 0x3B, 0xCB, 0x7A, 0x4C, 0x3B, 0xDD, 0xD4,
  0x07, 0x3C, 0x2E, 0x74, 0xD6, 0x3B, 0xC8, 0x96, 0x83, 0x3B,
  0x7C, 0xEA, 0x52, 0x3B, 0xEC, 0xEF, 0x4F, 0x3B, 0x27, 0x4F,
  0xD8, 0x3B, 0x1A, 0xAA, 0x72, 0x3B, 0xED, 0xD6, 0xD6, 0x3A,
  0x18, 0x00, 0x00, 0x00, 0x6D, 0x6F, 0x64, 0x65, 0x6C, 0x5F,
  0x34, 0x2F, 0x63, 0x6F, 0x6E, 0x76, 0x32, 0x64, 0x5F, 0x33,
  0x31, 0x2F, 0x43, 0x6F, 0x6E, 0x76, 0x32, 0x44, 0x00, 0x00,
  0x00, 0x00, 0x04, 0x00, 0x00, 0x00, 0x10, 0x00, 0x00, 0x00,
  0x04, 0x00, 0x00, 0x00, 0x04, 0x00, 0x00, 0x00, 0x08, 0x00,
  0x00, 0x00, 0x72, 0xF8, 0xFF, 0xFF, 0x00, 0x00, 0x00, 0x01,
  0x14, 0x00, 0x00, 0x00, 0xE4, 0x00, 0x00, 0x00, 0x0B, 0x00,
  0x00, 0x00, 0x00, 0x00, 0x00, 0x02, 0x08, 0x01, 0x00, 0x00,
  0xF4, 0xF8, 0xFF, 0xFF, 0x08, 0x00, 0x00, 0x00, 0x88, 0x00,
  0x00, 0x00, 0x10, 0x00, 0x00, 0x00, 0x00, 0x00, 0x00, 0x00,
  0x00, 0x00, 0x00, 0x00, 0x00, 0x00, 0x00, 0x00, 0x00, 0x00,
  0x00, 0x00, 0x00, 0x00, 0x00, 0x00, 0x00, 0x00, 0x00, 0x00,
  0x00, 0x00, 0x00, 0x00, 0x00, 0x00, 0x00, 0x00, 0x00, 0x00,
  0x00, 0x00, 0x00, 0x00, 0x00, 0x00, 0x00, 0x00, 0x00, 0x00,
  0x00, 0x00, 0x00, 0x00, 0x00, 0x00, 0x00, 0x00, 0x00, 0x00,
  0x00, 0x00, 0x00, 0x00, 0x00, 0x00, 0x00, 0x00, 0x00, 0x00,
  0x00, 0x00, 0x00, 0x00, 0x00, 0x00, 0x00, 0x00, 0x00, 0x00,
  0x00, 0x00, 0x00, 0x00, 0x00, 0x00, 0x00, 0x00, 0x00, 0x00,
  0x00, 0x00, 0x00, 0x00, 0x00, 0x00, 0x00, 0x00, 0x00, 0x00,
  0x00, 0x00, 0x00, 0x00, 0x00, 0x00, 0x00, 0x00, 0x00, 0x00,
  0x00, 0x00, 0x00, 0x00, 0x00, 0x00, 0x00, 0x00, 0x00, 0x00,
  0x00, 0x00, 0x00, 0x00, 0x00, 0x00, 0x00, 0x00, 0x00, 0x00,
  0x00, 0x00, 0x00, 0x00, 0x10, 0x00, 0x00, 0x00, 0xA9, 0x6E,
  0xB3, 0x36, 0xDB, 0xD6, 0x0B, 0x38, 0x4F, 0x73, 0x84, 0x37,
  0xF9, 0xB8, 0xD8, 0x37, 0x34, 0x52, 0xBD, 0x37, 0x25, 0xC6,
  0x34, 0x37, 0x90, 0xD5, 0x15, 0x38, 0xFE, 0x7F, 0x79, 0x37,
  0xCF, 0xBC, 0x25, 0x38, 0xC8, 0xD5, 0x02, 0x38, 0x9B, 0x8F,
  0xA0, 0x37, 0x3B, 0xAD, 0x80, 0x37, 0x00, 0xB8, 0x7D, 0x37,
  0x8E, 0xF7, 0x03, 0x38, 0xC4, 0x0B, 0x94, 0x37, 0x06, 0x12,
  0x03, 0x37, 0x28, 0x00, 0x00, 0x00, 0x6D, 0x6F, 0x64, 0x65,
  0x6C, 0x5F, 0x34, 0x2F, 0x63, 0x6F, 0x6E, 0x76, 0x32, 0x64,
  0x5F, 0x33, 0x31, 0x2F, 0x42, 0x69, 0x61, 0x73, 0x41, 0x64,
  0x64, 0x2F, 0x52, 0x65, 0x61, 0x64, 0x56, 0x61, 0x72, 0x69,
  0x61, 0x62, 0x6C, 0x65, 0x4F, 0x70, 0x00, 0x00, 0x00, 0x00,
  0x01, 0x00, 0x00, 0x00, 0x10, 0x00, 0x00, 0x00, 0x9A, 0xF9,
  0xFF, 0xFF, 0x00, 0x00, 0x00, 0x01, 0x14, 0x00, 0x00, 0x00,
  0x88, 0x00, 0x00, 0x00, 0x0A, 0x00, 0x00, 0x00, 0x00, 0x00,
  0x00, 0x09, 0x9C, 0x00, 0x00, 0x00, 0x1C, 0xFA, 0xFF, 0xFF,
  0x08, 0x00, 0x00, 0x00, 0x4C, 0x00, 0x00, 0x00, 0x08, 0x00,
  0x00, 0x00, 0x00, 0x00, 0x00, 0x00, 0x00, 0x00, 0x00, 0x00,
  0x00, 0x00, 0x00, 0x00, 0x00, 0x00, 0x00, 0x00, 0x00, 0x00,
  0x00, 0x00, 0x00, 0x00, 0x00, 0x00, 0x00, 0x00, 0x00, 0x00,
  0x00, 0x00, 0x00, 0x00, 0x00, 0x00, 0x00, 0x00, 0x00, 0x00,
  0x00, 0x00, 0x00, 0x00, 0x00, 0x00, 0x00, 0x00, 0x00, 0x00,
  0x00, 0x00, 0x00, 0x00, 0x00, 0x00, 0x00, 0x00, 0x00, 0x00,
  0x00, 0x00, 0x00, 0x00, 0x00, 0x00, 0x00, 0x00, 0x00, 0x00,
  0x08, 0x00, 0x00, 0x00, 0xA4, 0xF9, 0xEA, 0x3B, 0x3D, 0xD9,
  0x8C, 0x3B, 0x2F, 0x1E, 0x10, 0x3C, 0x9E, 0x2D, 0x95, 0x3B,
  0xFE, 0xC8, 0xBB, 0x3B, 0x78, 0xFC, 0x9C, 0x3B, 0x68, 0x91,
  0x59, 0x3B, 0xE5, 0xB4, 0x6D, 0x3B, 0x18, 0x00, 0x00, 0x00,
  0x6D, 0x6F, 0x64, 0x65, 0x6C, 0x5F, 0x34, 0x2F, 0x63, 0x6F,
  0x6E, 0x76, 0x32, 0x64, 0x5F, 0x33, 0x32, 0x2F, 0x43, 0x6F,
  0x6E, 0x76, 0x32, 0x44, 0x00, 0x00, 0x00, 0x00, 0x04, 0x00,
  0x00, 0x00, 0x08, 0x00, 0x00, 0x00, 0x02, 0x00, 0x00, 0x00,
  0x02, 0x00, 0x00, 0x00, 0x10, 0x00, 0x00, 0x00, 0x62, 0xFA,
  0xFF, 0xFF, 0x00, 0x00, 0x00, 0x01, 0x14, 0x00, 0x00, 0x00,
  0x84, 0x00, 0x00, 0x00, 0x09, 0x00, 0x00, 0x00, 0x00, 0x00,
  0x00, 0x02, 0xA8, 0x00, 0x00, 0x00, 0xE4, 0xFA, 0xFF, 0xFF,
  0x08, 0x00, 0x00, 0x00, 0x48, 0x00, 0x00, 0x00, 0x08, 0x00,
  0x00, 0x00, 0x00, 0x00, 0x00, 0x00, 0x00, 0x00, 0x00, 0x00,
  0x00, 0x00, 0x00, 0x00, 0x00, 0x00, 0x00, 0x00, 0x00, 0x00,
  0x00, 0x00, 0x00, 0x00, 0x00, 0x00, 0x00, 0x00, 0x00, 0x00,
  0x00, 0x00, 0x00, 0x00, 0x00, 0x00, 0x00, 0x00, 0x00, 0x00,
  0x00, 0x00, 0x00, 0x00, 0x00, 0x00, 0x00, 0x00, 0x00, 0x00,
  0x00, 0x00, 0x00, 0x00, 0x00, 0x00, 0x00, 0x00, 0x00, 0x00,
  0x00, 0x00, 0x00, 0x00, 0x00, 0x00, 0x08, 0x00, 0x00, 0x00,
  0x95, 0x8D, 0x35, 0x38, 0x19, 0xA7, 0xD9, 0x37, 0x6C, 0xB4,
  0x5E, 0x38, 0x40, 0x86, 0xE6, 0x37, 0x7F, 0x17, 0x11, 0x38,
  0x12, 0x97, 0xF2, 0x37, 0x7B, 0x1A, 0xA8, 0x37, 0xDC, 0xA9,
  0xB7, 0x37, 0x28, 0x00, 0x00, 0x00, 0x6D, 0x6F, 0x64, 0x65,
  0x6C, 0x5F, 0x34, 0x2F, 0x63, 0x6F, 0x6E, 0x76, 0x32, 0x64,
  0x5F, 0x33, 0x32, 0x2F, 0x42, 0x69, 0x61, 0x73, 0x41, 0x64,
  0x64, 0x2F, 0x52, 0x65, 0x61, 0x64, 0x56, 0x61, 0x72, 0x69,
  0x61, 0x62, 0x6C, 0x65, 0x4F, 0x70, 0x00, 0x00, 0x00, 0x00,
  0x01, 0x00, 0x00, 0x00, 0x08, 0x00, 0x00, 0x00, 0x2A, 0xFB,
  0xFF, 0xFF, 0x00, 0x00, 0x00, 0x01, 0x14, 0x00, 0x00, 0x00,
  0xE8, 0x00, 0x00, 0x00, 0x08, 0x00, 0x00, 0x00, 0x00, 0x00,
  0x00, 0x09, 0xFC, 0x00, 0x00, 0x00, 0xAC, 0xFB, 0xFF, 0xFF,
  0x08, 0x00, 0x00, 0x00, 0x8C, 0x00, 0x00, 0x00, 0x10, 0x00,
  0x00, 0x00, 0x00, 0x00, 0x00, 0x00, 0x00, 0x00, 0x00, 0x00,
  0x00, 0x00, 0x00, 0x00, 0x00, 0x00, 0x00, 0x00, 0x00, 0x00,
  0x00, 0x00, 0x00, 0x00, 0x00, 0x00, 0x00, 0x00, 0x00, 0x00,
  0x00, 0x00, 0x00, 0x00, 0x00, 0x00, 0x00, 0x00, 0x00, 0x00,
  0x00, 0x00, 0x00, 0x00, 0x00, 0x00, 0x00, 0x00, 0x00, 0x00,
  0x00, 0x00, 0x00, 0x00, 0x00, 0x00, 0x00, 0x00, 0x00, 0x00,
  0x00, 0x00, 0x00, 0x00, 0x00, 0x00, 0x00, 0x00, 0x00, 0x00,
  0x00, 0x00, 0x00, 0x00, 0x00, 0x00, 0x00, 0x00, 0x00, 0x00,
  0x00, 0x00, 0x00, 0x00, 0x00, 0x00, 0x00, 0x00, 0x00, 0x00,
  0x00, 0x00, 0x00, 0x00, 0x00, 0x00, 0x00, 0x00, 0x00, 0x00,
  0x00, 0x00, 0x00, 0x00, 0x00, 0x00, 0x00, 0x00, 0x00, 0x00,
  0x00, 0x00, 0x00, 0x00, 0x00, 0x00, 0x00, 0x00, 0x00, 0x00,
  0x00, 0x00, 0x00, 0x00, 0x00, 0x00, 0x00, 0x00, 0x00, 0x00,
  0x00, 0x00, 0x00, 0x00, 0x10, 0x00, 0x00, 0x00, 0x4F, 0xB0,
  0xD1, 0x3B, 0x1E, 0xE7, 0xAD, 0x3B, 0x01, 0x7C, 0x16, 0x3C,
  0x51, 0x01, 0x0E, 0x3C, 0x2C, 0x77, 0x6D, 0x3B, 0x28, 0x68,
  0x6B, 0x3B, 0x1E, 0x1A, 0x3A, 0x3C, 0x7E, 0x0E, 0x69, 0x3B,
  0x26, 0x35, 0xEA, 0x3B, 0x50, 0x72, 0xC1, 0x3B, 0x7D, 0xE7,
  0x16, 0x3C, 0x2D, 0x5B, 0x22, 0x3C, 0xC9, 0x8B, 0xBC, 0x3B,
  0xC1, 0x76, 0x01, 0x3C, 0xB2, 0xEC, 0xE2, 0x3B, 0x4C, 0xCF,
  0x07, 0x3C, 0x18, 0x00, 0x00, 0x00, 0x6D, 0x6F, 0x64, 0x65,
  0x6C, 0x5F, 0x34, 0x2F, 0x63, 0x6F, 0x6E, 0x76, 0x32, 0x64,
  0x5F, 0x33, 0x33, 0x2F, 0x43, 0x6F, 0x6E, 0x76, 0x32, 0x44,
  0x00, 0x00, 0x00, 0x00, 0x04, 0x00, 0x00, 0x00, 0x10, 0x00,
  0x00, 0x00, 0x04, 0x00, 0x00, 0x00, 0x04, 0x00, 0x00, 0x00,
  0x08, 0x00, 0x00, 0x00, 0x52, 0xFC, 0xFF, 0xFF, 0x00, 0x00,
  0x00, 0x01, 0x14, 0x00, 0x00, 0x00, 0xE4, 0x00, 0x00, 0x00,
  0x07, 0x00, 0x00, 0x00, 0x00, 0x00, 0x00, 0x02, 0x08, 0x01,
  0x00, 0x00, 0xD4, 0xFC, 0xFF, 0xFF, 0x08, 0x00, 0x00, 0x00,
  0x88, 0x00, 0x00, 0x00, 0x10, 0x00, 0x00, 0x00, 0x00, 0x00,
  0x00, 0x00, 0x00, 0x00, 0x00, 0x00, 0x00, 0x00, 0x00, 0x00,
  0x00, 0x00, 0x00, 0x00, 0x00, 0x00, 0x00, 0x00, 0x00, 0x00,
  0x00, 0x00, 0x00, 0x00, 0x00, 0x00, 0x00, 0x00, 0x00, 0x00,
  0x00, 0x00, 0x00, 0x00, 0x00, 0x00, 0x00, 0x00, 0x00, 0x00,
  0x00, 0x00, 0x00, 0x00, 0x00, 0x00, 0x00, 0x00, 0x00, 0x00,
  0x00, 0x00, 0x00, 0x00, 0x00, 0x00, 0x00, 0x00, 0x00, 0x00,
  0x00, 0x00, 0x00, 0x00, 0x00, 0x00, 0x00, 0x00, 0x00, 0x00,
  0x00, 0x00, 0x00, 0x00, 0x00, 0x00, 0x00, 0x00, 0x00, 0x00,
  0x00, 0x00, 0x00, 0x00, 0x00, 0x00, 0x00, 0x00, 0x00, 0x00,
  0x00, 0x00, 0x00, 0x00, 0x00, 0x00, 0x00, 0x00, 0x00, 0x00,
  0x00, 0x00, 0x00, 0x00, 0x00, 0x00, 0x00, 0x00, 0x00, 0x00,
  0x00, 0x00, 0x00, 0x00, 0x00, 0x00, 0x00, 0x00, 0x00, 0x00,
  0x00, 0x00, 0x00, 0x00, 0x00, 0x00, 0x10, 0x00, 0x00, 0x00,
  0x2B, 0x27, 0x8C, 0x38, 0xEA, 0x77, 0x68, 0x38, 0xD0, 0x29,
  0xC9, 0x38, 0x19, 0xD4, 0xBD, 0x38, 0xF9, 0xB7, 0x1E, 0x38,
  0xB9, 0x57, 0x1D, 0x38, 0xA7, 0xC6, 0xF8, 0x38, 0x94, 0xC5,
  0x1B, 0x38, 0x85, 0x8A, 0x9C, 0x38, 0x06, 0x4C, 0x81, 0x38,
  0x7F, 0xB9, 0xC9, 0x38, 0x7E, 0x08, 0xD9, 0x38, 0x07, 0x0B,
  0x7C, 0x38, 0x4F, 0x10, 0xAD, 0x38, 0x59, 0xAC, 0x97, 0x38,
  0xF4, 0x8B, 0xB5, 0x38, 0x28, 0x00, 0x00, 0x00, 0x6D, 0x6F,
  0x64, 0x65, 0x6C, 0x5F, 0x34, 0x2F, 0x63, 0x6F, 0x6E, 0x76,
  0x32, 0x64, 0x5F, 0x33, 0x33, 0x2F, 0x42, 0x69, 0x61, 0x73,
  0x41, 0x64, 0x64, 0x2F, 0x52, 0x65, 0x61, 0x64, 0x56, 0x61,
  0x72, 0x69, 0x61, 0x62, 0x6C, 0x65, 0x4F, 0x70, 0x00, 0x00,
  0x00, 0x00, 0x01, 0x00, 0x00, 0x00, 0x10, 0x00, 0x00, 0x00,
  0x7A, 0xFD, 0xFF, 0xFF, 0x00, 0x00, 0x00, 0x01, 0x14, 0x00,
  0x00, 0x00, 0x88, 0x00, 0x00, 0x00, 0x06, 0x00, 0x00, 0x00,
  0x00, 0x00, 0x00, 0x09, 0x9C, 0x00, 0x00, 0x00, 0xFC, 0xFD,
  0xFF, 0xFF, 0x08, 0x00, 0x00, 0x00, 0x4C, 0x00, 0x00, 0x00,
  0x08, 0x00, 0x00, 0x00, 0x00, 0x00, 0x00, 0x00, 0x00, 0x00,
  0x00, 0x00, 0x00, 0x00, 0x00, 0x00, 0x00, 0x00, 0x00, 0x00,
  0x00, 0x00, 0x00, 0x00, 0x00, 0x00, 0x00, 0x00, 0x00, 0x00,
  0x00, 0x00, 0x00, 0x00, 0x00, 0x00, 0x00, 0x00, 0x00, 0x00,
  0x00, 0x00, 0x00, 0x00, 0x00, 0x00, 0x00, 0x00, 0x00, 0x00,
  0x00, 0x00, 0x00, 0x00, 0x00, 0x00, 0x00, 0x00, 0x00, 0x00,
  0x00, 0x00, 0x00, 0x00, 0x00, 0x00, 0x00, 0x00, 0x00, 0x00,
  0x00, 0x00, 0x08, 0x00, 0x00, 0x00, 0x5B, 0x74, 0x7C, 0x3B,
  0x9D, 0xC1, 0xD5, 0x3B, 0xF4, 0xD8, 0xD0, 0x3B, 0x25, 0xEC,
  0xBC, 0x3B, 0x06, 0x3F, 0x23, 0x3C, 0x09, 0x94, 0x29, 0x3C,
  0x04, 0x9A, 0xF2, 0x3B, 0xE8, 0x81, 0x9D, 0x3B, 0x18, 0x00,
  0x00, 0x00, 0x6D, 0x6F, 0x64, 0x65, 0x6C, 0x5F, 0x34, 0x2F,
  0x63, 0x6F, 0x6E, 0x76, 0x32, 0x64, 0x5F, 0x33, 0x34, 0x2F,
  0x43, 0x6F, 0x6E, 0x76, 0x32, 0x44, 0x00, 0x00, 0x00, 0x00,
  0x04, 0x00, 0x00, 0x00, 0x08, 0x00, 0x00, 0x00, 0x02, 0x00,
  0x00, 0x00, 0x02, 0x00, 0x00, 0x00, 0x10, 0x00, 0x00, 0x00,
  0x42, 0xFE, 0xFF, 0xFF, 0x00, 0x00, 0x00, 0x01, 0x14, 0x00,
  0x00, 0x00, 0x84, 0x00, 0x00, 0x00, 0x05, 0x00, 0x00, 0x00,
  0x00, 0x00, 0x00, 0x02, 0xA8, 0x00, 0x00, 0x00, 0xC4, 0xFE,
  0xFF, 0xFF, 0x08, 0x00, 0x00, 0x00, 0x48, 0x00, 0x00, 0x00,
  0x08, 0x00, 0x00, 0x00, 0x00, 0x00, 0x00, 0x00, 0x00, 0x00,
  0x00, 0x00, 0x00, 0x00, 0x00, 0x00, 0x00, 0x00, 0x00, 0x00,
  0x00, 0x00, 0x00, 0x00, 0x00, 0x00, 0x00, 0x00, 0x00, 0x00,
  0x00, 0x00, 0x00, 0x00, 0x00, 0x00, 0x00, 0x00, 0x00, 0x00,
  0x00, 0x00, 0x00, 0x00, 0x00, 0x00, 0x00, 0x00, 0x00, 0x00,
  0x00, 0x00, 0x00, 0x00, 0x00, 0x00, 0x00, 0x00, 0x00, 0x00,
  0x00, 0x00, 0x00, 0x00, 0x00, 0x00, 0x00, 0x00, 0x08, 0x00,
  0x00, 0x00, 0x6F, 0xFF, 0x48, 0x38, 0xF1, 0x2F, 0xAA, 0x38,
  0x6C, 0x47, 0xA6, 0x38, 0x4A, 0x6A, 0x96, 0x38, 0xF0, 0xF8,
  0x01, 0x39, 0x8C, 0x03, 0x07, 0x39, 0x36, 0x27, 0xC1, 0x38,
  0x88, 0xCE, 0x7A, 0x38, 0x28, 0x00, 0x00, 0x00, 0x6D, 0x6F,
  0x64, 0x65, 0x6C, 0x5F, 0x34, 0x2F, 0x63, 0x6F, 0x6E, 0x76,
  0x32, 0x64, 0x5F, 0x33, 0x34, 0x2F, 0x42, 0x69, 0x61, 0x73,
  0x41, 0x64, 0x64, 0x2F, 0x52, 0x65, 0x61, 0x64, 0x56, 0x61,
  0x72, 0x69, 0x61, 0x62, 0x6C, 0x65, 0x4F, 0x70, 0x00, 0x00,
  0x00, 0x00, 0x01, 0x00, 0x00, 0x00, 0x08, 0x00, 0x00, 0x00,
  0x0A, 0xFF, 0xFF, 0xFF, 0x00, 0x00, 0x00, 0x01, 0x14, 0x00,
  0x00, 0x00, 0x34, 0x00, 0x00, 0x00, 0x04, 0x00, 0x00, 0x00,
  0x00, 0x00, 0x00, 0x09, 0x48, 0x00, 0x00, 0x00, 0x8C, 0xFF,
  0xFF, 0xFF, 0x08, 0x00, 0x00, 0x00, 0x14, 0x00, 0x00, 0x00,
  0x01, 0x00, 0x00, 0x00, 0x00, 0x00, 0x00, 0x00, 0x00, 0x00,
  0x00, 0x00, 0x00, 0x00, 0x00, 0x00, 0x01, 0x00, 0x00, 0x00,
  0x50, 0xFD, 0xBE, 0x3C, 0x18, 0x00, 0x00, 0x00, 0x6D, 0x6F,
  0x64, 0x65, 0x6C, 0x5F, 0x34, 0x2F, 0x63, 0x6F, 0x6E, 0x76,
  0x32, 0x64, 0x5F, 0x33, 0x35, 0x2F, 0x43, 0x6F, 0x6E, 0x76,
  0x32, 0x44, 0x00, 0x00, 0x00, 0x00, 0x04, 0x00, 0x00, 0x00,
  0x01, 0x00, 0x00, 0x00, 0x01, 0x00, 0x00, 0x00, 0x01, 0x00,
  0x00, 0x00, 0x18, 0x00, 0x00, 0x00, 0x7E, 0xFF, 0xFF, 0xFF,
  0x00, 0x00, 0x00, 0x01, 0x20, 0x00, 0x00, 0x00, 0x3C, 0x00,
  0x00, 0x00, 0x03, 0x00, 0x00, 0x00, 0x00, 0x00, 0x00, 0x02,
  0x60, 0x00, 0x00, 0x00, 0x0C, 0x00, 0x0C, 0x00, 0x00, 0x00,
  0x00, 0x00, 0x08, 0x00, 0x04, 0x00, 0x0C, 0x00, 0x00, 0x00,
  0x08, 0x00, 0x00, 0x00, 0x10, 0x00, 0x00, 0x00, 0x01, 0x00,
  0x00, 0x00, 0x00, 0x00, 0x00, 0x00, 0x00, 0x00, 0x00, 0x00,
  0x01, 0x00, 0x00, 0x00, 0x58, 0xC8, 0x93, 0x39, 0x28, 0x00,
  0x00, 0x00, 0x6D, 0x6F, 0x64, 0x65, 0x6C, 0x5F, 0x34, 0x2F,
  0x63, 0x6F, 0x6E, 0x76, 0x32, 0x64, 0x5F, 0x33, 0x35, 0x2F,
  0x42, 0x69, 0x61, 0x73, 0x41, 0x64, 0x64, 0x2F, 0x52, 0x65,
  0x61, 0x64, 0x56, 0x61, 0x72, 0x69, 0x61, 0x62, 0x6C, 0x65,
  0x4F, 0x70, 0x00, 0x00, 0x00, 0x00, 0x01, 0x00, 0x00, 0x00,
  0x01, 0x00, 0x00, 0x00, 0x00, 0x00, 0x16, 0x00, 0x1C, 0x00,
  0x18, 0x00, 0x17, 0x00, 0x10, 0x00, 0x0C, 0x00, 0x08, 0x00,
  0x00, 0x00, 0x00, 0x00, 0x00, 0x00, 0x07, 0x00, 0x16, 0x00,
  0x00, 0x00, 0x00, 0x00, 0x00, 0x01, 0x14, 0x00, 0x00, 0x00,
  0x14, 0x00, 0x00, 0x00, 0x02, 0x00, 0x00, 0x00, 0x00, 0x00,
  0x00, 0x02, 0x2C, 0x00, 0x00, 0x00, 0x88, 0xFF, 0xFF, 0xFF,
  0x1E, 0x00, 0x00, 0x00, 0x6D, 0x6F, 0x64, 0x65, 0x6C, 0x5F,
  0x34, 0x2F, 0x72, 0x65, 0x73, 0x69, 0x7A, 0x69, 0x6E, 0x67,
  0x5F, 0x35, 0x2F, 0x72, 0x65, 0x73, 0x69, 0x7A, 0x65, 0x2F,
  0x73, 0x69, 0x7A, 0x65, 0x00, 0x00, 0x01, 0x00, 0x00, 0x00,
  0x02, 0x00, 0x00, 0x00, 0x00, 0x00, 0x16, 0x00, 0x1C, 0x00,
  0x18, 0x00, 0x00, 0x00, 0x14, 0x00, 0x10, 0x00, 0x0C, 0x00,
  0x00, 0x00, 0x00, 0x00, 0x08, 0x00, 0x07, 0x00, 0x16, 0x00,
  0x00, 0x00, 0x00, 0x00, 0x00, 0x01, 0x14, 0x00, 0x00, 0x00,
  0x28, 0x00, 0x00, 0x00, 0x28, 0x00, 0x00, 0x00, 0x01, 0x00,
  0x00, 0x00, 0x40, 0x00, 0x00, 0x00, 0x04, 0x00, 0x00, 0x00,
  0xFF, 0xFF, 0xFF, 0xFF, 0x40, 0x00, 0x00, 0x00, 0x40, 0x00,
  0x00, 0x00, 0x01, 0x00, 0x00, 0x00, 0x04, 0x00, 0x04, 0x00,
  0x04, 0x00, 0x00, 0x00, 0x19, 0x00, 0x00, 0x00, 0x73, 0x65,
  0x72, 0x76, 0x69, 0x6E, 0x67, 0x5F, 0x64, 0x65, 0x66, 0x61,
  0x75, 0x6C, 0x74, 0x5F, 0x69, 0x6E, 0x70, 0x75, 0x74, 0x5F,
  0x36, 0x3A, 0x30, 0x00, 0x00, 0x00, 0x04, 0x00, 0x00, 0x00,
  0x01, 0x00, 0x00, 0x00, 0x40, 0x00, 0x00, 0x00, 0x40, 0x00,
  0x00, 0x00, 0x01, 0x00, 0x00, 0x00, 0x06, 0x00, 0x00, 0x00,
  0x80, 0x00, 0x00, 0x00, 0x60, 0x00, 0x00, 0x00, 0x40, 0x00,
  0x00, 0x00, 0x2C, 0x00, 0x00, 0x00, 0x18, 0x00, 0x00, 0x00,
  0x04, 0x00, 0x00, 0x00, 0xC0, 0xFF, 0xFF, 0xFF, 0x06, 0x00,
  0x00, 0x00, 0x02, 0x00, 0x00, 0x00, 0x00, 0x00, 0x00, 0x06,
  0xD0, 0xFF, 0xFF, 0xFF, 0x02, 0x00, 0x00, 0x00, 0x02, 0x00,
  0x00, 0x00, 0x00, 0x00, 0x00, 0x02, 0xE0, 0xFF, 0xFF, 0xFF,
  0x17, 0x00, 0x00, 0x00, 0x03, 0x00, 0x00, 0x00, 0x00, 0x00,
  0x00, 0x17, 0xF0, 0xFF, 0xFF, 0xFF, 0x01, 0x00, 0x00, 0x00,
  0x02, 0x00, 0x00, 0x00, 0x00, 0x00, 0x00, 0x01, 0x0C, 0x00,
  0x10, 0x00, 0x0F, 0x00, 0x00, 0x00, 0x08, 0x00, 0x04, 0x00,
  0x0C, 0x00, 0x00, 0x00, 0x03, 0x00, 0x00, 0x00, 0x03, 0x00,
  0x00, 0x00, 0x00, 0x00, 0x00, 0x03, 0x0C, 0x00, 0x0C, 0x00,
  0x0B, 0x00, 0x00, 0x00, 0x00, 0x00, 0x04, 0x00, 0x0C, 0x00,
  0x00, 0x00, 0x72, 0x00, 0x00, 0x00, 0x00, 0x00, 0x00, 0x72
};
unsigned int model_tflite_len = 14320;