const unsigned char model_tflite[] = {
  0x1C, 0x00, 0x00, 0x00, 0x54, 0x46, 0x4C, 0x33, 0x14, 0x00,
  0x20, 0x00, 0x1C, 0x00, 0x18, 0x00, 0x14, 0x00, 0x10, 0x00,
  0x0C, 0x00, 0x00, 0x00, 0x08, 0x00, 0x04, 0x00, 0x14, 0x00,
  0x00, 0x00, 0x1C, 0x00, 0x00, 0x00, 0x80, 0x00, 0x00, 0x00,
  0xD8, 0x00, 0x00, 0x00, 0x08, 0xB0, 0x00, 0x00, 0x18, 0xB0,
  0x00, 0x00, 0x34, 0xCA, 0x00, 0x00, 0x03, 0x00, 0x00, 0x00,
  0x01, 0x00, 0x00, 0x00, 0x04, 0x00, 0x00, 0x00, 0xFA, 0x4E,
  0xFF, 0xFF, 0x0C, 0x00, 0x00, 0x00, 0x1C, 0x00, 0x00, 0x00,
  0x38, 0x00, 0x00, 0x00, 0x0F, 0x00, 0x00, 0x00, 0x73, 0x65,
  0x72, 0x76, 0x69, 0x6E, 0x67, 0x5F, 0x64, 0x65, 0x66, 0x61,
  0x75, 0x6C, 0x74, 0x00, 0x01, 0x00, 0x00, 0x00, 0x04, 0x00,
  0x00, 0x00, 0x9C, 0xFF, 0xFF, 0xFF, 0x1C, 0x00, 0x00, 0x00,
  0x04, 0x00, 0x00, 0x00, 0x05, 0x00, 0x00, 0x00, 0x64, 0x65,
  0x6E, 0x73, 0x65, 0x00, 0x00, 0x00, 0x01, 0x00, 0x00, 0x00,
  0x04, 0x00, 0x00, 0x00, 0x9A, 0x4F, 0xFF, 0xFF, 0x04, 0x00,
  0x00, 0x00, 0x07, 0x00, 0x00, 0x00, 0x69, 0x6E, 0x70, 0x75,
  0x74, 0x5F, 0x31, 0x00, 0x02, 0x00, 0x00, 0x00, 0x34, 0x00,
  0x00, 0x00, 0x04, 0x00, 0x00, 0x00, 0xDC, 0xFF, 0xFF, 0xFF,
  0x1F, 0x00, 0x00, 0x00, 0x04, 0x00, 0x00, 0x00, 0x13, 0x00,
  0x00, 0x00, 0x43, 0x4F, 0x4E, 0x56, 0x45, 0x52, 0x53, 0x49,
  0x4F, 0x4E, 0x5F, 0x4D, 0x45, 0x54, 0x41, 0x44, 0x41, 0x54,
  0x41, 0x00, 0x08, 0x00, 0x0C, 0x00, 0x08, 0x00, 0x04, 0x00,
  0x08, 0x00, 0x00, 0x00, 0x1E, 0x00, 0x00, 0x00, 0x04, 0x00,
  0x00, 0x00, 0x13, 0x00, 0x00, 0x00, 0x6D, 0x69, 0x6E, 0x5F,
  0x72, 0x75, 0x6E, 0x74, 0x69, 0x6D, 0x65, 0x5F, 0x76, 0x65,
  0x72, 0x73, 0x69, 0x6F, 0x6E, 0x00, 0x20, 0x00, 0x00, 0x00,
  0x2C, 0xAF, 0x00, 0x00, 0x24, 0xAF, 0x00, 0x00, 0x0C, 0xAF,
  0x00, 0x00, 0xD4, 0xAE, 0x00, 0x00, 0x84, 0x17, 0x00, 0x00,
  0x54, 0x17, 0x00, 0x00, 0x04, 0x15, 0x00, 0x00, 0xD4, 0x14,
  0x00, 0x00, 0x84, 0x12, 0x00, 0x00, 0x54, 0x12, 0x00, 0x00,
  0x04, 0x10, 0x00, 0x00, 0xD4, 0x0F, 0x00, 0x00, 0x44, 0x0B,
  0x00, 0x00, 0xF4, 0x0A, 0x00, 0x00, 0xE4, 0x01, 0x00, 0x00,
  0x94, 0x01, 0x00, 0x00, 0xF4, 0x00, 0x00, 0x00, 0xEC, 0x00,
  0x00, 0x00, 0xE4, 0x00, 0x00, 0x00, 0xDC, 0x00, 0x00, 0x00,
  0xD4, 0x00, 0x00, 0x00, 0xCC, 0x00, 0x00, 0x00, 0xC4, 0x00,
  0x00, 0x00, 0xBC, 0x00, 0x00, 0x00, 0xB4, 0x00, 0x00, 0x00,
  0xAC, 0x00, 0x00, 0x00, 0xA4, 0x00, 0x00, 0x00, 0x9C, 0x00,
  0x00, 0x00, 0x94, 0x00, 0x00, 0x00, 0x8C, 0x00, 0x00, 0x00,
  0x6C, 0x00, 0x00, 0x00, 0x04, 0x00, 0x00, 0x00, 0x8E, 0x50,
  0xFF, 0xFF, 0x04, 0x00, 0x00, 0x00, 0x58, 0x00, 0x00, 0x00,
  0x0C, 0x00, 0x00, 0x00, 0x08, 0x00, 0x0E, 0x00, 0x08, 0x00,
  0x04, 0x00, 0x08, 0x00, 0x00, 0x00, 0x10, 0x00, 0x00, 0x00,
  0x28, 0x00, 0x00, 0x00, 0x00, 0x00, 0x06, 0x00, 0x08, 0x00,
  0x04, 0x00, 0x06, 0x00, 0x00, 0x00, 0x04, 0x00, 0x00, 0x00,
  0x01, 0x00, 0x00, 0x00, 0xEB, 0x03, 0x00, 0x00, 0x00, 0x00,
  0x0A, 0x00, 0x10, 0x00, 0x0C, 0x00, 0x08, 0x00, 0x04, 0x00,
  0x0A, 0x00, 0x00, 0x00, 0x02, 0x00, 0x00, 0x00, 0x02, 0x00,
  0x00, 0x00, 0x04, 0x00, 0x00, 0x00, 0x06, 0x00, 0x00, 0x00,
  0x32, 0x2E, 0x31, 0x32, 0x2E, 0x30, 0x00, 0x00, 0xF2, 0x50,
  0xFF, 0xFF, 0x04, 0x00, 0x00, 0x00, 0x10, 0x00, 0x00, 0x00,
  0x31, 0x2E, 0x31, 0x34, 0x2E, 0x30, 0x00, 0x00, 0x00, 0x00,
  0x00, 0x00, 0x00, 0x00, 0x00, 0x00, 0xD8, 0x37, 0xFF, 0xFF,
  0xDC, 0x37, 0xFF, 0xFF, 0xE0, 0x37, 0xFF, 0xFF, 0xE4, 0x37,
  0xFF, 0xFF, 0xE8, 0x37, 0xFF, 0xFF, 0xEC, 0x37, 0xFF, 0xFF,
  0xF0, 0x37, 0xFF, 0xFF, 0xF4, 0x37, 0xFF, 0xFF, 0xF8, 0x37,
  0xFF, 0xFF, 0xFC, 0x37, 0xFF, 0xFF, 0x00, 0x38, 0xFF, 0xFF,
  0x04, 0x38, 0xFF, 0xFF, 0x08, 0x38, 0xFF, 0xFF, 0x42, 0x51,
  0xFF, 0xFF, 0x04, 0x00, 0x00, 0x00, 0x90, 0x00, 0x00, 0x00,
  0x0D, 0x49, 0xEA, 0x5D, 0x8A, 0x81, 0x06, 0x71, 0xF2, 0xC7,
  0x3F, 0x0E, 0x40, 0xFF, 0xD7, 0x81, 0xDA, 0xA2, 0x4C, 0x54,
  0xF6, 0x2B, 0x7A, 0xEA, 0x81, 0xDC, 0x5C, 0x4E, 0x27, 0x54,
  0xB3, 0x7F, 0x39, 0x48, 0x5C, 0xB1, 0x2D, 0x6D, 0xA8, 0x48,
  0x3F, 0x81, 0xEA, 0x8F, 0x47, 0xCB, 0x05, 0x18, 0xB1, 0x89,
  0x26, 0xA1, 0x81, 0x61, 0x20, 0xDE, 0xD5, 0x81, 0x46, 0xBA,
  0x5A, 0xF1, 0x19, 0x4E, 0xB7, 0x7F, 0x1B, 0x67, 0x1E, 0x14,
  0x9D, 0x8E, 0x5B, 0xA5, 0x15, 0x4A, 0x1A, 0x45, 0xA8, 0x81,
  0xB0, 0xFE, 0x7F, 0x45, 0xE8, 0xFF, 0xAD, 0x91, 0x98, 0xD2,
  0x55, 0xA7, 0x8E, 0xF3, 0x81, 0x61, 0x5E, 0xBD, 0xC2, 0x81,
  0x3D, 0xEF, 0x15, 0x22, 0xEB, 0x41, 0xD2, 0x84, 0xDF, 0x7F,
  0xF5, 0xB4, 0xF1, 0x24, 0xF6, 0xBB, 0xAE, 0xBE, 0xA9, 0x44,
  0xC5, 0x26, 0x08, 0x7F, 0xF4, 0x55, 0xA1, 0x81, 0xA8, 0x07,
  0x23, 0xAE, 0x19, 0x09, 0x30, 0xE5, 0xA3, 0xE3, 0xDA, 0xDE,
  0x4B, 0xBD, 0x81, 0x4F, 0xDE, 0x51, 0xFF, 0xFF, 0x04, 0x00,
  0x00, 0x00, 0x40, 0x00, 0x00, 0x00, 0xCA, 0xFF, 0xFF, 0xFF,
  0x00, 0x00, 0x00, 0x00, 0x8A, 0xFF, 0xFF, 0xFF, 0x79, 0xFF,
  0xFF, 0xFF, 0xDF, 0xFF, 0xFF, 0xFF, 0xF7, 0xFF, 0xFF, 0xFF,
  0xF2, 0xFF, 0xFF, 0xFF, 0xE0, 0xFF, 0xFF, 0xFF, 0x07, 0x00,
  0x00, 0x00, 0x28, 0x00, 0x00, 0x00, 0xAE, 0xFF, 0xFF, 0xFF,
  0x00, 0x00, 0x00, 0x00, 0x1C, 0x00, 0x00, 0x00, 0xDF, 0xFF,
  0xFF, 0xFF, 0xFB, 0xFF, 0xFF, 0xFF, 0xF0, 0xFF, 0xFF, 0xFF,
  0x2A, 0x52, 0xFF, 0xFF, 0x04, 0x00, 0x00, 0x00, 0x00, 0x09,
  0x00, 0x00, 0xC7, 0xE0, 0xFD, 0xEB, 0x09, 0x05, 0xC9, 0xB0,
  0x39, 0x81, 0x48, 0xEC, 0xE8, 0xD2, 0xDF, 0x11, 0xD1, 0x06,
  0xD2, 0xB8, 0x0C, 0xFF, 0xDB, 0x15, 0xC3, 0xC0, 0x38, 0x00,
  0xC8, 0x17, 0x1D, 0xF8, 0xBA, 0x0E, 0x4B, 0xE5, 0xBF, 0x2A,
  0xD8, 0xF6, 0xAC, 0xA0, 0x0D, 0xFD, 0xD2, 0x2B, 0xB1, 0x1C,
  0x20, 0x8A, 0x1C, 0x0B, 0x3A, 0x3C, 0x29, 0xC9, 0xDD, 0x98,
  0x0E, 0xEE, 0xA4, 0xB3, 0xDF, 0x2F, 0xF1, 0x61, 0xB7, 0xC0,
  0xB1, 0x6C, 0x02, 0x12, 0xFA, 0xB6, 0xD8, 0xBA, 0xF0, 0xC4,
  0x83, 0x1C, 0xAA, 0xAC, 0x11, 0xF9, 0x26, 0x14, 0x27, 0x18,
  0xD3, 0xE5, 0xB4, 0xF7, 0x0D, 0x52, 0x0B, 0x3F, 0x13, 0xF4,
  0xC9, 0x0B, 0xC0, 0x15, 0xE2, 0xCB, 0xE4, 0xD7, 0x2D, 0x05,
  0xCB, 0xC9, 0x9D, 0xE0, 0x26, 0x42, 0xF6, 0x14, 0xAD, 0x76,
  0xB1, 0x18, 0x35, 0x0F, 0x29, 0xAA, 0xBF, 0xD3, 0x0A, 0x09,
  0x9D, 0xF3, 0xC8, 0x0C, 0xC2, 0x6A, 0xCE, 0xAB, 0xAD, 0xFF,
  0xF2, 0xFC, 0x1D, 0x32, 0xA4, 0x01, 0x26, 0x0E, 0xCC, 0x8F,
  0x31, 0xBD, 0xF4, 0x1C, 0xDA, 0xF2, 0xF7, 0xB0, 0x32, 0x96,
  0x08, 0xD7, 0x02, 0x1F, 0x96, 0x94, 0xDA, 0x35, 0x12, 0xDE,
  0x0A, 0x1F, 0xE4, 0x9A, 0xEF, 0x36, 0xEA, 0x66, 0x11, 0x2D,
  0xCA, 0x3E, 0x9B, 0x1B, 0x2E, 0xA5, 0x07, 0xCB, 0x27, 0x01,
  0x14, 0x1A, 0x34, 0x3E, 0x32, 0xF9, 0xB8, 0xDC, 0xDA, 0xF0,
  0xAC, 0x27, 0xEF, 0xF3, 0xEF, 0xEC, 0xAC, 0x97, 0xEA, 0x96,
  0xEB, 0x11, 0xE5, 0x0D, 0x0C, 0x64, 0x29, 0xFE, 0x4E, 0x87,
  0x0D, 0x27, 0x81, 0x24, 0xD8, 0x0E, 0xC6, 0xF4, 0xF9, 0xC3,
  0xBC, 0xE2, 0xBF, 0x01, 0xC1, 0x16, 0x1B, 0xDE, 0xD0, 0xE5,
  0x32, 0x1E, 0xF6, 0xD4, 0x37, 0xAE, 0xFF, 0xDD, 0xEC, 0x97,
  0xD8, 0xAC, 0x02, 0x02, 0x88, 0xBB, 0xE4, 0xB1, 0x2D, 0xC5,
  0x34, 0x20, 0x14, 0x57, 0xD6, 0x93, 0xC4, 0x93, 0xE6, 0x29,
  0x03, 0xFA, 0xE3, 0xDE, 0xDD, 0x28, 0x22, 0x49, 0xE7, 0xE6,
  0xAF, 0xAD, 0xB5, 0x19, 0x35, 0x17, 0x04, 0x12, 0xB5, 0xCB,
  0x25, 0x05, 0xF2, 0xEB, 0x31, 0xB0, 0x1E, 0xB1, 0xB5, 0xDA,
  0x1D, 0xDC, 0x4D, 0xE4, 0x00, 0xD9, 0x22, 0x06, 0x9C, 0xAA,
  0x3A, 0x8F, 0x42, 0x9F, 0x32, 0xFC, 0xD5, 0xB1, 0x15, 0x47,
  0x51, 0xCF, 0xDA, 0x23, 0xAD, 0xA8, 0xC3, 0x9E, 0xC8, 0x07,
  0x1E, 0x2C, 0xB8, 0x3D, 0xC7, 0xB4, 0x22, 0xA3, 0xB7, 0x26,
  0x34, 0x3E, 0xF1, 0xEA, 0x36, 0xD8, 0xD3, 0xE3, 0x33, 0x3B,
  0xCE, 0x04, 0xD5, 0x0F, 0x36, 0xDB, 0x0B, 0xE4, 0xB4, 0x1A,
  0x33, 0x24, 0xFE, 0x0A, 0x2E, 0xF8, 0x1C, 0xED, 0xD8, 0x20,
  0x10, 0xF4, 0xB8, 0x10, 0xC2, 0x3C, 0x34, 0x38, 0xB8, 0x2A,
  0x29, 0x15, 0x50, 0x43, 0x3A, 0xBE, 0x1F, 0x06, 0xED, 0x40,
  0xFE, 0xB8, 0x2A, 0xE0, 0xC3, 0xEF, 0x31, 0x06, 0xCF, 0x68,
  0x64, 0xF6, 0x4D, 0x31, 0xF3, 0x1A, 0x09, 0xC8, 0xEB, 0xD4,
  0xE6, 0xB0, 0x3D, 0x13, 0xC3, 0xD9, 0x7F, 0x08, 0x2A, 0xED,
  0x33, 0x27, 0xD3, 0x98, 0xD7, 0xE3, 0xCE, 0x21, 0xEB, 0x50,
  0xF3, 0x02, 0x1D, 0xEF, 0xE2, 0x18, 0x58, 0xC1, 0x1B, 0x30,
  0x10, 0x54, 0xB2, 0xC5, 0x1A, 0xDF, 0xB3, 0x4B, 0xE0, 0x3A,
  0x44, 0xBD, 0xFA, 0x1A, 0x47, 0xEF, 0xCF, 0x31, 0xE7, 0xEB,
  0x46, 0xDD, 0x22, 0x38, 0x08, 0x36, 0x4B, 0xB5, 0xB8, 0xEE,
  0xE9, 0x13, 0xC7, 0xB8, 0x10, 0x03, 0x0C, 0xBB, 0x1C, 0x1B,
  0xEE, 0x40, 0xD4, 0xC0, 0xF5, 0x50, 0xD3, 0x39, 0x17, 0xF5,
  0xC9, 0xA7, 0xCB, 0x54, 0x17, 0x20, 0xE0, 0xD5, 0xCD, 0xE4,
  0x1F, 0x07, 0xDA, 0xE4, 0xC6, 0xF9, 0x1E, 0xAE, 0x0D, 0x16,
  0xAA, 0x08, 0xF5, 0xDB, 0x10, 0x28, 0xC9, 0x01, 0x3F, 0xC0,
  0x10, 0x51, 0x2C, 0xA1, 0xCE, 0x2D, 0x06, 0x05, 0xA6, 0xCE,
  0x46, 0xC7, 0x0F, 0x47, 0x1E, 0x12, 0xCC, 0xE1, 0xDA, 0x81,
  0x21, 0x45, 0xA0, 0x22, 0x30, 0x1F, 0xE6, 0xF0, 0xF2, 0x0B,
  0x2E, 0xEC, 0xC9, 0x00, 0x1D, 0xDF, 0x53, 0xFC, 0xFF, 0x9C,
  0x5D, 0xF2, 0x3E, 0x0C, 0xD9, 0xDF, 0x3C, 0xD2, 0xC1, 0xCE,
  0xE6, 0xE4, 0xC3, 0xB8, 0xC3, 0xF1, 0x36, 0xE8, 0x0A, 0x8F,
  0xED, 0x40, 0xA0, 0xBE, 0xB5, 0x1C, 0xE9, 0x10, 0xBD, 0xF2,
  0x91, 0xBF, 0xDF, 0xA4, 0xCF, 0xFF, 0x89, 0xE6, 0x07, 0x0B,
  0x06, 0xDA, 0x90, 0x1F, 0x50, 0x22, 0x3D, 0x8B, 0xB6, 0xE8,
  0xE0, 0x26, 0x9C, 0xD0, 0xDB, 0xE9, 0xFE, 0x30, 0x27, 0xB8,
  0xFC, 0x01, 0x87, 0xEC, 0x23, 0xE6, 0xB9, 0x16, 0x4B, 0xAF,
  0xBB, 0xC0, 0xB0, 0x03, 0xCB, 0x1C, 0xFD, 0x8B, 0x0C, 0x25,
  0x18, 0x14, 0x98, 0x13, 0x97, 0x95, 0xC2, 0xD0, 0x3F, 0xC1,
  0xCC, 0x00, 0xFD, 0xE2, 0x26, 0xEF, 0xBF, 0x2F, 0xB2, 0x38,
  0xA4, 0x0A, 0xD7, 0xED, 0x26, 0x1F, 0xEE, 0xEA, 0x75, 0x29,
  0x20, 0xF7, 0x01, 0x02, 0x1D, 0xCA, 0x52, 0xB4, 0xF4, 0x7E,
  0x38, 0xCA, 0x14, 0x8D, 0xB4, 0xC9, 0xA0, 0xA4, 0xA3, 0x5C,
  0x5D, 0x37, 0x1C, 0x10, 0xE2, 0xEB, 0xCD, 0x9D, 0xF8, 0xEB,
  0xCE, 0xCC, 0xDD, 0xAC, 0x37, 0x52, 0x1D, 0x6C, 0x18, 0xCB,
  0x0A, 0x81, 0x17, 0xBD, 0x0B, 0xB0, 0x13, 0x6C, 0xC0, 0xF5,
  0x6E, 0xC3, 0x37, 0x1C, 0x01, 0xBC, 0x39, 0xB9, 0xE8, 0x10,
  0x40, 0x11, 0x21, 0x03, 0xD5, 0xD9, 0xFC, 0x16, 0x0E, 0xFE,
  0xC1, 0xF4, 0x13, 0x02, 0x1C, 0xE4, 0x32, 0x18, 0x12, 0x17,
  0xB5, 0x3F, 0x09, 0x17, 0xF5, 0xD5, 0xC5, 0x12, 0x10, 0xFE,
  0xD7, 0x2F, 0x09, 0x00, 0x17, 0xF3, 0x1F, 0x05, 0xCA, 0x23,
  0xCE, 0xDC, 0x1E, 0xB0, 0xEC, 0xEC, 0xD4, 0xE1, 0x59, 0xB9,
  0x54, 0x8F, 0x10, 0xFF, 0xC1, 0x31, 0xEF, 0xF9, 0xFD, 0xD7,
  0xD4, 0xCC, 0xD1, 0xF0, 0xD0, 0xE5, 0x02, 0x19, 0xB9, 0x0E,
  0x04, 0x2B, 0xAC, 0x3C, 0xEE, 0xF2, 0xCB, 0x3A, 0xE9, 0x07,
  0x07, 0x57, 0xCB, 0x43, 0x70, 0xCD, 0x04, 0x18, 0x07, 0xCB,
  0x28, 0x05, 0xEA, 0xCF, 0xC5, 0xF6, 0x0B, 0xBB, 0xDF, 0xEB,
  0xFE, 0xF8, 0x1D, 0xD3, 0xFC, 0xDB, 0x0D, 0xB0, 0xF3, 0x07,
  0xBE, 0x04, 0x08, 0xD2, 0x2D, 0xDE, 0xB6, 0x1A, 0xBC, 0xA4,
  0x0B, 0x7F, 0xBE, 0xF9, 0xB0, 0xDA, 0xD9, 0x25, 0xDB, 0x66,
  0xC5, 0x6E, 0x41, 0xBB, 0xE7, 0xFF, 0xFF, 0x1B, 0x3C, 0xF8,
  0xC7, 0xA4, 0xF0, 0x2D, 0x32, 0x1A, 0x1A, 0x53, 0xD6, 0x19,
  0xEC, 0x06, 0xEA, 0x28, 0x51, 0x13, 0x2C, 0xDA, 0x29, 0xC5,
  0xEE, 0xA1, 0x51, 0xDB, 0x03, 0x35, 0xC4, 0xF0, 0xF0, 0x2F,
  0x34, 0xE7, 0xD2, 0xE3, 0xCA, 0x43, 0x9E, 0x84, 0xEF, 0x70,
  0xFD, 0x0F, 0x54, 0xE8, 0xF0, 0x1D, 0xEB, 0xE4, 0x18, 0x40,
  0x59, 0xDA, 0xCA, 0xD2, 0xB4, 0x1B, 0xFC, 0xD6, 0xA7, 0x02,
  0x48, 0x81, 0xD7, 0x01, 0xDD, 0x4F, 0x43, 0xC9, 0xA8, 0x8F,
  0x24, 0x4A, 0xD6, 0x2C, 0xDC, 0x00, 0xD4, 0xB5, 0x03, 0x60,
  0xD0, 0x2E, 0x08, 0xE2, 0x1A, 0xAD, 0xEF, 0x67, 0x2E, 0x5C,
  0xFF, 0x02, 0x55, 0x01, 0x26, 0xC6, 0xE4, 0x0F, 0xBF, 0x5A,
  0xC8, 0x8C, 0x1A, 0xFA, 0x22, 0x34, 0x07, 0xCF, 0x08, 0xD7,
  0x3F, 0x1F, 0x12, 0xFE, 0x3B, 0x48, 0x0E, 0x09, 0x2C, 0xFE,
  0xB6, 0x5E, 0xD1, 0x16, 0x40, 0xE8, 0x21, 0x6A, 0xE4, 0x0F,
  0x14, 0x22, 0x05, 0x91, 0xB2, 0xCA, 0x00, 0xD4, 0xBE, 0xE0,
  0xE8, 0xAE, 0xFE, 0xCE, 0xE9, 0xB8, 0x08, 0xA7, 0x36, 0x0E,
  0xD5, 0x2B, 0xFF, 0xD8, 0xD3, 0x13, 0x0F, 0x07, 0xBB, 0xBF,
  0xF4, 0x19, 0xCA, 0x2C, 0x14, 0x1D, 0x1B, 0xE9, 0x17, 0xF0,
  0x20, 0xEC, 0xCF, 0x2F, 0x2F, 0x2E, 0xDF, 0x81, 0x46, 0xA8,
  0x14, 0xC6, 0xB7, 0x2D, 0x99, 0x05, 0x1E, 0x00, 0x41, 0xF9,
  0xC0, 0x31, 0xAB, 0xC7, 0x4C, 0x2B, 0xD6, 0xC4, 0xAD, 0xFC,
  0xC4, 0x1D, 0x43, 0xCE, 0xC3, 0x16, 0x41, 0xCF, 0x3F, 0xFC,
  0xD5, 0x3B, 0xC1, 0x00, 0x0D, 0x04, 0xB9, 0xC0, 0x0C, 0xDB,
  0xE8, 0x10, 0xED, 0xF5, 0xDB, 0xA1, 0x16, 0xE0, 0xC2, 0x26,
  0xCC, 0xC6, 0x1F, 0xBB, 0x14, 0xC0, 0x39, 0x31, 0xDB, 0x3E,
  0xB4, 0xF5, 0x01, 0x2A, 0xE4, 0xE5, 0x48, 0xFC, 0x4F, 0x02,
  0x8A, 0xCB, 0xAC, 0x28, 0xB4, 0x36, 0x41, 0xE3, 0xDC, 0xED,
  0x2B, 0xDD, 0x57, 0x20, 0xD3, 0x32, 0xBC, 0x22, 0xA8, 0x35,
  0x29, 0xCF, 0xE7, 0x09, 0xB7, 0x3C, 0xEA, 0xD2, 0x41, 0x1A,
  0xE2, 0xC7, 0xEF, 0x9F, 0x4C, 0x35, 0xBD, 0x32, 0x29, 0x04,
  0xC7, 0x4D, 0xD5, 0xE6, 0xD8, 0x21, 0xE4, 0xE5, 0xF3, 0xE1,
  0xCA, 0xEF, 0x1E, 0xF0, 0x24, 0xB2, 0x3D, 0xC9, 0xC6, 0x01,
  0x25, 0xD4, 0xC5, 0x01, 0x9D, 0xEA, 0xE8, 0x1B, 0xCA, 0xEF,
  0x3B, 0x07, 0x07, 0xF2, 0xB7, 0x3F, 0x19, 0x38, 0x1A, 0x3B,
  0x02, 0xD5, 0x32, 0x16, 0xC0, 0x06, 0x3F, 0x14, 0x15, 0x1E,
  0x14, 0x81, 0x37, 0xE1, 0xDC, 0x4A, 0xBA, 0x78, 0x27, 0xC1,
  0x25, 0xDF, 0x3D, 0x18, 0x37, 0xBF, 0x2E, 0xE8, 0x30, 0xC4,
  0x34, 0x01, 0xDF, 0xF5, 0xCF, 0x27, 0xBE, 0x29, 0x15, 0x24,
  0xDB, 0x3E, 0x28, 0xDF, 0xBB, 0x21, 0x17, 0x1A, 0x2D, 0xEA,
  0x47, 0xFA, 0x12, 0x3A, 0x1E, 0xDC, 0x58, 0xCB, 0x47, 0xE3,
  0x04, 0x2E, 0xDD, 0xCA, 0x2B, 0x66, 0xE7, 0xD4, 0xCA, 0xF5,
  0x21, 0x05, 0xDA, 0xDD, 0xBB, 0xF5, 0x28, 0xA6, 0x34, 0xDA,
  0x15, 0x48, 0x05, 0xEC, 0xBD, 0x04, 0xB9, 0xFC, 0x42, 0xEA,
  0xB9, 0xDB, 0xBC, 0xBE, 0x0D, 0xE8, 0xD1, 0xBE, 0xF5, 0xCB,
  0xD6, 0x96, 0x34, 0xED, 0x57, 0xBA, 0x3C, 0x20, 0xD5, 0xF4,
  0x27, 0xFD, 0xA3, 0x15, 0xB9, 0x69, 0xCE, 0x02, 0x10, 0x27,
  0x2C, 0xB4, 0x49, 0x0D, 0xBD, 0xAF, 0x4B, 0x2F, 0xD1, 0xEE,
  0x9A, 0x8A, 0xB3, 0xBB, 0xEE, 0xB0, 0xF6, 0xC8, 0xCC, 0x2A,
  0x2C, 0x03, 0xC3, 0xE5, 0xF6, 0xEF, 0xC7, 0x53, 0xCB, 0x39,
  0x37, 0x40, 0x01, 0x11, 0xE3, 0xE7, 0x30, 0xE9, 0x30, 0x4A,
  0xFB, 0x41, 0x4E, 0x0A, 0x29, 0xBD, 0x4A, 0xFC, 0xC8, 0xDC,
  0xBB, 0xC2, 0x20, 0x07, 0xB1, 0xF8, 0x6D, 0xDD, 0xBC, 0x56,
  0xF8, 0x42, 0xB7, 0xB1, 0x28, 0xF1, 0xDD, 0x81, 0xD0, 0xE5,
  0xB5, 0x58, 0x1B, 0xC3, 0x3B, 0xB4, 0x49, 0x46, 0xBA, 0xF4,
  0x4E, 0xAB, 0xBD, 0x8F, 0xBA, 0xA1, 0x2D, 0x0E, 0x53, 0x65,
  0x3E, 0xD2, 0x39, 0xBA, 0xDE, 0x29, 0xDC, 0xD2, 0x3C, 0x49,
  0xFF, 0x32, 0xD6, 0xEF, 0xF3, 0x5C, 0x0C, 0xD0, 0xDA, 0x64,
  0x1F, 0xF1, 0xB1, 0x44, 0xBD, 0x23, 0x20, 0x36, 0x2D, 0x73,
  0xC4, 0xF4, 0x09, 0x32, 0xA1, 0xBC, 0xF9, 0x5C, 0xBF, 0xF8,
  0xD9, 0x19, 0x32, 0x44, 0xD3, 0x03, 0x35, 0x04, 0x2C, 0xB8,
  0xC0, 0x01, 0xFB, 0x36, 0x1F, 0xE0, 0xC3, 0xE1, 0x36, 0x2B,
  0xF8, 0x0B, 0x3E, 0xEB, 0xA2, 0x12, 0xED, 0x95, 0xCA, 0xE9,
  0xB8, 0x81, 0xB9, 0xC9, 0xF7, 0x13, 0xF5, 0xC8, 0xF4, 0xC3,
  0x1F, 0x33, 0xE6, 0xE3, 0x33, 0x7D, 0x18, 0xEC, 0xE9, 0x22,
  0x1D, 0x25, 0xBF, 0xC8, 0x4D, 0x7B, 0xE0, 0x30, 0xF3, 0xB1,
  0xF2, 0x11, 0xF1, 0xC4, 0xE9, 0xB6, 0x26, 0xD7, 0xFA, 0xD5,
  0x5A, 0xFB, 0xBE, 0x0F, 0xD5, 0xE5, 0xA3, 0xDA, 0x03, 0xC9,
  0xAB, 0xE7, 0x19, 0x06, 0xEA, 0x49, 0x59, 0xB3, 0xE0, 0xE5,
  0xF8, 0xE2, 0xBA, 0x70, 0xE3, 0x38, 0xCA, 0xA0, 0xF7, 0x18,
  0x13, 0xF5, 0x44, 0x3F, 0x21, 0xC5, 0x37, 0xDC, 0x1F, 0xEE,
  0x39, 0x0E, 0x28, 0xA2, 0x08, 0xC6, 0x02, 0x16, 0x10, 0x1B,
  0xBB, 0xF9, 0x20, 0xD6, 0xE4, 0xC7, 0xFA, 0xBF, 0xA9, 0xD6,
  0xAA, 0xD5, 0x31, 0xF7, 0x4B, 0x3F, 0xA1, 0xE8, 0xAA, 0x85,
  0xA7, 0xF3, 0xAC, 0x9A, 0xE2, 0xAE, 0xC4, 0x32, 0xF3, 0xF8,
  0x1B, 0xCF, 0x34, 0x62, 0xDC, 0xD6, 0x05, 0xBE, 0xDC, 0xB9,
  0xBF, 0x50, 0x02, 0xB9, 0x42, 0x0A, 0x1A, 0x30, 0xF5, 0x6F,
  0x2C, 0xDD, 0xDB, 0x3B, 0xA5, 0x0F, 0xD5, 0x3D, 0x59, 0x0D,
  0x05, 0xC2, 0xDC, 0xDF, 0xE8, 0xFA, 0xB6, 0xB3, 0x41, 0xC1,
  0xDF, 0xC0, 0xB4, 0x01, 0x13, 0xE9, 0xB6, 0xF4, 0x25, 0xFE,
  0xFF, 0x07, 0xF7, 0xF3, 0xA8, 0x53, 0x3C, 0x23, 0xF9, 0xBD,
  0xCA, 0xD3, 0x27, 0xC5, 0x35, 0x48, 0x56, 0x53, 0x2F, 0xFE,
  0xDF, 0xCE, 0xFF, 0x9F, 0xA8, 0x1B, 0xC2, 0xC2, 0xC4, 0xC8,
  0xD5, 0x15, 0xFD, 0x15, 0xD5, 0x93, 0x09, 0x27, 0x15, 0xF4,
  0xB0, 0x44, 0x2A, 0x1B, 0x4A, 0xCC, 0x1F, 0xCD, 0xBF, 0xC2,
  0x09, 0xF1, 0x7F, 0x4F, 0xF4, 0xE3, 0xF6, 0xA5, 0x44, 0xED,
  0x0D, 0xE8, 0xE0, 0x51, 0xBB, 0x0E, 0x04, 0x40, 0x1A, 0x02,
  0x00, 0xEE, 0xFF, 0x45, 0x31, 0xC7, 0xA8, 0x45, 0xE2, 0x4E,
  0x0F, 0x32, 0xF5, 0xD2, 0xC4, 0xCB, 0xE4, 0x3E, 0xDA, 0x17,
  0x39, 0xDB, 0x1C, 0x35, 0x61, 0x1C, 0xB3, 0xF9, 0x30, 0xAA,
  0xFB, 0xD6, 0xE3, 0xA6, 0x1D, 0x04, 0x19, 0x59, 0xD6, 0xFE,
  0xD5, 0x8E, 0x11, 0xB0, 0xBD, 0xA6, 0x32, 0x3D, 0x3C, 0xEA,
  0x37, 0xFC, 0x42, 0xF4, 0xFC, 0xBC, 0x46, 0x34, 0x20, 0x0F,
  0xB8, 0x44, 0x31, 0xB6, 0x25, 0x16, 0xE5, 0xA5, 0xD8, 0xDE,
  0x2B, 0xE4, 0xF6, 0xCA, 0x2F, 0x12, 0xE4, 0xE4, 0x0F, 0xBC,
  0xDD, 0x1C, 0xDC, 0xDC, 0xC6, 0x32, 0x20, 0xE3, 0x2A, 0x09,
  0x2F, 0xB7, 0xA7, 0xC6, 0xFF, 0x47, 0xB2, 0x08, 0xFA, 0xFF,
  0xE8, 0xA8, 0x85, 0xEB, 0x04, 0x36, 0xF3, 0x2F, 0x41, 0xC3,
  0x32, 0x18, 0x0D, 0xC1, 0x2B, 0xC0, 0x1C, 0x4D, 0x04, 0x10,
  0x58, 0x44, 0x0C, 0x7F, 0x26, 0xCB, 0x38, 0xDA, 0xE0, 0x16,
  0xE0, 0x2B, 0x1B, 0xF0, 0x1D, 0xD7, 0x0B, 0xEE, 0xF3, 0xE7,
  0xD3, 0x98, 0x3C, 0x61, 0xED, 0xBD, 0x17, 0xD2, 0xFF, 0xFD,
  0xD7, 0xBC, 0xDA, 0x5C, 0xF8, 0x14, 0xC1, 0xC0, 0xB6, 0xEB,
  0xCC, 0xA8, 0x12, 0x2B, 0x67, 0xE5, 0xF7, 0xF2, 0xAB, 0x03,
  0xA1, 0xDA, 0x20, 0x09, 0xB4, 0xEF, 0x16, 0x0A, 0x10, 0x16,
  0x0F, 0xF2, 0x1F, 0xFF, 0x21, 0x6D, 0x3C, 0x36, 0x36, 0xB7,
  0xBE, 0x40, 0xDD, 0xB3, 0x44, 0x29, 0xF7, 0x10, 0xC4, 0xCD,
  0xB1, 0xFC, 0xB7, 0xD8, 0xFC, 0xAA, 0xD6, 0xFE, 0x00, 0xD4,
  0x46, 0x29, 0x05, 0xF6, 0xD5, 0xBC, 0xF4, 0x4E, 0xF9, 0xD5,
  0x2A, 0xD2, 0xA5, 0x5D, 0x33, 0xE9, 0x26, 0xD8, 0x0F, 0xD9,
  0xE9, 0xD1, 0xF0, 0x35, 0x3A, 0xDD, 0x43, 0x38, 0x2C, 0x5E,
  0xCC, 0x32, 0xC2, 0xEF, 0xD9, 0x14, 0xF4, 0x15, 0x12, 0x41,
  0x13, 0xD9, 0xD4, 0xCE, 0x16, 0x06, 0x2D, 0x35, 0xBE, 0xD6,
  0x3F, 0x08, 0x88, 0xFE, 0x81, 0x0E, 0x01, 0xE5, 0x09, 0x1F,
  0x1F, 0x32, 0xDA, 0xB2, 0xFA, 0xB7, 0xD6, 0xF8, 0xCC, 0xF4,
  0xED, 0x53, 0x0B, 0xF8, 0x38, 0x0D, 0xE3, 0xCD, 0xE8, 0xA9,
  0x06, 0xA8, 0x42, 0xD7, 0xC8, 0x4F, 0xB9, 0xD9, 0x12, 0xF1,
  0x8B, 0xA6, 0xFD, 0x0C, 0x19, 0xF8, 0xE0, 0x18, 0xD9, 0x60,
  0xDC, 0x50, 0x4D, 0x0F, 0xD2, 0xC3, 0x9B, 0x9C, 0xF1, 0xE8,
  0xED, 0xB0, 0x9C, 0xD6, 0xEE, 0x35, 0xC2, 0xFC, 0x10, 0xF5,
  0x08, 0xFD, 0xD2, 0x0F, 0x81, 0xC5, 0xE3, 0xE3, 0x24, 0xC3,
  0x04, 0xB2, 0xC6, 0xEB, 0x0A, 0x0C, 0x0E, 0xBE, 0x0D, 0xC4,
  0xE1, 0xFB, 0x14, 0xE0, 0x19, 0xB9, 0x2D, 0x47, 0x1A, 0x1B,
  0x36, 0xE0, 0xF6, 0x3D, 0xE1, 0xF5, 0xFA, 0xDE, 0x30, 0x23,
  0xDC, 0xC0, 0x22, 0xDC, 0x0C, 0x13, 0x2F, 0x3B, 0x02, 0x1E,
  0xE5, 0xF7, 0xE7, 0xC0, 0xFD, 0xEE, 0x1F, 0xF5, 0xEC, 0x3B,
  0xC7, 0xC8, 0xD8, 0xD6, 0xCD, 0x34, 0x99, 0xFF, 0x40, 0x0A,
  0xD9, 0x60, 0xE6, 0x93, 0x1D, 0x38, 0x33, 0x47, 0x0D, 0xE3,
  0xB9, 0x26, 0xC5, 0xEA, 0x22, 0x38, 0xAE, 0x15, 0xB6, 0x3C,
  0xB5, 0x49, 0x04, 0xBD, 0xB6, 0x29, 0x9B, 0x38, 0xFD, 0xC3,
  0xB0, 0x0D, 0x21, 0x01, 0xD2, 0xDF, 0xD8, 0x00, 0x19, 0x26,
  0x07, 0x08, 0x09, 0xB6, 0x3C, 0x0F, 0x02, 0xCF, 0xD4, 0x2C,
  0x1D, 0x87, 0x0B, 0xD0, 0xA3, 0x29, 0x42, 0xE8, 0x36, 0xBB,
  0xC7, 0xC1, 0x3F, 0xA4, 0xEA, 0x4A, 0x51, 0xA8, 0x2E, 0x14,
  0xAD, 0xAA, 0xC3, 0xD5, 0x09, 0xE2, 0x03, 0xB8, 0xE2, 0x2E,
  0x40, 0xDF, 0x29, 0x26, 0xE8, 0x04, 0x00, 0x44, 0x12, 0x54,
  0xB8, 0xE1, 0x10, 0xE4, 0xE3, 0xF2, 0xB5, 0xD0, 0x55, 0xCF,
  0x9D, 0x0C, 0xBE, 0xC7, 0xB2, 0x1E, 0x45, 0xD9, 0x15, 0x35,
  0x42, 0xE9, 0x19, 0xBD, 0x36, 0xF6, 0xC4, 0xAB, 0xDD, 0xD8,
  0xF5, 0xA5, 0xF2, 0xD4, 0x38, 0xE5, 0x25, 0x4A, 0x0F, 0xD4,
  0x06, 0xFF, 0xE3, 0xCD, 0x25, 0xDD, 0xC2, 0x54, 0xC4, 0xE2,
  0xD2, 0xED, 0x38, 0xA3, 0x24, 0xD7, 0x42, 0xA3, 0xF5, 0xF9,
  0xB0, 0x0B, 0xE7, 0x0B, 0x23, 0xF6, 0xA5, 0x00, 0xEA, 0xB4,
  0xC8, 0xCF, 0xB3, 0x81, 0xFF, 0xAB, 0xB4, 0x08, 0x0B, 0xEE,
  0xA9, 0xA7, 0xAA, 0xE7, 0x10, 0x71, 0x2F, 0xCC, 0xEB, 0xB1,
  0x29, 0xDB, 0x0C, 0x12, 0x45, 0x79, 0x36, 0x5B, 0xFF, 0xFF,
  0x04, 0x00, 0x00, 0x00, 0x40, 0x00, 0x00, 0x00, 0xF9, 0xFF,
  0xFF, 0xFF, 0x01, 0x00, 0x00, 0x00, 0xEF, 0xFF, 0xFF, 0xFF,
  0x83, 0xFF, 0xFF, 0xFF, 0xF4, 0xFF, 0xFF, 0xFF, 0x0E, 0x00,
  0x00, 0x00, 0x76, 0xFF, 0xFF, 0xFF, 0xED, 0xFF, 0xFF, 0xFF,
  0x1E, 0x00, 0x00, 0x00, 0x45, 0x00, 0x00, 0x00, 0xFD, 0xFF,
  0xFF, 0xFF, 0x18, 0x00, 0x00, 0x00, 0xFD, 0xFF, 0xFF, 0xFF,
  0xE1, 0xFF, 0xFF, 0xFF, 0xF7, 0xFF, 0xFF, 0xFF, 0xCA, 0xFF,
  0xFF, 0xFF, 0x82, 0x5B, 0xFF, 0xFF, 0x04, 0x00, 0x00, 0x00,
  0x80, 0x04, 0x00, 0x00, 0x32, 0x1B, 0x57, 0xE7, 0x0A, 0x1A,
  0xE8, 0xD9, 0xD7, 0x5B, 0x14, 0x19, 0xFD, 0xEE, 0x1D, 0x16,
  0xC6, 0xE2, 0xDB, 0x3E, 0x26, 0x00, 0x4C, 0x1D, 0x9E, 0xC2,
  0x1E, 0xD9, 0x07, 0xB7, 0x7F, 0xEC, 0x92, 0xD7, 0x37, 0xF5,
  0x0B, 0xCE, 0x41, 0xDC, 0xF2, 0x26, 0x48, 0xED, 0x9A, 0x05,
  0x4F, 0xC5, 0xE8, 0x36, 0xCF, 0xED, 0x1C, 0x28, 0x02, 0xF5,
  0x1F, 0x32, 0x2F, 0xF6, 0x01, 0x36, 0x55, 0xE0, 0xD2, 0xCF,
  0xFA, 0xF5, 0x54, 0x4B, 0x55, 0x16, 0xBA, 0xAF, 0xF5, 0x24,
  0x34, 0xC2, 0x49, 0x1A, 0x21, 0x05, 0x4C, 0x53, 0x06, 0x14,
  0xCA, 0xE3, 0xF7, 0x1F, 0xE0, 0xBE, 0x33, 0xD1, 0xB4, 0x16,
  0x04, 0x2D, 0x23, 0x0D, 0x1A, 0x01, 0x3E, 0x41, 0x52, 0xD8,
  0x53, 0xC5, 0xDF, 0x0C, 0xD1, 0x3F, 0xD7, 0xC3, 0xF5, 0xDF,
  0xC0, 0xE4, 0x12, 0xDF, 0x1E, 0xE9, 0xFB, 0xE8, 0xBD, 0xF7,
  0x00, 0x36, 0x94, 0x1C, 0x18, 0x04, 0x02, 0xE9, 0xC6, 0x12,
  0x34, 0x04, 0x35, 0x01, 0x9E, 0x24, 0xE1, 0xB0, 0x20, 0x1F,
  0x19, 0x37, 0xC9, 0xDC, 0x0F, 0xD8, 0x35, 0x71, 0x36, 0x27,
  0x13, 0x03, 0x08, 0xBF, 0xF9, 0xAA, 0x5A, 0xF4, 0x24, 0x12,
  0xA4, 0x13, 0x61, 0xF6, 0x1A, 0xAA, 0x51, 0x0A, 0x0E, 0xEB,
  0xDB, 0x39, 0x1B, 0x31, 0x59, 0xCA, 0xD0, 0xBD, 0x5E, 0xE9,
  0x34, 0x02, 0x48, 0xFD, 0x2B, 0x0B, 0x11, 0x2E, 0x79, 0xE0,
  0xE1, 0xC4, 0x29, 0x27, 0xEF, 0x0B, 0xDD, 0xE2, 0x0E, 0xDA,
  0xBD, 0x0C, 0x38, 0xF7, 0x61, 0x3F, 0x18, 0x09, 0x21, 0x76,
  0x06, 0x30, 0x1E, 0xFF, 0x2C, 0xE5, 0x36, 0x9B, 0x4C, 0xB5,
  0x40, 0xD0, 0xC3, 0xF9, 0x30, 0x45, 0xCB, 0xD9, 0x01, 0xD4,
  0x24, 0xB1, 0x2B, 0x92, 0x99, 0xAF, 0x7F, 0x3E, 0xAD, 0xD0,
  0x6C, 0x1D, 0xF7, 0x36, 0xF2, 0xAB, 0x34, 0xE5, 0xE6, 0x97,
  0x9B, 0xA9, 0x41, 0xD8, 0x4A, 0x20, 0x00, 0x5A, 0xF5, 0xD6,
  0x45, 0x43, 0xF1, 0x97, 0x1C, 0x25, 0xDA, 0x15, 0x0F, 0x1D,
  0x16, 0xA9, 0xF4, 0xB7, 0xFF, 0xB8, 0xFA, 0x35, 0x1E, 0x28,
  0x32, 0xDB, 0xDA, 0xC6, 0xD1, 0x2B, 0xF7, 0xA7, 0x3C, 0x85,
  0xE8, 0x40, 0xDE, 0xEA, 0xD6, 0xE9, 0x05, 0xB1, 0xD9, 0x16,
  0x0D, 0xE2, 0x26, 0xEC, 0xC4, 0xDC, 0x40, 0x49, 0xD2, 0x09,
  0xE3, 0xAF, 0xB1, 0x35, 0xED, 0xCE, 0xDD, 0xF6, 0x33, 0xC0,
  0xDE, 0x1D, 0xBF, 0xE9, 0xA2, 0xE2, 0x33, 0x0D, 0x98, 0x04,
  0xE1, 0xFD, 0x43, 0x37, 0x35, 0xDC, 0xA8, 0xCD, 0xEC, 0xD1,
  0xB9, 0x23, 0x3A, 0x63, 0xF1, 0xD7, 0x81, 0xEC, 0x57, 0xC4,
  0x24, 0x02, 0x1C, 0xC4, 0xEC, 0x1F, 0xF7, 0x18, 0xC0, 0xFE,
  0xD5, 0xEB, 0xB5, 0xC9, 0xC3, 0xC5, 0x4B, 0xE4, 0xF0, 0xF9,
  0xE0, 0xE8, 0x21, 0x38, 0x31, 0xDD, 0x58, 0x3B, 0xF4, 0x0D,
  0xE7, 0x00, 0xBA, 0x88, 0x4D, 0x5B, 0xC1, 0x02, 0xF3, 0x4E,
  0x3A, 0xE8, 0xB9, 0x38, 0x3C, 0xA8, 0x42, 0x29, 0x25, 0xA1,
  0x49, 0x20, 0x07, 0xFA, 0x58, 0x31, 0x3A, 0xC3, 0x4E, 0x3D,
  0x13, 0x3B, 0x31, 0x53, 0xAE, 0xD8, 0x39, 0x03, 0xE7, 0x1A,
  0x3F, 0x0C, 0xDF, 0xE9, 0x64, 0xFA, 0x2F, 0x41, 0x9C, 0x19,
  0x50, 0x2B, 0xD7, 0xC3, 0xF9, 0xB8, 0x64, 0xD2, 0xBD, 0xFB,
  0x42, 0xB9, 0x45, 0x70, 0x85, 0xA8, 0xA9, 0x0D, 0xE1, 0xFC,
  0x02, 0xA9, 0xAA, 0x6D, 0xE0, 0x37, 0x2A, 0x98, 0x4B, 0x04,
  0xF3, 0xF3, 0xD3, 0x01, 0x4B, 0x3F, 0x43, 0x46, 0xC5, 0xE0,
  0x5C, 0x3A, 0x25, 0x2D, 0x00, 0xF2, 0xFA, 0x63, 0xFE, 0xBE,
  0x44, 0xDB, 0xCF, 0xFF, 0xC8, 0xD9, 0x06, 0x3C, 0xB5, 0xD1,
  0x51, 0x3B, 0xDB, 0x9D, 0xA6, 0xA1, 0x16, 0x2A, 0x5C, 0xD8,
  0xDB, 0x68, 0x0B, 0xB7, 0x13, 0x34, 0x7A, 0x35, 0x32, 0xFA,
  0x45, 0x28, 0xF6, 0x85, 0xB8, 0xB7, 0x9E, 0x70, 0x0E, 0x27,
  0x35, 0x3C, 0x24, 0xFF, 0x41, 0x02, 0x28, 0x27, 0xD9, 0xE7,
  0x7F, 0x23, 0x38, 0x6A, 0x56, 0x19, 0xA1, 0x0A, 0x2D, 0xD6,
  0xC2, 0xE9, 0x81, 0xD1, 0x86, 0x67, 0xB7, 0xCD, 0x19, 0x31,
  0x73, 0xC4, 0xFF, 0x2A, 0x6B, 0xED, 0x19, 0xDC, 0xBA, 0xAB,
  0x67, 0x44, 0x04, 0x66, 0x6C, 0xE3, 0xE1, 0x56, 0xA3, 0x23,
  0x0B, 0xCD, 0x30, 0xB1, 0xF1, 0x04, 0xC1, 0xE1, 0x55, 0xC5,
  0xCF, 0x9A, 0x1C, 0xE7, 0x1E, 0x11, 0x54, 0xDF, 0xF1, 0x03,
  0x2B, 0x51, 0x37, 0x29, 0xE6, 0xB9, 0xD6, 0x01, 0x21, 0x1E,
  0xBE, 0x09, 0xED, 0x43, 0xB0, 0x1A, 0x08, 0xD1, 0x24, 0xFE,
  0xEF, 0xDE, 0xBE, 0x41, 0x11, 0xD4, 0x2A, 0xDA, 0x91, 0xF7,
  0xFA, 0xC9, 0x07, 0x1F, 0x21, 0xE6, 0xE6, 0x35, 0xD8, 0xF9,
  0x09, 0xEF, 0xF4, 0xCF, 0x29, 0xCE, 0xE8, 0x13, 0x64, 0x7F,
  0xAD, 0x02, 0x23, 0x09, 0x3D, 0x68, 0xFD, 0xFE, 0x08, 0xA0,
  0xDB, 0xFD, 0xCE, 0x13, 0xCE, 0xEE, 0xB8, 0x0C, 0xDB, 0xD6,
  0xCD, 0x4D, 0xF9, 0x18, 0xEC, 0xDF, 0xBF, 0xEF, 0xEE, 0x24,
  0xBB, 0x34, 0xFA, 0xFF, 0xE4, 0xC9, 0xEB, 0xD9, 0xD7, 0x15,
  0xB1, 0xD7, 0xC7, 0x09, 0x09, 0xD3, 0x0F, 0xDA, 0xB3, 0x17,
  0xB9, 0x29, 0x12, 0x39, 0x1D, 0xC1, 0x27, 0x01, 0x12, 0xD8,
  0xC1, 0x26, 0xEC, 0x5F, 0xDC, 0xF7, 0x1E, 0x0F, 0x30, 0x24,
  0x08, 0xAD, 0x16, 0xD3, 0x98, 0xA4, 0xC1, 0xFD, 0xC2, 0x0B,
  0xFF, 0x1E, 0xFA, 0xE5, 0x3D, 0x02, 0xF0, 0xFC, 0x27, 0x96,
  0x45, 0x2A, 0xC0, 0xF8, 0x02, 0xB4, 0xDC, 0x3A, 0x29, 0xBD,
  0x29, 0x6F, 0x36, 0xB9, 0x1C, 0xBB, 0x3F, 0x05, 0x10, 0xF0,
  0x1A, 0xB8, 0x2F, 0x1B, 0x3F, 0xDE, 0xE5, 0xD9, 0x14, 0xCD,
  0x9B, 0xE3, 0x26, 0xE7, 0x18, 0x0D, 0xD1, 0xE8, 0x47, 0x26,
  0x07, 0xD0, 0xF2, 0xAC, 0x27, 0xE0, 0x39, 0xE3, 0x02, 0x39,
  0xCC, 0x3C, 0xF8, 0x07, 0x14, 0xD0, 0x3D, 0xC2, 0xE1, 0x5B,
  0xFD, 0xC9, 0xCD, 0xEB, 0x3C, 0xC9, 0x5A, 0xC3, 0x7F, 0x0F,
  0xB0, 0x35, 0x1F, 0x46, 0x36, 0x62, 0x1B, 0xF9, 0xE2, 0xE1,
  0x8F, 0xDB, 0xCE, 0x4E, 0x13, 0xC2, 0x32, 0xFC, 0xCF, 0xB0,
  0xDD, 0xE3, 0x1A, 0xC0, 0xE0, 0x40, 0x34, 0xE6, 0xA5, 0x44,
  0xC9, 0xE3, 0xBA, 0x18, 0xCB, 0xEB, 0x0E, 0x05, 0x44, 0xD1,
  0xEC, 0x1D, 0x3C, 0x29, 0x02, 0xE1, 0x41, 0x41, 0x26, 0xE4,
  0x05, 0x44, 0xB1, 0x2C, 0xBF, 0xBA, 0xB4, 0x57, 0x35, 0x32,
  0x0B, 0x26, 0xE0, 0xCE, 0x02, 0x1C, 0x21, 0xF6, 0x08, 0xF4,
  0xF4, 0xE3, 0xD5, 0x03, 0xF0, 0x31, 0x09, 0xF0, 0xD9, 0xE8,
  0xCA, 0xDB, 0xDE, 0x0F, 0x4F, 0xCE, 0x25, 0xCC, 0x4A, 0xC3,
  0x46, 0x06, 0xEF, 0xB2, 0x04, 0xD3, 0x31, 0x1F, 0xD5, 0x5C,
  0x31, 0x51, 0x02, 0x53, 0x14, 0x3A, 0xD2, 0x1A, 0xDF, 0xE6,
  0x29, 0xDE, 0xDA, 0x23, 0x43, 0xDF, 0x0A, 0x29, 0x30, 0x0D,
  0xDE, 0x38, 0xDE, 0xD1, 0xDA, 0xCD, 0x31, 0xE1, 0x12, 0xE4,
  0xF4, 0x3D, 0x10, 0x1C, 0x34, 0xD5, 0x16, 0xDA, 0x1E, 0x25,
  0x1C, 0x19, 0xF4, 0x12, 0x24, 0xDB, 0x09, 0xF8, 0x2A, 0xD8,
  0xF0, 0x0F, 0x0C, 0xDD, 0xF6, 0x06, 0xBE, 0xE7, 0xFD, 0x58,
  0xEE, 0xEA, 0xE6, 0xD1, 0x35, 0x3A, 0xFA, 0xCF, 0x9A, 0x0B,
  0xF5, 0xB7, 0x92, 0x04, 0x03, 0x14, 0xDB, 0x26, 0x23, 0xF5,
  0x11, 0xDB, 0xCB, 0xE2, 0xC7, 0xD0, 0xE3, 0xC6, 0xFC, 0x1F,
  0xD6, 0x7F, 0xD3, 0xC9, 0x0A, 0xC4, 0x34, 0xEE, 0x19, 0x0E,
  0xCD, 0x05, 0xF6, 0x39, 0xBF, 0x53, 0x1E, 0xCE, 0x2C, 0xFE,
  0xC7, 0xD2, 0xBC, 0x61, 0xE0, 0xE3, 0x81, 0x10, 0x09, 0x99,
  0x11, 0x30, 0xE5, 0x08, 0x5C, 0xFB, 0x32, 0xA1, 0x1D, 0x10,
  0xD9, 0x0D, 0x6C, 0x5A, 0xF2, 0xF6, 0x06, 0xFE, 0x45, 0x35,
  0xD1, 0xE3, 0x01, 0xF5, 0x04, 0x37, 0x1E, 0xA5, 0xFF, 0x2A,
  0x40, 0xDA, 0xAC, 0x32, 0x31, 0xC9, 0x40, 0x16, 0x03, 0xB7,
  0x04, 0xF3, 0x1C, 0x12, 0x26, 0x42, 0x4D, 0xF9, 0xBC, 0x2F,
  0x15, 0x71, 0x54, 0xC6, 0xEF, 0xF9, 0xE0, 0xE9, 0xFC, 0xCF,
  0x3A, 0xD7, 0x15, 0x1E, 0xE1, 0xEF, 0xFE, 0x49, 0xF7, 0x9B,
  0x36, 0xDD, 0x5F, 0x03, 0x09, 0xFD, 0x49, 0xC0, 0x4C, 0x1E,
  0xBE, 0x27, 0x15, 0x57, 0x30, 0xBE, 0x37, 0xE3, 0x2D, 0x0A,
  0x53, 0x9F, 0x04, 0x19, 0xC5, 0x53, 0xC1, 0xEC, 0x2D, 0x13,
  0xC7, 0xEE, 0xDF, 0x14, 0xCF, 0xEC, 0xB9, 0xDA, 0xC9, 0x0D,
  0x19, 0x2D, 0x75, 0xD7, 0xAA, 0xE2, 0xB9, 0xF7, 0x0B, 0x28,
  0x6A, 0x48, 0xC9, 0x09, 0xA1, 0x06, 0x0E, 0x60, 0xFF, 0xFF,
  0x04, 0x00, 0x00, 0x00, 0x20, 0x00, 0x00, 0x00, 0xE1, 0xFF,
  0xFF, 0xFF, 0xC2, 0xFF, 0xFF, 0xFF, 0xD2, 0xFF, 0xFF, 0xFF,
  0xDA, 0xFF, 0xFF, 0xFF, 0x96, 0xFF, 0xFF, 0xFF, 0xC8, 0xFF,
  0xFF, 0xFF, 0x43, 0x00, 0x00, 0x00, 0x3F, 0x00, 0x00, 0x00,
  0x3A, 0x60, 0xFF, 0xFF, 0x04, 0x00, 0x00, 0x00, 0x40, 0x02,
  0x00, 0x00, 0x1A, 0xB8, 0xC4, 0xF3, 0xFB, 0xC1, 0x17, 0xBF,
  0x02, 0xC2, 0xB2, 0x09, 0xE3, 0x03, 0xF8, 0x0E, 0x97, 0xAD,
  0x11, 0x2F, 0x5C, 0x17, 0xBD, 0xB1, 0x1F, 0x55, 0x05, 0x1A,
  0xCF, 0x02, 0x06, 0xD6, 0x1B, 0x34, 0x21, 0x3D, 0xDE, 0xC0,
  0xF8, 0x19, 0x12, 0xFE, 0x01, 0x1A, 0xB7, 0x22, 0x1F, 0xB9,
  0x4B, 0x0B, 0x22, 0xCA, 0xDF, 0x03, 0x46, 0x3A, 0x14, 0xC9,
  0x26, 0xC2, 0xCF, 0x07, 0x7F, 0xCC, 0xC9, 0x16, 0x2B, 0xDF,
  0xDA, 0x01, 0x4C, 0xAB, 0x4D, 0xC8, 0x3A, 0x2E, 0xCF, 0x18,
  0x2A, 0x04, 0xD4, 0x5F, 0x2B, 0xC8, 0x1D, 0x47, 0x10, 0x61,
  0xFB, 0xF4, 0xF0, 0x38, 0xD6, 0xF2, 0x79, 0xA9, 0x2E, 0xD0,
  0xF4, 0x00, 0x38, 0x33, 0x27, 0x3E, 0x46, 0x49, 0x06, 0xF5,
  0x1E, 0xF6, 0xEF, 0x11, 0x29, 0x50, 0x42, 0xEA, 0x7F, 0x4B,
  0x6A, 0x4C, 0x31, 0xAF, 0x95, 0x31, 0x5A, 0x18, 0x55, 0x21,
  0xE1, 0xC3, 0xEB, 0x16, 0x76, 0xE1, 0xE6, 0x04, 0xFB, 0xCD,
  0xE3, 0xE7, 0x02, 0xB4, 0x0B, 0x10, 0xED, 0x0E, 0xD9, 0x16,
  0x2B, 0xBF, 0xFA, 0xA2, 0xF8, 0x21, 0xE2, 0x73, 0x92, 0xF7,
  0xF3, 0xE7, 0x3D, 0x0E, 0xE8, 0x35, 0x4F, 0xD6, 0x48, 0x81,
  0x4E, 0x3E, 0x19, 0xEE, 0xB5, 0x58, 0x50, 0x58, 0x01, 0xD0,
  0xB8, 0xF7, 0xEB, 0x48, 0x41, 0x9D, 0xA9, 0x96, 0xA2, 0xE0,
  0xE0, 0x95, 0x2D, 0xE4, 0xB0, 0x2C, 0xF8, 0x31, 0x07, 0xE4,
  0xBD, 0x0D, 0x4B, 0x4A, 0xFA, 0x39, 0x24, 0xEE, 0x24, 0xFE,
  0xFB, 0x84, 0xBE, 0x18, 0x2C, 0x05, 0x9F, 0x2B, 0xD0, 0xF0,
  0x1B, 0xF6, 0xB5, 0x40, 0xEB, 0x14, 0x43, 0xC0, 0xFE, 0xDE,
  0xD4, 0x3B, 0xC5, 0x38, 0x1D, 0xCE, 0xF9, 0xE2, 0x0B, 0x2B,
  0xEC, 0x3A, 0x1D, 0x3E, 0xCE, 0x31, 0xAB, 0xDB, 0x56, 0xE2,
  0x3B, 0xC5, 0xF7, 0x1D, 0xFA, 0xCC, 0xE2, 0x44, 0x0C, 0xEA,
  0x12, 0x3C, 0x29, 0xE4, 0x24, 0xD1, 0x2D, 0xC9, 0xD7, 0x2B,
  0x10, 0x2D, 0x7F, 0x28, 0xD0, 0x3C, 0xD7, 0xBE, 0x3D, 0xFB,
  0x38, 0xE6, 0xEC, 0x36, 0xDA, 0xFE, 0xC8, 0xEF, 0x29, 0x1D,
  0x24, 0x4F, 0x45, 0x29, 0x05, 0x09, 0x39, 0x6B, 0x0F, 0x03,
  0x28, 0xE1, 0xDA, 0x46, 0xDC, 0xE1, 0xAA, 0xD7, 0xB9, 0xE3,
  0x1D, 0xC8, 0xBD, 0xF5, 0x04, 0x56, 0xBC, 0xC6, 0xA6, 0xBB,
  0x45, 0x5D, 0x37, 0x9E, 0x99, 0x0E, 0xF8, 0x62, 0x1B, 0xB0,
  0xA2, 0xC0, 0xF7, 0x39, 0xE8, 0x01, 0x9A, 0xF6, 0x69, 0xDB,
  0x07, 0x20, 0x31, 0x58, 0x1E, 0x10, 0xA1, 0x0B, 0x3D, 0x31,
  0xC4, 0x3D, 0x66, 0x4A, 0x81, 0xE6, 0xE8, 0x46, 0xC4, 0xA2,
  0x33, 0xFC, 0xF4, 0x45, 0xAD, 0x4E, 0xF7, 0x36, 0xF8, 0x38,
  0x23, 0xBA, 0xB7, 0x51, 0x4A, 0xB2, 0x13, 0x5C, 0x9F, 0x13,
  0xDC, 0xF1, 0x3A, 0x35, 0x02, 0x28, 0x2C, 0xBB, 0x1E, 0xB8,
  0xB9, 0x20, 0x0A, 0xCA, 0x3E, 0x06, 0xFF, 0xEC, 0xDC, 0xFE,
  0xC7, 0x28, 0x9E, 0x21, 0x30, 0xC5, 0x84, 0xEE, 0x38, 0xFE,
  0xE7, 0x02, 0x52, 0xD1, 0xA6, 0xDD, 0xD8, 0xFD, 0xBA, 0xAC,
  0xBB, 0x14, 0x2A, 0x92, 0x2B, 0xE5, 0xFB, 0xA7, 0x0F, 0x9C,
  0xA4, 0x02, 0xFE, 0x81, 0x0F, 0xC7, 0xEC, 0xF9, 0x50, 0x2E,
  0xF1, 0xFA, 0xFD, 0xD5, 0x91, 0xD6, 0x1F, 0xB3, 0xD5, 0xCA,
  0xB3, 0x81, 0xFF, 0x72, 0xED, 0x4E, 0x8A, 0xB4, 0x16, 0xB6,
  0x18, 0x01, 0x1F, 0x47, 0x51, 0xCC, 0xF0, 0x1F, 0x9C, 0xF6,
  0x93, 0x29, 0x16, 0xE7, 0x03, 0x9F, 0x53, 0x60, 0xC2, 0x26,
  0xF7, 0x95, 0xE5, 0x48, 0xF3, 0x26, 0xDB, 0x36, 0xBD, 0x59,
  0xAC, 0x0F, 0xCD, 0xCB, 0xDA, 0xC7, 0xAD, 0xE2, 0xE0, 0xE3,
  0x38, 0x60, 0xAD, 0xD2, 0x32, 0x8C, 0x02, 0x08, 0x4A, 0x03,
  0xBF, 0xE7, 0x81, 0xF8, 0xBE, 0xA9, 0xF6, 0xC8, 0x37, 0x9D,
  0x01, 0x31, 0xFC, 0x09, 0x53, 0x1D, 0xC0, 0x96, 0xD5, 0x88,
  0xB6, 0xA0, 0xBC, 0x08, 0xEA, 0x2B, 0xF2, 0xB8, 0x48, 0xCB,
  0x09, 0xD4, 0x1B, 0xC0, 0xBA, 0x92, 0x02, 0x4B, 0x53, 0x1D,
  0xDF, 0x40, 0xCD, 0xA7, 0xA0, 0x9E, 0x2A, 0xD7, 0x10, 0x3B,
  0x2E, 0xE7, 0x2D, 0xB7, 0x25, 0x01, 0xC8, 0xD9, 0x36, 0xF9,
  0x47, 0x38, 0xBA, 0xC5, 0x2C, 0xF5, 0x56, 0x05, 0x86, 0x62,
  0xFF, 0xFF, 0x04, 0x00, 0x00, 0x00, 0x20, 0x00, 0x00, 0x00,
  0x4D, 0x00, 0x00, 0x00, 0xC1, 0xFF, 0xFF, 0xFF, 0xBF, 0xFF,
  0xFF, 0xFF, 0x36, 0x00, 0x00, 0x00, 0x32, 0x00, 0x00, 0x00,
  0xFD, 0x00, 0x00, 0x00, 0xD8, 0xFF, 0xFF, 0xFF, 0xF0, 0xFF,
  0xFF, 0xFF, 0xB2, 0x62, 0xFF, 0xFF, 0x04, 0x00, 0x00, 0x00,
  0x40, 0x02, 0x00, 0x00, 0xC8, 0xC5, 0x03, 0x28, 0x12, 0x9E,
  0xE6, 0x7A, 0x1E, 0x35, 0xDB, 0x00, 0x39, 0x47, 0xA6, 0xED,
  0xBC, 0x4A, 0x8D, 0xC9, 0xD2, 0x3A, 0xE8, 0x2D, 0xBE, 0xAC,
  0xDC, 0x0E, 0x21, 0x0D, 0x06, 0x2A, 0xD0, 0x0A, 0xAF, 0x13,
  0xDA, 0xCC, 0xBE, 0xBC, 0x30, 0xD6, 0x15, 0xA6, 0xDA, 0xC1,
  0xC6, 0x10, 0x10, 0x53, 0x1D, 0x50, 0xC4, 0x03, 0xE1, 0xBA,
  0xFC, 0x01, 0xD7, 0x10, 0x2E, 0x1A, 0x50, 0xD8, 0xDD, 0x56,
  0x81, 0x2C, 0x9D, 0x38, 0xE5, 0x0A, 0x1C, 0x1B, 0xF4, 0x5A,
  0x52, 0x5C, 0x88, 0x22, 0xE8, 0x2C, 0x04, 0xDE, 0x14, 0x9F,
  0xFF, 0xDC, 0xD5, 0xFD, 0x5F, 0x0A, 0x15, 0xD7, 0xD3, 0xB4,
  0xD1, 0xFE, 0xEE, 0x64, 0x30, 0x56, 0x92, 0x05, 0x19, 0x25,
  0x31, 0xB5, 0xE2, 0x5D, 0xD1, 0x7F, 0x0E, 0xD7, 0xE1, 0x2E,
  0x5E, 0x5D, 0xC6, 0x20, 0x99, 0x89, 0x1D, 0xFA, 0x3C, 0x63,
  0x59, 0x06, 0x01, 0xA6, 0xD5, 0x34, 0x9A, 0xC3, 0x30, 0x3A,
  0x0C, 0x08, 0xCB, 0xA2, 0xC4, 0x5A, 0x28, 0x2C, 0x87, 0x1D,
  0x43, 0xCF, 0x09, 0x78, 0xC3, 0xFB, 0xB0, 0xA3, 0xB8, 0xCF,
  0x4B, 0xE0, 0x06, 0x0C, 0xBB, 0xAC, 0xD5, 0xEA, 0xD0, 0xF1,
  0x69, 0xF9, 0x0E, 0xE0, 0xDC, 0xC5, 0x3A, 0x16, 0xF3, 0xD5,
  0xE3, 0xCD, 0xED, 0x30, 0xCA, 0xB2, 0x7F, 0x20, 0x0D, 0x48,
  0xF4, 0xF7, 0x31, 0x1B, 0xE9, 0x1B, 0x60, 0x41, 0xB3, 0x20,
  0xCD, 0x04, 0x9A, 0x83, 0x07, 0x1C, 0xBB, 0xC5, 0xAD, 0xB1,
  0x66, 0xC7, 0x23, 0xBC, 0x56, 0xE1, 0x11, 0xC3, 0xFE, 0x29,
  0xD4, 0xF8, 0x21, 0xC0, 0x94, 0xB0, 0xFF, 0xC6, 0x4E, 0x5D,
  0xC7, 0xF6, 0xB5, 0x83, 0x19, 0xA7, 0x2B, 0x67, 0x31, 0x40,
  0x32, 0x14, 0xF6, 0x55, 0xE4, 0x00, 0x65, 0xD2, 0xA3, 0x1B,
  0x10, 0x13, 0xCA, 0xEB, 0x49, 0xCC, 0xF9, 0xF6, 0x42, 0x81,
  0xB6, 0x1E, 0x51, 0x52, 0xBD, 0xC6, 0xFD, 0xCE, 0x0A, 0xA5,
  0xEC, 0xAC, 0x2F, 0xEB, 0x2E, 0x7F, 0xCC, 0xDD, 0xD1, 0xDF,
  0x3B, 0xFC, 0x18, 0x4B, 0x1A, 0x2E, 0xF4, 0x33, 0x77, 0x10,
  0x28, 0x03, 0xCB, 0x92, 0x33, 0xC9, 0xD1, 0x66, 0x69, 0x00,
  0x50, 0x22, 0x37, 0x12, 0x09, 0xFC, 0x7C, 0x2A, 0xF0, 0x50,
  0x0C, 0x6D, 0x4E, 0xE2, 0xE8, 0xE7, 0x01, 0xD0, 0x22, 0x4B,
  0xA2, 0x26, 0x0D, 0x06, 0xF9, 0xE3, 0x15, 0x17, 0xC4, 0x42,
  0xCE, 0xCF, 0x0E, 0xE9, 0xAE, 0xF6, 0xC0, 0x0D, 0x06, 0xF3,
  0xF5, 0x5F, 0x4B, 0xF0, 0xB4, 0x2C, 0x0B, 0x56, 0x26, 0xBF,
  0xE5, 0xF5, 0xF5, 0x44, 0x81, 0x0C, 0x22, 0x23, 0x3E, 0x30,
  0xFC, 0x61, 0x11, 0xDD, 0x07, 0xDF, 0xCE, 0xA3, 0xED, 0xD1,
  0xBF, 0x2A, 0x3D, 0x04, 0xD4, 0x81, 0xD1, 0x0A, 0x13, 0xF3,
  0x11, 0xAC, 0xB4, 0xCB, 0x9E, 0x2E, 0x6E, 0x13, 0xF1, 0xC8,
  0x41, 0x39, 0x32, 0x00, 0x19, 0xDD, 0x44, 0xE8, 0xD7, 0xF7,
  0x02, 0x9A, 0x0A, 0x58, 0x75, 0xDF, 0x45, 0xC1, 0xF3, 0xA5,
  0x5C, 0x60, 0x9A, 0x00, 0xFB, 0x5D, 0x3E, 0xC5, 0xCC, 0x15,
  0xD0, 0x5D, 0x29, 0x47, 0x3C, 0x50, 0xDA, 0x36, 0xDE, 0x62,
  0x20, 0x1A, 0xD4, 0xC6, 0x84, 0xE7, 0x2C, 0xD7, 0x4C, 0x3B,
  0xD5, 0xD1, 0x41, 0x39, 0xC7, 0x10, 0xCF, 0xD7, 0xE7, 0x4B,
  0x35, 0x29, 0x13, 0xCD, 0xE8, 0x35, 0x47, 0x11, 0xF9, 0xE6,
  0x1B, 0xFD, 0x41, 0xC8, 0x3B, 0x43, 0x31, 0x3C, 0x44, 0xD6,
  0x14, 0x2C, 0x3E, 0x38, 0x56, 0x42, 0xA9, 0xBB, 0xBA, 0x3D,
  0x54, 0xFF, 0x0A, 0x7F, 0xAC, 0xDE, 0x05, 0x12, 0xE6, 0xFA,
  0x07, 0x43, 0x35, 0x32, 0x27, 0x1D, 0x37, 0x05, 0x57, 0x37,
  0xD5, 0xDD, 0x08, 0x4B, 0x3B, 0xCF, 0xCF, 0x5D, 0xFE, 0x0C,
  0x40, 0xF4, 0x2F, 0xFB, 0xD2, 0x2A, 0x04, 0xEB, 0xCC, 0x21,
  0x03, 0xC3, 0xCB, 0x11, 0x22, 0xE9, 0xFE, 0xD9, 0x9D, 0x81,
  0xEF, 0xF1, 0xE1, 0x3B, 0x1A, 0x0A, 0x40, 0xE9, 0xEF, 0xB2,
  0xCD, 0xD6, 0x12, 0xFE, 0x36, 0xEF, 0x1A, 0x29, 0xFD, 0x41,
  0x1D, 0x1C, 0xD4, 0xAB, 0x1F, 0x3D, 0x13, 0xF9, 0xB9, 0x17,
  0xEE, 0xBA, 0xEE, 0xE2, 0x12, 0xBA, 0xD1, 0xB5, 0x36, 0xAE,
  0x41, 0xE3, 0x12, 0xEC, 0x4F, 0xD6, 0x06, 0xFC, 0x43, 0xE6,
  0xFE, 0x64, 0xFF, 0xFF, 0x04, 0x00, 0x00, 0x00, 0x20, 0x00,
  0x00, 0x00, 0xE3, 0xFF, 0xFF, 0xFF, 0x6D, 0x00, 0x00, 0x00,
  0xEA, 0xFF, 0xFF, 0xFF, 0xAA, 0xFF, 0xFF, 0xFF, 0xFC, 0xFF,
  0xFF, 0xFF, 0x3C, 0x00, 0x00, 0x00, 0xD0, 0xFF, 0xFF, 0xFF,
  0xF2, 0xFF, 0xFF, 0xFF, 0x2A, 0x65, 0xFF, 0xFF, 0x04, 0x00,
  0x00, 0x00, 0x40, 0x02, 0x00, 0x00, 0x09, 0x1C, 0xA2, 0xE8,
  0x84, 0xD0, 0x32, 0x0F, 0x84, 0x1A, 0x0C, 0x7F, 0x69, 0xA3,
  0x9E, 0xFD, 0xD9, 0xA1, 0x9F, 0x40, 0x55, 0x8B, 0x14, 0x04,
  0x30, 0x10, 0x1A, 0xE7, 0x81, 0xD7, 0x41, 0x38, 0x04, 0xDC,
  0x5F, 0xD1, 0x2F, 0x25, 0xCB, 0xE4, 0xE4, 0x8E, 0xF2, 0xC8,
  0xEB, 0x15, 0x43, 0x48, 0x25, 0xB3, 0x6B, 0xAD, 0xFF, 0x23,
  0xCC, 0x3D, 0x59, 0x9C, 0xDB, 0x83, 0x35, 0x6F, 0xB8, 0xAA,
  0xCB, 0xEC, 0x4E, 0x9E, 0xA5, 0x34, 0x0C, 0xB3, 0xFF, 0xD2,
  0x81, 0x1D, 0x17, 0x1B, 0x2D, 0xF1, 0x07, 0x20, 0x93, 0xD2,
  0x0A, 0x1E, 0xC3, 0x91, 0x0A, 0x92, 0xF2, 0x2D, 0xEA, 0xEB,
  0x46, 0x06, 0xD7, 0x90, 0x8D, 0x07, 0x17, 0xD1, 0xCC, 0x33,
  0xD1, 0x01, 0xB2, 0x3C, 0x3B, 0x3F, 0x17, 0x11, 0xF5, 0xD6,
  0x10, 0x09, 0xCE, 0xAA, 0xCD, 0x2D, 0x43, 0xBC, 0xF7, 0xC4,
  0x37, 0x34, 0xEF, 0xCA, 0x31, 0xF2, 0xC1, 0x13, 0xE7, 0x0A,
  0x2D, 0x2A, 0xAF, 0xFA, 0xE5, 0xEB, 0x30, 0xBA, 0xD7, 0x54,
  0x23, 0xB0, 0xEA, 0xFF, 0x6B, 0xC8, 0x4A, 0xE8, 0x2D, 0xFB,
  0x99, 0xDD, 0x47, 0xC2, 0x08, 0xD6, 0x12, 0x41, 0x23, 0xC6,
  0xFE, 0xEA, 0x97, 0xE6, 0x25, 0xA4, 0x01, 0x1F, 0x04, 0xF8,
  0x9E, 0xC8, 0xEE, 0xBC, 0xD5, 0x0B, 0xC1, 0x44, 0x81, 0x11,
  0xE0, 0xD4, 0xF2, 0x4D, 0x14, 0xF0, 0x89, 0xA2, 0xC9, 0x72,
  0xF2, 0x06, 0x07, 0xD0, 0xE4, 0x4E, 0x9F, 0x09, 0xC5, 0xE5,
  0xE3, 0xB9, 0x48, 0x69, 0x3B, 0xD6, 0xBD, 0x7F, 0xDA, 0x57,
  0x1D, 0xE7, 0x98, 0xD1, 0x4B, 0xC6, 0x45, 0xDE, 0xF1, 0x2A,
  0x02, 0x95, 0x55, 0xDD, 0xB7, 0xE7, 0x41, 0x60, 0xBE, 0x25,
  0x8E, 0x2B, 0x0E, 0x96, 0x3B, 0xE2, 0x1F, 0xB4, 0x21, 0x20,
  0x40, 0xA4, 0x3D, 0x4E, 0x6B, 0x15, 0x1F, 0x53, 0x1A, 0x0D,
  0xAF, 0x4C, 0xB5, 0x96, 0x75, 0x21, 0xDF, 0x0B, 0x29, 0x41,
  0xB6, 0x16, 0xBF, 0xC4, 0x37, 0xED, 0x45, 0x51, 0x66, 0xFA,
  0xA9, 0x3B, 0xBB, 0xE1, 0x3C, 0xF8, 0x4C, 0xCE, 0xDB, 0x4F,
  0xBC, 0x81, 0x98, 0xFB, 0x28, 0x1D, 0x3F, 0x8E, 0xE8, 0x26,
  0xF4, 0x20, 0xD3, 0xF0, 0xAB, 0xA5, 0xE6, 0x09, 0x09, 0xEA,
  0xEC, 0x16, 0xC6, 0xF0, 0xE8, 0x1A, 0x1A, 0x0E, 0x12, 0x3B,
  0xFA, 0x9A, 0xA8, 0xCA, 0xC7, 0xC6, 0xC2, 0xDC, 0xD7, 0xD2,
  0xEC, 0x95, 0xC3, 0x45, 0xB6, 0xD0, 0x77, 0xCE, 0x05, 0xDF,
  0x46, 0x4D, 0xE7, 0x2A, 0xE9, 0xD7, 0xAC, 0xEE, 0x26, 0x20,
  0xC1, 0x35, 0x3B, 0x86, 0x81, 0x0F, 0xA9, 0x2C, 0x28, 0x1A,
  0x0F, 0xE6, 0xF5, 0xEE, 0x3E, 0xF5, 0xDF, 0x2D, 0xA5, 0xAD,
  0x9C, 0xB2, 0x0B, 0x3F, 0xD1, 0xAA, 0x00, 0xC2, 0xFA, 0xB1,
  0xFD, 0x34, 0x02, 0x27, 0xD1, 0x91, 0x81, 0x2F, 0x23, 0x63,
  0xC6, 0xA0, 0x3B, 0xE0, 0xC1, 0xCC, 0x10, 0x4F, 0x10, 0x3B,
  0x07, 0x3D, 0xFC, 0xE8, 0x39, 0xF2, 0x3E, 0xC2, 0x7E, 0x59,
  0xCF, 0x1E, 0x52, 0x06, 0x67, 0x34, 0x17, 0xF2, 0x49, 0xB0,
  0xEB, 0xF0, 0x3E, 0x1E, 0xB3, 0xCB, 0x5A, 0x90, 0x00, 0xA3,
  0xC8, 0x0F, 0x19, 0x45, 0xF9, 0xB7, 0xD9, 0xED, 0x33, 0x33,
  0x16, 0x3D, 0x43, 0x8C, 0xC7, 0x21, 0x40, 0x0A, 0xDE, 0xFB,
  0xDF, 0x16, 0xDB, 0xFD, 0x29, 0x9C, 0xB7, 0xC1, 0xAB, 0x4A,
  0x23, 0x87, 0x0F, 0xDB, 0x34, 0x25, 0x62, 0xC3, 0xB3, 0xBC,
  0x0D, 0xE5, 0xF8, 0xDB, 0xFA, 0x16, 0xA0, 0x21, 0xEA, 0xF7,
  0xA5, 0x3B, 0xB0, 0xE5, 0x44, 0x49, 0x0E, 0xE4, 0xC9, 0xE1,
  0xC3, 0xDF, 0x37, 0xC2, 0x0C, 0xF4, 0x05, 0xF4, 0x31, 0x81,
  0xF1, 0x0B, 0x0D, 0xCF, 0xAE, 0x41, 0xC5, 0xC9, 0x07, 0xF7,
  0x29, 0x00, 0x48, 0xAD, 0xE2, 0xC4, 0xCC, 0xBB, 0x4A, 0x94,
  0xE3, 0x90, 0xFA, 0xAF, 0xE0, 0x0B, 0xE3, 0x99, 0x46, 0xCD,
  0xD4, 0x29, 0x7F, 0x26, 0x1D, 0x07, 0x2C, 0xFF, 0xE2, 0x39,
  0x23, 0xE8, 0x0C, 0xDC, 0xCC, 0xF1, 0xDA, 0x43, 0xC8, 0x98,
  0x2C, 0x16, 0xA2, 0x0D, 0x2F, 0xD6, 0x24, 0xB8, 0x51, 0x18,
  0x4D, 0x12, 0xFF, 0x04, 0xBF, 0xD6, 0xAB, 0x61, 0x11, 0xF9,
  0x11, 0x17, 0xEE, 0xBD, 0x2F, 0x39, 0xB3, 0xFA, 0x0A, 0xC2,
  0xAA, 0x96, 0x76, 0x67, 0xFF, 0xFF, 0x04, 0x00, 0x00, 0x00,
  0x20, 0x00, 0x00, 0x00, 0xA7, 0xFF, 0xFF, 0xFF, 0x6A, 0xFF,
  0xFF, 0xFF, 0xF3, 0x00, 0x00, 0x00, 0x50, 0xFF, 0xFF, 0xFF,
  0xB1, 0xFF, 0xFF, 0xFF, 0x62, 0xFF, 0xFF, 0xFF, 0xDE, 0xFF,
  0xFF, 0xFF, 0xEA, 0xFF, 0xFF, 0xFF, 0xA2, 0x67, 0xFF, 0xFF,
  0x04, 0x00, 0x00, 0x00, 0x40, 0x97, 0x00, 0x00, 0x06, 0xF4,
  0xF6, 0x03, 0x02, 0xFF, 0xF1, 0x08, 0x06, 0xFA, 0xEB, 0xF8,
  0xF2, 0xF4, 0x06, 0x05, 0xFD, 0x00, 0xFC, 0xFC, 0xFC, 0xEA,
  0xFD, 0x0C, 0xFF, 0xED, 0xF9, 0xF2, 0xE7, 0x02, 0x04, 0x05,
  0xFE, 0x04, 0xF6, 0xF1, 0x14, 0xE5, 0xEF, 0x17, 0xED, 0xF9,
  0x11, 0xF9, 0xEF, 0xEC, 0x06, 0x11, 0xDE, 0xF4, 0xFB, 0xFF,
  0xE6, 0xE9, 0xF8, 0x07, 0xEF, 0xF6, 0xF8, 0xF3, 0x0E, 0xEA,
  0x0A, 0xF4, 0xFC, 0xEF, 0x0E, 0xFD, 0x08, 0xE9, 0x03, 0xF0,
  0x01, 0x05, 0x03, 0x08, 0xEF, 0x0B, 0x07, 0x11, 0x01, 0xF2,
  0x08, 0x07, 0x2D, 0x23, 0x06, 0xED, 0xFA, 0xF7, 0x1A, 0x07,
  0xD9, 0x1D, 0xF5, 0x1D, 0xF0, 0xF4, 0x01, 0x0A, 0xE4, 0x18,
  0x0A, 0x10, 0xE6, 0xFC, 0xFC, 0x0C, 0xF0, 0x1B, 0x0C, 0x02,
  0xEF, 0xF9, 0xEF, 0xFE, 0x0D, 0x08, 0x07, 0x15, 0xFA, 0xE9,
  0x0A, 0xF0, 0xE6, 0x09, 0xFB, 0x2C, 0xF6, 0xF6, 0x03, 0xF1,
  0x10, 0x11, 0xEF, 0x16, 0xEE, 0xFB, 0xEA, 0xEA, 0xF5, 0xF5,
  0x04, 0xF2, 0xEE, 0xF1, 0x14, 0x05, 0xF7, 0x14, 0x00, 0xFE,
  0xD6, 0xF7, 0xEB, 0x0F, 0xF0, 0xFD, 0xF5, 0xED, 0xDB, 0xF3,
  0xF7, 0xE7, 0xFC, 0xEC, 0xFC, 0x10, 0xF4, 0xE0, 0x1B, 0xEA,
  0x00, 0xF0, 0xFD, 0x0A, 0x04, 0x0A, 0xF2, 0xFA, 0xEF, 0xF6,
  0xF7, 0x02, 0xFB, 0xF8, 0xF5, 0xFA, 0xF0, 0xF6, 0xF9, 0xF7,
  0xFD, 0xFF, 0xEB, 0xFF, 0x06, 0xEE, 0xEF, 0x09, 0x00, 0xEE,
  0xE5, 0xF2, 0xF0, 0xF9, 0xFA, 0x0A, 0xFA, 0xF9, 0xEE, 0xF8,
  0x11, 0xF6, 0xFD, 0xFE, 0xF9, 0xF8, 0xED, 0xFB, 0x10, 0xF5,
  0xFC, 0xFD, 0xEC, 0xFB, 0x0E, 0x08, 0x08, 0x01, 0xF5, 0xFC,
  0x07, 0xF0, 0xF5, 0x00, 0x16, 0x0C, 0x03, 0xEE, 0xFA, 0xEA,
  0xFD, 0x02, 0xD8, 0x1A, 0xFF, 0xF6, 0x0A, 0xEF, 0xE6, 0xFF,
  0x0E, 0xF8, 0xF9, 0xFF, 0xFD, 0x00, 0xFC, 0xFD, 0x15, 0x07,
  0x02, 0x02, 0x04, 0x0F, 0xE7, 0x06, 0xD6, 0xFD, 0x03, 0x00,
  0xF3, 0x03, 0xF3, 0x07, 0xF4, 0x0C, 0xFC, 0x00, 0x01, 0xFA,
  0x07, 0x08, 0x0A, 0x10, 0x0D, 0xF7, 0xF3, 0xF6, 0x0F, 0x07,
  0x00, 0x01, 0xFF, 0xFE, 0xF1, 0x08, 0xFD, 0xFA, 0x1F, 0x03,
  0x0F, 0x12, 0xFE, 0xF5, 0x08, 0xFB, 0x06, 0x0D, 0xF0, 0x12,
  0xF8, 0xF6, 0xEF, 0xF1, 0xF4, 0x12, 0x13, 0xEC, 0xEC, 0x0A,
  0xED, 0xF3, 0xE9, 0xF0, 0xEE, 0xFA, 0x05, 0x03, 0x13, 0x08,
  0x02, 0xEF, 0xF9, 0xEA, 0xEB, 0xFD, 0x07, 0xD7, 0xF2, 0xEE,
  0xED, 0xF1, 0xEF, 0xE2, 0x05, 0xDA, 0xE9, 0x01, 0xFA, 0xF5,
  0x07, 0xF0, 0xF8, 0xFE, 0xF8, 0xE6, 0xF6, 0xFB, 0xF2, 0xF5,
  0xF3, 0xED, 0xFE, 0xF7, 0xEB, 0xF4, 0xE7, 0xFD, 0x03, 0xF2,
  0xDC, 0xED, 0xE8, 0x09, 0xEB, 0x02, 0xF1, 0xED, 0x19, 0xEE,
  0xFF, 0xFC, 0xE2, 0xF1, 0xF2, 0xEB, 0xE6, 0xE7, 0xE9, 0xF6,
  0xE8, 0xFB, 0x06, 0xF5, 0x2A, 0xDA, 0xFF, 0xF9, 0xE3, 0x02,
  0x15, 0xFB, 0xF9, 0xEA, 0x0D, 0xF5, 0xE9, 0xFD, 0xEB, 0xFB,
  0x1B, 0x04, 0x11, 0xF1, 0xF5, 0xFC, 0x04, 0xFC, 0xE0, 0xF1,
  0xFB, 0xFB, 0x0D, 0x05, 0x00, 0x01, 0x16, 0xE9, 0x0A, 0xFC,
  0x08, 0xF5, 0xF0, 0x09, 0xFB, 0x16, 0xFF, 0xFA, 0x02, 0x04,
  0xD3, 0xFD, 0xE2, 0x18, 0xFE, 0xF2, 0xF8, 0xF1, 0x01, 0x04,
  0xE8, 0xFD, 0x0D, 0x09, 0x08, 0xEB, 0xDA, 0xFF, 0x01, 0x11,
  0x03, 0x0E, 0x0D, 0x00, 0xF5, 0xFD, 0xF8, 0x0D, 0x07, 0x1A,
  0x07, 0xF9, 0xFD, 0xFA, 0xF9, 0x19, 0x00, 0x1E, 0xFB, 0xF9,
  0xDE, 0xE4, 0xE9, 0x31, 0x09, 0x17, 0xF4, 0xFD, 0xD6, 0xFE,
  0xE9, 0x15, 0x1A, 0xEC, 0xEA, 0xFA, 0x1E, 0x01, 0xFC, 0x0E,
  0x0E, 0xF0, 0xFE, 0xFF, 0xE9, 0x09, 0xF6, 0x0A, 0x0D, 0x11,
  0xE2, 0xF7, 0xF0, 0xF9, 0x01, 0x10, 0xF7, 0xF7, 0xDD, 0xE1,
  0x11, 0xDE, 0x05, 0xFB, 0xD5, 0xFB, 0xC7, 0xE8, 0x05, 0xF5,
  0xFA, 0xE8, 0xF7, 0x07, 0xFC, 0xF8, 0xF5, 0x04, 0xEF, 0xFC,
  0xF8, 0x01, 0xC2, 0x07, 0xFE, 0xF7, 0x0B, 0xF9, 0x04, 0xFD,
  0xF1, 0x05, 0x0C, 0xFA, 0xF8, 0xED, 0x08, 0xD5, 0xEF, 0x00,
  0xF6, 0xFA, 0x19, 0xFD, 0xF8, 0xFA, 0xE3, 0x01, 0xFC, 0xF8,
  0x12, 0xF6, 0xF3, 0xF3, 0xF0, 0xE6, 0x04, 0xF4, 0xDF, 0x07,
  0xF8, 0xFC, 0x08, 0x0E, 0xF7, 0xF8, 0x23, 0xF4, 0x0E, 0x01,
  0xFB, 0x05, 0xF3, 0xFB, 0xFD, 0xEC, 0x1D, 0xF8, 0xFC, 0xF6,
  0xF0, 0xFD, 0xD9, 0xFE, 0xF9, 0x04, 0x00, 0xF8, 0xEE, 0xFE,
  0xD5, 0xF9, 0xF4, 0xF9, 0x08, 0x03, 0xF1, 0xF8, 0xDA, 0xFE,
  0xFD, 0x0E, 0xFC, 0xF5, 0x08, 0xE8, 0xD5, 0xFD, 0xDF, 0xEE,
  0x18, 0x07, 0x08, 0xFA, 0xE4, 0xF0, 0xF6, 0xEB, 0x09, 0xFA,
  0xFC, 0x0A, 0xCD, 0xFA, 0x07, 0x06, 0x05, 0x0A, 0xD7, 0xED,
  0xD0, 0x0E, 0xF4, 0x0A, 0xF5, 0x09, 0xFC, 0xE2, 0xE2, 0xFA,
  0x03, 0x0B, 0xEF, 0x09, 0xE8, 0x0D, 0xED, 0x15, 0x0B, 0xEF,
  0xFB, 0x0C, 0xC9, 0xF9, 0xF0, 0x1D, 0x19, 0xF4, 0xF3, 0x06,
  0xFE, 0x04, 0xCE, 0xF1, 0xF6, 0xF9, 0xE9, 0x08, 0x04, 0x13,
  0x01, 0xF4, 0x00, 0x01, 0xD8, 0xF9, 0xF4, 0xE2, 0xF9, 0x00,
  0xFC, 0xEC, 0xF4, 0xF8, 0x04, 0xE6, 0xD6, 0xE1, 0xDD, 0xD9,
  0x07, 0x06, 0xEF, 0xF4, 0xF4, 0xF2, 0xFD, 0xEF, 0x06, 0xF6,
  0xFE, 0xFC, 0x10, 0xFD, 0x02, 0xF2, 0xE6, 0xF1, 0xF5, 0xF2,
  0xF3, 0xEF, 0xFE, 0xDC, 0x0F, 0xF0, 0x0E, 0x04, 0xE4, 0xEB,
  0x0A, 0xED, 0x03, 0xFA, 0xEE, 0xFA, 0x1C, 0xF7, 0xF0, 0xE4,
  0x03, 0xF3, 0x0A, 0xF8, 0xF5, 0x12, 0xDC, 0xF4, 0xFA, 0xF1,
  0xEF, 0xE6, 0x10, 0xE4, 0xF2, 0xF1, 0xF7, 0xEB, 0xF9, 0xEF,
  0xF4, 0x00, 0xEF, 0x0C, 0xEF, 0xF0, 0x18, 0x01, 0xE0, 0xF0,
  0xFC, 0x00, 0x03, 0xFE, 0xEB, 0xFC, 0xDB, 0xD7, 0xF6, 0x06,
  0x09, 0x09, 0xDF, 0x01, 0xE5, 0xE2, 0xF6, 0x00, 0x10, 0xFB,
  0x00, 0xFF, 0xFC, 0xCB, 0x05, 0xF3, 0x0D, 0xFD, 0xDD, 0xFA,
  0xEE, 0xF9, 0xF3, 0x0A, 0x2B, 0xF3, 0xE0, 0xFF, 0xCC, 0xFC,
  0xEC, 0x0B, 0x0F, 0x03, 0xF9, 0xFF, 0xD6, 0xFD, 0xF6, 0x11,
  0xE7, 0xF6, 0xEC, 0xF1, 0xDD, 0xDC, 0xFC, 0x0D, 0xEE, 0x0F,
  0xF7, 0xF1, 0xDF, 0x05, 0xF5, 0xEB, 0x19, 0x05, 0xDF, 0xF1,
  0xF6, 0xEB, 0x15, 0xE4, 0xF9, 0x02, 0x0E, 0x16, 0x00, 0xFC,
  0x0B, 0xF5, 0x12, 0x05, 0xFB, 0xFA, 0x06, 0x07, 0x06, 0xF4,
  0xF5, 0x0E, 0xEA, 0xE3, 0x03, 0xF6, 0xFD, 0x0A, 0xE9, 0xF5,
  0x0D, 0xEC, 0xE9, 0xEE, 0xFC, 0xF2, 0x15, 0x10, 0x05, 0xFA,
  0xF4, 0xFA, 0x04, 0x0C, 0x00, 0xF9, 0x0A, 0x02, 0x0A, 0x12,
  0xF8, 0xD8, 0xF4, 0xED, 0x08, 0xF5, 0x17, 0xF3, 0xEC, 0xF0,
  0xF3, 0xFF, 0x0C, 0x00, 0xCE, 0xDC, 0xF4, 0xFD, 0x0E, 0xF7,
  0x09, 0xFD, 0xF1, 0xF8, 0xEB, 0xE7, 0x08, 0xFB, 0x06, 0x00,
  0xFE, 0xE0, 0xF6, 0xEF, 0x0D, 0xF1, 0xF2, 0xEF, 0x0A, 0xD8,
  0xF8, 0x01, 0x0B, 0xFB, 0x03, 0xEE, 0xDC, 0xEB, 0x02, 0xF0,
  0x1E, 0xE5, 0x1B, 0xFD, 0xC9, 0xD3, 0xFF, 0xF0, 0xF7, 0xF7,
  0xF2, 0xEE, 0xD7, 0xFD, 0xFF, 0xFF, 0xFE, 0x00, 0xFA, 0x07,
  0xDA, 0xF3, 0xFD, 0x03, 0xF7, 0x08, 0xFF, 0x09, 0xE8, 0xF3,
  0x10, 0x0F, 0x15, 0x03, 0x02, 0x01, 0xDA, 0xFE, 0x10, 0x07,
  0xF0, 0x04, 0x1D, 0xFB, 0xED, 0xF1, 0x0B, 0x10, 0xE8, 0x01,
  0xFA, 0x01, 0xE0, 0xF0, 0x0F, 0x0C, 0xE8, 0x03, 0x06, 0xF4,
  0xD6, 0x04, 0x09, 0xFF, 0xD7, 0xFB, 0x0A, 0xFB, 0xB9, 0xE1,
  0xEF, 0x13, 0xEA, 0xE5, 0xD9, 0xFB, 0xE3, 0x03, 0x04, 0x01,
  0xE8, 0xF8, 0xF4, 0xF4, 0xF7, 0xE0, 0xDB, 0xF2, 0x00, 0x0D,
  0x07, 0xFB, 0xF5, 0x11, 0xE9, 0xF5, 0xFB, 0xF7, 0xED, 0xEF,
  0xF4, 0xE0, 0x04, 0x09, 0xE9, 0xF5, 0x0A, 0xE4, 0xE8, 0xFA,
  0xE8, 0xF7, 0x18, 0xEE, 0x0E, 0xFA, 0xFD, 0xF9, 0xF9, 0xF6,
  0xF5, 0xFA, 0xFD, 0x14, 0x0E, 0x1D, 0x07, 0xED, 0x0F, 0xD9,
  0xFB, 0x05, 0xD1, 0xF7, 0x00, 0xFF, 0xE9, 0xFD, 0xFA, 0x0A,
  0x11, 0x04, 0xFC, 0xEC, 0x0E, 0xF2, 0xF2, 0x01, 0x08, 0x13,
  0x0D, 0xD1, 0x07, 0xF7, 0xF7, 0x05, 0x1B, 0xF6, 0xE3, 0x04,
  0x05, 0x05, 0xDA, 0xF5, 0xFA, 0x0B, 0xE6, 0x17, 0xE3, 0xF4,
  0x08, 0xFC, 0x0C, 0xE3, 0xF3, 0xF5, 0xE2, 0x06, 0x06, 0xF5,
  0xDD, 0xEB, 0x1D, 0xF9, 0xE4, 0xFC, 0x22, 0xEF, 0x08, 0x16,
  0xFC, 0xF3, 0xE7, 0x03, 0x09, 0x0A, 0xF9, 0xE5, 0x08, 0x05,
  0xFA, 0xEB, 0xF3, 0x01, 0xD0, 0xCC, 0x0D, 0xF6, 0x0B, 0xFE,
  0x04, 0xFB, 0xE8, 0xF7, 0xFF, 0x13, 0xFC, 0xF5, 0xFA, 0x07,
  0xED, 0x0D, 0x18, 0xF9, 0xF8, 0x23, 0xF7, 0x01, 0xCA, 0xE8,
  0x18, 0xFF, 0x04, 0x09, 0xBE, 0xF6, 0xD5, 0x03, 0x15, 0xEB,
  0xF5, 0xFF, 0xD2, 0xFC, 0xDB, 0xEE, 0x12, 0x08, 0xFE, 0xFD,
  0xE1, 0xF3, 0x01, 0x08, 0xE8, 0x04, 0x18, 0x11, 0x03, 0xFB,
  0xFD, 0xEB, 0x11, 0xF9, 0x03, 0x09, 0x05, 0xF5, 0x06, 0x00,
  0x1D, 0xE6, 0xF9, 0xF9, 0x01, 0x0A, 0xED, 0xE7, 0xDB, 0xF2,
  0xE1, 0xF4, 0x11, 0x01, 0xE8, 0xF8, 0xFF, 0xE5, 0x2E, 0xF8,
  0x15, 0x0D, 0x17, 0x09, 0x11, 0x1A, 0xC6, 0xEC, 0xFD, 0x09,
  0xF6, 0x1B, 0xF1, 0xFC, 0x01, 0xF2, 0x09, 0xF9, 0x00, 0xFC,
  0x0A, 0xDD, 0xF8, 0xF6, 0xFE, 0xF6, 0x11, 0x0C, 0xEE, 0xFB,
  0xE7, 0xF6, 0x01, 0xF1, 0x19, 0x17, 0x01, 0xF8, 0xDB, 0x0D,
  0xE1, 0x0C, 0x02, 0xF4, 0x0B, 0xFF, 0xE2, 0xF9, 0xCE, 0xFD,
  0x0E, 0xEF, 0xFD, 0xFE, 0xDE, 0xFC, 0xEA, 0x01, 0x1A, 0xE0,
  0xF8, 0xFC, 0xDE, 0x03, 0xEE, 0xF7, 0x07, 0xFE, 0x0B, 0xEB,
  0xDB, 0x0B, 0xF5, 0xF1, 0x28, 0xF4, 0x15, 0xF3, 0xC6, 0x0B,
  0x0C, 0xEE, 0x06, 0x03, 0x18, 0xF8, 0xE4, 0xFE, 0x07, 0x0E,
  0xBB, 0x00, 0x15, 0x07, 0xF9, 0xE7, 0x0B, 0x05, 0x02, 0x05,
  0xFB, 0x0C, 0xDA, 0xF7, 0x13, 0x15, 0xEB, 0x04, 0x14, 0x1B,
  0xEC, 0xF0, 0xF9, 0x1D, 0xDF, 0xF1, 0x0B, 0xF1, 0xDD, 0xF4,
  0xF6, 0x05, 0xF6, 0x0E, 0x22, 0x01, 0xEF, 0x05, 0xFA, 0x01,
  0xDF, 0xF0, 0x08, 0x00, 0xEC, 0x04, 0xCE, 0x0F, 0xF1, 0x00,
  0x0F, 0xFD, 0xE4, 0x0C, 0xE2, 0x0A, 0xFB, 0x08, 0xFB, 0xFA,
  0xFC, 0x07, 0xF3, 0x00, 0x06, 0xF2, 0x13, 0x10, 0xFA, 0xF1,
  0xED, 0x15, 0x03, 0xF8, 0xFB, 0x0C, 0xDF, 0xEE, 0x04, 0x03,
  0xEB, 0x06, 0x05, 0xE4, 0xDA, 0x12, 0xF5, 0xFD, 0x24, 0x1D,
  0x0A, 0x12, 0x06, 0xFD, 0x12, 0x0F, 0xE1, 0x03, 0xF2, 0xD5,
  0x0B, 0x02, 0x03, 0x08, 0x14, 0xF6, 0x05, 0xF4, 0xF0, 0x01,
  0xFB, 0xFB, 0xD5, 0xFF, 0xFF, 0xF7, 0xEA, 0x01, 0xE6, 0xFF,
  0x30, 0xFC, 0x03, 0xEC, 0xD3, 0xF3, 0xDA, 0x0A, 0xDF, 0x02,
  0xF5, 0xEF, 0xA3, 0x00, 0xD1, 0x0D, 0x0A, 0xED, 0x0A, 0x1C,
  0xC7, 0x10, 0xE4, 0x0F, 0x19, 0xE8, 0xDB, 0x0A, 0xEB, 0x14,
  0xF4, 0xFD, 0x09, 0xF7, 0xF4, 0xF9, 0xD8, 0x0D, 0x10, 0xF8,
  0x1F, 0xF9, 0x17, 0xF3, 0xD2, 0xEF, 0x19, 0xFC, 0xEE, 0x18,
  0x0A, 0xF9, 0xC0, 0xF9, 0xEB, 0x0E, 0xFC, 0x21, 0x0E, 0x06,
  0xF9, 0xEE, 0x1F, 0x0D, 0x09, 0x0F, 0x09, 0xF8, 0xEA, 0xE5,
  0x28, 0x08, 0xEF, 0xF8, 0x01, 0x01, 0xAE, 0xF6, 0xFC, 0x0A,
  0xF3, 0x16, 0x1E, 0xF2, 0xE4, 0xF8, 0x00, 0x13, 0xE8, 0x10,
  0x1B, 0xF7, 0xF8, 0x0C, 0xFA, 0x17, 0xE2, 0xFA, 0x0E, 0xF9,
  0xDA, 0x0E, 0xEF, 0x0B, 0xF5, 0xF3, 0x00, 0xFD, 0xE9, 0x0F,
  0xE8, 0x01, 0xE8, 0xEE, 0xEA, 0xE4, 0x0C, 0x0E, 0x05, 0xFF,
  0x07, 0xFA, 0x04, 0xED, 0x0E, 0x18, 0xEF, 0x04, 0x0B, 0x08,
  0xDF, 0x31, 0x11, 0xFE, 0x19, 0x0F, 0x15, 0x11, 0x13, 0xD4,
  0x06, 0xFF, 0xF1, 0xF8, 0x1F, 0x08, 0x14, 0xDF, 0xE1, 0xF5,
  0xF4, 0x11, 0x25, 0x00, 0xFC, 0xAA, 0xDC, 0x00, 0x19, 0x0E,
  0xF2, 0x00, 0x14, 0xF4, 0xDC, 0x0A, 0xF0, 0x08, 0xC2, 0xFF,
  0x0B, 0xDB, 0xDF, 0xFE, 0xFD, 0xFD, 0xF4, 0xE7, 0x04, 0xF9,
  0xB8, 0x07, 0xF2, 0xFF, 0xFB, 0xE4, 0x04, 0xF6, 0xDA, 0x12,
  0xEB, 0x07, 0x1B, 0xF4, 0xF5, 0x11, 0xD5, 0x11, 0x0C, 0x0D,
  0x02, 0xC9, 0xF2, 0x11, 0xE1, 0x0C, 0xF2, 0x05, 0x1C, 0xE3,
  0xF3, 0x02, 0xFF, 0xF3, 0x21, 0xFF, 0xEF, 0xDC, 0xF7, 0xF7,
  0xE6, 0xFC, 0xFB, 0x0D, 0x08, 0x29, 0xF3, 0xE6, 0xE5, 0xF9,
  0x00, 0x14, 0x1F, 0x04, 0x00, 0xD9, 0xEF, 0xFA, 0x28, 0x07,
  0x04, 0x1C, 0x01, 0xEC, 0xF3, 0xEA, 0x13, 0x0C, 0xE5, 0x07,
  0x04, 0x10, 0xB9, 0xEF, 0x14, 0x0A, 0xE5, 0x04, 0x12, 0x01,
  0xFC, 0x27, 0xFC, 0x1F, 0xFD, 0x09, 0x11, 0x00, 0x07, 0x14,
  0x15, 0x0C, 0x04, 0xFE, 0x08, 0xEC, 0xDE, 0x12, 0xFF, 0x0F,
  0xFA, 0x01, 0x19, 0xF0, 0xEB, 0xF9, 0xF5, 0x07, 0xF7, 0xF9,
  0xE1, 0x09, 0xFC, 0x04, 0xF0, 0x03, 0x0E, 0xF8, 0xFA, 0xEE,
  0x0E, 0xF9, 0xE2, 0x0A, 0x0B, 0x13, 0xEA, 0x08, 0x09, 0xF4,
  0x03, 0xFE, 0xFC, 0x0D, 0xFE, 0xE8, 0x2C, 0xF9, 0xFA, 0x10,
  0x03, 0x1F, 0x19, 0xCF, 0xEE, 0xFC, 0xEE, 0xFD, 0x0D, 0xF2,
  0xE8, 0xB4, 0xBE, 0xED, 0x13, 0x16, 0xD8, 0x00, 0x02, 0xD7,
  0xB7, 0x0E, 0xE4, 0x17, 0x2B, 0xFF, 0x14, 0xD6, 0x98, 0x11,
  0xF9, 0x09, 0xEE, 0xFD, 0xF2, 0xEA, 0xB8, 0x0A, 0xF2, 0x16,
  0x1C, 0x02, 0x06, 0xED, 0xCB, 0xFB, 0x12, 0x08, 0x0F, 0x0D,
  0x21, 0xF6, 0xDC, 0x0F, 0x01, 0x18, 0x0E, 0xE7, 0x00, 0x00,
  0xDE, 0x19, 0xD4, 0x0F, 0xEB, 0x02, 0xE8, 0xF1, 0x04, 0xE3,
  0x01, 0x0F, 0xF3, 0x09, 0xE2, 0xD3, 0xF0, 0xDD, 0xFC, 0x0E,
  0x03, 0x0E, 0xE6, 0xCD, 0xEA, 0x00, 0xF8, 0x1B, 0x12, 0x17,
  0x03, 0xD7, 0x04, 0xF9, 0x1C, 0x00, 0xFA, 0x07, 0x0C, 0xD4,
  0x2B, 0x0C, 0x14, 0x05, 0xD5, 0xF5, 0x12, 0xDA, 0xDD, 0x12,
  0xD4, 0x08, 0xFA, 0x0B, 0x07, 0xE5, 0xC6, 0x0F, 0xEF, 0x05,
  0x09, 0xFB, 0x10, 0xFC, 0xE2, 0x04, 0x14, 0x06, 0x1E, 0x05,
  0x0C, 0xF1, 0xFF, 0x11, 0xF9, 0x17, 0xFB, 0x0F, 0x14, 0x02,
  0xF9, 0x05, 0x12, 0x05, 0x04, 0x06, 0x02, 0x06, 0x11, 0x18,
  0x1C, 0x04, 0x07, 0xFB, 0xE4, 0xFE, 0x29, 0xFD, 0x18, 0x00,
  0x10, 0x0D, 0xE8, 0x0E, 0x14, 0x01, 0x0E, 0x07, 0x0C, 0x09,
  0x0D, 0x07, 0xEE, 0x03, 0xFB, 0x19, 0x12, 0x13, 0x17, 0x1D,
  0xDD, 0xF4, 0xE4, 0x01, 0x11, 0xDE, 0xF2, 0xD6, 0xD6, 0xFF,
  0x01, 0x10, 0xFC, 0xFE, 0xED, 0xEA, 0xC8, 0x0B, 0xDB, 0x09,
  0xF7, 0x03, 0xED, 0x02, 0xA9, 0x0E, 0xFC, 0x08, 0xE4, 0x02,
  0x06, 0xF2, 0xBE, 0x15, 0x05, 0x07, 0x07, 0x01, 0x01, 0xFA,
  0x05, 0x0C, 0x00, 0x02, 0x28, 0xEE, 0x0D, 0xEE, 0x0F, 0x1D,
  0xD2, 0x0D, 0x21, 0xD1, 0x06, 0xEB, 0x19, 0x04, 0xE4, 0x17,
  0x11, 0xEC, 0xF8, 0xDB, 0x03, 0xE4, 0xD2, 0x0C, 0x25, 0xD8,
  0xE1, 0xC6, 0x0C, 0xF0, 0xF6, 0x0E, 0x1D, 0xFB, 0xE9, 0xD4,
  0x13, 0xF5, 0x18, 0x15, 0x1F, 0x08, 0xE3, 0xDC, 0xF3, 0x00,
  0x0C, 0xF9, 0xC3, 0x06, 0x00, 0xE1, 0xF4, 0xFD, 0x0F, 0x08,
  0xD5, 0x13, 0x04, 0xEA, 0xF0, 0xFB, 0xEB, 0x14, 0xF4, 0xE8,
  0x07, 0xEA, 0xF1, 0x03, 0xF6, 0xEF, 0x04, 0xFF, 0x0C, 0xFE,
  0x06, 0x23, 0xFB, 0x05, 0x04, 0xFB, 0x09, 0x00, 0xF5, 0xFF,
  0x02, 0x0F, 0x06, 0x16, 0x16, 0xF8, 0xF5, 0xFF, 0x00, 0xF2,
  0x10, 0x00, 0x09, 0x07, 0x0C, 0x02, 0xF4, 0xFC, 0x1E, 0x14,
  0x01, 0x09, 0x0A, 0x01, 0xCF, 0x0F, 0x1A, 0x04, 0x0C, 0x24,
  0xF3, 0x11, 0x1C, 0x04, 0x06, 0x1A, 0x0D, 0x14, 0xE4, 0x18,
  0x09, 0x13, 0x21, 0x07, 0x0A, 0x0F, 0xE4, 0x03, 0xE9, 0x01,
  0x10, 0xED, 0xF9, 0xD7, 0xC0, 0x19, 0x08, 0x1D, 0x0B, 0xFA,
  0x05, 0x01, 0xB1, 0x15, 0xE7, 0x17, 0xC4, 0x0F, 0xFD, 0x04,
  0xC9, 0x22, 0xF9, 0x0C, 0xF7, 0xEB, 0x0E, 0x0D, 0xC1, 0x05,
  0x08, 0x14, 0x1E, 0xF4, 0xFE, 0x00, 0xCE, 0x05, 0xFE, 0x0B,
  0x29, 0xF0, 0xF4, 0xF8, 0xF6, 0x00, 0xEE, 0x25, 0xF4, 0xF2,
  0x01, 0x0C, 0xE4, 0x03, 0xEE, 0x14, 0x16, 0x11, 0xFD, 0xEF,
  0x04, 0xD7, 0xE3, 0x17, 0x31, 0x0B, 0xEC, 0xCD, 0x0F, 0xE2,
  0x05, 0x1C, 0x1A, 0x0B, 0xED, 0xC4, 0x1D, 0xF4, 0x1C, 0xFC,
  0xE0, 0x22, 0xDF, 0xDB, 0x21, 0x0B, 0x02, 0xFC, 0xA8, 0x09,
  0xF9, 0xF2, 0x0F, 0xF0, 0x0F, 0xF9, 0xD1, 0xE3, 0xFD, 0xFD,
  0x1B, 0xFE, 0x07, 0x16, 0xFB, 0xE5, 0xF1, 0xFD, 0xFE, 0x26,
  0x09, 0xF0, 0x0D, 0xFA, 0x12, 0xF1, 0xF9, 0x07, 0xF5, 0x0F,
  0x0E, 0x09, 0x07, 0xE6, 0x0A, 0xF4, 0xF3, 0x08, 0x10, 0x1B,
  0x1A, 0xEB, 0xF4, 0xF5, 0xFF, 0x0A, 0x05, 0x10, 0x04, 0xFB,
  0x0D, 0x11, 0x19, 0x01, 0x16, 0x02, 0x09, 0x08, 0xFB, 0xF5,
  0xF1, 0x03, 0x18, 0x13, 0x0D, 0xFF, 0xFB, 0x1B, 0x12, 0x05,
  0x01, 0x07, 0xFD, 0x03, 0x0C, 0x0C, 0x0A, 0x16, 0xE8, 0x0D,
  0x18, 0xD0, 0xF1, 0x08, 0xFD, 0x10, 0x19, 0x0A, 0x07, 0xF7,
  0xA7, 0x0C, 0x02, 0x09, 0x24, 0xE9, 0xE1, 0xE5, 0xC2, 0x0F,
  0xFD, 0x13, 0xE0, 0xFD, 0x11, 0xFB, 0xC2, 0x0C, 0x00, 0x12,
  0xEA, 0x07, 0x05, 0x13, 0xEC, 0x13, 0x0F, 0xFD, 0x23, 0xEC,
  0x0C, 0x05, 0xF6, 0xFB, 0x1F, 0x1B, 0x0E, 0x02, 0xED, 0xF7,
  0xFE, 0x11, 0xFA, 0x03, 0x02, 0xEC, 0x01, 0x03, 0x03, 0xFA,
  0x16, 0x07, 0xFA, 0x1F, 0x02, 0xF3, 0x1A, 0xF8, 0x07, 0x0F,
  0x06, 0x32, 0x02, 0xED, 0x15, 0xF3, 0xE6, 0xFE, 0xFF, 0x33,
  0xF0, 0xFE, 0x1A, 0xF4, 0xF9, 0x06, 0xF4, 0x0C, 0xEC, 0x04,
  0xF7, 0x00, 0x00, 0x0A, 0xE3, 0x05, 0xE4, 0xFE, 0x01, 0x07,
  0xF4, 0xFF, 0xBD, 0xFA, 0xF7, 0xF1, 0xE5, 0x03, 0x0A, 0x0E,
  0x1A, 0xF3, 0xF1, 0xF8, 0xED, 0x22, 0xFB, 0xF0, 0x0F, 0xEB,
  0xFB, 0xF8, 0xEC, 0x0E, 0x00, 0x07, 0xFB, 0xEF, 0x04, 0x0F,
  0xEF, 0x01, 0x0A, 0x10, 0x0D, 0x09, 0x1C, 0x0A, 0x00, 0x15,
  0xF7, 0xFB, 0x19, 0x0B, 0x05, 0xFB, 0x15, 0x00, 0x13, 0x06,
  0x24, 0x02, 0x17, 0x0F, 0x0E, 0xDA, 0xCE, 0xFB, 0x19, 0x16,
  0x0C, 0xF5, 0x18, 0x04, 0x09, 0x09, 0x02, 0xF9, 0x07, 0x05,
  0xFC, 0x04, 0x05, 0x15, 0xFD, 0x0D, 0x0C, 0x07, 0xD1, 0x0A,
  0x08, 0xFF, 0x1A, 0xF0, 0x0C, 0x07, 0xD7, 0x06, 0x15, 0x00,
  0xF7, 0xFF, 0x03, 0xEC, 0xB3, 0x19, 0x0C, 0x0E, 0xBD, 0xF8,
  0x03, 0x14, 0xD7, 0x0B, 0x0F, 0x14, 0xE2, 0xF0, 0xFA, 0x0F,
  0xE9, 0xFA, 0xFC, 0xFD, 0x0B, 0xF3, 0x1C, 0x0A, 0xF7, 0xF6,
  0x0E, 0x09, 0xEA, 0xFF, 0xFE, 0x03, 0x06, 0x11, 0xEA, 0x10,
  0xF9, 0x2C, 0x08, 0x00, 0x13, 0xEC, 0xE1, 0x05, 0x39, 0x32,
  0xF7, 0xF0, 0xFE, 0xF1, 0xEE, 0x04, 0x30, 0x2A, 0xE0, 0x04,
  0x1F, 0xED, 0xE3, 0x01, 0xF2, 0xFF, 0xED, 0x16, 0x06, 0xF4,
  0xF2, 0xF2, 0xD2, 0x2B, 0xDC, 0x08, 0xF2, 0x0A, 0xDA, 0x07,
  0xCF, 0xD9, 0xE5, 0xF9, 0xEE, 0x0B, 0x24, 0x0A, 0xDF, 0xDE,
  0xEA, 0x04, 0x02, 0x0D, 0xE8, 0x01, 0x0E, 0xFF, 0xF1, 0xFE,
  0x0B, 0x08, 0xE5, 0xFD, 0x06, 0x17, 0xE4, 0xFD, 0xFD, 0x1A,
  0xF1, 0xFF, 0xF5, 0xF7, 0xEE, 0xEF, 0xFF, 0xF3, 0x17, 0x05,
  0x01, 0xFA, 0x06, 0xF7, 0x0C, 0x05, 0xD7, 0xFA, 0x05, 0xFC,
  0x0B, 0xF9, 0x0D, 0xF4, 0x20, 0xF5, 0x10, 0x0F, 0x0F, 0x16,
  0x08, 0xFC, 0xE9, 0x02, 0x0D, 0x12, 0x13, 0xF2, 0x0B, 0x07,
  0x08, 0x10, 0xE9, 0xF0, 0x09, 0xF0, 0x09, 0x0E, 0x15, 0x15,
  0xFA, 0x14, 0x09, 0x13, 0xFF, 0x0F, 0x1C, 0xFF, 0x00, 0xE8,
  0x00, 0xCD, 0xED, 0x02, 0x0C, 0x16, 0xFD, 0xDC, 0x1B, 0xD7,
  0xD8, 0xF6, 0x06, 0x0B, 0xC0, 0xDA, 0xF9, 0xEA, 0xE5, 0x04,
  0x04, 0x1C, 0xE8, 0xF7, 0xFF, 0xFA, 0xEC, 0x03, 0x13, 0x07,
  0xEA, 0x04, 0x15, 0xEE, 0x00, 0x13, 0x16, 0x07, 0xEA, 0xF3,
  0x08, 0x0E, 0xFF, 0x0B, 0xF3, 0x02, 0xED, 0x16, 0x0C, 0x05,
  0x08, 0xFF, 0xF4, 0xEE, 0x25, 0x1A, 0x0D, 0x07, 0xFB, 0xE9,
  0xE9, 0xFE, 0xED, 0x18, 0x10, 0x02, 0x06, 0xFE, 0xCC, 0xF8,
  0xDA, 0x00, 0xCA, 0x00, 0x0B, 0xFF, 0xDF, 0xF4, 0xC9, 0xF0,
  0xC3, 0xFD, 0x17, 0x11, 0xF5, 0xFD, 0xDB, 0xE7, 0xEA, 0x02,
  0xEF, 0x08, 0x09, 0xF6, 0x04, 0xF3, 0xD4, 0xFF, 0x0C, 0x08,
  0x21, 0xF5, 0x18, 0xF1, 0xF3, 0x01, 0x02, 0x12, 0x07, 0x00,
  0xFA, 0x06, 0xF8, 0xF9, 0x09, 0x16, 0xF1, 0x0A, 0x0B, 0xF7,
  0x04, 0xFA, 0x09, 0xF0, 0xEA, 0xF2, 0x07, 0xEC, 0xFF, 0x02,
  0x0B, 0x03, 0xF2, 0x12, 0x09, 0x09, 0xFF, 0xEA, 0x07, 0xF2,
  0x12, 0xF8, 0x0B, 0x15, 0x07, 0x0D, 0xFB, 0x02, 0xDA, 0xEC,
  0x04, 0x0A, 0x0A, 0x00, 0x09, 0xFB, 0x0D, 0x04, 0xDF, 0xDE,
  0x03, 0x1F, 0x26, 0x0B, 0xEF, 0x01, 0x09, 0xED, 0xEC, 0x05,
  0x20, 0x03, 0x04, 0x04, 0x17, 0xF7, 0xF1, 0xF0, 0x10, 0x0F,
  0x03, 0x05, 0xED, 0xE8, 0xF9, 0x02, 0xEE, 0xF9, 0x09, 0x09,
  0xA6, 0xC3, 0x0D, 0xF2, 0x17, 0xF7, 0x11, 0xF9, 0x00, 0xE2,
  0xFB, 0x0D, 0xDF, 0xFE, 0x1A, 0x03, 0xFD, 0xF2, 0x07, 0x06,
  0xE0, 0xEC, 0x11, 0x02, 0x10, 0x0C, 0xF8, 0x0B, 0xFC, 0x13,
  0x06, 0x06, 0xF2, 0x0B, 0x07, 0x09, 0x1A, 0xFB, 0x0A, 0xDC,
  0xD4, 0x26, 0x15, 0x15, 0xFE, 0x02, 0xE8, 0xE8, 0xD3, 0x16,
  0x1E, 0x11, 0xE9, 0x03, 0xE4, 0xF2, 0xE7, 0x12, 0xEE, 0x07,
  0xF4, 0x10, 0xD9, 0xEB, 0xE4, 0x00, 0xF3, 0x05, 0xF0, 0x1D,
  0xF0, 0xF7, 0xFC, 0xC9, 0xD4, 0x00, 0x0C, 0x08, 0xFE, 0xEA,
  0x07, 0xD3, 0xFA, 0xF2, 0x0D, 0x01, 0xED, 0xF5, 0x08, 0xEC,
  0x07, 0x00, 0x24, 0x0E, 0xED, 0xEA, 0x06, 0xFF, 0xF7, 0xF9,
  0x01, 0xF4, 0x0B, 0xEA, 0x08, 0xEB, 0x09, 0xFB, 0xFA, 0xEE,
  0xF9, 0xE6, 0xFE, 0x01, 0xFF, 0xFB, 0x0B, 0xEE, 0xF7, 0xF2,
  0x04, 0x07, 0x0A, 0xFB, 0xE9, 0x05, 0xE6, 0xEA, 0x17, 0xF0,
  0xFD, 0x0C, 0x0D, 0xFC, 0x0F, 0xEB, 0x0D, 0x07, 0x00, 0x0C,
  0xF2, 0x04, 0x10, 0xFC, 0xEE, 0xD3, 0xED, 0xDA, 0xF5, 0x01,
  0xF9, 0x05, 0xF4, 0xE1, 0xF6, 0xF9, 0xEB, 0x0B, 0x19, 0x0F,
  0x10, 0xFE, 0x19, 0x04, 0xEA, 0x15, 0x0B, 0xFE, 0x05, 0xC7,
  0xFC, 0xED, 0xFA, 0x0B, 0xFD, 0xFA, 0xDC, 0xD2, 0x0C, 0xE8,
  0xD1, 0x04, 0x17, 0xFE, 0x1D, 0xD0, 0x0A, 0x05, 0x08, 0xFB,
  0x17, 0x03, 0x25, 0x00, 0xF2, 0x12, 0x04, 0x01, 0x04, 0xF3,
  0x15, 0x08, 0x06, 0x0D, 0xF3, 0x0C, 0x0F, 0x04, 0xEB, 0xFA,
  0x0D, 0x01, 0xE4, 0x03, 0x07, 0xFB, 0xF0, 0xEC, 0x12, 0x13,
  0xFE, 0xF8, 0x06, 0xE7, 0xE9, 0xFB, 0x16, 0x0B, 0xF2, 0xF1,
  0xED, 0xE1, 0x06, 0xDE, 0xF6, 0x10, 0xD9, 0xF5, 0xD3, 0xE9,
  0x06, 0xD4, 0xF5, 0x1A, 0xE8, 0xEE, 0xEC, 0xE7, 0x04, 0xC1,
  0xF6, 0x1B, 0xFC, 0x02, 0x00, 0xD7, 0x07, 0xDD, 0xFD, 0x07,
  0x1B, 0xF1, 0x1C, 0xE4, 0xE6, 0xE2, 0x0B, 0x12, 0x01, 0xF5,
  0x0E, 0xEE, 0x08, 0xEC, 0x03, 0x05, 0x06, 0xEF, 0x02, 0xDE,
  0xF1, 0xF3, 0xF7, 0x02, 0xFB, 0xE6, 0x0B, 0xE2, 0xFF, 0xF9,
  0xFD, 0xFB, 0xE9, 0xF1, 0xD5, 0xF4, 0x0C, 0x12, 0x13, 0xFD,
  0x0B, 0x08, 0xE6, 0xED, 0xFE, 0xF6, 0xF7, 0x03, 0x0D, 0x01,
  0xF2, 0xE4, 0xF5, 0xFD, 0x04, 0x07, 0x00, 0x00, 0x0E, 0x02,
  0xF8, 0xE0, 0xFA, 0xE4, 0x05, 0x00, 0x05, 0x02, 0xED, 0xE0,
  0xFC, 0xFC, 0xFF, 0x10, 0x1F, 0x03, 0x15, 0xC8, 0xFE, 0xF6,
  0x00, 0xF8, 0x2D, 0xF1, 0x12, 0xBF, 0xF6, 0xB9, 0xEE, 0x13,
  0x0D, 0xF5, 0xEA, 0xE1, 0x08, 0xEB, 0xDB, 0xFD, 0x11, 0xFD,
  0x17, 0xEB, 0xFB, 0x05, 0x00, 0xFA, 0x13, 0xF6, 0x18, 0xE0,
  0x0A, 0x08, 0x20, 0x02, 0x1A, 0x03, 0xF3, 0xF5, 0x08, 0x10,
  0x1A, 0x01, 0x1C, 0xF3, 0xF6, 0x0C, 0x03, 0x07, 0xE0, 0x0C,
  0x0D, 0xFB, 0x17, 0x09, 0x20, 0x0D, 0xE8, 0xF8, 0xF8, 0xF9,
  0x0A, 0xF7, 0x1C, 0x04, 0xFD, 0xF2, 0xF6, 0xE2, 0xFB, 0xFB,
  0x0C, 0x0A, 0xEB, 0xED, 0xEB, 0xEF, 0xEA, 0xDA, 0x07, 0x0A,
  0xFA, 0xF0, 0xF8, 0xF0, 0x05, 0xE0, 0xF3, 0xFC, 0xE6, 0xF6,
  0xC4, 0xDC, 0xF9, 0xE4, 0xF0, 0xE9, 0x09, 0xEF, 0xED, 0xE1,
  0xF5, 0x0C, 0x10, 0xEF, 0xF5, 0xE5, 0xD6, 0xDC, 0xEF, 0xCF,
  0x05, 0x01, 0x06, 0xF3, 0xDD, 0xF7, 0xE6, 0x02, 0xFF, 0xFF,
  0xFB, 0xE8, 0xF1, 0xDE, 0xF8, 0xFD, 0x04, 0xFE, 0xFA, 0xF6,
  0xC7, 0xF2, 0x08, 0xFB, 0xFF, 0xF6, 0x10, 0x0D, 0xFF, 0x03,
  0xF4, 0xFC, 0xF5, 0xE5, 0xF1, 0xF3, 0xFC, 0xEA, 0xEE, 0xEC,
  0x05, 0x14, 0x08, 0x0A, 0xD7, 0xE8, 0xFE, 0xE6, 0x04, 0xFE,
  0x0F, 0xE7, 0xE0, 0xFC, 0xF9, 0xD0, 0xF0, 0xD0, 0x1F, 0x04,
  0xE3, 0xF5, 0xF8, 0xC8, 0xF0, 0xEA, 0x11, 0xF7, 0x04, 0xF9,
  0x09, 0xC9, 0xFD, 0xC3, 0xF3, 0xF7, 0x18, 0xF9, 0xFF, 0xCB,
  0x0A, 0xD1, 0xEE, 0x05, 0x2A, 0xFA, 0xF8, 0xAF, 0x12, 0xCC,
  0xF2, 0x0A, 0x09, 0xF4, 0x11, 0xBF, 0x14, 0xD5, 0x07, 0x02,
  0x02, 0xF2, 0xFE, 0xF3, 0xFF, 0xFE, 0x30, 0xE9, 0x0F, 0xEE,
  0xD7, 0x0B, 0x13, 0x14, 0x18, 0xF9, 0xEF, 0xF4, 0x04, 0x10,
  0x14, 0x16, 0xFA, 0xF7, 0xEE, 0x00, 0xF2, 0xF8, 0xF6, 0x23,
  0xD7, 0xFB, 0xF9, 0xE6, 0xF6, 0xDE, 0x05, 0xFB, 0xDD, 0xF1,
  0xE2, 0xDE, 0xFE, 0xCC, 0x02, 0xFA, 0xEE, 0xEB, 0xE3, 0xF8,
  0xED, 0xD0, 0xF6, 0xF1, 0xFA, 0xE9, 0xEF, 0xEF, 0xDF, 0x05,
  0xFB, 0x01, 0xF0, 0xF9, 0xE4, 0xE6, 0xF7, 0xE1, 0x0A, 0x01,
  0xEF, 0xFC, 0xE1, 0xEA, 0xEF, 0xF2, 0x04, 0xF9, 0xF2, 0xFB,
  0xD2, 0xE8, 0xEF, 0xE5, 0xFB, 0xF9, 0xE6, 0xF4, 0xDB, 0xF2,
  0xEE, 0xE9, 0xFC, 0xF4, 0x0D, 0xF0, 0xE1, 0xFB, 0x0F, 0xFE,
  0xF7, 0xE6, 0x16, 0x03, 0xFD, 0xF6, 0xF2, 0x00, 0x07, 0xFD,
  0xEA, 0x05, 0x12, 0xF3, 0xE9, 0xE9, 0xF6, 0x0C, 0xE3, 0xE8,
  0xD2, 0xD8, 0x02, 0xF8, 0xE4, 0xEA, 0xEC, 0xDF, 0x02, 0xF1,
  0xF7, 0xDE, 0xDB, 0xD5, 0x22, 0x04, 0xF3, 0xF2, 0xFD, 0xF7,
  0xF2, 0xDE, 0x1A, 0xF7, 0xF1, 0xF7, 0xF5, 0xEF, 0x02, 0xFE,
  0xF5, 0xF0, 0x1F, 0x08, 0xF4, 0xE4, 0xF6, 0xD5, 0x09, 0x01,
  0x15, 0xF5, 0xFB, 0xD6, 0xFF, 0xC8, 0x2F, 0xFA, 0x02, 0xF6,
  0x0A, 0xE7, 0x13, 0xE9, 0x14, 0x09, 0xFB, 0xE7, 0xE8, 0x05,
  0xF9, 0xF6, 0x1D, 0x05, 0xF4, 0xE9, 0xDC, 0xF0, 0x01, 0xF6,
  0x08, 0xFD, 0xF3, 0xEC, 0xFE, 0xF6, 0x0E, 0xFD, 0xDF, 0xF5,
  0xF9, 0xD7, 0xEF, 0xF4, 0x07, 0xFB, 0xAB, 0xF2, 0x03, 0xEB,
  0x0D, 0xEB, 0x04, 0x08, 0xD5, 0x00, 0x02, 0xDF, 0xF9, 0xE2,
  0x02, 0xF6, 0xFE, 0xF7, 0xED, 0xDF, 0xE7, 0xEC, 0xFA, 0x18,
  0xEC, 0xF0, 0xD0, 0x03, 0xE9, 0xD9, 0xF8, 0x15, 0xD6, 0xEB,
  0xC4, 0xF2, 0xF1, 0xD0, 0xEE, 0xFE, 0xF6, 0xF8, 0x02, 0xF8,
  0xF7, 0xE4, 0x05, 0x0D, 0xE5, 0xF1, 0xD1, 0xF9, 0xE1, 0xF1,
  0x02, 0xED, 0xDE, 0xFE, 0xBE, 0xF6, 0xE4, 0xD6, 0xE9, 0x05,
  0x00, 0x06, 0xD9, 0xFD, 0xF7, 0xFC, 0x01, 0xFB, 0xF4, 0xF6,
  0x0A, 0xF6, 0x11, 0xFE, 0xFF, 0x10, 0xEE, 0xF7, 0x15, 0xE6,
  0xE2, 0xF1, 0xE3, 0x0B, 0xD9, 0xEF, 0x24, 0xDA, 0x08, 0xF8,
  0x05, 0xF9, 0xDC, 0xEA, 0xF4, 0xE2, 0xF1, 0x06, 0xFB, 0xF3,
  0xDF, 0xF1, 0xF0, 0xF9, 0xF4, 0xED, 0x06, 0x02, 0x0F, 0xFB,
  0xCC, 0xFE, 0xFA, 0xFC, 0xF2, 0xFD, 0x0E, 0x0F, 0xE6, 0xF6,
  0xFD, 0x00, 0xF3, 0xE3, 0xF9, 0xF8, 0x0E, 0xF7, 0xED, 0xFA,
  0xFA, 0xF3, 0xE3, 0xF9, 0x1E, 0xEC, 0xEA, 0x05, 0xFB, 0x27,
  0x02, 0xF4, 0x06, 0xEE, 0xDD, 0xF2, 0xF5, 0x0E, 0x0D, 0xF4,
  0xFB, 0xE9, 0xEA, 0xFA, 0xF0, 0xF8, 0xB6, 0xFB, 0xF0, 0xEF,
  0xFD, 0xE9, 0xF3, 0x03, 0xAD, 0x01, 0x09, 0xFE, 0x06, 0xF5,
  0x05, 0x1A, 0xA3, 0xF2, 0xD6, 0xF8, 0xF2, 0xEE, 0xF2, 0xFE,
  0xC5, 0xFA, 0xD6, 0xEF, 0xF6, 0xE6, 0xF1, 0x00, 0xED, 0xF0,
  0xF0, 0xE8, 0xFD, 0xE2, 0xF3, 0xF8, 0xE5, 0xFF, 0xCC, 0xEA,
  0xF1, 0xE7, 0xE0, 0xF7, 0xED, 0xF5, 0xCF, 0xF6, 0xD6, 0xDA,
  0xDC, 0xF8, 0xF4, 0xF0, 0x08, 0xF9, 0xF4, 0xEF, 0xEF, 0x09,
  0xE3, 0xFB, 0x0D, 0xF2, 0xF1, 0xEB, 0xE0, 0xEB, 0xDC, 0x02,
  0xDD, 0xF0, 0xDB, 0xF0, 0xEC, 0xFD, 0xE8, 0xF0, 0xD5, 0xEE,
  0xF8, 0xDF, 0xEF, 0x08, 0xF8, 0xEE, 0xFD, 0xF9, 0xF5, 0xFC,
  0xFB, 0xF8, 0xF1, 0x00, 0x0F, 0xEC, 0xEE, 0xFB, 0xE7, 0xF1,
  0x0D, 0x00, 0xE4, 0xFB, 0x07, 0xFD, 0xE7, 0x05, 0xFA, 0xF7,
  0xEE, 0xFF, 0xFB, 0x1B, 0xFB, 0x1E, 0xF8, 0xEA, 0xE1, 0xF9,
  0xF1, 0xFF, 0xE8, 0x0B, 0xF0, 0xFB, 0xD7, 0xF8, 0xEF, 0xE7,
  0xFD, 0x1B, 0x01, 0x02, 0xE5, 0xFC, 0xCB, 0x0F, 0x04, 0x0A,
  0xE2, 0xF3, 0xEF, 0xF1, 0x29, 0x12, 0xF5, 0x16, 0xED, 0x02,
  0x15, 0xF9, 0x05, 0xFF, 0xF5, 0xE4, 0xE2, 0xF7, 0x0E, 0x04,
  0x06, 0x0D, 0x0F, 0xE8, 0xFA, 0xEF, 0x0E, 0x0C, 0xF3, 0x16,
  0x11, 0xEC, 0xDC, 0x08, 0x10, 0x0E, 0xF5, 0x11, 0xF9, 0x00,
  0xF8, 0x02, 0x07, 0xFF, 0x18, 0xFD, 0x0A, 0x01, 0xF1, 0xF3,
  0x07, 0x0B, 0x21, 0x07, 0x04, 0x17, 0xF9, 0xEB, 0x08, 0xF7,
  0x10, 0x07, 0xF9, 0xEF, 0x04, 0xE8, 0x14, 0xF9, 0xF9, 0x22,
  0x04, 0x15, 0x09, 0x0B, 0x09, 0xFE, 0x05, 0x06, 0x08, 0x0A,
  0x0A, 0x18, 0xFD, 0x0D, 0xED, 0x05, 0x05, 0x23, 0x06, 0x12,
  0x00, 0x07, 0xEF, 0xFE, 0xFE, 0xFA, 0x0D, 0x01, 0xE8, 0x0D,
  0xFB, 0xFD, 0xF2, 0x15, 0x01, 0x03, 0xFF, 0x05, 0x13, 0x04,
  0xFC, 0x19, 0x1A, 0xF1, 0xED, 0xF0, 0xFF, 0x0D, 0x00, 0x26,
  0xFA, 0xF6, 0xF4, 0xE1, 0x05, 0x21, 0x04, 0x15, 0xE3, 0xF1,
  0x0A, 0xEF, 0xFA, 0x0F, 0xEF, 0x0B, 0x04, 0xF3, 0xEE, 0xFE,
  0x03, 0x0C, 0xFF, 0x02, 0x02, 0x00, 0xF3, 0x05, 0xEC, 0xF8,
  0x04, 0x06, 0xE9, 0xEE, 0xF1, 0xF5, 0xF5, 0xE4, 0xFB, 0x01,
  0xDB, 0xFC, 0x15, 0xED, 0xF2, 0xDC, 0xEB, 0xFB, 0xCC, 0xF7,
  0x08, 0xE0, 0xD0, 0xEB, 0x08, 0xFC, 0xDE, 0xF7, 0x06, 0xF4,
  0x0B, 0x10, 0x04, 0xF8, 0xFB, 0x05, 0x04, 0x04, 0xF8, 0x02,
  0xF2, 0xD7, 0xF5, 0xFC, 0xFA, 0xF0, 0x19, 0x14, 0x0D, 0xE5,
  0xF6, 0x05, 0x10, 0xFA, 0xF8, 0x1D, 0x21, 0xF0, 0xF2, 0x11,
  0x14, 0x19, 0x27, 0x07, 0x05, 0xF0, 0xF4, 0x08, 0x18, 0x10,
  0xD5, 0xCF, 0x05, 0xF5, 0xED, 0xF4, 0xEF, 0x00, 0x22, 0xED,
  0x02, 0xDF, 0xF3, 0x13, 0x0A, 0x16, 0xFD, 0xE7, 0xF4, 0xE1,
  0x04, 0xFD, 0x1B, 0xFF, 0x1D, 0xF2, 0x1C, 0xD9, 0xFF, 0x03,
  0x17, 0x00, 0x13, 0x03, 0xF6, 0xE2, 0x00, 0xFE, 0x13, 0xEA,
  0xF0, 0x0E, 0xF5, 0xF6, 0xF3, 0x10, 0xD8, 0x08, 0x11, 0xFF,
  0x04, 0x10, 0x08, 0x00, 0x05, 0x07, 0x0D, 0xFF, 0x05, 0xFD,
  0x00, 0xFB, 0x09, 0xFF, 0x0A, 0x04, 0x0F, 0xFE, 0x17, 0xF4,
  0x04, 0xF6, 0x09, 0x0D, 0xF6, 0x16, 0xFC, 0x01, 0xF3, 0xF0,
  0xFB, 0xFA, 0xF6, 0xF4, 0xF7, 0xE1, 0xE9, 0xDB, 0xEF, 0xFF,
  0x01, 0xFB, 0xE0, 0xF4, 0xD2, 0xFD, 0xF6, 0xF7, 0xF9, 0x00,
  0xF4, 0xFE, 0xE8, 0xF5, 0xF7, 0xF4, 0xFE, 0x03, 0x0B, 0xF1,
  0xE5, 0xE6, 0x06, 0xD5, 0xE9, 0xFC, 0x09, 0xEB, 0xF0, 0xF6,
  0xD8, 0xFB, 0xF3, 0xDC, 0xEF, 0xFF, 0xF4, 0x06, 0xE8, 0xF4,
  0x01, 0xDD, 0x09, 0xF1, 0x00, 0x0A, 0xF9, 0x14, 0x0C, 0x37,
  0xF8, 0x03, 0x0A, 0xF3, 0x0F, 0x1C, 0xFF, 0xD7, 0xFA, 0x0A,
  0xF7, 0xE8, 0x06, 0x09, 0x00, 0xE3, 0xFF, 0xDC, 0xE6, 0xF9,
  0x24, 0x11, 0x06, 0xE7, 0x02, 0x09, 0xFA, 0x06, 0x2C, 0xFE,
  0x0E, 0xEC, 0xF5, 0x1F, 0x0C, 0xF3, 0xE8, 0xF4, 0xED, 0xF6,
  0xFA, 0xE9, 0x1C, 0xFD, 0x10, 0x00, 0xF8, 0xF8, 0xF5, 0x0B,
  0x0A, 0x11, 0x06, 0xFF, 0xF3, 0xEF, 0xF3, 0x12, 0xEA, 0x02,
  0x35, 0xF0, 0x09, 0xF7, 0x04, 0x0E, 0xBD, 0x1F, 0x14, 0xF9,
  0xE4, 0xF1, 0xEF, 0x08, 0xFE, 0x01, 0xFB, 0xC8, 0x07, 0xCA,
  0x00, 0xFE, 0x01, 0xF9, 0x02, 0xD0, 0x06, 0xDC, 0x02, 0xF5,
  0xF5, 0x0B, 0x0A, 0xDD, 0xF7, 0x00, 0x09, 0x03, 0x14, 0x00,
  0x14, 0x01, 0x01, 0x04, 0xFB, 0x05, 0x0B, 0x0B, 0x07, 0xE8,
  0xF7, 0xFD, 0x01, 0x01, 0xF9, 0x01, 0xF9, 0xFC, 0x01, 0x04,
  0xE7, 0xF3, 0xFF, 0xDC, 0xFE, 0xFC, 0x0D, 0xEE, 0xE9, 0x04,
  0xE8, 0xE0, 0xF4, 0xC9, 0xF0, 0x02, 0x00, 0xF0, 0xE2, 0xF8,
  0xF9, 0xE9, 0xEE, 0xDE, 0x0A, 0xDF, 0xD0, 0xFC, 0xEC, 0xE3,
  0xF6, 0xD4, 0xDF, 0xED, 0x04, 0xF2, 0x0A, 0xED, 0xEA, 0xDF,
  0xE9, 0xFC, 0x0B, 0x0D, 0x21, 0x0C, 0xFC, 0xEF, 0xE7, 0xFE,
  0xF9, 0xFF, 0x14, 0x20, 0x07, 0x0B, 0xC4, 0xDA, 0xFB, 0x01,
  0xE8, 0x19, 0x11, 0x18, 0xF0, 0xF6, 0xF0, 0xFF, 0x1B, 0x0A,
  0xEF, 0xE7, 0xE4, 0x04, 0xF2, 0x0B, 0x01, 0x0D, 0x03, 0xF5,
  0xE7, 0xFE, 0xCD, 0xFF, 0xFD, 0x15, 0x0B, 0xF1, 0xDC, 0x15,
  0xEB, 0x03, 0x13, 0x0E, 0xEC, 0xEE, 0xE9, 0x0E, 0x14, 0x12,
  0x36, 0xE9, 0xFD, 0xF3, 0xED, 0xFC, 0x0B, 0xFC, 0x21, 0x2A,
  0x0B, 0xD9, 0xD9, 0x18, 0xE9, 0x04, 0x0B, 0x22, 0xDB, 0xFC,
  0xF2, 0xF4, 0xDE, 0x1B, 0x06, 0x04, 0xEA, 0xFD, 0xFA, 0xFC,
  0xC0, 0x0A, 0x12, 0x09, 0xD7, 0xFA, 0xE9, 0xFA, 0xB7, 0x05,
  0x1A, 0x01, 0xF5, 0xEB, 0x07, 0xFA, 0xFF, 0x00, 0x02, 0x02,
  0xF8, 0xFD, 0xFC, 0xFD, 0xFC, 0xE1, 0x15, 0x0C, 0x06, 0x0E,
  0xE0, 0xF4, 0xFB, 0xFB, 0x02, 0xF8, 0xF1, 0xFB, 0xDE, 0xF2,
  0x01, 0x03, 0xED, 0xFB, 0x00, 0x02, 0xF8, 0xDF, 0xF3, 0xEA,
  0xFE, 0xF2, 0x02, 0xFB, 0xEE, 0xED, 0xEE, 0xF5, 0xEF, 0xDD,
  0xE0, 0xE6, 0xBF, 0xEE, 0xF2, 0xFE, 0xEF, 0xE0, 0xE5, 0xE0,
  0xD1, 0xF5, 0xFF, 0xFC, 0xE8, 0xFB, 0x08, 0x0E, 0xD2, 0x09,
  0x0A, 0xF1, 0xFD, 0xEB, 0xE7, 0x02, 0xE7, 0xFA, 0x1F, 0x10,
  0x0F, 0xF7, 0x20, 0x0F, 0x27, 0xFC, 0xEF, 0x00, 0x2C, 0x2A,
  0x15, 0xE9, 0xFE, 0xFC, 0xEF, 0x0D, 0x25, 0x22, 0x0B, 0xD4,
  0x01, 0xF4, 0xEA, 0xFE, 0x06, 0x00, 0x04, 0xE9, 0xF5, 0xFD,
  0xFC, 0x07, 0xEA, 0x08, 0x07, 0xFA, 0xD9, 0x06, 0xFA, 0x10,
  0x42, 0x18, 0x14, 0xF2, 0xC1, 0x28, 0xF6, 0xFD, 0x36, 0x0E,
  0x0C, 0x06, 0x02, 0x0E, 0x08, 0x01, 0x47, 0xFD, 0x0A, 0xE8,
  0xE0, 0xFF, 0xE4, 0x10, 0xE8, 0x0F, 0xE8, 0xE5, 0xEE, 0x02,
  0xD7, 0x14, 0xF4, 0x0D, 0x00, 0xE3, 0xE9, 0xFD, 0xCB, 0x00,
  0xFA, 0x07, 0xED, 0xF0, 0xF0, 0x0A, 0xFC, 0x04, 0xF9, 0x26,
  0x0B, 0xE8, 0xFC, 0x00, 0xE8, 0xF8, 0x01, 0x24, 0xF8, 0xF9,
  0xE2, 0xFF, 0xFA, 0x0D, 0x02, 0x07, 0x02, 0xFB, 0x0B, 0x02,
  0xFE, 0xFD, 0x00, 0x03, 0xF8, 0xEC, 0xF2, 0x01, 0xF5, 0x11,
  0x08, 0xFF, 0xF8, 0xDD, 0x08, 0xE6, 0x13, 0xFD, 0x06, 0x01,
  0xF9, 0xFD, 0x01, 0xE7, 0xED, 0xEF, 0xEE, 0xF2, 0xF1, 0xFA,
  0xEA, 0xED, 0xF4, 0xE6, 0xEC, 0xDE, 0xEF, 0xFC, 0xDC, 0xFA,
  0xFF, 0xD6, 0xED, 0xCC, 0xD5, 0xC8, 0xF6, 0xE9, 0xF0, 0xEC,
  0xFB, 0xEC, 0x02, 0xFC, 0xF4, 0xF8, 0x0C, 0xD5, 0xEE, 0xC5,
  0xD8, 0xCD, 0xF5, 0x0F, 0x19, 0x0F, 0xFC, 0xEB, 0x08, 0xF8,
  0x11, 0xF4, 0x11, 0x11, 0xDE, 0xF3, 0x07, 0xFF, 0x28, 0xDB,
  0x1C, 0xFD, 0xFB, 0x22, 0x24, 0x15, 0x19, 0x00, 0xE7, 0x09,
  0x1C, 0x21, 0x0B, 0xFB, 0xDD, 0xED, 0xFC, 0x22, 0xFF, 0xFA,
  0xFE, 0xFF, 0xDD, 0xE5, 0xE4, 0x15, 0x13, 0x18, 0x0B, 0x02,
  0xD8, 0x03, 0xF0, 0x02, 0x08, 0x3B, 0xFB, 0x08, 0xED, 0x12,
  0x08, 0xF0, 0x22, 0x16, 0x26, 0xFE, 0xE0, 0x0A, 0xF6, 0x09,
  0x0D, 0xFF, 0x0A, 0xF9, 0x09, 0x11, 0xEE, 0x16, 0x05, 0xFC,
  0x15, 0xF3, 0xF1, 0xFD, 0x02, 0x11, 0x0B, 0xFE, 0x0C, 0x07,
  0x09, 0x19, 0xE0, 0x03, 0xF7, 0x06, 0x0D, 0xF8, 0x09, 0x08,
  0xFE, 0xF7, 0xFA, 0xE9, 0x0D, 0xEC, 0xFE, 0x00, 0x18, 0x12,
  0xFD, 0x09, 0x13, 0xEA, 0x17, 0x10, 0x0E, 0x0D, 0x0B, 0x06,
  0x07, 0xFB, 0x05, 0xFC, 0x0B, 0x0E, 0x0E, 0x0E, 0x00, 0xE0,
  0x07, 0xF3, 0xE6, 0x11, 0x05, 0x03, 0xF3, 0xFD, 0x0C, 0x02,
  0xE5, 0xF4, 0xE9, 0x11, 0xE9, 0xEC, 0x01, 0xE9, 0xE1, 0xE9,
  0x00, 0xE0, 0xF3, 0xE3, 0xD1, 0xDB, 0x03, 0xE0, 0xFB, 0xE4,
  0xF2, 0xBC, 0xF2, 0xF1, 0xE0, 0x01, 0x26, 0xF8, 0xEE, 0xC7,
  0xEB, 0xCF, 0x18, 0xEC, 0xF1, 0xD9, 0xE2, 0xCA, 0xE6, 0x11,
  0x13, 0xF9, 0x15, 0xEB, 0x12, 0x1F, 0xE7, 0xEC, 0x0D, 0x01,
  0xE4, 0xDD, 0xFE, 0xEA, 0x09, 0x01, 0x2C, 0x09, 0xBE, 0xDE,
  0x08, 0x10, 0xF1, 0xE4, 0x0A, 0xFE, 0x27, 0x0C, 0x08, 0x01,
  0xEB, 0xF4, 0xF7, 0x09, 0x18, 0x05, 0x15, 0x00, 0xE9, 0xF1,
  0x08, 0x0E, 0x0B, 0x0E, 0x0D, 0x0A, 0xFA, 0xF5, 0xED, 0x14,
  0xF4, 0xFF, 0x06, 0x00, 0xF5, 0x0B, 0xE4, 0x0C, 0xF6, 0xF1,
  0x11, 0x02, 0xCA, 0x02, 0x0B, 0x13, 0x20, 0xF8, 0x10, 0x0E,
  0xEE, 0x1A, 0xF9, 0x0A, 0x05, 0x0D, 0x22, 0x02, 0x0A, 0x21,
  0xE1, 0xFC, 0x1C, 0xF1, 0x0C, 0x07, 0x10, 0x0B, 0x06, 0x18,
  0xF5, 0xF2, 0x0F, 0xFB, 0xDC, 0xE8, 0xF4, 0xFE, 0x11, 0xEE,
  0x0D, 0xFD, 0x03, 0xEC, 0xE7, 0xFE, 0xFD, 0x1D, 0xF9, 0x18,
  0x06, 0xF8, 0x1C, 0xFE, 0x0C, 0x10, 0x12, 0xEC, 0x01, 0xF1,
  0xE2, 0xF4, 0x12, 0x05, 0xF9, 0xF0, 0x01, 0x01, 0xDD, 0x01,
  0xF5, 0x04, 0xF3, 0xEB, 0x05, 0x0C, 0xDA, 0xF6, 0xEA, 0x19,
  0xF7, 0x00, 0xF2, 0xEB, 0xF9, 0xED, 0xF4, 0xE1, 0xF1, 0xDC,
  0xDC, 0xDF, 0x00, 0xF8, 0x02, 0xEF, 0xF8, 0xB1, 0xE2, 0xF6,
  0xF2, 0xFE, 0x19, 0x00, 0xF9, 0x05, 0xEE, 0xFA, 0xE6, 0xEC,
  0xEE, 0x08, 0x04, 0x03, 0xED, 0x02, 0x0D, 0xEA, 0x34, 0xF2,
  0xFA, 0xF6, 0xFF, 0xFC, 0x06, 0xED, 0xED, 0xD9, 0xF1, 0xEF,
  0xF4, 0x0D, 0x06, 0xFA, 0x10, 0xE1, 0x0F, 0x05, 0x05, 0xF4,
  0x14, 0xFC, 0x39, 0xF3, 0x0F, 0x1D, 0xF5, 0xE4, 0x12, 0x05,
  0x1A, 0x08, 0x08, 0x1A, 0xF2, 0xF4, 0xFD, 0x03, 0xC9, 0x0E,
  0x0F, 0x10, 0xFB, 0xF1, 0xF9, 0x11, 0xED, 0xF7, 0x0E, 0x11,
  0x05, 0x0B, 0x07, 0x02, 0x14, 0xF4, 0x14, 0xF3, 0xFA, 0x1C,
  0xF0, 0x0C, 0x1A, 0xD7, 0xFF, 0x05, 0xF2, 0x1D, 0x01, 0x0C,
  0x23, 0xF9, 0x1A, 0x05, 0xF7, 0x10, 0xEA, 0x0F, 0x15, 0xFF,
  0xF3, 0x03, 0xFD, 0xE7, 0x12, 0x09, 0x01, 0xE7, 0xF8, 0x0C,
  0xF7, 0xEA, 0xFF, 0xF5, 0x07, 0x00, 0xF3, 0xF9, 0x08, 0xF9,
  0xFF, 0xF2, 0xFB, 0x06, 0x00, 0x08, 0x0A, 0xFE, 0x0D, 0xEF,
  0x01, 0xFE, 0xF6, 0xE7, 0x0D, 0xF7, 0xED, 0xF5, 0x04, 0xFE,
  0xF7, 0xF9, 0x03, 0xFD, 0xE3, 0xF6, 0x01, 0x16, 0x04, 0xFA,
  0xE9, 0x04, 0x00, 0xF9, 0xF7, 0x04, 0xE7, 0x00, 0x00, 0xE3,
  0xFA, 0xE4, 0xEE, 0x0D, 0xFA, 0x03, 0xCB, 0xF1, 0xEC, 0xEA,
  0xF2, 0xFB, 0xFC, 0xF2, 0xE3, 0xF2, 0xED, 0x04, 0xDF, 0xFE,
  0xFE, 0x1A, 0xF0, 0xE8, 0x05, 0xFD, 0xF5, 0xFE, 0xF4, 0xE0,
  0xED, 0xF6, 0x09, 0xFC, 0x50, 0xFC, 0x00, 0xFD, 0xD8, 0xF1,
  0x14, 0xF8, 0xD1, 0xFB, 0xF6, 0xF8, 0xC8, 0x08, 0xF1, 0xFE,
  0x06, 0xE4, 0xF4, 0xF1, 0x1B, 0x01, 0x13, 0xF4, 0x1C, 0xE3,
  0x04, 0xE7, 0x01, 0xF3, 0xE8, 0x01, 0xF5, 0x0F, 0x0F, 0xF0,
  0xCA, 0xF0, 0xFB, 0xF0, 0xEB, 0xF8, 0xFF, 0x09, 0xBA, 0xF0,
  0xE9, 0xED, 0xEE, 0xF2, 0x0A, 0x08, 0xDD, 0x1B, 0xED, 0xFC,
  0x07, 0xF4, 0x0B, 0xF9, 0x03, 0x15, 0x08, 0x0A, 0x16, 0xC8,
  0x02, 0xE8, 0xE7, 0x21, 0xC2, 0x0D, 0x27, 0xFC, 0x05, 0xFC,
  0xF0, 0xF5, 0xC0, 0x16, 0x0F, 0xFE, 0x08, 0xFE, 0xDA, 0xF3,
  0xEB, 0x0A, 0x0A, 0x05, 0xF3, 0xFE, 0x0C, 0xE8, 0xFD, 0xD7,
  0x10, 0xF3, 0xE8, 0x00, 0xFA, 0x05, 0x09, 0xF1, 0xF8, 0x07,
  0xFC, 0xF5, 0x03, 0xEF, 0xF0, 0xE5, 0xFC, 0xF7, 0xF5, 0xFF,
  0x1B, 0xF8, 0x02, 0xF8, 0x03, 0x0F, 0x08, 0x03, 0x08, 0xFC,
  0xF3, 0xFE, 0x05, 0x14, 0x09, 0xF7, 0xF4, 0x11, 0x14, 0x0D,
  0xE2, 0xF2, 0xF3, 0x06, 0xF3, 0xF7, 0xF9, 0xF0, 0xF7, 0x02,
  0x0C, 0x00, 0x04, 0xE5, 0xF1, 0xF7, 0x0E, 0xFD, 0xF4, 0xED,
  0xCD, 0x02, 0x0B, 0xFA, 0xE6, 0x0F, 0x17, 0x32, 0xF9, 0xF2,
  0x15, 0xF9, 0xFD, 0xF7, 0xEB, 0xF3, 0x0B, 0x03, 0x18, 0x06,
  0x0E, 0xEC, 0x02, 0x26, 0x1A, 0x0A, 0xEF, 0xFC, 0x32, 0x08,
  0xE6, 0xF7, 0xF6, 0xF0, 0xDD, 0xED, 0x21, 0xFB, 0xF0, 0xF7,
  0xF6, 0xF8, 0x0A, 0xE3, 0x11, 0xF0, 0xE8, 0xF0, 0xE9, 0xE8,
  0xF5, 0x0C, 0xFA, 0x24, 0x23, 0x05, 0xC6, 0xFE, 0xEF, 0x0E,
  0x07, 0x0D, 0x04, 0xF9, 0xE4, 0x0D, 0x0B, 0xF7, 0xF2, 0xED,
  0xEC, 0x0A, 0xC9, 0x1A, 0xF6, 0x07, 0xE3, 0xF9, 0x02, 0x07,
  0xCD, 0x15, 0xCE, 0x02, 0x12, 0xFC, 0x0F, 0xE6, 0xED, 0xFB,
  0xBF, 0xFB, 0xFF, 0xF5, 0xFA, 0xF6, 0xF5, 0xF1, 0xEA, 0x16,
  0x15, 0xFA, 0xF1, 0xF2, 0xE2, 0x0A, 0xF7, 0x04, 0x10, 0x00,
  0xFA, 0x03, 0xF9, 0xFB, 0x15, 0xEE, 0x0B, 0x0E, 0xF6, 0xFF,
  0x13, 0xF0, 0x17, 0xED, 0x0F, 0x11, 0xF9, 0x05, 0x08, 0x00,
  0x14, 0xF9, 0x0D, 0xFF, 0x0C, 0x06, 0xFE, 0x05, 0x07, 0xF9,
  0xFC, 0x02, 0x0C, 0xE8, 0xF9, 0xFA, 0xDC, 0x00, 0xFD, 0x0E,
  0xFE, 0xFF, 0xF4, 0x00, 0x1E, 0x12, 0xED, 0xE9, 0xEA, 0x0F,
  0xF6, 0x00, 0xFE, 0x03, 0xF7, 0x01, 0xF9, 0x08, 0xE9, 0xFA,
  0xF1, 0xF1, 0x0E, 0xF6, 0x14, 0x19, 0xF4, 0xF3, 0x00, 0x00,
  0x08, 0x02, 0xF3, 0xFC, 0x04, 0x0A, 0xED, 0xE7, 0x1D, 0x07,
  0x03, 0x00, 0x06, 0x11, 0x0E, 0xFD, 0x17, 0xFE, 0xD8, 0xFB,
  0x09, 0xE6, 0xFA, 0x04, 0xE4, 0x0F, 0x00, 0xF3, 0x10, 0x03,
  0xF6, 0xF8, 0x38, 0x12, 0xF7, 0xFB, 0xE8, 0xE0, 0x06, 0xF9,
  0xDF, 0xFD, 0xEE, 0xF7, 0xDF, 0x02, 0x03, 0xEF, 0x0E, 0x0D,
  0xF8, 0xDC, 0xD4, 0xFE, 0xE3, 0x16, 0xF8, 0xE8, 0x0E, 0xF4,
  0xCF, 0x02, 0xF5, 0x04, 0xDF, 0xEC, 0xF2, 0x02, 0x03, 0x1E,
  0xF7, 0xFF, 0xF8, 0xEE, 0x09, 0xE1, 0xBB, 0x13, 0xD7, 0x0F,
  0x08, 0xF5, 0x11, 0xF2, 0xE4, 0xF6, 0xF0, 0x09, 0x23, 0xE6,
  0xFC, 0xE6, 0xDF, 0x0A, 0xCC, 0x0C, 0x17, 0x14, 0xF1, 0xF0,
  0xF3, 0xF7, 0x02, 0xF4, 0xFF, 0x04, 0xED, 0xFE, 0x0E, 0x07,
  0xF6, 0x00, 0x05, 0xFC, 0xE8, 0x08, 0xF5, 0x08, 0xF5, 0xFD,
  0xFC, 0x0E, 0x08, 0x12, 0x11, 0x0B, 0xF1, 0xF3, 0x08, 0x04,
  0xED, 0x09, 0x0A, 0x0E, 0xE6, 0xFB, 0xFE, 0xFD, 0x06, 0x00,
  0xFA, 0xF7, 0xE2, 0x0A, 0xF2, 0xEF, 0xEE, 0xDF, 0x09, 0x0A,
  0x10, 0xFA, 0xF2, 0xF2, 0xE8, 0xDF, 0x06, 0x0F, 0xF7, 0xF7,
  0xF5, 0x00, 0xFE, 0xFE, 0x17, 0xFE, 0xF1, 0xF1, 0x25, 0x08,
  0x0B, 0x08, 0x10, 0xF9, 0x13, 0xEF, 0x0D, 0xF2, 0xDE, 0xE5,
  0xFD, 0xFE, 0xD8, 0xFE, 0x13, 0x07, 0x12, 0xF4, 0x01, 0xF0,
  0xE1, 0x06, 0x0D, 0xFF, 0xFD, 0xEF, 0x0B, 0xDF, 0xF6, 0xF4,
  0x0E, 0xFE, 0xFD, 0x07, 0x01, 0xF3, 0xCE, 0x0A, 0x09, 0x1E,
  0x01, 0x17, 0xCA, 0xED, 0xD1, 0x0F, 0x11, 0x28, 0x0A, 0xD8,
  0xDB, 0xF5, 0xE1, 0x04, 0x19, 0x08, 0xD4, 0xE1, 0xC4, 0x07,
  0xED, 0x03, 0xFA, 0xE9, 0xED, 0xEF, 0xBE, 0x18, 0xF7, 0x00,
  0x01, 0xF8, 0x12, 0xE9, 0xD2, 0x18, 0xEB, 0xFA, 0x01, 0xF7,
  0x04, 0xF9, 0xDD, 0x12, 0xC4, 0xFF, 0x02, 0xFF, 0x11, 0xFA,
  0xAC, 0x01, 0xCF, 0x1B, 0x27, 0xEF, 0xE5, 0xDF, 0xF5, 0xFE,
  0xE7, 0x00, 0x11, 0x17, 0xFC, 0xDC, 0x04, 0xFF, 0x07, 0x14,
  0x15, 0x10, 0xF8, 0x03, 0x06, 0x02, 0xEE, 0xEC, 0x04, 0x00,
  0xEF, 0xF7, 0xF7, 0xF2, 0x0F, 0x01, 0xF8, 0xF9, 0xF5, 0x12,
  0xF2, 0xFA, 0xDB, 0xF8, 0xFC, 0xFE, 0x00, 0xF2, 0xEE, 0xF0,
  0x0D, 0xF0, 0x00, 0xFB, 0xFE, 0x13, 0x02, 0xF6, 0x06, 0xFA,
  0x0B, 0x0B, 0xFA, 0x00, 0xFE, 0xF3, 0x10, 0xF8, 0xF1, 0x06,
  0x08, 0xFA, 0x0A, 0xF3, 0xFF, 0xF0, 0xF9, 0xE6, 0xF4, 0xF2,
  0x11, 0xE9, 0xF0, 0xFD, 0xF2, 0x0B, 0x10, 0x11, 0xD5, 0x02,
  0xFF, 0xF5, 0xF9, 0xFA, 0xDF, 0xF9, 0xF8, 0x0A, 0xFB, 0xF0,
  0x0B, 0x03, 0x0E, 0x1E, 0xF7, 0xDD, 0xFD, 0xF2, 0xEF, 0x12,
  0xE3, 0xE6, 0xFC, 0xE3, 0xBD, 0xFE, 0x04, 0x15, 0xFC, 0x0E,
  0x0C, 0xF0, 0xD0, 0x17, 0xC9, 0x19, 0xE8, 0x0F, 0xF6, 0xED,
  0xE5, 0xFB, 0x05, 0x07, 0xFF, 0x01, 0xF0, 0xF6, 0xF1, 0x11,
  0x09, 0x1E, 0xCD, 0xFB, 0xEF, 0x08, 0x0C, 0x07, 0x2D, 0xFB,
  0xFB, 0xE2, 0x06, 0x12, 0x0C, 0x03, 0xD8, 0x14, 0x22, 0xF9,
  0xF0, 0xFD, 0xD3, 0x00, 0x0A, 0xFA, 0x03, 0xF5, 0xD6, 0x05,
  0xD5, 0xFC, 0x2C, 0xFE, 0x02, 0xE9, 0xFC, 0xF4, 0xF0, 0x0F,
  0x0F, 0x00, 0x03, 0xED, 0x11, 0x0A, 0xEC, 0xFC, 0x0C, 0x09,
  0x00, 0xF1, 0x1C, 0x01, 0x03, 0x0B, 0xF9, 0xFF, 0x0C, 0xEE,
  0x0E, 0x10, 0xFD, 0xF1, 0x06, 0xF8, 0xF9, 0xF1, 0x08, 0x08,
  0x19, 0xFA, 0x07, 0xF4, 0xF5, 0xF6, 0x08, 0xF3, 0xD7, 0xE8,
  0xF3, 0xF5, 0xFC, 0xF4, 0xFC, 0x0B, 0x2D, 0xE1, 0xF5, 0xFD,
  0xFA, 0x0D, 0x04, 0x08, 0x0A, 0xF5, 0xF1, 0x0A, 0x0E, 0xFD,
  0xF5, 0xFF, 0xED, 0x12, 0xE5, 0xF9, 0x11, 0xFD, 0xE9, 0xED,
  0x15, 0xEE, 0xE7, 0xD0, 0xE2, 0x13, 0x03, 0x06, 0xF9, 0x05,
  0x01, 0x06, 0x03, 0x1D, 0xF2, 0xF6, 0x0A, 0xDB, 0x0E, 0xFA,
  0xD8, 0xF7, 0xE5, 0x0C, 0xFF, 0xFB, 0xF3, 0xFE, 0xD6, 0xE5,
  0xF2, 0xEE, 0x00, 0xF9, 0xDD, 0xFC, 0x15, 0xEC, 0xF8, 0xEC,
  0xED, 0xF5, 0xEF, 0x03, 0xF6, 0x05, 0x08, 0xF3, 0xC7, 0x04,
  0xA1, 0xD9, 0xE5, 0x13, 0x06, 0xED, 0xD6, 0x04, 0xF5, 0xF2,
  0xF4, 0xFE, 0x23, 0x0D, 0xFC, 0x09, 0x0C, 0xDF, 0xBC, 0xF0,
  0x30, 0x05, 0x1D, 0x0D, 0x2A, 0xF7, 0x0B, 0x00, 0x07, 0x14,
  0x03, 0x09, 0x03, 0x0B, 0x1C, 0x04, 0xC5, 0x11, 0xDC, 0xFF,
  0x23, 0xFC, 0x0A, 0xEA, 0xB9, 0xF0, 0xE4, 0x00, 0x16, 0xF3,
  0xF8, 0xF0, 0x14, 0xDA, 0xDF, 0x00, 0x0F, 0x09, 0xFA, 0x03,
  0x19, 0xE5, 0xD6, 0xEC, 0xFF, 0x05, 0x03, 0xF0, 0x0A, 0xF5,
  0xF5, 0xE3, 0xEC, 0xFD, 0x09, 0xF9, 0x04, 0xF2, 0xE2, 0xED,
  0xF9, 0xF0, 0xFA, 0x20, 0x02, 0xE1, 0xFA, 0xF0, 0x07, 0xF3,
  0xFF, 0xFA, 0x09, 0x02, 0xF7, 0x07, 0x09, 0xFE, 0xEF, 0xF5,
  0xFE, 0x03, 0x12, 0xFF, 0xEB, 0xED, 0xF5, 0xF6, 0x07, 0x01,
  0xDE, 0xFB, 0xD3, 0xEC, 0xF5, 0x01, 0xEF, 0x1C, 0xF1, 0xFF,
  0xDA, 0xCE, 0x02, 0xFD, 0xE6, 0xF2, 0x07, 0xF4, 0xEC, 0xF8,
  0xF2, 0xD7, 0xEA, 0x01, 0x0A, 0xF7, 0xF9, 0xFB, 0x0A, 0x11,
  0x21, 0xE4, 0xF9, 0xF6, 0x0C, 0x0F, 0xFC, 0xF8, 0x2D, 0xDF,
  0xEF, 0x04, 0xDD, 0x05, 0x03, 0xFA, 0x2B, 0x05, 0xEE, 0xFD,
  0xFD, 0xFD, 0xFC, 0xF7, 0x03, 0xFC, 0xEC, 0xF7, 0xFB, 0xF8,
  0xD5, 0x0D, 0x03, 0xF1, 0xE7, 0xFD, 0xD9, 0xD2, 0xEF, 0xFF,
  0x0F, 0x03, 0xEA, 0xFB, 0x02, 0xEB, 0x02, 0xFE, 0x21, 0x02,
  0x02, 0x0B, 0xFF, 0xE6, 0xF0, 0x0C, 0x2D, 0x06, 0x19, 0x06,
  0xEC, 0xF0, 0x10, 0x0B, 0x1B, 0x14, 0xF8, 0x01, 0x0A, 0xCA,
  0x1D, 0x02, 0xE8, 0x00, 0xF4, 0x01, 0x26, 0xDC, 0x12, 0xF5,
  0x0B, 0xF3, 0xF4, 0xF9, 0x12, 0xEA, 0x0D, 0xF1, 0x0A, 0xE5,
  0xE0, 0xFC, 0x0B, 0x0E, 0x07, 0x0B, 0x0C, 0xF6, 0xFB, 0xF3,
  0x00, 0x09, 0x17, 0xFE, 0x09, 0xE1, 0x2F, 0xE7, 0xF9, 0xED,
  0xF9, 0x0A, 0xEF, 0xE4, 0x00, 0xF7, 0xEE, 0xF1, 0xEA, 0x01,
  0x04, 0xFE, 0xF5, 0xE8, 0x01, 0xE6, 0xF3, 0xF9, 0xF7, 0x04,
  0xE3, 0x10, 0xF3, 0x06, 0x02, 0x10, 0xFE, 0x00, 0x04, 0x04,
  0xE4, 0x0B, 0x08, 0x02, 0xFD, 0x0F, 0xF6, 0xFB, 0xEA, 0x0A,
  0xFC, 0xF0, 0xDE, 0x07, 0x08, 0x03, 0xE7, 0xE2, 0xE9, 0x07,
  0x0D, 0xDC, 0x00, 0xFB, 0x18, 0x1B, 0xFD, 0xF1, 0x05, 0xFA,
  0xFD, 0xEE, 0x11, 0x0A, 0xFD, 0xD6, 0x1F, 0xF2, 0xE0, 0x01,
  0x27, 0x1C, 0x01, 0x05, 0x07, 0xEB, 0xF7, 0xF7, 0xF2, 0xF7,
  0xED, 0x08, 0x00, 0xF0, 0xE8, 0x05, 0x3F, 0xFF, 0xFA, 0xF1,
  0xDD, 0xE7, 0xEB, 0x0F, 0xFE, 0x16, 0xE8, 0x02, 0xE4, 0xF9,
  0xFC, 0x0F, 0xDC, 0xF5, 0xF2, 0xF2, 0xE0, 0x02, 0x01, 0xF4,
  0xF5, 0xD6, 0x1B, 0x0E, 0x12, 0xFE, 0x0A, 0xFA, 0xFF, 0xDE,
  0x0D, 0xF9, 0x0C, 0xF9, 0x0A, 0x06, 0x1C, 0xF1, 0x07, 0x03,
  0xE6, 0x10, 0x05, 0x08, 0x0D, 0xEB, 0x0B, 0xFC, 0xDC, 0x12,
  0x06, 0x04, 0x2D, 0xEE, 0x1A, 0x08, 0xFC, 0xF5, 0xF7, 0x00,
  0x11, 0xEB, 0x1E, 0x0A, 0xF1, 0xF4, 0xF5, 0xF2, 0x00, 0x0C,
  0x14, 0x21, 0xF7, 0x04, 0x09, 0xF1, 0xFF, 0x12, 0x0E, 0x18,
  0xF9, 0xDA, 0x28, 0x09, 0xE8, 0xFD, 0x09, 0x1F, 0x00, 0xFD,
  0xFC, 0x0A, 0xEB, 0x0A, 0xF4, 0x16, 0x10, 0x14, 0xFA, 0xE1,
  0x02, 0xE8, 0xE7, 0x11, 0x03, 0x0E, 0xF6, 0xFD, 0xEE, 0x09,
  0xFD, 0x19, 0x10, 0xF1, 0xCF, 0x0F, 0x0A, 0xFD, 0x0B, 0x26,
  0xF0, 0xF7, 0xD2, 0x0C, 0xF8, 0x01, 0xF8, 0xEF, 0xF2, 0x01,
  0x27, 0x18, 0x0C, 0xE8, 0xDD, 0xF6, 0xF0, 0x00, 0x02, 0x0D,
  0xEB, 0x0D, 0x15, 0x0D, 0x23, 0xD7, 0x08, 0x07, 0xF7, 0x23,
  0x0B, 0xFF, 0xEE, 0xE7, 0xE6, 0x0F, 0xF4, 0x1B, 0x0B, 0x2A,
  0xCF, 0xEA, 0x01, 0x02, 0xF0, 0xFE, 0xF2, 0x00, 0xD8, 0xEA,
  0xFD, 0x04, 0x28, 0xF2, 0xF0, 0xFF, 0xE7, 0x09, 0xFB, 0x07,
  0x00, 0x15, 0xEB, 0xEE, 0xF9, 0xF2, 0xEE, 0xFE, 0x26, 0xFB,
  0x0C, 0x0D, 0xE6, 0x00, 0xEA, 0xF7, 0xDE, 0xFD, 0x0E, 0x0A,
  0x0D, 0x10, 0xFE, 0x12, 0x12, 0xF5, 0x03, 0xFD, 0xF6, 0x07,
  0x05, 0x0E, 0x12, 0xBC, 0xE8, 0x01, 0xF6, 0xF8, 0xFD, 0x09,
  0x11, 0xF6, 0xED, 0xFA, 0xE8, 0x0E, 0x0E, 0x07, 0x24, 0xD8,
  0x22, 0x02, 0x07, 0xE9, 0x29, 0xFD, 0x04, 0x06, 0x13, 0x11,
  0xFC, 0xFD, 0xEB, 0xFA, 0xF6, 0x20, 0x14, 0x14, 0xEF, 0xFF,
  0x1B, 0x07, 0xFE, 0x0A, 0x10, 0x1D, 0xEE, 0xF1, 0x0D, 0x16,
  0xE8, 0x14, 0x0B, 0x20, 0xF0, 0x02, 0x20, 0x12, 0x04, 0x09,
  0xED, 0x14, 0x0B, 0x0E, 0x18, 0x04, 0x0D, 0xF3, 0xE6, 0xF2,
  0xEE, 0x0D, 0x19, 0x16, 0xEB, 0xEB, 0x09, 0x04, 0xEA, 0xFE,
  0x0D, 0x0D, 0xF9, 0x00, 0xFE, 0x1B, 0xFB, 0xFF, 0xDB, 0xEC,
  0x07, 0xF7, 0xED, 0x09, 0xF1, 0x06, 0x12, 0x0D, 0x11, 0xFE,
  0xE6, 0xE5, 0xE0, 0x0D, 0x01, 0x03, 0xF5, 0x0C, 0x05, 0x19,
  0xF7, 0x00, 0x2C, 0x04, 0x00, 0x06, 0x1C, 0x1A, 0x02, 0x0B,
  0xEB, 0xFF, 0x12, 0xE6, 0x01, 0x02, 0x1A, 0x10, 0xF2, 0xF4,
  0x02, 0x08, 0xE3, 0x00, 0xD8, 0x04, 0x03, 0xF0, 0x10, 0xFE,
  0xF7, 0xFB, 0xD7, 0x07, 0x05, 0xF5, 0x01, 0xF9, 0xEF, 0x14,
  0xD5, 0xEB, 0xEB, 0x01, 0x22, 0x03, 0xE2, 0x01, 0x0C, 0x04,
  0xF9, 0xEF, 0xF7, 0x10, 0x01, 0xFE, 0x25, 0x09, 0xF0, 0x0B,
  0x18, 0x10, 0xE3, 0xF0, 0x0C, 0x02, 0x0A, 0x0A, 0x26, 0xD0,
  0xDB, 0xF6, 0x1D, 0x0C, 0x1A, 0x06, 0x24, 0x00, 0xEE, 0x01,
  0x0E, 0x12, 0x08, 0x03, 0x20, 0xF0, 0x05, 0xEE, 0x08, 0xFB,
  0x11, 0x05, 0x12, 0x06, 0xFA, 0x11, 0x00, 0x19, 0x33, 0x08,
  0x07, 0x03, 0x05, 0x0A, 0x0A, 0x02, 0x24, 0xFB, 0x09, 0x00,
  0x05, 0x05, 0x0B, 0xFE, 0x2A, 0x03, 0x0D, 0xFF, 0x01, 0x1A,
  0xDF, 0xFB, 0xFB, 0xFC, 0x00, 0x0C, 0xFE, 0x29, 0x06, 0x00,
  0x15, 0xFD, 0x02, 0x09, 0xE9, 0xFC, 0xE4, 0xFC, 0xFD, 0x16,
  0x0E, 0xE4, 0xF5, 0xF3, 0x08, 0xDD, 0xF3, 0xFE, 0xF2, 0x01,
  0xEF, 0xFE, 0xE7, 0xF4, 0xDA, 0xDA, 0xF8, 0xEC, 0xF3, 0x04,
  0x10, 0xFB, 0x00, 0xE6, 0x16, 0x02, 0xFE, 0xFA, 0xF1, 0x11,
  0x1E, 0x00, 0x00, 0xEA, 0x13, 0xE7, 0xDE, 0x0C, 0x00, 0x00,
  0xF5, 0xFA, 0xEB, 0x03, 0xE8, 0x03, 0x12, 0x06, 0x0B, 0xDE,
  0xF1, 0x04, 0x0C, 0x0E, 0x03, 0xFD, 0x16, 0xE8, 0x03, 0xE6,
  0xF6, 0xF8, 0x12, 0x0B, 0x11, 0x05, 0x19, 0x03, 0xEA, 0xFC,
  0x11, 0xFA, 0x12, 0xF0, 0xFC, 0xF8, 0xC0, 0x03, 0xEF, 0xFE,
  0x0C, 0xF6, 0xF5, 0x02, 0xCD, 0x13, 0x0E, 0x04, 0x04, 0xFE,
  0xEF, 0x02, 0x0B, 0x03, 0x07, 0xF2, 0x24, 0x1D, 0xE9, 0x06,
  0x2B, 0x0C, 0x09, 0x15, 0x1A, 0x0B, 0xE5, 0x0B, 0x17, 0x11,
  0x00, 0xEC, 0x14, 0x1C, 0xE2, 0x03, 0x04, 0x0A, 0x04, 0x05,
  0x00, 0x33, 0xFD, 0xF0, 0xDF, 0x0B, 0xF0, 0x22, 0x0C, 0x14,
  0x01, 0xFB, 0xFE, 0x03, 0x17, 0x0A, 0x12, 0xFE, 0xE3, 0xEB,
  0xFD, 0x12, 0x05, 0xF9, 0x0E, 0x03, 0xF0, 0xFB, 0x0F, 0xFF,
  0xE6, 0x04, 0x01, 0xF1, 0xF6, 0x06, 0xF8, 0x06, 0x27, 0x0A,
  0xFF, 0x0B, 0x0D, 0xF2, 0x19, 0xFB, 0x33, 0x0E, 0x0D, 0x0B,
  0xFF, 0x06, 0xE6, 0xF9, 0x0A, 0xFE, 0x20, 0xF1, 0xFD, 0xE9,
  0x19, 0x08, 0x08, 0x02, 0x0C, 0x13, 0x08, 0xE6, 0xF2, 0x0B,
  0xE3, 0xE1, 0xE6, 0xE1, 0xEA, 0xFF, 0x02, 0x0A, 0x06, 0xEE,
  0xFA, 0xF8, 0x1F, 0xC8, 0x16, 0xFB, 0xFF, 0x0E, 0xF3, 0xE3,
  0xE7, 0xF7, 0x26, 0xF6, 0x0C, 0xFE, 0xFA, 0x06, 0x12, 0x1C,
  0x0A, 0xF8, 0xEB, 0xFB, 0x07, 0x04, 0x02, 0xFA, 0xE7, 0x07,
  0x08, 0x03, 0xF7, 0x01, 0xFE, 0x08, 0x01, 0xE3, 0x11, 0xF9,
  0x13, 0x07, 0x00, 0x0B, 0xF5, 0xE4, 0xED, 0xF9, 0x08, 0xD8,
  0xD5, 0xBD, 0xFC, 0xFF, 0x0C, 0x01, 0x04, 0xDC, 0xE5, 0xEF,
  0x0E, 0xED, 0x1D, 0xF9, 0x26, 0xD3, 0x0B, 0xF2, 0x0E, 0xF3,
  0x15, 0x0A, 0x04, 0x36, 0xFF, 0x22, 0x1C, 0xEC, 0xFB, 0x0A,
  0x05, 0x15, 0xEB, 0x00, 0x21, 0x04, 0x17, 0xFC, 0x05, 0x16,
  0x06, 0x0B, 0xF7, 0x10, 0x0C, 0x0A, 0x1B, 0x1D, 0xFF, 0x02,
  0xE4, 0xF9, 0xEF, 0x19, 0x15, 0x0D, 0xF0, 0xFE, 0xEE, 0x06,
  0xDC, 0x0B, 0x0C, 0x0F, 0x10, 0xCB, 0x1B, 0x17, 0xD4, 0x08,
  0x11, 0x00, 0xF3, 0x08, 0x01, 0xFC, 0x06, 0x04, 0x10, 0x00,
  0xDA, 0xDE, 0x21, 0xF6, 0x1F, 0x07, 0xF9, 0x23, 0x08, 0xF6,
  0xF1, 0xED, 0xFB, 0x0A, 0xFE, 0xFE, 0x03, 0xEA, 0x10, 0xE1,
  0x1D, 0xF8, 0x06, 0x0F, 0x0A, 0xF7, 0x11, 0x14, 0x25, 0x0F,
  0xFA, 0x08, 0x12, 0xF8, 0xF5, 0x06, 0xE0, 0xE7, 0xE2, 0xF6,
  0xE3, 0xE6, 0x04, 0xF7, 0x16, 0xD9, 0xE7, 0xF5, 0x08, 0xF7,
  0x03, 0xF5, 0xFE, 0x06, 0x04, 0xFB, 0xF4, 0x08, 0x0D, 0xF9,
  0xC4, 0xEA, 0x02, 0xFA, 0xF9, 0xF3, 0x06, 0xF0, 0xEB, 0xF1,
  0xF4, 0x0F, 0xF1, 0x04, 0x06, 0xFA, 0xED, 0xF2, 0x02, 0xDE,
  0xEC, 0xFC, 0x09, 0x03, 0x0D, 0x05, 0x09, 0xD4, 0xFB, 0xD8,
  0x1E, 0xF2, 0x12, 0x08, 0x0E, 0x06, 0xFB, 0x0A, 0x11, 0xF5,
  0x11, 0x14, 0xFF, 0xEA, 0x00, 0xD9, 0x1C, 0xFD, 0x0F, 0x07,
  0x0A, 0xF7, 0xFD, 0xF7, 0x23, 0xEE, 0x18, 0xF3, 0xF6, 0x12,
  0xF4, 0xF2, 0x0C, 0x05, 0x1E, 0x0A, 0xEE, 0x0A, 0x06, 0x05,
  0x21, 0xEF, 0x2C, 0x04, 0xFE, 0x06, 0x06, 0xF6, 0x06, 0xFE,
  0x28, 0xF9, 0x0A, 0xFA, 0x05, 0xE4, 0x04, 0xF7, 0x11, 0xFA,
  0x0E, 0x12, 0xFC, 0xDE, 0x0E, 0x0C, 0x15, 0x06, 0x04, 0x0A,
  0x0D, 0xE7, 0x13, 0xF6, 0x00, 0xFF, 0x1A, 0x16, 0x0B, 0xEF,
  0x10, 0xF0, 0x08, 0xFF, 0xFB, 0x0D, 0x0B, 0xEF, 0x05, 0x02,
  0x23, 0xF9, 0xF5, 0x0F, 0x18, 0xFA, 0xFF, 0xD9, 0xFD, 0xF8,
  0xFF, 0xF8, 0xF4, 0xF6, 0x20, 0xE4, 0xE9, 0xFE, 0x07, 0x0E,
  0x01, 0xFA, 0xFD, 0x07, 0x15, 0xFB, 0xF3, 0xF2, 0x17, 0x22,
  0xF0, 0x0F, 0x19, 0xFC, 0xD9, 0xF6, 0xE8, 0xFD, 0xEB, 0x0C,
  0x1F, 0xFA, 0xDA, 0xDC, 0xFF, 0x01, 0xE4, 0x00, 0x12, 0xFC,
  0xFC, 0x0C, 0x01, 0x0B, 0xEB, 0xEC, 0xFD, 0xF0, 0x05, 0x01,
  0x03, 0xE4, 0xEB, 0xE9, 0xE4, 0xE7, 0xFB, 0x0C, 0xEB, 0x10,
  0xF6, 0xEC, 0xE8, 0xE4, 0xF3, 0x05, 0xF2, 0xEF, 0x12, 0x00,
  0xEA, 0xF8, 0xFC, 0xFC, 0xE3, 0xDE, 0x22, 0x04, 0xFF, 0xF3,
  0xFF, 0xF2, 0xF7, 0x27, 0x1D, 0xF7, 0xEB, 0x07, 0xFB, 0xF5,
  0xF1, 0xDD, 0x0A, 0xF6, 0x22, 0xE0, 0x05, 0x0C, 0xF7, 0x18,
  0xF9, 0xE9, 0x12, 0xF6, 0xEA, 0xFF, 0xFE, 0x04, 0x0B, 0xF9,
  0x12, 0xEF, 0xDC, 0xE0, 0xF2, 0xFC, 0x24, 0xFA, 0xFD, 0x09,
  0x10, 0xEF, 0x04, 0x1E, 0x01, 0xF8, 0x20, 0x04, 0xF5, 0x07,
  0xF8, 0xFB, 0xE3, 0xF6, 0x22, 0x06, 0xEB, 0xFC, 0xF8, 0xFC,
  0x23, 0x0D, 0x10, 0xFF, 0x0C, 0x10, 0x0C, 0xF9, 0x0D, 0x05,
  0x12, 0xFE, 0x1A, 0x1F, 0x15, 0x14, 0xF8, 0xF6, 0x21, 0xEA,
  0x04, 0x0D, 0x12, 0xF8, 0xD5, 0xF4, 0x10, 0xF4, 0xFF, 0xEC,
  0xF9, 0x34, 0x11, 0xF5, 0xE3, 0xE1, 0xF5, 0xFB, 0x08, 0xE8,
  0x04, 0xFB, 0xD7, 0x0A, 0x09, 0x0C, 0x02, 0x1C, 0xEA, 0xF3,
  0x0E, 0xF0, 0xF8, 0xF2, 0xF6, 0x1A, 0xE1, 0xF6, 0x0E, 0xF0,
  0xE5, 0xEC, 0xD1, 0xFB, 0xDF, 0xFA, 0xF9, 0xED, 0xE3, 0xD7,
  0xE2, 0x07, 0x02, 0x03, 0xE6, 0x06, 0xF7, 0xFB, 0x04, 0xF7,
  0x09, 0x01, 0xE2, 0x05, 0x19, 0x16, 0x0D, 0xF9, 0xEF, 0xEA,
  0x0B, 0x0C, 0x1B, 0x16, 0x0C, 0xFF, 0x04, 0xFB, 0x20, 0x11,
  0x17, 0x2C, 0x0B, 0xFE, 0xE5, 0x06, 0x08, 0x19, 0x3D, 0x06,
  0x09, 0x05, 0x0D, 0xF9, 0x17, 0x0A, 0x1A, 0x1E, 0x10, 0x01,
  0x1B, 0xF8, 0x1E, 0xF5, 0x1A, 0x17, 0xFA, 0x18, 0x1F, 0x07,
  0x24, 0x04, 0xD4, 0x08, 0x05, 0x27, 0x2F, 0x07, 0x0A, 0x1B,
  0xF0, 0x0A, 0xFB, 0x0D, 0x19, 0xFA, 0x0C, 0x19, 0x11, 0x15,
  0x09, 0x26, 0x14, 0x1C, 0x22, 0xFC, 0x16, 0x14, 0x08, 0x22,
  0x20, 0x17, 0xFE, 0x16, 0xE3, 0x10, 0x0F, 0x00, 0x26, 0x13,
  0xE7, 0x0B, 0x04, 0xFF, 0x05, 0x11, 0x0D, 0x1B, 0xE4, 0xFF,
  0xF6, 0x18, 0xFF, 0x1E, 0xFB, 0x07, 0xD9, 0x06, 0xF9, 0x19,
  0x06, 0x04, 0xFB, 0xFD, 0xE4, 0x0B, 0x05, 0x12, 0x05, 0x01,
  0x00, 0xE2, 0xE0, 0xE9, 0xFB, 0x10, 0x08, 0x12, 0xF4, 0xF1,
  0xFF, 0xE3, 0x1B, 0xFD, 0xE5, 0xF4, 0x15, 0x06, 0xDC, 0xE1,
  0x03, 0xEB, 0xFD, 0x08, 0x22, 0x03, 0xD1, 0xEF, 0x09, 0x03,
  0xF0, 0x1F, 0x09, 0x0F, 0x14, 0x0E, 0xFA, 0xFC, 0xFD, 0xFC,
  0x01, 0x19, 0x07, 0x20, 0x03, 0x15, 0xFC, 0x11, 0xF5, 0xF7,
  0xEB, 0x06, 0xF0, 0x0B, 0xFE, 0xF7, 0xE1, 0x05, 0xF8, 0x01,
  0x26, 0xF7, 0x01, 0xFA, 0xF8, 0x11, 0x19, 0xF9, 0x08, 0x05,
  0xF8, 0x02, 0x04, 0xE2, 0xFF, 0x1D, 0x18, 0x3D, 0x05, 0x08,
  0xF2, 0xE3, 0x18, 0x1B, 0x29, 0x33, 0x06, 0xFB, 0x02, 0x07,
  0xF2, 0xFD, 0x13, 0x16, 0x0D, 0xF2, 0xF3, 0x08, 0xF9, 0x1E,
  0x31, 0x0E, 0x11, 0xFE, 0x09, 0x07, 0xE1, 0x00, 0xF7, 0x02,
  0x01, 0x0A, 0x12, 0xFA, 0x14, 0xFB, 0xFC, 0x02, 0xE7, 0x05,
  0x17, 0x09, 0x09, 0xF8, 0xE2, 0xF8, 0xFE, 0x02, 0x07, 0x1E,
  0xE3, 0x07, 0x2A, 0x0C, 0x00, 0x1E, 0x0C, 0x28, 0x22, 0x12,
  0xDF, 0xFC, 0x00, 0x23, 0x08, 0x05, 0xFA, 0x01, 0x04, 0x04,
  0xFB, 0x13, 0x05, 0xFD, 0xF8, 0xFA, 0xED, 0x08, 0x14, 0x0B,
  0xFD, 0x05, 0xCF, 0x05, 0x06, 0xFC, 0x14, 0xF4, 0x08, 0x0A,
  0xD6, 0x11, 0xF9, 0x16, 0x0B, 0xF3, 0xF4, 0xF5, 0xFB, 0x14,
  0x11, 0xFB, 0x0A, 0xE4, 0x06, 0xFD, 0x08, 0xF1, 0x02, 0xEE,
  0x12, 0xD6, 0xE6, 0xEC, 0xFF, 0xF8, 0xF7, 0x02, 0xF1, 0xF8,
  0xEC, 0xE6, 0xFA, 0xF2, 0xF0, 0x02, 0x00, 0xF2, 0xD8, 0x05,
  0x04, 0x08, 0x17, 0xEC, 0xF2, 0xF4, 0x06, 0xF8, 0x10, 0x17,
  0x1B, 0xD5, 0xFC, 0xF1, 0x14, 0x06, 0xF9, 0xF5, 0x07, 0xF0,
  0xF5, 0xF5, 0x25, 0x0B, 0xF6, 0x03, 0x2F, 0x0D, 0xEE, 0xEC,
  0xEC, 0xF9, 0x0B, 0xFA, 0x1F, 0xFF, 0x01, 0xFF, 0x03, 0x1C,
  0x0A, 0x13, 0x18, 0x01, 0x05, 0xF0, 0x16, 0x08, 0x12, 0x05,
  0x01, 0x1F, 0x08, 0x11, 0x19, 0xE4, 0x0A, 0x02, 0x0F, 0x0E,
  0xFA, 0xFA, 0xFB, 0x00, 0xFB, 0x18, 0xED, 0x02, 0x00, 0x12,
  0xFA, 0x10, 0x27, 0x00, 0xFD, 0xF5, 0xEB, 0x01, 0x10, 0x22,
  0x11, 0x05, 0xFE, 0xE6, 0xE9, 0x0F, 0x0C, 0x07, 0x24, 0x00,
  0xEB, 0xDC, 0x0B, 0x10, 0x05, 0xE3, 0x14, 0x01, 0x13, 0x13,
  0x07, 0x06, 0xF5, 0xF3, 0x04, 0xF9, 0x09, 0xE6, 0xF7, 0x17,
  0x06, 0x0C, 0x0A, 0x0E, 0xD4, 0xE5, 0x05, 0xFF, 0xF9, 0xF6,
  0xE0, 0x00, 0xE8, 0xE0, 0x16, 0x05, 0x01, 0xFC, 0xF3, 0xF1,
  0xE3, 0xE7, 0x0B, 0x13, 0xF8, 0x0B, 0xF0, 0x0C, 0xDD, 0xC8,
  0x1A, 0x0B, 0xF6, 0xF5, 0xE3, 0x1F, 0xF9, 0xE7, 0xF2, 0xFF,
  0xF8, 0xF6, 0xD4, 0xEB, 0xEB, 0x0F, 0xF3, 0xEB, 0xEA, 0xE9,
  0xFD, 0x0D, 0xFA, 0x0C, 0xFC, 0xE7, 0xE4, 0xFC, 0xF0, 0x00,
  0xED, 0xFC, 0xF5, 0xDA, 0xE5, 0xFA, 0xDF, 0xF6, 0x16, 0xF8,
  0xEF, 0xFD, 0x05, 0xEC, 0xF2, 0xFA, 0x09, 0xF9, 0x05, 0x02,
  0xF5, 0xF6, 0x00, 0xF2, 0xFF, 0xD9, 0xDD, 0xE6, 0x0A, 0x01,
  0xFD, 0x0C, 0xFE, 0x09, 0xFD, 0x0F, 0xED, 0xEB, 0x04, 0x0C,
  0x24, 0x1B, 0x23, 0x20, 0xF3, 0xF0, 0xF6, 0x0F, 0x04, 0xEE,
  0x0C, 0x13, 0x01, 0xFF, 0x11, 0x0D, 0x03, 0x06, 0x15, 0x0C,
  0xF9, 0xF5, 0x1A, 0x07, 0xFA, 0x02, 0x0C, 0x02, 0xFA, 0x11,
  0x2E, 0xF7, 0xFA, 0xF6, 0x0E, 0xFB, 0x13, 0x00, 0x0F, 0xFB,
  0xEB, 0xE3, 0x03, 0xFA, 0xFD, 0x18, 0x25, 0xF2, 0x05, 0xDC,
  0x09, 0x09, 0x02, 0x10, 0x18, 0xFB, 0xC7, 0x0C, 0x1A, 0xFD,
  0x04, 0xF2, 0x23, 0x07, 0xDF, 0xF3, 0x16, 0xFF, 0x05, 0x07,
  0x17, 0x07, 0xE0, 0x00, 0x12, 0xF8, 0x0E, 0x02, 0xF4, 0x18,
  0xEC, 0xE0, 0x07, 0x16, 0xF7, 0x11, 0xED, 0xF2, 0xE0, 0xE2,
  0xF1, 0x06, 0xF5, 0x20, 0xF3, 0x08, 0xCD, 0xEC, 0x02, 0x09,
  0xED, 0x03, 0xFE, 0x07, 0xD2, 0xE0, 0xF5, 0x03, 0x00, 0xFC,
  0xE8, 0x04, 0xDC, 0xEB, 0xEB, 0x02, 0xF6, 0xE7, 0xD8, 0xFC,
  0xE3, 0x05, 0xFB, 0xEC, 0xCC, 0xE8, 0xE3, 0xF8, 0xEB, 0xCC,
  0x1B, 0xE6, 0xE5, 0xFB, 0xCA, 0x00, 0xFF, 0xE5, 0x00, 0x01,
  0xEC, 0xF4, 0xDD, 0x02, 0x0D, 0xEC, 0x04, 0xF6, 0x0B, 0xCA,
  0x00, 0xD8, 0x0F, 0x02, 0xF0, 0xFD, 0x0B, 0xE3, 0xF1, 0xE5,
  0xFA, 0xEA, 0xF3, 0xE5, 0xE4, 0x10, 0x1F, 0xF2, 0xFD, 0xF6,
  0x24, 0xFD, 0x04, 0x09, 0xFA, 0x19, 0x09, 0x01, 0xFD, 0xFA,
  0xF6, 0xFD, 0x0A, 0x0B, 0xFE, 0x0F, 0x07, 0x06, 0x08, 0x0E,
  0x29, 0x0E, 0xE5, 0x01, 0xFF, 0xFA, 0x04, 0x2A, 0x0E, 0xF0,
  0xFD, 0xFB, 0x0A, 0xF3, 0xFB, 0x05, 0x19, 0x0A, 0xE1, 0xDF,
  0x10, 0x03, 0xF5, 0xFF, 0x2C, 0x06, 0x10, 0xEF, 0x00, 0xF7,
  0x12, 0x07, 0x0F, 0xFB, 0xE0, 0xFA, 0x19, 0x09, 0x00, 0x08,
  0x17, 0x05, 0xF0, 0xF7, 0x09, 0xF8, 0x17, 0xEE, 0xFB, 0x03,
  0xDE, 0xF6, 0x15, 0x07, 0xF1, 0x00, 0x11, 0xFC, 0xE6, 0xFA,
  0xFF, 0x06, 0xFB, 0xF9, 0x0F, 0x09, 0xFB, 0x02, 0x14, 0x03,
  0xED, 0xF5, 0x04, 0xFA, 0xE1, 0x09, 0x13, 0xF7, 0xF4, 0xF3,
  0x2A, 0x00, 0xD7, 0x1B, 0x0D, 0xF4, 0xEF, 0xDB, 0x0C, 0x0D,
  0xE8, 0xE9, 0x01, 0xFD, 0xFF, 0x07, 0xF4, 0x09, 0xEF, 0xE8,
  0x03, 0xEE, 0xF7, 0xF4, 0xE7, 0x04, 0xE8, 0xF3, 0xF7, 0xDB,
  0xE8, 0x01, 0xE0, 0xF4, 0xE4, 0x04, 0x00, 0xCA, 0xE4, 0x1E,
  0xF5, 0x00, 0xDC, 0x07, 0xE5, 0xF8, 0xEC, 0x03, 0xE9, 0x04,
  0xF9, 0x0D, 0xF4, 0xFA, 0x04, 0xF5, 0xE9, 0xE0, 0x06, 0x03,
  0x0F, 0x0A, 0xF9, 0xED, 0xF3, 0xF0, 0x12, 0x0A, 0xFC, 0xD5,
  0x0C, 0xFB, 0x00, 0xFB, 0x09, 0x02, 0xF3, 0xF3, 0xE7, 0x19,
  0xFF, 0xF1, 0x0A, 0xED, 0xEB, 0x0F, 0xEF, 0xF0, 0xFA, 0x04,
  0x1A, 0x0E, 0xE3, 0xFD, 0x00, 0x08, 0x22, 0x00, 0xCB, 0xF8,
  0xE9, 0xF9, 0x01, 0xF5, 0x03, 0x11, 0xDF, 0x15, 0x08, 0x0D,
  0xFE, 0x08, 0x25, 0x08, 0xE4, 0x01, 0x07, 0x10, 0x09, 0x0F,
  0x2E, 0xFC, 0xFE, 0x07, 0x0F, 0x0B, 0x07, 0x10, 0x32, 0xF5,
  0xD3, 0xE9, 0x03, 0x0A, 0xF9, 0x15, 0x0A, 0xE4, 0xE5, 0xE3,
  0x0E, 0xFC, 0xFB, 0x02, 0x0D, 0x0B, 0xE6, 0x04, 0x05, 0xFE,
  0xF9, 0xF7, 0x01, 0x13, 0x03, 0xF9, 0xFD, 0xF8, 0x00, 0xF9,
  0x0A, 0x09, 0xEE, 0x04, 0x01, 0xFC, 0xF2, 0xEF, 0x24, 0xF5,
  0xEC, 0xF7, 0xE6, 0xF8, 0x00, 0x09, 0x0C, 0x0A, 0xE5, 0x09,
  0xF3, 0xF1, 0xFF, 0xE4, 0x27, 0x0A, 0xDA, 0x03, 0x08, 0xFC,
  0xF6, 0xF7, 0x18, 0x06, 0xE3, 0x01, 0xFF, 0xD7, 0xF1, 0x10,
  0xE4, 0x02, 0xEC, 0x02, 0x19, 0xDC, 0x09, 0xFF, 0xC8, 0x0E,
  0xF8, 0xF9, 0xED, 0xCC, 0xE8, 0x04, 0x02, 0xFF, 0xFA, 0xFE,
  0xF5, 0xF7, 0xF2, 0x0C, 0xE8, 0x13, 0xF1, 0xFA, 0xE3, 0x15,
  0x00, 0xF5, 0xED, 0xE8, 0x09, 0xF7, 0xFE, 0xE5, 0x00, 0xFB,
  0xFE, 0x04, 0xFE, 0xFD, 0x14, 0x1A, 0xF0, 0xDF, 0x0F, 0x14,
  0x01, 0x08, 0x03, 0x07, 0x15, 0x0D, 0xF4, 0x0C, 0x2A, 0x17,
  0xEB, 0xF6, 0x05, 0xF1, 0xE6, 0x0E, 0x09, 0x03, 0xEF, 0xEA,
  0x11, 0xF9, 0x05, 0xF8, 0xD2, 0x0E, 0xE6, 0x0B, 0x11, 0x0E,
  0xE1, 0xFA, 0xE9, 0x1B, 0xEB, 0x01, 0x1E, 0x08, 0xF9, 0xE6,
  0xD4, 0x0F, 0xF8, 0xFD, 0x02, 0x15, 0xEF, 0x0F, 0xC0, 0x07,
  0x05, 0x01, 0x17, 0x0E, 0xF7, 0xF8, 0xF7, 0xFA, 0x07, 0x0A,
  0x17, 0xFF, 0xF3, 0xEE, 0xDB, 0x09, 0xF4, 0x09, 0xF9, 0x0F,
  0x14, 0xEF, 0xED, 0xF5, 0xFA, 0x11, 0xE9, 0x03, 0xF6, 0x06,
  0xF5, 0xFA, 0x02, 0x18, 0x01, 0xF7, 0x03, 0x01, 0xF6, 0xF3,
  0x09, 0x01, 0xF5, 0xFD, 0xF8, 0x17, 0xE2, 0xFC, 0xFF, 0xF7,
  0xF5, 0xF8, 0x06, 0x0C, 0xF3, 0x08, 0x07, 0x09, 0xF9, 0x02,
  0xE8, 0x15, 0xF3, 0xF8, 0x09, 0xEB, 0xEF, 0xEE, 0xE9, 0x14,
  0x02, 0x0A, 0xFA, 0xD9, 0xE6, 0x13, 0x29, 0x0C, 0xF1, 0x06,
  0xF4, 0xEA, 0x09, 0x08, 0xE4, 0x0C, 0xF6, 0x0B, 0xE7, 0xE4,
  0xF7, 0xF6, 0xFB, 0x0A, 0x0B, 0xF7, 0xE6, 0xDD, 0x14, 0xF4,
  0x05, 0x10, 0xF8, 0x15, 0xE0, 0x06, 0x02, 0x08, 0xE5, 0x0A,
  0xF5, 0xFB, 0xF1, 0x13, 0xE9, 0x03, 0xF1, 0xF0, 0x10, 0xD9,
  0xEB, 0x10, 0xFC, 0x20, 0xF7, 0x00, 0x02, 0xFC, 0x16, 0x2C,
  0x2F, 0xFA, 0xE3, 0x0D, 0xF7, 0x01, 0xF3, 0x1F, 0x35, 0xFB,
  0xCC, 0xFF, 0xE6, 0x02, 0xF5, 0xFC, 0x13, 0xF1, 0xE1, 0xF4,
  0xD7, 0x23, 0xF2, 0xF2, 0xF6, 0xFC, 0xED, 0xEA, 0xEA, 0x0B,
  0xDF, 0xF9, 0x05, 0x07, 0xF7, 0x04, 0xE7, 0x1A, 0xF3, 0xF7,
  0x11, 0x10, 0x0C, 0xFC, 0xF7, 0x19, 0x0B, 0x04, 0x12, 0x0E,
  0xF6, 0xFB, 0xDC, 0xF8, 0x09, 0x07, 0x03, 0x00, 0xFC, 0xE7,
  0xD4, 0x0A, 0x0C, 0x07, 0x0A, 0x0F, 0x04, 0xF0, 0x10, 0x0B,
  0x16, 0xF9, 0x14, 0x01, 0xFE, 0x15, 0xFD, 0x22, 0xFE, 0x02,
  0xDC, 0x02, 0xF6, 0xF8, 0xFF, 0x16, 0x06, 0x00, 0xD8, 0xE9,
  0x0A, 0x0C, 0xF3, 0x06, 0x0A, 0xF3, 0xE7, 0x03, 0x0B, 0x03,
  0xEE, 0x00, 0x00, 0x0E, 0xF6, 0xFA, 0xF2, 0x16, 0xFE, 0xEB,
  0xFF, 0x09, 0x03, 0xFB, 0x16, 0x09, 0x15, 0x08, 0x0C, 0xFD,
  0xEF, 0xF8, 0x02, 0x10, 0x02, 0xFF, 0xE9, 0xF4, 0x0D, 0x19,
  0x0F, 0x0C, 0x08, 0x04, 0xDD, 0xE5, 0x15, 0xFB, 0xD6, 0x00,
  0x04, 0xFF, 0xFB, 0xDA, 0x05, 0x10, 0xEB, 0xEE, 0x0D, 0x01,
  0xE7, 0xF9, 0x0D, 0x1A, 0xF1, 0xF4, 0xEF, 0xFC, 0xDF, 0x19,
  0xF6, 0xE5, 0xF6, 0xF3, 0x26, 0xCE, 0xD9, 0xD4, 0xF5, 0xFF,
  0x06, 0x10, 0x0B, 0xF8, 0x1A, 0x08, 0xF1, 0x0B, 0x0A, 0xFC,
  0x1F, 0x02, 0xF0, 0xFF, 0x03, 0x08, 0xEC, 0xE7, 0xE9, 0x03,
  0xEA, 0xF5, 0xFB, 0x09, 0xF1, 0xF0, 0xF8, 0x01, 0xF2, 0xEA,
  0x19, 0x0D, 0xFF, 0xE0, 0xF8, 0x04, 0xF9, 0xF5, 0x31, 0x08,
  0x08, 0xEF, 0x15, 0x2A, 0x01, 0xF6, 0x29, 0x04, 0xEE, 0xF1,
  0x1F, 0x18, 0xF3, 0x04, 0x3D, 0xFB, 0xED, 0xF7, 0xEB, 0x07,
  0xFE, 0x16, 0x1E, 0x00, 0xF8, 0xFD, 0xEC, 0xFD, 0x11, 0x0A,
  0x1D, 0xEE, 0x08, 0x04, 0x07, 0x05, 0x0B, 0x07, 0x1D, 0x00,
  0xE0, 0x08, 0x06, 0x17, 0xFE, 0x05, 0x0A, 0x04, 0xED, 0xE9,
  0x10, 0x1C, 0x07, 0xCA, 0xF7, 0x00, 0x18, 0x0E, 0x0F, 0x26,
  0xFE, 0xE1, 0x14, 0xF5, 0x0A, 0x0C, 0x0E, 0x17, 0x06, 0xEB,
  0x1E, 0xF7, 0xDE, 0xFE, 0xEE, 0x0A, 0xF0, 0xFD, 0x09, 0xFA,
  0xF1, 0x17, 0x00, 0xFF, 0x00, 0xF1, 0xFF, 0xFD, 0xFE, 0x1E,
  0x03, 0x0C, 0xFB, 0xF0, 0x02, 0x03, 0xEC, 0x06, 0x05, 0x06,
  0xFF, 0xFD, 0x00, 0x00, 0xEE, 0x13, 0x07, 0xFC, 0xF5, 0x15,
  0xFC, 0x12, 0x03, 0xF6, 0xFD, 0x0A, 0xF9, 0x11, 0x07, 0x0A,
  0x11, 0xFC, 0xFC, 0x06, 0xF5, 0xFE, 0x10, 0xE5, 0x02, 0xE6,
  0x0F, 0xE4, 0xE9, 0xFA, 0x1E, 0x08, 0xFF, 0xF5, 0xF9, 0x01,
  0x0B, 0x2F, 0x22, 0xEF, 0x04, 0xE8, 0xE0, 0x11, 0x0A, 0x1B,
  0x17, 0x01, 0x05, 0xDE, 0xDD, 0xFD, 0xFB, 0xEE, 0x1B, 0xF6,
  0x07, 0xEA, 0x2C, 0xFF, 0xF6, 0xD8, 0x2A, 0xED, 0x0C, 0xE5,
  0x07, 0xFE, 0xDF, 0xFA, 0x18, 0xF3, 0xF7, 0xE0, 0x2A, 0xE1,
  0xE7, 0xF1, 0x04, 0x09, 0xF2, 0xEF, 0x34, 0xEE, 0xFA, 0xF5,
  0x07, 0x05, 0xDF, 0xEB, 0xFF, 0xF1, 0xF7, 0xFC, 0x19, 0xE9,
  0x06, 0xF0, 0xF0, 0xFD, 0xF7, 0xF6, 0x12, 0xE0, 0xFC, 0xE2,
  0xF5, 0xF7, 0xFE, 0xFD, 0x14, 0xF5, 0xD2, 0x08, 0xE8, 0xF9,
  0xEF, 0xF3, 0x00, 0x01, 0x09, 0x02, 0x0E, 0x19, 0xFD, 0xDA,
  0xE4, 0x08, 0xE8, 0x15, 0x36, 0x03, 0x14, 0xF9, 0x0F, 0x0B,
  0xCA, 0x1A, 0x0C, 0x1D, 0x09, 0xF4, 0xFA, 0x09, 0x00, 0x09,
  0x03, 0xFC, 0x07, 0xFC, 0xF6, 0xF2, 0xF7, 0x0E, 0xFC, 0x01,
  0xF7, 0x06, 0x06, 0x29, 0x15, 0x16, 0x0D, 0x0F, 0x12, 0x11,
  0x05, 0x03, 0xE5, 0x03, 0x0A, 0xEF, 0x03, 0x0D, 0x0A, 0x15,
  0x24, 0x0F, 0x04, 0x0C, 0x01, 0x11, 0x03, 0xF9, 0x02, 0xFF,
  0x0E, 0xF7, 0x07, 0x07, 0xFE, 0x16, 0x17, 0x0A, 0x16, 0x07,
  0x03, 0x04, 0xC9, 0xEB, 0x05, 0xD2, 0xF6, 0xE3, 0xFC, 0xFC,
  0x0A, 0xED, 0xE4, 0xF1, 0x2B, 0xE6, 0xEC, 0xF3, 0x15, 0xFA,
  0xFD, 0xFA, 0x1D, 0x26, 0x0F, 0x17, 0x12, 0xE2, 0xFB, 0xE6,
  0xE7, 0x07, 0xDD, 0xE7, 0x09, 0xE6, 0xF3, 0xE8, 0xE7, 0xDC,
  0xEF, 0xF2, 0xFD, 0xC7, 0xFD, 0xE8, 0x29, 0xF5, 0xCE, 0xE1,
  0x17, 0xDD, 0xE6, 0xE7, 0x26, 0xD1, 0xD7, 0xD4, 0x1F, 0x09,
  0xED, 0xE2, 0x29, 0xBD, 0xE6, 0xED, 0x05, 0xE4, 0xF8, 0xE4,
  0xE9, 0xC9, 0xE0, 0xFC, 0x05, 0xEB, 0xED, 0xF9, 0xE0, 0xC1,
  0xDD, 0xE4, 0x10, 0xF5, 0xF8, 0xF1, 0xE7, 0xF9, 0xEC, 0xF4,
  0xF4, 0xFD, 0xF0, 0x04, 0xFB, 0xFF, 0xDB, 0xF6, 0x08, 0x07,
  0xF4, 0xFE, 0x10, 0xFC, 0xF8, 0x03, 0x09, 0x1B, 0xF5, 0x10,
  0x19, 0xF1, 0x04, 0xFE, 0x11, 0x0B, 0xF1, 0x0E, 0x1D, 0xE7,
  0xFA, 0x11, 0x0A, 0x04, 0xFD, 0x00, 0x1A, 0x1E, 0xFB, 0x06,
  0x06, 0x07, 0x08, 0xF9, 0x21, 0x09, 0x10, 0x05, 0x0F, 0x0F,
  0x24, 0xF1, 0x0F, 0x15, 0x05, 0x04, 0x26, 0x04, 0xD4, 0x02,
  0x21, 0x01, 0xF6, 0xFE, 0x2A, 0xEC, 0x09, 0x08, 0x11, 0x06,
  0x01, 0xF6, 0x13, 0x13, 0x1D, 0xFC, 0x09, 0xF9, 0x0F, 0xEA,
  0xFC, 0x13, 0x00, 0x0C, 0x01, 0x10, 0x08, 0xFB, 0xD1, 0x05,
  0x11, 0xF5, 0x07, 0xF3, 0xE3, 0xDC, 0x07, 0xEB, 0x0A, 0xF3,
  0x14, 0xF8, 0x0C, 0xE7, 0xFE, 0xFF, 0xF0, 0x0E, 0x1D, 0x02,
  0x0D, 0xFA, 0xFB, 0xEB, 0xFE, 0xFA, 0x14, 0x0F, 0xED, 0xD0,
  0x0D, 0xE6, 0xE9, 0xD4, 0xE2, 0xF3, 0xD6, 0xDF, 0xFA, 0xE1,
  0xDA, 0xE6, 0xFE, 0xF5, 0xD7, 0xE3, 0x08, 0xE3, 0xE6, 0xE3,
  0x22, 0xD5, 0xE2, 0xF6, 0x17, 0xEB, 0xD6, 0xD8, 0xFD, 0xBB,
  0xDA, 0xF7, 0x05, 0xDF, 0xF2, 0xDD, 0xFB, 0xCE, 0xD4, 0xF8,
  0x04, 0xFD, 0xF2, 0xEA, 0xEC, 0x09, 0xEF, 0xFF, 0x01, 0x09,
  0xDD, 0x12, 0xF0, 0x1B, 0xF9, 0x04, 0x15, 0xF9, 0xD5, 0x0F,
  0x03, 0x18, 0xE8, 0x02, 0x05, 0x15, 0xD8, 0x0E, 0x22, 0x04,
  0xEE, 0x0D, 0x18, 0x02, 0x05, 0x16, 0x32, 0xC6, 0xFB, 0xFB,
  0x2D, 0x0E, 0xFD, 0x11, 0x1B, 0x12, 0x02, 0x04, 0x1A, 0x04,
  0xFC, 0x00, 0x05, 0xEA, 0xF3, 0x16, 0x14, 0x0C, 0xF9, 0xFF,
