const unsigned char model_tflite[] = {
  0x1C, 0x00, 0x00, 0x00, 0x54, 0x46, 0x4C, 0x33, 0x14, 0x00,
  0x20, 0x00, 0x1C, 0x00, 0x18, 0x00, 0x14, 0x00, 0x10, 0x00,
  0x0C, 0x00, 0x00, 0x00, 0x08, 0x00, 0x04, 0x00, 0x14, 0x00,
  0x00, 0x00, 0x1C, 0x00, 0x00, 0x00, 0x88, 0x00, 0x00, 0x00,
  0xE0, 0x00, 0x00, 0x00, 0x4C, 0x2B, 0x00, 0x00, 0x5C, 0x2B,
  0x00, 0x00, 0x4C, 0x3D, 0x00, 0x00, 0x03, 0x00, 0x00, 0x00,
  0x01, 0x00, 0x00, 0x00, 0x04, 0x00, 0x00, 0x00, 0xEA, 0xD3,
  0xFF, 0xFF, 0x0C, 0x00, 0x00, 0x00, 0x1C, 0x00, 0x00, 0x00,
  0x3C, 0x00, 0x00, 0x00, 0x0F, 0x00, 0x00, 0x00, 0x73, 0x65,
  0x72, 0x76, 0x69, 0x6E, 0x67, 0x5F, 0x64, 0x65, 0x66, 0x61,
  0x75, 0x6C, 0x74, 0x00, 0x01, 0x00, 0x00, 0x00, 0x04, 0x00,
  0x00, 0x00, 0x94, 0xFF, 0xFF, 0xFF, 0x1B, 0x00, 0x00, 0x00,
  0x04, 0x00, 0x00, 0x00, 0x08, 0x00, 0x00, 0x00, 0x64, 0x65,
  0x6E, 0x73, 0x65, 0x5F, 0x31, 0x32, 0x00, 0x00, 0x00, 0x00,
  0x01, 0x00, 0x00, 0x00, 0x04, 0x00, 0x00, 0x00, 0x56, 0xD5,
  0xFF, 0xFF, 0x04, 0x00, 0x00, 0x00, 0x08, 0x00, 0x00, 0x00,
  0x69, 0x6E, 0x70, 0x75, 0x74, 0x5F, 0x31, 0x31, 0x00, 0x00,
  0x00, 0x00, 0x02, 0x00, 0x00, 0x00, 0x34, 0x00, 0x00, 0x00,
  0x04, 0x00, 0x00, 0x00, 0xDC, 0xFF, 0xFF, 0xFF, 0x1E, 0x00,
  0x00, 0x00, 0x04, 0x00, 0x00, 0x00, 0x13, 0x00, 0x00, 0x00,
  0x43, 0x4F, 0x4E, 0x56, 0x45, 0x52, 0x53, 0x49, 0x4F, 0x4E,
  0x5F, 0x4D, 0x45, 0x54, 0x41, 0x44, 0x41, 0x54, 0x41, 0x00,
  0x08, 0x00, 0x0C, 0x00, 0x08, 0x00, 0x04, 0x00, 0x08, 0x00,
  0x00, 0x00, 0x1D, 0x00, 0x00, 0x00, 0x04, 0x00, 0x00, 0x00,
  0x13, 0x00, 0x00, 0x00, 0x6D, 0x69, 0x6E, 0x5F, 0x72, 0x75,
  0x6E, 0x74, 0x69, 0x6D, 0x65, 0x5F, 0x76, 0x65, 0x72, 0x73,
  0x69, 0x6F, 0x6E, 0x00, 0x1F, 0x00, 0x00, 0x00, 0x68, 0x2A,
  0x00, 0x00, 0x60, 0x2A, 0x00, 0x00, 0x30, 0x2A, 0x00, 0x00,
  0xF8, 0x29, 0x00, 0x00, 0xC8, 0x29, 0x00, 0x00, 0x98, 0x29,
  0x00, 0x00, 0x68, 0x29, 0x00, 0x00, 0xF8, 0x25, 0x00, 0x00,
  0xE8, 0x1C, 0x00, 0x00, 0xD8, 0x13, 0x00, 0x00, 0xC8, 0x0A,
  0x00, 0x00, 0xB8, 0x01, 0x00, 0x00, 0xA4, 0x01, 0x00, 0x00,
  0x8C, 0x01, 0x00, 0x00, 0xFC, 0x00, 0x00, 0x00, 0xF4, 0x00,
  0x00, 0x00, 0xEC, 0x00, 0x00, 0x00, 0xE4, 0x00, 0x00, 0x00,
  0xDC, 0x00, 0x00, 0x00, 0xD4, 0x00, 0x00, 0x00, 0xCC, 0x00,
  0x00, 0x00, 0xC4, 0x00, 0x00, 0x00, 0xBC, 0x00, 0x00, 0x00,
  0xB4, 0x00, 0x00, 0x00, 0xAC, 0x00, 0x00, 0x00, 0xA4, 0x00,
  0x00, 0x00, 0x9C, 0x00, 0x00, 0x00, 0x94, 0x00, 0x00, 0x00,
  0x8C, 0x00, 0x00, 0x00, 0x6C, 0x00, 0x00, 0x00, 0x04, 0x00,
  0x00, 0x00, 0x4A, 0xD6, 0xFF, 0xFF, 0x04, 0x00, 0x00, 0x00,
  0x58, 0x00, 0x00, 0x00, 0x0C, 0x00, 0x00, 0x00, 0x08, 0x00,
  0x0E, 0x00, 0x08, 0x00, 0x04, 0x00, 0x08, 0x00, 0x00, 0x00,
  0x10, 0x00, 0x00, 0x00, 0x28, 0x00, 0x00, 0x00, 0x00, 0x00,
  0x06, 0x00, 0x08, 0x00, 0x04, 0x00, 0x06, 0x00, 0x00, 0x00,
  0x04, 0x00, 0x00, 0x00, 0x01, 0x00, 0x00, 0x00, 0xEA, 0x03,
  0x00, 0x00, 0x00, 0x00, 0x0A, 0x00, 0x10, 0x00, 0x0C, 0x00,
  0x08, 0x00, 0x04, 0x00, 0x0A, 0x00, 0x00, 0x00, 0x02, 0x00,
  0x00, 0x00, 0x02, 0x00, 0x00, 0x00, 0x04, 0x00, 0x00, 0x00,
  0x06, 0x00, 0x00, 0x00, 0x32, 0x2E, 0x31, 0x31, 0x2E, 0x30,
  0x00, 0x00, 0xAE, 0xD6, 0xFF, 0xFF, 0x04, 0x00, 0x00, 0x00,
  0x10, 0x00, 0x00, 0x00, 0x31, 0x2E, 0x31, 0x34, 0x2E, 0x30,
  0x00, 0x00, 0x00, 0x00, 0x00, 0x00, 0x00, 0x00, 0x00, 0x00,
  0xC4, 0xC4, 0xFF, 0xFF, 0xC8, 0xC4, 0xFF, 0xFF, 0xCC, 0xC4,
  0xFF, 0xFF, 0xD0, 0xC4, 0xFF, 0xFF, 0xD4, 0xC4, 0xFF, 0xFF,
  0xD8, 0xC4, 0xFF, 0xFF, 0xDC, 0xC4, 0xFF, 0xFF, 0xE0, 0xC4,
  0xFF, 0xFF, 0xE4, 0xC4, 0xFF, 0xFF, 0xE8, 0xC4, 0xFF, 0xFF,
  0xEC, 0xC4, 0xFF, 0xFF, 0xF0, 0xC4, 0xFF, 0xFF, 0xF4, 0xC4,
  0xFF, 0xFF, 0xF8, 0xC4, 0xFF, 0xFF, 0x02, 0xD7, 0xFF, 0xFF,
  0x04, 0x00, 0x00, 0x00, 0x80, 0x00, 0x00, 0x00, 0x5E, 0x93,
  0xDB, 0xBE, 0xB6, 0x66, 0x44, 0xBE, 0xA6, 0x3D, 0xE2, 0xBD,
  0xE0, 0x51, 0xEB, 0xBD, 0x6A, 0xBB, 0x69, 0xBD, 0x39, 0xFB,
  0x7E, 0xBE, 0x7A, 0x55, 0xC2, 0x3E, 0x7D, 0xA0, 0x75, 0x3E,
  0x1B, 0x08, 0xFC, 0x3D, 0xD3, 0x6F, 0xB3, 0x3E, 0xE7, 0x90,
  0x91, 0x3E, 0x4A, 0x6C, 0xB4, 0x3E, 0xE6, 0x9D, 0xC7, 0xBE,
  0x89, 0x7F, 0x17, 0xBE, 0x21, 0x6C, 0xCF, 0x3E, 0x22, 0xE4,
  0x9D, 0xBE, 0x6C, 0x01, 0xB8, 0x3E, 0xA9, 0x57, 0x00, 0x3E,
  0x4B, 0x28, 0xE3, 0xBE, 0x2D, 0x0A, 0x63, 0xBE, 0xE2, 0x83,
  0xD0, 0x3E, 0xCC, 0x0D, 0xD6, 0x3E, 0x90, 0xBE, 0x99, 0x3E,
  0xAF, 0xFD, 0x0B, 0xBE, 0xF8, 0xCF, 0x2E, 0xBE, 0x7C, 0x37,
  0xCF, 0x3D, 0x0A, 0x9C, 0x5B, 0x3E, 0xAE, 0x45, 0x83, 0x3D,
  0x31, 0xCF, 0x9C, 0xBC, 0x9E, 0x4E, 0x2F, 0x3E, 0x15, 0x85,
  0xB1, 0xBE, 0x85, 0x31, 0x38, 0xBE, 0x8E, 0xD7, 0xFF, 0xFF,
  0x04, 0x00, 0x00, 0x00, 0x08, 0x00, 0x00, 0x00, 0xFF, 0xFF,
  0xFF, 0xFF, 0x20, 0x00, 0x00, 0x00, 0xA2, 0xD7, 0xFF, 0xFF,
  0x04, 0x00, 0x00, 0x00, 0x04, 0x00, 0x00, 0x00, 0xF0, 0x74,
  0xB0, 0xBA, 0xB2, 0xD7, 0xFF, 0xFF, 0x04, 0x00, 0x00, 0x00,
  0x00, 0x09, 0x00, 0x00, 0x27, 0x06, 0x9F, 0xBD, 0xC7, 0x33,
  0xA7, 0xBD, 0x6A, 0x9B, 0x40, 0xBE, 0xA1, 0xD0, 0xD4, 0x3D,
  0x75, 0xF1, 0x19, 0x3E, 0x52, 0x6B, 0x0B, 0xBE, 0xBA, 0xD6,
  0xAA, 0xBD, 0x2B, 0x46, 0x19, 0xBD, 0x54, 0xEB, 0x56, 0x3D,
  0x86, 0x70, 0x15, 0x3D, 0x73, 0x5E, 0x27, 0x3E, 0xB5, 0xEE,
  0x6D, 0xBD, 0xFF, 0x79, 0xF9, 0xBD, 0xB7, 0x5C, 0x7A, 0xBD,
  0xA6, 0xDF, 0x35, 0xBE, 0x7C, 0xB7, 0xCC, 0x3D, 0x17, 0x82,
  0x28, 0x3E, 0xE3, 0xDF, 0x29, 0x3E, 0xF5, 0xC2, 0x1C, 0xBE,
  0xA6, 0x5D, 0x3E, 0xBE, 0x36, 0xE3, 0x90, 0x3D, 0x38, 0x2F,
  0x4C, 0xBD, 0x2D, 0x7C, 0x40, 0x3E, 0x12, 0x90, 0xDB, 0x3D,
  0x0F, 0x3E, 0x19, 0xBE, 0x40, 0x2C, 0x68, 0xBD, 0x1C, 0xE2,
  0x25, 0x3D, 0x45, 0xC9, 0xFD, 0x3D, 0x95, 0x0E, 0x85, 0xBC,
  0x2E, 0x17, 0x5D, 0x3E, 0xD9, 0x01, 0xCA, 0xBD, 0xB0, 0x83,
  0x33, 0x3E, 0xD5, 0x41, 0xF0, 0xBC, 0x29, 0x20, 0x23, 0x3E,
  0xE4, 0x6F, 0x26, 0xBD, 0x06, 0xC3, 0x65, 0x3E, 0xEA, 0x76,
  0xD5, 0x3D, 0x5A, 0x7D, 0x95, 0x3D, 0x66, 0xB9, 0xCD, 0x3D,
  0x98, 0x43, 0xB1, 0x3D, 0x23, 0x2E, 0x97, 0x3D, 0x2D, 0x7F,
  0x48, 0x3E, 0xDE, 0x39, 0x05, 0xBD, 0xE4, 0x23, 0x65, 0x3E,
  0x9C, 0x0A, 0x3D, 0xBE, 0xB4, 0x9B, 0x1E, 0x3E, 0x5B, 0xC1,
  0x38, 0xBE, 0x2D, 0x0C, 0xF3, 0xBD, 0xE8, 0x2F, 0xE3, 0x3D,
  0x5D, 0x42, 0x06, 0x3E, 0x84, 0x7C, 0xA9, 0xBC, 0x5B, 0x53,
  0x02, 0xBE, 0x50, 0x69, 0xE4, 0x3C, 0x05, 0x4B, 0x3F, 0x3E,
  0x0F, 0x45, 0x31, 0x3E, 0xC4, 0x8E, 0x0E, 0xBE, 0xF3, 0x90,
  0xFB, 0x3C, 0xD1, 0x18, 0x22, 0xBE, 0xB9, 0xA7, 0x12, 0xBE,
  0x39, 0x42, 0x48, 0x3E, 0x36, 0x70, 0x99, 0xBD, 0xEA, 0x48,
  0x8C, 0xBD, 0x53, 0xFD, 0x3A, 0xBD, 0x63, 0x2C, 0x05, 0x3E,
  0x95, 0xB8, 0x06, 0x3E, 0xEC, 0x02, 0x41, 0x3E, 0x19, 0xB9,
  0x40, 0x3E, 0x36, 0xD6, 0x05, 0x3E, 0x48, 0xF1, 0x34, 0xBE,
  0x57, 0xD2, 0x06, 0xBE, 0xC3, 0x02, 0x4C, 0xBE, 0x14, 0xE1,
  0x49, 0x3E, 0xE5, 0xD4, 0x7D, 0x3D, 0x33, 0x55, 0x5F, 0xBC,
  0x18, 0x97, 0x82, 0x3D, 0xF4, 0xED, 0x68, 0xBB, 0x5E, 0x2A,
  0x18, 0xBE, 0x91, 0xEA, 0xDC, 0xBD, 0xC0, 0x3C, 0x47, 0xBE,
  0x93, 0x3A, 0x02, 0xBE, 0x82, 0x8E, 0x07, 0x3E, 0xC5, 0x78,
  0x57, 0xBE, 0x6C, 0xCC, 0x97, 0x3D, 0x3D, 0x9B, 0x2A, 0x3D,
  0x63, 0x25, 0x91, 0x3C, 0x96, 0xB6, 0xE8, 0x3B, 0xCC, 0x46,
  0x2E, 0xBB, 0x85, 0x2F, 0x43, 0x3E, 0x1A, 0x75, 0xC0, 0xBD,
  0x73, 0xEF, 0x1D, 0xBE, 0x0A, 0xF7, 0x42, 0x3E, 0xA2, 0x4C,
  0x2C, 0x3E, 0xFF, 0xCD, 0xEE, 0xBB, 0x85, 0x81, 0x23, 0xBE,
  0x27, 0x7B, 0x32, 0x3E, 0xE0, 0xD4, 0x43, 0x3E, 0x7C, 0x2F,
  0x60, 0x3D, 0xCA, 0x53, 0x14, 0xBD, 0xCF, 0x53, 0xA1, 0xBB,
  0x46, 0x63, 0xEC, 0x3D, 0xE3, 0xEF, 0x36, 0xBC, 0xEE, 0xD8,
  0xC5, 0xBD, 0x3D, 0x15, 0xB0, 0xBD, 0x1F, 0xAA, 0xBF, 0xBD,
  0xFD, 0x67, 0xE3, 0xBB, 0xD9, 0x23, 0x3F, 0xBE, 0x29, 0x89,
  0x25, 0x3E, 0x19, 0x8E, 0xBD, 0x3D, 0x1E, 0x21, 0x17, 0x3E,
  0xAD, 0xC0, 0x04, 0x3E, 0xCE, 0x40, 0x0B, 0xBE, 0xAB, 0xCD,
  0x3D, 0x3E, 0xE3, 0xEF, 0x3D, 0xBE, 0x02, 0x4C, 0x31, 0x3E,
  0x99, 0xFD, 0x55, 0xBD, 0xEB, 0xEA, 0x0C, 0xBE, 0x0A, 0x82,
  0xB1, 0x3D, 0x7A, 0x93, 0x32, 0x3E, 0x1D, 0x6D, 0x0C, 0x3E,
  0xFF, 0x2B, 0x2C, 0xBE, 0x6D, 0xAC, 0x19, 0x3E, 0x3E, 0x15,
  0x5A, 0x3C, 0x92, 0x6E, 0x36, 0xBE, 0x8B, 0xA3, 0xE8, 0xBD,
  0xFB, 0x4D, 0x2A, 0x3E, 0x64, 0x1C, 0x22, 0x3D, 0xB9, 0x88,
  0xE5, 0x3D, 0x7A, 0x45, 0x34, 0xBE, 0x53, 0xE7, 0x20, 0x3E,
  0x5C, 0xF2, 0x34, 0xBE, 0x76, 0xC3, 0xB0, 0xBC, 0x2A, 0xEF,
  0x54, 0xBE, 0xA9, 0x67, 0xAD, 0x3C, 0x25, 0xA2, 0xAF, 0x3C,
  0x35, 0xEA, 0x3A, 0x3D, 0xBA, 0x75, 0x19, 0x3E, 0x99, 0xBE,
  0xED, 0xBD, 0x0A, 0x23, 0x3E, 0x3D, 0x0D, 0x06, 0xD5, 0x3D,
  0x4B, 0x8B, 0x2F, 0x3E, 0xF5, 0xB1, 0x13, 0x3D, 0xB2, 0xFE,
  0x30, 0xBE, 0xB9, 0x1A, 0x59, 0x3A, 0xDB, 0x9E, 0x2C, 0x3D,
  0xB1, 0xAA, 0xFA, 0xBD, 0xAB, 0xB2, 0x2E, 0xBE, 0x91, 0xA1,
  0x8B, 0x3C, 0x06, 0x70, 0x22, 0xBE, 0xB9, 0x0F, 0x70, 0xBD,
  0x54, 0xC2, 0xA5, 0x3D, 0x7D, 0x9E, 0x20, 0xBE, 0x2C, 0x85,
  0x95, 0x38, 0xBF, 0x99, 0x28, 0x3E, 0x1E, 0x2C, 0xB1, 0xBB,
  0x26, 0xAB, 0xED, 0xBD, 0x63, 0xFA, 0x86, 0x3D, 0xBB, 0x7D,
  0x35, 0x3E, 0x44, 0xDF, 0x07, 0xBD, 0xA8, 0x09, 0x97, 0x3D,
  0x5D, 0xBD, 0x2D, 0x3D, 0xDA, 0x8C, 0x2D, 0x3D, 0xF6, 0x4E,
  0xEC, 0x3D, 0x51, 0xA9, 0x2F, 0xBE, 0xFD, 0x79, 0x9A, 0x3D,
  0xC1, 0xBF, 0x7B, 0x3E, 0x5F, 0xD7, 0xC7, 0x3D, 0x5D, 0x16,
  0x02, 0xBE, 0x62, 0xF7, 0xD2, 0xBD, 0x26, 0x3A, 0xC0, 0xBB,
  0xFD, 0xD8, 0x9E, 0x3D, 0xED, 0x37, 0x00, 0x3E, 0x1C, 0x18,
  0x44, 0xBE, 0x78, 0x3C, 0x18, 0xBD, 0xA5, 0x74, 0x12, 0x3E,
  0xE8, 0x09, 0x0F, 0xBE, 0xD9, 0xB3, 0xC8, 0xBD, 0xB0, 0x31,
  0xF8, 0x3C, 0x5F, 0x44, 0x2A, 0x3E, 0x27, 0xFF, 0x71, 0x3D,
  0xCE, 0x56, 0x47, 0xBE, 0x70, 0x7B, 0x36, 0x3D, 0x83, 0x2E,
  0x30, 0x3E, 0xE2, 0x1B, 0x4F, 0xBE, 0x07, 0xCC, 0x88, 0xBC,
  0x58, 0x11, 0x90, 0x3C, 0xDD, 0x83, 0xC8, 0xBD, 0x55, 0x86,
  0xBA, 0x3C, 0x2C, 0xDC, 0x58, 0xBD, 0xC3, 0x7D, 0x30, 0x3C,
  0xA8, 0xDD, 0xE6, 0x3D, 0x8C, 0xE3, 0xE6, 0x3C, 0x2D, 0x2B,
  0x9C, 0xBD, 0x44, 0xEE, 0x08, 0xBD, 0x84, 0x8B, 0x8B, 0x3D,
  0x91, 0xCA, 0xCA, 0x3D, 0x2E, 0x03, 0x11, 0x3D, 0x7C, 0xE0,
  0xF0, 0xBD, 0xE8, 0x87, 0xC0, 0x3C, 0x07, 0xFD, 0x06, 0x3E,
  0x34, 0x9C, 0x37, 0xBE, 0x2A, 0x7B, 0x1B, 0x3E, 0x87, 0x23,
  0x5A, 0xBD, 0x54, 0x9E, 0xE3, 0xBC, 0xF8, 0x14, 0xAE, 0x3C,
  0x5F, 0x24, 0xBB, 0x3C, 0x1B, 0x63, 0xAE, 0x3C, 0x2D, 0x53,
  0x43, 0x3E, 0xA1, 0x04, 0xF1, 0xBD, 0x5E, 0xBF, 0x9B, 0xBD,
  0xD4, 0x42, 0x49, 0xBE, 0x45, 0xFB, 0x1F, 0x3E, 0x41, 0x4D,
  0x0F, 0xBE, 0xAB, 0xDD, 0x1C, 0xBC, 0xA1, 0x44, 0x33, 0x3E,
  0x11, 0xF7, 0x9A, 0x3C, 0xE8, 0xB0, 0x44, 0xBD, 0xC5, 0xBC,
  0x8B, 0xBD, 0x7D, 0x19, 0x99, 0xBD, 0x7F, 0xBB, 0xCB, 0x3D,
  0x4C, 0x30, 0x3C, 0xBE, 0x4D, 0xD2, 0x2C, 0xBD, 0xEC, 0x18,
  0xA2, 0xBD, 0x94, 0x79, 0x0B, 0x3E, 0x78, 0xF7, 0x5F, 0x3D,
  0x11, 0x22, 0xC8, 0x3D, 0x91, 0x2F, 0xCE, 0xBD, 0x8C, 0x85,
  0xAA, 0x3D, 0x7F, 0xE8, 0xD9, 0xBD, 0x9E, 0xA4, 0xFC, 0x3D,
  0x1B, 0x16, 0x4B, 0xBE, 0xF2, 0xAC, 0x34, 0x3E, 0x74, 0xDB,
  0x88, 0xBD, 0x35, 0x03, 0x1B, 0xBE, 0xC3, 0xB6, 0x3A, 0x3E,
  0x2D, 0xD0, 0x12, 0x3E, 0x56, 0xF5, 0xD9, 0x3D, 0x65, 0xBD,
  0xA2, 0x3D, 0xBF, 0x75, 0x43, 0xBE, 0x73, 0x0A, 0xCF, 0x3C,
  0x30, 0x0C, 0xBD, 0xBD, 0xBC, 0x09, 0x53, 0xBD, 0xD5, 0xFB,
  0x12, 0xBB, 0x64, 0xA3, 0x2B, 0xBE, 0x84, 0x12, 0x49, 0xBE,
  0x49, 0xFE, 0x13, 0xBE, 0x70, 0x1D, 0x3F, 0x3C, 0x3A, 0xDD,
  0x81, 0xBC, 0xF3, 0xCE, 0x3D, 0x3E, 0x1C, 0x18, 0x16, 0xBE,
  0x80, 0xDE, 0x1B, 0x3D, 0xEA, 0x3F, 0xAA, 0xBD, 0xA7, 0xF4,
  0x44, 0x3E, 0x21, 0xC9, 0x83, 0xBD, 0xAA, 0x7F, 0x07, 0x3E,
  0xF2, 0x98, 0x95, 0x3D, 0x21, 0x4D, 0x38, 0xBE, 0xFD, 0x94,
  0x1A, 0xBE, 0xFF, 0x97, 0x23, 0xBE, 0x06, 0x5E, 0x07, 0xBE,
  0x3B, 0x4A, 0x53, 0x3B, 0x51, 0x4A, 0x80, 0x3D, 0x8F, 0x79,
  0x3A, 0xBE, 0xB1, 0xAB, 0x3F, 0xBE, 0xBD, 0xA8, 0x48, 0xBD,
  0x9E, 0x93, 0x7A, 0x3D, 0x22, 0x62, 0xC0, 0x3D, 0xAE, 0xEA,
  0xD1, 0xBD, 0x57, 0x49, 0x0E, 0x3E, 0xE3, 0xB1, 0xC9, 0x3D,
  0x63, 0xD5, 0x47, 0x3E, 0x6F, 0xEF, 0xB4, 0xBD, 0x31, 0x1B,
  0x8A, 0x3C, 0x76, 0x8D, 0x29, 0x3E, 0xBD, 0x13, 0x8E, 0xBC,
  0x01, 0x6F, 0x96, 0x3D, 0x37, 0x12, 0xAC, 0xBD, 0x2A, 0xE5,
  0x3F, 0xBE, 0x69, 0x1A, 0x44, 0xBE, 0xE0, 0xE9, 0x14, 0xBE,
  0x0F, 0x02, 0xC5, 0x3D, 0x23, 0x04, 0x50, 0x3E, 0x06, 0xE7,
  0x10, 0x3E, 0xB5, 0x66, 0x48, 0x3E, 0x95, 0x7B, 0x87, 0x3D,
  0xEA, 0x55, 0x06, 0xBD, 0x47, 0x68, 0x97, 0xBD, 0x66, 0xE7,
  0x26, 0x3C, 0xD1, 0x4E, 0x37, 0x3E, 0x74, 0x0B, 0x1A, 0x3E,
  0x0F, 0xE9, 0x26, 0xBC, 0xCD, 0xDF, 0xAB, 0x3D, 0x87, 0x9B,
  0x60, 0x3E, 0x1F, 0x1D, 0xC3, 0x3D, 0xF6, 0x42, 0x60, 0x3E,
  0xF7, 0x94, 0xC7, 0xBD, 0xC0, 0xA1, 0xAD, 0xBD, 0x72, 0x73,
  0xA7, 0xBD, 0xBD, 0x53, 0x08, 0x3E, 0x3E, 0xF9, 0x82, 0xBD,
  0xB2, 0x5F, 0x31, 0x3E, 0xD6, 0x89, 0x4F, 0xBE, 0xF8, 0xB3,
  0x9D, 0x3C, 0x45, 0x19, 0xCC, 0xBC, 0x67, 0x04, 0x83, 0x3D,
  0x33, 0xE6, 0x21, 0x3E, 0x4F, 0x5C, 0x38, 0xBE, 0x12, 0xA6,
  0x40, 0xBD, 0x05, 0x89, 0x01, 0xBE, 0x58, 0x4F, 0xBB, 0x3C,
  0xA9, 0xE0, 0xE6, 0x3D, 0x3A, 0xAA, 0x39, 0x3E, 0xA3, 0x94,
  0x58, 0xBD, 0xAE, 0x56, 0x09, 0xBE, 0x00, 0x67, 0x9A, 0xBD,
  0x82, 0x3D, 0x4A, 0x3D, 0x97, 0xDC, 0x45, 0x3C, 0x47, 0xA0,
  0x4B, 0x3E, 0x8A, 0xCD, 0x25, 0xBE, 0xEE, 0x3C, 0x5D, 0xBD,
  0xC4, 0x00, 0x8E, 0x3D, 0x71, 0x33, 0xA0, 0x3D, 0xDD, 0xAB,
  0x16, 0x3E, 0xF7, 0xC3, 0x60, 0x3E, 0x4A, 0x1D, 0x96, 0xBD,
  0xEC, 0xEF, 0xF7, 0x3D, 0xC3, 0xB9, 0x3F, 0xBD, 0x8B, 0x62,
  0xCD, 0xBC, 0x87, 0x23, 0xC0, 0x3D, 0xFD, 0xE6, 0x79, 0xBA,
  0xA9, 0xF1, 0x8A, 0xBD, 0x28, 0x8D, 0xD9, 0x3B, 0x6B, 0x98,
  0x2E, 0x3E, 0xA8, 0x62, 0x2B, 0x3D, 0xB8, 0x7C, 0x9A, 0x3D,
  0x50, 0x54, 0x23, 0xBE, 0x0B, 0x34, 0x14, 0x3E, 0x7A, 0xD1,
  0x30, 0x3E, 0x2D, 0xAD, 0x15, 0xBE, 0x5B, 0x95, 0x50, 0x3E,
  0x54, 0xA2, 0xFA, 0x3D, 0xB3, 0x17, 0x05, 0x3E, 0x1C, 0xA6,
  0xC0, 0x3D, 0x0C, 0x15, 0xFF, 0x3D, 0xE3, 0x53, 0x3C, 0x3E,
  0x4A, 0x0D, 0xE5, 0xBD, 0xEC, 0xCA, 0xA4, 0x3D, 0x45, 0xE0,
  0x3A, 0xBD, 0xEB, 0xB0, 0x54, 0x3E, 0x09, 0xF6, 0xD0, 0x3D,
  0x34, 0x9B, 0x21, 0x3E, 0x39, 0x76, 0x09, 0x3E, 0x35, 0xD7,
  0x3E, 0xBE, 0xE8, 0x10, 0xD1, 0x3C, 0x79, 0xC5, 0xB3, 0xBD,
  0x08, 0xA9, 0xBE, 0x3D, 0x2A, 0x13, 0xF3, 0x3D, 0xB4, 0x22,
  0x97, 0x3C, 0x18, 0xA3, 0x01, 0x3E, 0xD9, 0x42, 0x0B, 0xBE,
  0x84, 0xBC, 0x1C, 0x3D, 0xA2, 0x9B, 0x85, 0xBD, 0x2A, 0x24,
  0x43, 0xBD, 0x03, 0x10, 0xC7, 0xBD, 0x1D, 0xC5, 0x53, 0xBE,
  0x60, 0x5E, 0x3B, 0xBE, 0x74, 0xF9, 0x80, 0xBD, 0xF2, 0xF0,
  0x28, 0x3E, 0x0C, 0x9D, 0x0A, 0xBE, 0xC5, 0xF7, 0x9D, 0x3D,
  0x8C, 0x02, 0x46, 0x3D, 0x62, 0xDF, 0x49, 0xBE, 0x04, 0x9B,
  0x31, 0x3D, 0x83, 0x16, 0x24, 0xBE, 0x37, 0x78, 0x65, 0x3D,
  0xCD, 0x87, 0xE8, 0x3D, 0x9D, 0xE2, 0x6F, 0x3D, 0x7A, 0x06,
  0x00, 0xBE, 0x8B, 0xD8, 0x92, 0x3D, 0x3F, 0xC1, 0x1D, 0xBB,
  0x42, 0xC3, 0x9F, 0xBD, 0x10, 0xB9, 0x89, 0x3C, 0x9B, 0x77,
  0x90, 0x3C, 0x94, 0xCC, 0x14, 0xBE, 0xA4, 0xB3, 0xF9, 0x3D,
  0x62, 0xEC, 0x99, 0x3D, 0x18, 0x97, 0x03, 0xBE, 0x90, 0xFF,
  0x27, 0x3D, 0x22, 0x57, 0x07, 0x3E, 0x9C, 0xA3, 0xA2, 0x3D,
  0x4F, 0xC2, 0xCB, 0x3D, 0x30, 0x8C, 0xDD, 0x3D, 0x08, 0x83,
  0xBA, 0x3D, 0x9F, 0x6D, 0x5B, 0x3C, 0x3A, 0xA7, 0x29, 0xBE,
  0xB3, 0x68, 0xB4, 0xBD, 0x51, 0xAE, 0x41, 0x3E, 0xC3, 0x06,
  0x00, 0x3D, 0x58, 0x16, 0x4B, 0x3E, 0xEB, 0x00, 0xDC, 0xBD,
  0x4C, 0xF0, 0x4D, 0x3E, 0xA9, 0xC2, 0x1C, 0xBD, 0xE1, 0x74,
  0x1A, 0x3E, 0x61, 0x37, 0xE2, 0xBD, 0x92, 0x33, 0x48, 0x3E,
  0xE2, 0xBA, 0xC0, 0xBD, 0x75, 0xC3, 0xA6, 0xBC, 0x25, 0x39,
  0x1D, 0x3E, 0x4E, 0x38, 0x15, 0x3E, 0x4C, 0xDF, 0xC6, 0x3D,
  0x50, 0xDE, 0x1A, 0xBE, 0x13, 0x37, 0x1B, 0xBE, 0x93, 0x88,
  0x48, 0x3E, 0x46, 0xAF, 0x4D, 0x3D, 0x9D, 0x79, 0x1B, 0x3E,
  0x12, 0x1B, 0xEB, 0xBC, 0xFD, 0xFA, 0x52, 0xBD, 0x06, 0x77,
  0x69, 0xBC, 0xB2, 0x6A, 0x5D, 0x3E, 0xF2, 0x6B, 0x02, 0x3E,
  0x6F, 0xAB, 0xB0, 0x3C, 0x07, 0xB9, 0x90, 0x3D, 0x2A, 0x63,
  0xCC, 0x3B, 0xEA, 0x9B, 0x16, 0x3E, 0x67, 0x5A, 0xE0, 0xBD,
  0xBB, 0x4F, 0x48, 0xBE, 0x11, 0xB9, 0xBE, 0xBD, 0x80, 0x52,
  0x09, 0xBE, 0x5B, 0xE2, 0x04, 0xBE, 0xA3, 0x37, 0x23, 0xBE,
  0x18, 0x66, 0x4C, 0x3C, 0xD5, 0x27, 0x70, 0x3D, 0x41, 0x45,
  0x12, 0x3E, 0x59, 0x66, 0x1A, 0xBC, 0x5D, 0x76, 0x01, 0x3E,
  0xAE, 0xED, 0xED, 0x3D, 0xE6, 0xE6, 0x4F, 0xBE, 0x85, 0x35,
  0xED, 0x3B, 0xF0, 0x2E, 0xB2, 0x3D, 0x73, 0x07, 0x2E, 0xBE,
  0x36, 0x76, 0x72, 0x3D, 0x6E, 0x7C, 0x6C, 0x3C, 0xDA, 0x06,
  0x11, 0x3E, 0x25, 0xB9, 0xF0, 0x3C, 0x3A, 0xD5, 0x0B, 0xBE,
  0x50, 0x1F, 0xB3, 0xBD, 0x49, 0x0E, 0x70, 0x3D, 0xB9, 0xBD,
  0x3F, 0xBE, 0x9F, 0x8D, 0xEF, 0xBD, 0x68, 0x52, 0xD2, 0x3D,
  0x56, 0xD3, 0xE2, 0xBD, 0xEE, 0x54, 0x15, 0x3E, 0xC5, 0xF9,
  0x53, 0x3B, 0xF8, 0xF8, 0xB4, 0xBD, 0xEE, 0x60, 0x0E, 0x3E,
  0x2A, 0x2A, 0xC4, 0xBC, 0xD4, 0xF1, 0xC2, 0xBD, 0x41, 0x8B,
  0xFD, 0x3D, 0x29, 0x86, 0x04, 0xBD, 0x77, 0x0B, 0x14, 0x3D,
  0xBF, 0x2C, 0x97, 0x3D, 0xF2, 0xC0, 0x1B, 0xBE, 0xA5, 0x53,
  0x35, 0x3E, 0x8B, 0x91, 0x8A, 0x3D, 0xD7, 0x7E, 0x5A, 0x3D,
  0xF8, 0x69, 0x23, 0xBE, 0x0F, 0x68, 0x35, 0x3E, 0xF5, 0xE9,
  0xC4, 0xBD, 0x7A, 0x8F, 0x38, 0x3E, 0x5B, 0x98, 0x01, 0xBE,
  0x56, 0xD3, 0xB6, 0x3D, 0xCC, 0xAA, 0xB8, 0xBB, 0x86, 0x68,
  0x02, 0xBE, 0xAE, 0xD9, 0x12, 0x3E, 0x02, 0x81, 0x21, 0xBE,
  0x14, 0x29, 0x1B, 0x3D, 0x2E, 0xA7, 0xC8, 0xBB, 0x4A, 0xD4,
  0x36, 0xBE, 0xD8, 0x41, 0x18, 0x3E, 0x2F, 0xDA, 0xEF, 0x3D,
  0x9A, 0xF2, 0x11, 0x3E, 0x57, 0xF3, 0x0B, 0x3E, 0x73, 0xCD,
  0x05, 0xBE, 0x88, 0xC3, 0xC0, 0x3D, 0x3C, 0x00, 0xBE, 0xBD,
  0xE4, 0x26, 0x11, 0xBE, 0xBA, 0x54, 0xE3, 0xBD, 0x27, 0xD1,
  0x08, 0x3E, 0x76, 0x55, 0x9A, 0x3C, 0x58, 0x55, 0x2B, 0xBE,
  0xFE, 0x65, 0xB6, 0xBD, 0xFC, 0x7D, 0x36, 0x3E, 0x71, 0x52,
  0x44, 0x3E, 0x42, 0x32, 0x48, 0xBD, 0xA7, 0x48, 0x08, 0xBE,
  0x7F, 0x9F, 0x1F, 0xBE, 0x88, 0xA9, 0x8B, 0x3D, 0x5A, 0x41,
  0x32, 0x3E, 0x7E, 0xDD, 0x49, 0x3D, 0x35, 0x35, 0x46, 0xBE,
  0x61, 0x1D, 0xDD, 0x3C, 0xB5, 0x06, 0xBB, 0xBD, 0xD7, 0x30,
  0x0D, 0x3E, 0x6A, 0x49, 0x8B, 0xBD, 0xA7, 0xAA, 0xC5, 0x3D,
  0x0A, 0xB5, 0x84, 0xBD, 0x1A, 0xB6, 0xB2, 0x3D, 0xA2, 0x4C,
  0xCC, 0xBD, 0x84, 0x3C, 0x3D, 0x3E, 0xEC, 0x44, 0x17, 0xBE,
  0xA0, 0x89, 0x47, 0x3E, 0xAB, 0x0B, 0x46, 0xBE, 0x4A, 0xF0,
  0x26, 0x3D, 0xBC, 0x4C, 0xE7, 0x3D, 0x33, 0xDA, 0xC0, 0xBD,
  0xF2, 0x50, 0x10, 0x3D, 0x9C, 0x6C, 0x43, 0x3C, 0xA2, 0x57,
  0x77, 0xBD, 0x05, 0x13, 0x47, 0x3E, 0xB3, 0x06, 0x7A, 0x3D,
  0xA5, 0x4E, 0x86, 0xBC, 0x72, 0x03, 0xDB, 0x3D, 0x20, 0xDE,
  0x50, 0xBD, 0x55, 0x9B, 0x46, 0xBD, 0x06, 0xFB, 0x3C, 0x3E,
  0x84, 0x46, 0x4E, 0xBE, 0xDD, 0x35, 0xF2, 0xBD, 0x5D, 0xFB,
  0x3F, 0xBE, 0x0B, 0xCD, 0xA9, 0x3C, 0x5C, 0x51, 0x1B, 0x3D,
  0x93, 0x70, 0x94, 0x3D, 0x59, 0x78, 0x35, 0xBE, 0x3B, 0x5D,
  0x85, 0xBD, 0x36, 0x98, 0x2C, 0xBD, 0x22, 0xDF, 0x0D, 0x3E,
  0x73, 0x01, 0x30, 0x3B, 0x8A, 0x57, 0x8F, 0xBD, 0xCF, 0xB0,
  0x14, 0x3D, 0xF3, 0xDB, 0x3D, 0xBE, 0x30, 0xB1, 0x2E, 0x3E,
  0x70, 0x88, 0xB3, 0xBD, 0xF9, 0x12, 0x8A, 0xBA, 0x21, 0x4E,
  0x00, 0xBE, 0x2E, 0x56, 0x37, 0xBE, 0x6D, 0xAD, 0x38, 0xBD,
  0x21, 0xB0, 0x08, 0x3D, 0xF6, 0x6A, 0x35, 0x3D, 0x6F, 0x33,
  0xB9, 0xBC, 0x91, 0x80, 0xFE, 0x3D, 0x5E, 0x53, 0x2C, 0xBB,
  0xE4, 0x75, 0x28, 0x3D, 0xDA, 0x80, 0x68, 0xBC, 0x99, 0xCF,
  0xBB, 0x3D, 0x92, 0xEA, 0x0F, 0x3D, 0x59, 0x55, 0x1F, 0x3E,
  0xFE, 0x53, 0xBA, 0xBD, 0x55, 0x78, 0xFD, 0x3D, 0x01, 0x2E,
  0xCD, 0xBD, 0x66, 0xA6, 0x0B, 0xBE, 0xF7, 0x0F, 0x86, 0x3C,
  0x8F, 0xFF, 0x7F, 0x3D, 0xCC, 0xEF, 0x2A, 0x3E, 0xF7, 0x9D,
  0x45, 0x3E, 0xCD, 0x87, 0xA9, 0xBD, 0x36, 0xE1, 0x12, 0xBD,
  0x76, 0x8E, 0x54, 0x3E, 0x4D, 0x7C, 0x1C, 0xBD, 0x18, 0x7B,
  0x9A, 0x3D, 0x25, 0x38, 0x82, 0xBD, 0xE4, 0x0F, 0x4A, 0x3E,
  0xE3, 0x90, 0x9A, 0x3D, 0x79, 0x8A, 0x86, 0x3D, 0x81, 0x9E,
  0x2B, 0xBE, 0xFD, 0xF5, 0xBB, 0x3D, 0xEB, 0xDE, 0x7D, 0xBD,
  0x0B, 0x00, 0xBA, 0x3D, 0xF3, 0x86, 0x02, 0x3E, 0xBE, 0xE0,
  0xFF, 0xFF, 0x04, 0x00, 0x00, 0x00, 0x00, 0x09, 0x00, 0x00,
  0x1F, 0xB9, 0x0F, 0x3E, 0xC2, 0x81, 0x1C, 0x3D, 0xC7, 0x13,
  0x30, 0x3E, 0xBA, 0x96, 0xF9, 0xBD, 0x5A, 0xD5, 0x1C, 0x3B,
  0x99, 0x29, 0xDD, 0x3D, 0x4A, 0xF3, 0x39, 0xBE, 0x45, 0xA6,
  0xE9, 0xBD, 0x88, 0x23, 0xD3, 0xBD, 0xD9, 0x50, 0x8B, 0xBC,
  0x88, 0xE7, 0xF2, 0x3C, 0x85, 0x29, 0x9A, 0xBD, 0xD6, 0xCB,
  0xF9, 0x3D, 0xE2, 0xE3, 0x3E, 0x3E, 0x5D, 0x24, 0x79, 0xBD,
  0x74, 0xCD, 0xF0, 0x3C, 0xF9, 0x4B, 0x49, 0x3E, 0x8D, 0xCB,
  0xF3, 0xBD, 0x8B, 0x1D, 0x1B, 0xBE, 0x8E, 0x53, 0x1B, 0xBE,
  0x6F, 0x83, 0x9B, 0xBC, 0x65, 0x23, 0x03, 0xBB, 0xE1, 0xE8,
  0x2F, 0xBE, 0x74, 0x4A, 0xE0, 0x3D, 0x1B, 0x93, 0x27, 0xBE,
  0x0C, 0x59, 0x4B, 0x3E, 0x9A, 0x9D, 0xDB, 0xBD, 0x3C, 0x83,
  0x40, 0xBE, 0x79, 0xDE, 0xF1, 0x3D, 0xFD, 0xB8, 0x34, 0x3D,
  0xE8, 0x80, 0x7D, 0xBD, 0x03, 0x9D, 0xAD, 0x3D, 0xFB, 0xE9,
  0x10, 0x3E, 0xA3, 0x16, 0xF7, 0x3D, 0xF6, 0x77, 0x1D, 0xBE,
  0x77, 0xA9, 0x41, 0x3E, 0x7A, 0x0B, 0xA6, 0x3C, 0x4D, 0xDB,
  0x42, 0x3C, 0x35, 0x3A, 0x26, 0x3E, 0x6D, 0x9A, 0x16, 0x3E,
  0x16, 0xC9, 0x21, 0xBE, 0x7A, 0xE6, 0x94, 0x3D, 0x3B, 0xAE,
  0xBC, 0xBD, 0xCA, 0x02, 0x3A, 0x3D, 0x25, 0x01, 0xA2, 0xBD,
  0xF5, 0x82, 0x39, 0xBB, 0x22, 0xFE, 0x34, 0xBE, 0x71, 0x8C,
  0x7A, 0xBD, 0xDA, 0x8C, 0x57, 0x3D, 0x81, 0x8F, 0xB8, 0xBD,
  0x02, 0xEB, 0xB7, 0x3D, 0x90, 0xFF, 0x14, 0xBD, 0x52, 0x50,
  0xE5, 0xBD, 0x82, 0xDA, 0x1B, 0xBE, 0xB4, 0x9D, 0x8A, 0x3D,
  0xA2, 0x84, 0x05, 0x3E, 0xF3, 0xCF, 0x06, 0x3E, 0xFC, 0x36,
  0xA9, 0xBD, 0x95, 0x77, 0xF3, 0x3B, 0xD4, 0x1B, 0x00, 0x3E,
  0x49, 0xA5, 0x1F, 0x3E, 0xBF, 0x5D, 0xD4, 0x3D, 0x31, 0x80,
  0x37, 0xBE, 0x34, 0x3F, 0x28, 0xBC, 0x3A, 0x12, 0x8B, 0x3D,
  0x56, 0xC3, 0x6B, 0x3D, 0x0F, 0x96, 0x40, 0x3E, 0x6D, 0x8D,
  0x36, 0x3E, 0x79, 0xA0, 0x16, 0x3C, 0xF1, 0x6B, 0x63, 0x3D,
  0x0B, 0x1B, 0x08, 0x3E, 0xB3, 0xAD, 0xF2, 0xBC, 0x1E, 0x7E,
  0x8B, 0xBD, 0xB8, 0x3C, 0x2F, 0x3E, 0x64, 0x67, 0x9B, 0xBC,
  0xBA, 0x72, 0x38, 0xBE, 0xAE, 0x06, 0x35, 0x3E, 0x99, 0x95,
  0xE7, 0x3D, 0x37, 0xF4, 0x92, 0xBB, 0x56, 0xC7, 0x88, 0xBD,
  0x72, 0xBA, 0xF0, 0xBD, 0xE9, 0xAB, 0x09, 0x3E, 0x16, 0xC4,
  0x73, 0x3D, 0x1D, 0xF5, 0x3A, 0xBD, 0x76, 0xB9, 0x0F, 0x3E,
  0x9F, 0x5A, 0x18, 0x3D, 0xD0, 0xFD, 0xA2, 0x3D, 0x6C, 0x7B,
  0x17, 0x3C, 0xAD, 0x6C, 0x9F, 0x3D, 0x99, 0x55, 0x17, 0xBE,
  0x76, 0xC7, 0x43, 0xBC, 0xC2, 0x2A, 0xDF, 0x3D, 0xB7, 0xDA,
  0x15, 0x3E, 0xA1, 0x6B, 0xD3, 0xBD, 0x28, 0x6E, 0xB2, 0x3D,
  0xD7, 0x2A, 0x29, 0xBE, 0xED, 0x16, 0x96, 0xBD, 0x2E, 0xF9,
  0xBB, 0xBD, 0x04, 0x4B, 0xD1, 0x3D, 0x6B, 0xAE, 0x29, 0x3E,
  0x50, 0x5C, 0xB4, 0xBD, 0x98, 0x21, 0x16, 0x3C, 0x17, 0x2E,
  0x38, 0xBE, 0x09, 0x8E, 0x0A, 0xBE, 0x1A, 0xCE, 0x3B, 0xBC,
  0x7C, 0x90, 0x17, 0x3D, 0xB5, 0x0B, 0x91, 0xBD, 0xFD, 0xC7,
  0x3F, 0xBE, 0x5E, 0x2C, 0x94, 0xBD, 0x09, 0x9B, 0x4D, 0xBE,
  0x71, 0xDF, 0x2C, 0x3E, 0x66, 0xF4, 0x6B, 0x3C, 0xE5, 0xAE,
  0x56, 0x3D, 0xCA, 0xAC, 0x40, 0xBB, 0x45, 0xB3, 0xDC, 0x3D,
  0x56, 0x7F, 0x97, 0xBD, 0x93, 0x58, 0xE7, 0x3D, 0x76, 0xC5,
  0x23, 0xBE, 0xED, 0xB9, 0xE9, 0x3C, 0x4C, 0x4B, 0x62, 0x3D,
  0xFF, 0x6E, 0x30, 0x3D, 0xEE, 0x24, 0xE0, 0x3C, 0x87, 0x44,
  0xF1, 0x3D, 0x96, 0xD6, 0x3C, 0xBD, 0x6B, 0x25, 0xB5, 0xBD,
  0x9B, 0x41, 0x45, 0xBE, 0xFD, 0xC6, 0x15, 0x3E, 0x46, 0xC1,
  0x3C, 0xBE, 0x5F, 0xD6, 0x52, 0xBA, 0xAF, 0x7E, 0x87, 0xBC,
  0xE1, 0x70, 0x4A, 0x3E, 0x92, 0xF0, 0x05, 0xBE, 0xB6, 0xA6,
  0x4C, 0xBE, 0x02, 0x9C, 0xA5, 0x3D, 0x17, 0xEE, 0x24, 0x3E,
  0x69, 0x72, 0x07, 0x3E, 0xF4, 0x66, 0x07, 0x3E, 0x4E, 0xE1,
  0x1E, 0x3C, 0x23, 0x95, 0x96, 0xBD, 0x3E, 0xA9, 0x5D, 0xBD,
  0xF0, 0xA3, 0x89, 0xBD, 0xEB, 0x9B, 0x55, 0xBD, 0x7B, 0x66,
  0x0C, 0xBE, 0x94, 0x70, 0xF6, 0xBC, 0xD1, 0xBE, 0xC7, 0xBC,
  0x72, 0x65, 0x96, 0xBD, 0x21, 0x04, 0x55, 0xBE, 0x8C, 0xFF,
  0xD5, 0x3D, 0xF4, 0x9E, 0x20, 0xBE, 0xF5, 0x57, 0xB8, 0xBD,
  0xE6, 0xC3, 0x9D, 0x3D, 0xF3, 0xD7, 0x00, 0x3D, 0xD3, 0x72,
  0xD4, 0xBD, 0xC4, 0x80, 0x51, 0xBE, 0xE6, 0x8C, 0x18, 0x3E,
  0xA1, 0x56, 0xA3, 0x3D, 0x4F, 0xCC, 0x08, 0x3C, 0x3B, 0xB6,
  0xB3, 0x3D, 0x89, 0xFA, 0xC1, 0x3C, 0xC1, 0xBC, 0xBB, 0x3D,
  0xE5, 0x3B, 0x87, 0xBB, 0x7B, 0x4C, 0x4D, 0xBE, 0x3E, 0x10,
  0x40, 0xBE, 0xC0, 0xD3, 0x3E, 0xBC, 0x70, 0x21, 0x41, 0xBE,
  0x3F, 0xB0, 0xEA, 0x3C, 0x92, 0xD5, 0x9F, 0x3D, 0x08, 0x3F,
  0x24, 0x3E, 0x6E, 0x1D, 0x09, 0xBE, 0xBD, 0x9A, 0x1C, 0x3E,
  0xEC, 0x99, 0x16, 0x3E, 0x48, 0x69, 0xF4, 0x3D, 0xA8, 0xC3,
  0x86, 0x3D, 0x4F, 0x7F, 0x31, 0xBC, 0x68, 0x90, 0xA8, 0x3D,
  0x54, 0x96, 0xA9, 0x3D, 0x02, 0xC6, 0x32, 0xBE, 0xE0, 0xF4,
  0x0C, 0xBC, 0xB3, 0xE2, 0x94, 0xBD, 0xBB, 0xFE, 0x78, 0xBD,
  0xE1, 0x77, 0x36, 0x3D, 0x45, 0xAE, 0x16, 0xBE, 0xA6, 0xD6,
  0x25, 0xBE, 0x9D, 0xB2, 0x2C, 0xBE, 0x8B, 0x33, 0x40, 0xBE,
  0xA9, 0x94, 0xDD, 0x3D, 0x42, 0xB0, 0x37, 0x3D, 0xD8, 0xA6,
  0x27, 0x3B, 0xED, 0x85, 0x23, 0x3C, 0x2B, 0x1D, 0xAB, 0x3D,
  0xDD, 0x3C, 0x38, 0xBC, 0xF3, 0x7C, 0x2D, 0xBE, 0x24, 0x8C,
  0x51, 0x3D, 0xD2, 0xE8, 0x37, 0xBE, 0x88, 0x1B, 0x3E, 0xBE,
  0x5B, 0x4E, 0x18, 0xBE, 0x02, 0xBC, 0xED, 0xBD, 0x2E, 0x64,
  0x80, 0x3D, 0xEE, 0xC0, 0x18, 0x3E, 0xAA, 0xA4, 0x64, 0x3D,
  0x28, 0x7E, 0xC0, 0x3A, 0x9C, 0x51, 0x25, 0x3E, 0xD6, 0x47,
  0x20, 0xBE, 0x8B, 0x96, 0x13, 0xBD, 0x64, 0x75, 0xA4, 0x3D,
  0x03, 0x38, 0x0D, 0x3C, 0xB2, 0x20, 0x45, 0x3D, 0xE2, 0xD5,
  0x91, 0x3C, 0x45, 0x84, 0x31, 0x3E, 0xF8, 0xC5, 0x39, 0xBE,
  0x81, 0x83, 0x30, 0x3E, 0x26, 0x69, 0x2A, 0xBE, 0xAB, 0x18,
  0x44, 0xBD, 0xA0, 0x54, 0x4B, 0x3E, 0xBD, 0x31, 0x17, 0xBE,
  0x9A, 0x90, 0xFD, 0x3A, 0x40, 0xD9, 0x05, 0x3D, 0xBF, 0x28,
  0x22, 0xBE, 0x31, 0x22, 0x1A, 0x3E, 0x35, 0xCD, 0xA3, 0x3D,
  0xF6, 0x66, 0x65, 0x3D, 0xFD, 0x66, 0x14, 0x3E, 0xED, 0x48,
  0x93, 0x3D, 0xFA, 0xFD, 0x8D, 0x3D, 0xC9, 0x43, 0xDA, 0xBD,
  0xCF, 0xBE, 0x69, 0xBB, 0x82, 0x14, 0x86, 0x3D, 0xB4, 0x2C,
  0x49, 0x3E, 0x17, 0xE7, 0x6A, 0xBC, 0xD3, 0x55, 0x08, 0xBE,
  0x7A, 0x93, 0x3A, 0xBE, 0xF0, 0x9C, 0x91, 0xBD, 0xD3, 0xE4,
  0x3F, 0x3E, 0xF2, 0xA2, 0x20, 0x3E, 0xC0, 0x15, 0xEF, 0xBD,
  0x5D, 0x66, 0xE7, 0x3D, 0xDB, 0x4E, 0x4E, 0x3A, 0x85, 0x47,
  0xB0, 0x3D, 0x91, 0xAC, 0x87, 0x3D, 0xFF, 0xD1, 0x30, 0x3E,
  0x4D, 0xCE, 0x53, 0x3D, 0x73, 0xE1, 0xFF, 0x3D, 0x07, 0x17,
  0xE7, 0xBD, 0x97, 0xD0, 0xCD, 0xBD, 0x96, 0xE8, 0xCD, 0xBD,
  0x60, 0x1C, 0x58, 0x3D, 0x1A, 0x81, 0x9C, 0xBD, 0x7B, 0xB2,
  0xDA, 0xBD, 0x04, 0x6B, 0x4D, 0xBE, 0x4F, 0x37, 0x05, 0xBE,
  0x94, 0x05, 0xF6, 0x3B, 0x6F, 0x3E, 0xC8, 0x3D, 0x28, 0x88,
  0xEF, 0xBD, 0x76, 0x63, 0x09, 0x3E, 0x80, 0x65, 0x83, 0x3D,
  0x66, 0x3B, 0x7D, 0x3D, 0xC4, 0x4B, 0x4B, 0x3D, 0x40, 0x1C,
  0x91, 0x3D, 0x6F, 0x11, 0xA3, 0x3D, 0xCC, 0x6A, 0x10, 0x3C,
  0x68, 0x05, 0xCB, 0xBD, 0x47, 0x1F, 0x28, 0x3E, 0xC6, 0x5D,
  0xDB, 0xBD, 0xC7, 0x24, 0x22, 0xBE, 0x86, 0x45, 0x39, 0xBE,
  0xA1, 0x3C, 0x02, 0xBE, 0xDD, 0x5B, 0x8C, 0xBD, 0x44, 0xB2,
  0x45, 0x3E, 0x66, 0x58, 0x0C, 0x3E, 0x34, 0x31, 0x0A, 0x3E,
  0x9A, 0xD0, 0xAD, 0xBD, 0xD8, 0x53, 0x0F, 0xBE, 0xEE, 0x68,
  0xD0, 0xBD, 0x89, 0xCB, 0x16, 0xBE, 0xCA, 0xBB, 0x40, 0x3E,
  0x91, 0x82, 0x2F, 0x3E, 0x61, 0xC3, 0x2D, 0x3E, 0xA0, 0xD6,
  0x50, 0x3D, 0x62, 0x21, 0x52, 0x3E, 0xEA, 0x5E, 0x81, 0xBD,
  0x79, 0xB7, 0xEE, 0x3D, 0x56, 0x7E, 0x8C, 0xBD, 0xA6, 0xCD,
  0x5D, 0x3E, 0xDF, 0x69, 0xAD, 0xBD, 0x86, 0xB8, 0xDF, 0x3D,
  0x10, 0xF7, 0xD1, 0xBD, 0x4B, 0x14, 0x1D, 0x3E, 0x63, 0x83,
  0xB4, 0xBD, 0x1E, 0x87, 0x0C, 0xBE, 0xD2, 0xDA, 0x4B, 0xBD,
  0xF2, 0x31, 0x56, 0x3E, 0x7F, 0x5F, 0x8D, 0xBD, 0xE1, 0x70,
  0xDA, 0xBD, 0x48, 0x37, 0x20, 0xBB, 0x94, 0x35, 0x5F, 0xBA,
  0x00, 0x6C, 0x83, 0xBD, 0xEC, 0xD9, 0xFF, 0xBD, 0xB4, 0xA6,
  0xB1, 0x3B, 0x86, 0x13, 0x64, 0x3E, 0x63, 0xD2, 0x37, 0xBE,
  0x57, 0x0B, 0x9A, 0x3C, 0x70, 0xE0, 0x9D, 0x3D, 0xA5, 0x73,
  0x9F, 0x3D, 0xDB, 0xDF, 0x45, 0xBD, 0x21, 0x03, 0x22, 0x3E,
  0xD5, 0xDA, 0x69, 0x3C, 0xCA, 0x35, 0x64, 0x3E, 0xA4, 0x65,
  0xB5, 0xBD, 0xC7, 0x70, 0x87, 0xBD, 0x0C, 0x5C, 0x44, 0x3E,
  0xAC, 0xAE, 0x8F, 0xBD, 0x05, 0x95, 0xD4, 0xBC, 0x66, 0x0E,
  0x4F, 0xBD, 0xE3, 0x79, 0xEB, 0x3D, 0x72, 0xDA, 0x47, 0x3E,
  0xE8, 0x6B, 0x56, 0xBD, 0x3E, 0x92, 0x20, 0xBC, 0x20, 0xB9,
  0xB7, 0xBD, 0xC2, 0xE3, 0x62, 0xBD, 0x9F, 0xF1, 0x4A, 0xBC,
  0x76, 0x25, 0x9E, 0xBD, 0x6B, 0x53, 0x92, 0xBD, 0x50, 0xAD,
  0xD9, 0xBC, 0xD5, 0x66, 0x79, 0x3D, 0x82, 0xB6, 0xB4, 0xBD,
  0x9B, 0xB2, 0xA2, 0x3D, 0x98, 0x7A, 0x9A, 0x3C, 0x5C, 0x1E,
  0xF8, 0x3D, 0x5C, 0xAD, 0x9C, 0xBD, 0xAF, 0xA3, 0x4D, 0x3E,
  0xE4, 0xC6, 0x43, 0x3E, 0x41, 0x5C, 0x0E, 0x3C, 0x83, 0x30,
  0xCA, 0x3C, 0xEC, 0xEB, 0x49, 0xBD, 0x0F, 0x74, 0x24, 0x3E,
  0x39, 0x70, 0xBC, 0xBD, 0x36, 0x6F, 0x0E, 0x3E, 0xA6, 0xA4,
  0x1B, 0x3D, 0x3E, 0x8A, 0x88, 0xBD, 0xA8, 0x83, 0x02, 0x3E,
  0x66, 0x06, 0xCC, 0x3C, 0x5C, 0x7F, 0x5F, 0xBD, 0xCB, 0xE4,
  0x51, 0x3C, 0x3F, 0x9B, 0x56, 0x3E, 0x71, 0xF7, 0xD4, 0x3C,
  0xA9, 0xAD, 0x4C, 0x3D, 0xDE, 0x72, 0x51, 0x3E, 0xB3, 0xD0,
  0x69, 0x3D, 0x32, 0xCC, 0xD0, 0xBD, 0xCC, 0x60, 0x11, 0x3E,
  0x55, 0xD7, 0x05, 0x3E, 0xFD, 0x8E, 0xF7, 0xBD, 0x0F, 0xDE,
  0x97, 0xBC, 0x41, 0x1A, 0x27, 0x3E, 0xBA, 0x2E, 0x08, 0x3D,
  0x83, 0x3A, 0x36, 0x3D, 0x2B, 0x48, 0xDC, 0xBD, 0x3F, 0xE1,
  0x9E, 0xBD, 0x7D, 0x9A, 0xF4, 0xBB, 0x96, 0x9F, 0x5A, 0xBC,
  0xA5, 0x50, 0x27, 0xBD, 0x41, 0x92, 0x76, 0xBD, 0x17, 0xFC,
  0x00, 0x3E, 0x31, 0x97, 0xF6, 0x3D, 0x9B, 0xD0, 0x04, 0x3E,
  0x31, 0x40, 0x21, 0x3E, 0x67, 0x93, 0xFE, 0x3D, 0x14, 0x6B,
  0x3E, 0x3E, 0x17, 0xEC, 0x50, 0xBE, 0x26, 0x99, 0xC0, 0x3D,
  0x51, 0xBE, 0x3A, 0x3D, 0xFA, 0x65, 0x92, 0xBD, 0xBD, 0xD5,
  0x3B, 0xBE, 0x36, 0xE1, 0x74, 0xBB, 0x83, 0x09, 0x24, 0x3E,
  0xA3, 0x95, 0xE0, 0xBD, 0x3A, 0xB3, 0x32, 0xBE, 0x4D, 0xFF,
  0xAF, 0xBD, 0x00, 0x50, 0x43, 0xBE, 0x92, 0x31, 0x25, 0x3D,
  0x3C, 0xBE, 0xF7, 0x3D, 0xE3, 0x66, 0xEC, 0x3D, 0xB7, 0x51,
  0x3D, 0xBE, 0xEB, 0xD4, 0x3D, 0x3E, 0x02, 0x28, 0x19, 0xBE,
  0x83, 0x9F, 0x65, 0xBD, 0x4D, 0xF5, 0xF9, 0x3D, 0x82, 0x40,
  0x5C, 0x3D, 0x30, 0x2D, 0x3B, 0x3E, 0x2F, 0x57, 0x98, 0x3D,
  0x1C, 0x1F, 0xB2, 0x3D, 0x25, 0x6E, 0x40, 0xBE, 0xA8, 0x1F,
  0x5E, 0x3D, 0x7C, 0x5F, 0x0D, 0x3E, 0x5E, 0x6E, 0x35, 0xBE,
  0x67, 0x04, 0x17, 0xBC, 0xCF, 0x57, 0x92, 0xBC, 0xCD, 0xCE,
  0x23, 0x3E, 0xB0, 0xC4, 0xD7, 0x3D, 0xDA, 0x8D, 0xD9, 0x3C,
  0x51, 0x6E, 0xB7, 0xBB, 0x0C, 0x49, 0xCB, 0x3D, 0x8B, 0xF0,
  0xCB, 0xBC, 0x1B, 0x37, 0xB8, 0xBD, 0xF4, 0x2C, 0x5E, 0x37,
  0xD3, 0x86, 0x81, 0x3D, 0x57, 0x76, 0x1E, 0x3C, 0xAC, 0xA3,
  0xB5, 0x3D, 0x14, 0xEE, 0x21, 0xBE, 0x85, 0xDD, 0x36, 0x3C,
  0x4F, 0x4A, 0xC3, 0xBC, 0xBF, 0x34, 0x33, 0x3E, 0xA4, 0xC0,
  0xA8, 0xBD, 0x15, 0x64, 0x93, 0xBD, 0x31, 0xDF, 0x62, 0x3C,
  0x16, 0xD5, 0xF0, 0xBD, 0x00, 0x6F, 0x3B, 0xBE, 0xB8, 0x72,
  0xC4, 0x3C, 0x84, 0xF7, 0xD0, 0x3D, 0xFD, 0x5B, 0x28, 0xBD,
  0x12, 0x79, 0x3F, 0xBE, 0x92, 0x13, 0xA1, 0xBD, 0x0C, 0x33,
  0x56, 0x3E, 0x42, 0x80, 0xF3, 0x3D, 0xFD, 0xFC, 0x2F, 0x3E,
  0xC5, 0x93, 0x97, 0x3D, 0x19, 0x02, 0x24, 0x3E, 0xF0, 0x7F,
  0x6E, 0x3D, 0x8C, 0xB6, 0x0E, 0xBE, 0x29, 0x79, 0xB7, 0xBD,
  0x10, 0xAC, 0x51, 0x3D, 0xF4, 0x8C, 0xEF, 0xBD, 0x46, 0xFF,
  0xBA, 0xBD, 0xC3, 0x88, 0x20, 0x3D, 0x25, 0x96, 0x1F, 0xBD,
  0x7D, 0x37, 0xA5, 0x3D, 0x61, 0x73, 0x1B, 0xBD, 0xC7, 0x9C,
  0xF0, 0x3D, 0xED, 0xC9, 0xA1, 0xBD, 0x40, 0x5C, 0x86, 0xBD,
  0xA2, 0x01, 0x91, 0x3D, 0x90, 0xC2, 0x46, 0xBC, 0x7D, 0xC3,
  0xBF, 0xBD, 0x40, 0x11, 0x5C, 0xBC, 0xE4, 0xE9, 0x23, 0xBD,
  0x60, 0x52, 0x03, 0xBD, 0x20, 0x2E, 0x50, 0x3E, 0xE7, 0x86,
  0x96, 0xBD, 0x11, 0x72, 0x80, 0xBD, 0x8A, 0x66, 0x50, 0x3E,
  0x3C, 0xD5, 0xD0, 0xBD, 0x1A, 0x3F, 0x50, 0xBD, 0x15, 0x70,
  0x35, 0xBE, 0x75, 0x13, 0xC9, 0xBD, 0x35, 0xE1, 0xDE, 0xBD,
  0xA8, 0xCF, 0x21, 0x3E, 0x3C, 0x58, 0x2D, 0x3E, 0x38, 0xD9,
  0xA0, 0xBD, 0x56, 0x30, 0x1E, 0x3D, 0x10, 0x76, 0x96, 0x3D,
  0x6E, 0x53, 0x04, 0x3E, 0x1C, 0x82, 0x3F, 0x3E, 0xA5, 0x80,
  0xBD, 0x3D, 0xBA, 0xD2, 0x46, 0xBE, 0x19, 0x9F, 0x0D, 0xBE,
  0xDE, 0x6D, 0xF0, 0x3D, 0x32, 0xB9, 0x32, 0xBD, 0xEE, 0xB1,
  0x7F, 0x3C, 0x48, 0x76, 0x0C, 0xBE, 0x57, 0xBF, 0x0D, 0xBD,
  0xBF, 0x4A, 0x27, 0xBE, 0x2B, 0xC6, 0xE4, 0xBD, 0xF5, 0x7D,
  0x7B, 0x3D, 0xAF, 0x04, 0x3F, 0x3D, 0xBE, 0xCC, 0xCC, 0xBD,
  0x78, 0x53, 0x6E, 0xBD, 0x60, 0x98, 0x89, 0x3D, 0x73, 0xED,
  0xCA, 0xBD, 0xD8, 0x57, 0xA3, 0x3C, 0x3F, 0xCB, 0x1B, 0x3E,
  0x06, 0x64, 0x20, 0xBE, 0x11, 0x62, 0x99, 0x3D, 0x74, 0x12,
  0x50, 0xBE, 0xFB, 0x13, 0x89, 0xBC, 0x4A, 0x4E, 0x7F, 0xBC,
  0x14, 0xDA, 0xDE, 0x3C, 0xCA, 0xD8, 0xAE, 0xBD, 0x5F, 0xEB,
  0x44, 0xBE, 0x1A, 0xAC, 0x8A, 0x3D, 0x36, 0xE6, 0x4E, 0xBE,
  0x47, 0xA2, 0x03, 0xBD, 0xD5, 0xB8, 0x40, 0x3E, 0xD2, 0x62,
  0xC6, 0x3D, 0x63, 0x97, 0xFB, 0xBB, 0xEE, 0xA9, 0xA6, 0xBD,
  0xC2, 0x50, 0x09, 0xBD, 0x11, 0xAC, 0x2C, 0x3E, 0xBD, 0xA5,
  0xA7, 0xBC, 0xEA, 0xC3, 0x7A, 0x3D, 0xAD, 0x33, 0x62, 0x3D,
  0x54, 0x4E, 0xF1, 0xBA, 0x96, 0xF9, 0x4A, 0xBE, 0xBE, 0x60,
  0x1C, 0xBE, 0xDF, 0x47, 0xB4, 0xBD, 0x2D, 0xC1, 0x19, 0xBE,
  0x45, 0x2A, 0x63, 0xBC, 0x85, 0xB0, 0x35, 0xBE, 0x5A, 0x0F,
  0xB5, 0x3D, 0xAD, 0xEE, 0x2C, 0x3E, 0xE5, 0x12, 0x19, 0xBE,
  0x88, 0xB4, 0x4F, 0xBE, 0xC9, 0x67, 0xCD, 0xBD, 0xC9, 0x4C,
  0x3D, 0x3D, 0xE1, 0xEE, 0x01, 0x3E, 0x54, 0xA7, 0x07, 0x3D,
  0x7F, 0xDE, 0x45, 0x3D, 0x8C, 0x8C, 0xED, 0xBD, 0xA3, 0x2B,
  0xD2, 0xBD, 0x0F, 0x2D, 0x0F, 0x3C, 0xC4, 0x11, 0x0A, 0x3D,
  0x8B, 0xA5, 0x54, 0xBD, 0xEC, 0xF7, 0x27, 0x3E, 0x2A, 0x30,
  0xEC, 0xBD, 0x2F, 0xA4, 0xC4, 0x3D, 0x8F, 0x58, 0x0C, 0x3E,
  0x3D, 0xAC, 0xEF, 0x3B, 0xFA, 0xB4, 0x99, 0x3D, 0x26, 0x84,
  0xFE, 0x3D, 0x49, 0x67, 0x70, 0xBD, 0xB2, 0x34, 0xA4, 0xBD,
  0xC0, 0xB7, 0x70, 0xBD, 0xE4, 0x62, 0xB1, 0xBC, 0x89, 0x58,
  0x30, 0xBB, 0xF6, 0x1B, 0x62, 0xBD, 0x90, 0x80, 0x13, 0xBE,
  0xE6, 0xAD, 0x2B, 0x3E, 0x32, 0x55, 0x7F, 0xBD, 0x71, 0xA4,
  0xC9, 0x3D, 0x68, 0xA5, 0xE4, 0xBD, 0x23, 0x74, 0x10, 0xBE,
  0xE7, 0x9C, 0x0B, 0xBE, 0x58, 0xAE, 0x27, 0xBE, 0xE0, 0x4B,
  0x0D, 0x3E, 0xF4, 0x93, 0xB2, 0x3B, 0x1B, 0x5B, 0x37, 0x3E,
  0x8E, 0xC2, 0x15, 0xBE, 0x2D, 0xF8, 0xE7, 0x3D, 0x6D, 0x55,
  0x8E, 0xBD, 0x11, 0x56, 0xAB, 0xBD, 0x42, 0xB0, 0x1F, 0x3E,
  0xCF, 0x95, 0xC6, 0xBD, 0x52, 0xBD, 0x0B, 0xBE, 0x29, 0xE8,
  0x1C, 0x3E, 0x3F, 0x5F, 0x18, 0x3D, 0x6B, 0xD1, 0x9E, 0x3D,
  0xB9, 0xD5, 0x2A, 0x3E, 0x25, 0xE4, 0x3D, 0x3E, 0x54, 0xC4,
  0x21, 0x3E, 0x42, 0xA0, 0x32, 0xBE, 0xAF, 0x9C, 0xD2, 0x3D,
  0xE2, 0xB7, 0xB4, 0xBD, 0xAF, 0x6B, 0x22, 0x3E, 0x9E, 0x27,
  0x39, 0xBE, 0x0F, 0xD9, 0x4B, 0xBD, 0x22, 0xD4, 0x04, 0x3E,
  0xDA, 0x73, 0x24, 0x3E, 0xBE, 0x08, 0x40, 0xBE, 0xAC, 0x53,
  0xAD, 0x3D, 0x27, 0x60, 0x1F, 0x3E, 0xAB, 0xE8, 0x77, 0xBD,
  0x31, 0xCB, 0x03, 0xBE, 0xBE, 0x8E, 0x36, 0x3E, 0x4A, 0x96,
  0xCE, 0xBD, 0x2B, 0x82, 0x95, 0x3C, 0x7A, 0xDE, 0x3A, 0xBB,
  0x09, 0x81, 0x19, 0x3E, 0xCA, 0xE9, 0xFF, 0xFF, 0x04, 0x00,
  0x00, 0x00, 0x00, 0x09, 0x00, 0x00, 0x9B, 0xF5, 0x1B, 0x3E,
  0xBA, 0x94, 0x20, 0x3E, 0x14, 0xAA, 0x9E, 0x3D, 0x48, 0x5A,
  0xB0, 0xBD, 0xDB, 0x2C, 0x74, 0xBD, 0x34, 0x7B, 0xA4, 0x3D,
  0x65, 0x82, 0xE0, 0x3D, 0xF8, 0xB3, 0x16, 0xBE, 0xD1, 0x72,
  0x6A, 0xBD, 0xCC, 0x26, 0x82, 0x3D, 0xBC, 0x47, 0xB3, 0xBC,
  0x47, 0x5F, 0xFF, 0xBD, 0x9F, 0x15, 0x4B, 0x3E, 0xBD, 0xEF,
  0xD8, 0xBD, 0xBE, 0x51, 0xB1, 0xBB, 0xC4, 0xD1, 0x31, 0xBE,
  0xCA, 0x41, 0x30, 0x3E, 0x58, 0xD3, 0x25, 0xBE, 0xB2, 0x4E,
  0x4C, 0x3D, 0x7F, 0x02, 0x02, 0xBE, 0x50, 0x5D, 0x43, 0xBE,
  0x6D, 0x7F, 0x87, 0xBD, 0x9F, 0x23, 0x42, 0xBE, 0xB7, 0xAA,
  0x15, 0xBE, 0x5F, 0x9F, 0x28, 0xBE, 0x4D, 0xC7, 0x31, 0xBD,
  0x4E, 0x42, 0xC0, 0x3D, 0x16, 0xDF, 0x17, 0x3E, 0xF2, 0xCA,
  0x9D, 0x3D, 0x21, 0xA2, 0xE6, 0x3D, 0xF0, 0x05, 0x20, 0xBE,
  0xCE, 0xE9, 0x17, 0xBE, 0xA2, 0xF2, 0xBF, 0xBD, 0xE2, 0xE0,
  0x60, 0x3D, 0x75, 0xBC, 0x31, 0x3E, 0x82, 0xA3, 0x03, 0x3E,
  0xC8, 0x4F, 0x23, 0xBE, 0x89, 0x7A, 0x38, 0xBD, 0x06, 0xD2,
  0xBF, 0xBB, 0x80, 0x3A, 0x84, 0x3D, 0x5D, 0x3A, 0xE0, 0xBD,
  0xC6, 0xA6, 0x4D, 0x3D, 0xA3, 0x80, 0x15, 0x3A, 0x84, 0xE7,
  0x2F, 0xBE, 0x08, 0xC5, 0x2E, 0x3E, 0x0C, 0xE4, 0xF6, 0xBD,
  0xF9, 0x6F, 0x40, 0xBE, 0x99, 0x11, 0x0D, 0x3E, 0x29, 0x51,
  0xC5, 0x3D, 0x05, 0x39, 0xDF, 0xBD, 0xFA, 0xD4, 0x2C, 0xBE,
  0xD2, 0x06, 0x1F, 0x3E, 0x42, 0xBF, 0x0A, 0x3D, 0xA3, 0xF1,
  0xB7, 0x3D, 0xEB, 0xF4, 0x9B, 0xBC, 0x96, 0x3E, 0x29, 0xBE,
  0x49, 0x76, 0xD4, 0xBD, 0x23, 0x27, 0x2F, 0xBE, 0xAD, 0xE0,
  0xEA, 0xBD, 0x38, 0x43, 0xBB, 0xBD, 0xF6, 0xAB, 0xCC, 0xBD,
  0xB5, 0xBB, 0x67, 0x3C, 0x4D, 0x30, 0x13, 0xBE, 0xE7, 0x4F,
  0xD0, 0xBC, 0x7D, 0x96, 0x32, 0xBE, 0x3A, 0x77, 0x9C, 0x3D,
  0x51, 0x9D, 0x46, 0x3E, 0x2B, 0x06, 0xB7, 0x3D, 0x0E, 0xE1,
  0x3C, 0xBE, 0xC8, 0x1A, 0x1F, 0x3E, 0x8C, 0xE2, 0x20, 0xBE,
  0x77, 0x69, 0xAA, 0x3D, 0x88, 0x66, 0xEF, 0x3D, 0x3D, 0xF7,
  0xBD, 0xBD, 0x77, 0xCA, 0x47, 0x3E, 0x08, 0xDA, 0x87, 0x3C,
  0xC9, 0x6E, 0x1E, 0xBE, 0x01, 0xA7, 0xA7, 0xBC, 0xBF, 0x12,
  0x41, 0xBE, 0xB9, 0xEC, 0x42, 0x3E, 0xF0, 0x83, 0x90, 0xBD,
  0x5A, 0x57, 0x85, 0xBD, 0x7B, 0x1D, 0x1D, 0xBC, 0x8F, 0x06,
  0x28, 0xBD, 0x28, 0x8B, 0xDC, 0xBD, 0x65, 0x4C, 0xDD, 0x3B,
  0xB2, 0x86, 0xD7, 0xBD, 0x82, 0x60, 0x33, 0xBE, 0x4F, 0xF9,
  0x31, 0x3E, 0x40, 0xB7, 0xB1, 0xBD, 0x0D, 0x05, 0xFF, 0xBC,
  0x37, 0x67, 0x04, 0xBE, 0xCE, 0xE5, 0x46, 0xBE, 0x06, 0x88,
  0x24, 0x3E, 0xB6, 0x6A, 0xC5, 0xBD, 0x80, 0xFE, 0xBB, 0x3D,
  0xE9, 0x7A, 0xC7, 0xBD, 0xBB, 0x92, 0xC9, 0x3D, 0x61, 0xE9,
  0x0C, 0xBE, 0x97, 0xA8, 0x37, 0xBE, 0xE9, 0xCA, 0xEB, 0x3C,
  0x4F, 0x54, 0x41, 0xBD, 0xFA, 0x16, 0x3E, 0xBB, 0xC1, 0xA1,
  0x4B, 0x3E, 0x9B, 0xB3, 0x0E, 0x3D, 0xFB, 0x25, 0xF5, 0xBD,
  0x59, 0x55, 0x09, 0x3E, 0xA9, 0x91, 0x06, 0x3E, 0xE9, 0x74,
  0x1D, 0xBC, 0x80, 0x62, 0x0A, 0xBD, 0xFE, 0x7E, 0x46, 0xBD,
  0x06, 0x87, 0x0D, 0xBD, 0x03, 0x9E, 0x46, 0x3E, 0xFB, 0x46,
  0x41, 0x3E, 0x09, 0x9C, 0x30, 0x3E, 0xD7, 0xF3, 0x4E, 0x3E,
  0x4D, 0xA8, 0x12, 0xBE, 0xC4, 0xBE, 0xE0, 0xBD, 0x23, 0xFE,
  0x9E, 0xBD, 0x74, 0x42, 0x80, 0xBC, 0x02, 0xC4, 0xA0, 0xBC,
  0x65, 0x2C, 0x3B, 0xBE, 0x86, 0x84, 0x00, 0x3E, 0x75, 0x5E,
  0x2A, 0x3E, 0x6A, 0xF5, 0x35, 0xBD, 0x4B, 0x03, 0x1A, 0x3E,
  0x59, 0x3E, 0x36, 0xBC, 0xF3, 0x58, 0x69, 0x3A, 0xEC, 0x77,
  0x1D, 0xBC, 0xD4, 0x8C, 0x57, 0xBC, 0x9E, 0x2F, 0x91, 0xBD,
  0x6A, 0xB2, 0x4B, 0xBE, 0xF8, 0x45, 0xB3, 0xBD, 0xFD, 0x19,
  0x1B, 0xBE, 0x06, 0x1A, 0x44, 0x3E, 0x89, 0x4C, 0x0B, 0x3E,
  0x35, 0xEF, 0xCA, 0x3B, 0xF1, 0x08, 0x3F, 0x3E, 0xEA, 0x38,
  0x17, 0x3E, 0x86, 0x74, 0x36, 0xBE, 0x67, 0xDC, 0xC4, 0xBC,
  0x70, 0x31, 0xD4, 0xBD, 0x49, 0xC2, 0x92, 0xBD, 0x6F, 0xBC,
  0xD5, 0x3D, 0xEF, 0x11, 0xF4, 0xBD, 0xAA, 0xC0, 0x46, 0x3E,
  0x80, 0xAB, 0x8D, 0xBD, 0x7C, 0xA8, 0x1B, 0xBE, 0x3F, 0x74,
  0xA5, 0x3B, 0xEA, 0xBB, 0x07, 0xBE, 0x78, 0x1F, 0xC4, 0x3D,
  0xCB, 0x4A, 0xBB, 0x3D, 0x85, 0xBC, 0xCA, 0xBB, 0x75, 0x01,
  0xBD, 0x3D, 0x29, 0x0D, 0x30, 0xBE, 0x80, 0x62, 0x85, 0x3D,
  0x89, 0xBE, 0x20, 0x3E, 0xEF, 0x9A, 0x86, 0x3D, 0xF2, 0x3D,
  0x11, 0xBE, 0x87, 0x5D, 0x12, 0xBD, 0xDB, 0x0C, 0x41, 0x3E,
  0x2F, 0xD6, 0x04, 0x3E, 0x9D, 0x0D, 0x0E, 0xBE, 0x1A, 0xE3,
  0x03, 0x3E, 0xD5, 0xDD, 0xDA, 0xBD, 0xF4, 0x2E, 0x6F, 0x3D,
  0x74, 0x4E, 0xB1, 0x3D, 0x3F, 0xBC, 0xF5, 0xBD, 0x8D, 0x61,
  0x0C, 0x3E, 0xAD, 0xC1, 0x46, 0x3E, 0xA6, 0x6E, 0x5D, 0x3E,
  0x04, 0x2F, 0x73, 0x3D, 0xA8, 0x8F, 0xBF, 0xBD, 0x12, 0x8A,
  0x86, 0xBD, 0x5C, 0xF0, 0x54, 0x3C, 0x3F, 0xC4, 0xD8, 0x3C,
  0xB2, 0x1A, 0x2D, 0x3E, 0xA1, 0xA1, 0x41, 0x3E, 0x61, 0x6C,
  0x07, 0x3D, 0x09, 0x61, 0x02, 0x3E, 0xC8, 0x25, 0xC2, 0xBD,
  0xE5, 0x34, 0x41, 0x3E, 0xFF, 0x68, 0xFF, 0xBD, 0xB7, 0x20,
  0xEA, 0x3C, 0x03, 0xA5, 0xE8, 0xBD, 0xAB, 0x14, 0x17, 0xBE,
  0x48, 0x30, 0xE2, 0xBD, 0xFD, 0xEC, 0x39, 0xBE, 0xA2, 0xAD,
  0x79, 0xBD, 0xD7, 0x5B, 0x99, 0x3D, 0xE3, 0x60, 0x4A, 0x3E,
  0x5D, 0x60, 0x23, 0xBE, 0xF7, 0xB3, 0xA4, 0xBB, 0x91, 0x22,
  0xC4, 0x3D, 0x53, 0x46, 0x37, 0x3E, 0x45, 0xF8, 0x2A, 0xBE,
  0xD0, 0x84, 0x3B, 0xBE, 0xB1, 0x6C, 0x35, 0xBD, 0x5D, 0x7C,
  0x98, 0x3D, 0x1F, 0x86, 0x29, 0xBE, 0x2E, 0x1D, 0xB5, 0x3C,
  0x0F, 0x26, 0x21, 0x3E, 0xBE, 0x78, 0x18, 0x3E, 0x33, 0x76,
  0xD2, 0xBD, 0x68, 0x61, 0x56, 0x3C, 0x60, 0x22, 0xD3, 0x3C,
  0xD6, 0xD2, 0x61, 0x3E, 0xB3, 0x9C, 0x06, 0x3E, 0x56, 0x08,
  0x9A, 0xBD, 0x1D, 0x48, 0xAA, 0xBD, 0x84, 0x20, 0x2F, 0xBC,
  0x54, 0x10, 0xC5, 0xBD, 0x46, 0xC6, 0x4B, 0x3E, 0xDB, 0x7C,
  0x90, 0xBD, 0x84, 0x82, 0x4A, 0x3E, 0x61, 0x37, 0xBC, 0xBD,
  0xD4, 0xE4, 0x66, 0xBC, 0x60, 0xBA, 0x3E, 0xBE, 0x4E, 0xB8,
  0x4C, 0x3C, 0x7E, 0xF4, 0x60, 0xBD, 0xA0, 0x60, 0xE0, 0xBC,
  0xF0, 0xBB, 0x30, 0xBD, 0x56, 0xEA, 0x1E, 0x3E, 0xBF, 0x3F,
  0x59, 0x3C, 0x75, 0x4E, 0x81, 0x3D, 0xA2, 0x85, 0x27, 0x3D,
  0x20, 0xBB, 0x0C, 0x3E, 0x2A, 0xDE, 0x38, 0xBE, 0x53, 0x56,
  0xF4, 0xBD, 0xAD, 0x44, 0xB7, 0x3D, 0x79, 0x27, 0x01, 0xBE,
  0x3D, 0x7A, 0x2D, 0xBE, 0x6C, 0xD5, 0x2D, 0x3E, 0xCC, 0x78,
  0xF9, 0xBD, 0x3E, 0x8D, 0x83, 0x3D, 0x18, 0xFA, 0x79, 0xBD,
  0x12, 0xCF, 0xD7, 0xBD, 0xC8, 0xB8, 0x92, 0x3D, 0xDC, 0xD5,
  0x2F, 0xBE, 0x08, 0xA2, 0xE2, 0xBD, 0xDD, 0xDA, 0xEC, 0xBC,
  0x03, 0x14, 0xED, 0x3D, 0x9F, 0x1A, 0x10, 0xBE, 0x69, 0x14,
  0x44, 0xBE, 0xE7, 0xC5, 0x90, 0x3D, 0xF0, 0xB5, 0x2D, 0x3D,
  0x69, 0x3F, 0x41, 0x3E, 0x0C, 0xF5, 0xB5, 0xBD, 0xCE, 0xE6,
  0xCC, 0x3D, 0xFE, 0xAA, 0x05, 0x3C, 0x7F, 0xDE, 0x49, 0x3E,
  0x04, 0x71, 0x84, 0xBD, 0x16, 0x50, 0x40, 0x3E, 0x48, 0x7B,
  0x28, 0x3E, 0xED, 0xBF, 0xEA, 0x3D, 0x7E, 0xB6, 0xFA, 0x3D,
  0xF5, 0xF6, 0xCE, 0x3D, 0x20, 0x19, 0x28, 0xBE, 0x06, 0x93,
  0x00, 0xBE, 0x62, 0x47, 0x0A, 0xBE, 0x7F, 0xB8, 0x4E, 0xBE,
  0x5A, 0x14, 0x3F, 0xBE, 0x74, 0xFA, 0xCE, 0xBD, 0x64, 0xA0,
  0xA3, 0x3D, 0xDD, 0xE7, 0xE5, 0x3D, 0x87, 0xF5, 0x70, 0x3D,
  0x0B, 0xEA, 0x31, 0x3C, 0xE3, 0x5F, 0x35, 0xBE, 0xBE, 0x56,
  0x5D, 0x3D, 0x1A, 0x57, 0xB3, 0x3D, 0x46, 0xAA, 0x43, 0x3E,
  0x48, 0x27, 0x34, 0xBE, 0x53, 0x2C, 0xD9, 0xBD, 0x23, 0x12,
  0xC2, 0x3D, 0xC5, 0x7B, 0x35, 0x3E, 0xC1, 0xDB, 0x3A, 0xBE,
  0x03, 0x32, 0x97, 0x3D, 0x0A, 0x39, 0xB6, 0x3D, 0xCE, 0x7C,
  0x7F, 0xBC, 0xD2, 0xEB, 0x2F, 0x3E, 0x12, 0xEB, 0xE3, 0xBD,
  0x67, 0xFC, 0x84, 0x3D, 0x40, 0x6F, 0x1F, 0xBE, 0x8B, 0x4F,
  0xB7, 0x3B, 0x59, 0xBB, 0xB7, 0x3D, 0x11, 0xD9, 0x90, 0xBD,
  0xEB, 0x58, 0x49, 0x3D, 0x9B, 0xF0, 0xAD, 0x3D, 0xDC, 0x06,
  0x40, 0xBE, 0xB9, 0x38, 0x21, 0xBD, 0x08, 0x36, 0x32, 0xBE,
  0xB6, 0x11, 0xEF, 0x3D, 0x57, 0x44, 0x43, 0xBE, 0x86, 0xD1,
  0x73, 0x3D, 0xEA, 0x0A, 0x12, 0x3E, 0x7E, 0x5F, 0x4B, 0xBE,
  0xF4, 0xF6, 0xD0, 0xBC, 0x2E, 0xDC, 0x22, 0xBE, 0x71, 0x15,
  0x1D, 0xBE, 0xD8, 0x4D, 0x93, 0xBD, 0xAF, 0xAB, 0x5D, 0xBD,
  0xC2, 0x4B, 0x08, 0xBD, 0xDF, 0xA5, 0x67, 0xBD, 0x54, 0xD6,
  0xFC, 0x3D, 0x53, 0xC1, 0xF4, 0xBD, 0xCC, 0xF6, 0xC3, 0x3D,
  0x87, 0x35, 0x0E, 0x3E, 0x2B, 0xFD, 0x36, 0xBE, 0x78, 0x65,
  0x83, 0xBC, 0x51, 0x1F, 0xA4, 0xBD, 0x64, 0xD2, 0xA7, 0xBD,
  0xDB, 0x94, 0x42, 0x3E, 0xA2, 0x2A, 0x85, 0xBD, 0x2A, 0xAA,
  0xCB, 0x3C, 0x71, 0xD5, 0x06, 0x3D, 0xD8, 0xB4, 0x1A, 0x3E,
  0x85, 0x63, 0xB7, 0xBD, 0xB5, 0xE8, 0xD7, 0xBC, 0x97, 0x22,
  0xD5, 0xBD, 0x53, 0x79, 0x60, 0xBD, 0x24, 0x40, 0x11, 0xBD,
  0x1D, 0xCB, 0x8F, 0x3D, 0x99, 0xF6, 0xCE, 0xBD, 0x1A, 0x3C,
  0x25, 0xBD, 0x93, 0x5F, 0xD3, 0xBC, 0xF8, 0x97, 0x32, 0x3E,
  0xD4, 0xFA, 0x25, 0xBD, 0x76, 0x9E, 0x8C, 0xBD, 0x36, 0xB7,
  0x73, 0x3D, 0xC5, 0xDA, 0x1E, 0xBE, 0xFE, 0x82, 0x98, 0xBD,
  0x7A, 0x5F, 0x24, 0xBE, 0x3F, 0x94, 0x34, 0x3E, 0x7D, 0x62,
  0x0F, 0x3D, 0x82, 0xCD, 0xEF, 0xBD, 0x5A, 0x52, 0x15, 0x3E,
  0x31, 0x4F, 0x6C, 0x3D, 0x4D, 0x5D, 0x25, 0xBE, 0x30, 0xDB,
  0xFA, 0x3D, 0xBB, 0xEE, 0xEE, 0xBC, 0xA6, 0xE6, 0x00, 0x3D,
  0xD7, 0x2E, 0x86, 0xBD, 0x97, 0x35, 0xC5, 0xBD, 0x9C, 0x1A,
  0xAB, 0xBB, 0x7B, 0x09, 0xE0, 0xBD, 0x7C, 0x0D, 0xBF, 0x3D,
  0xA5, 0xD2, 0x77, 0x3D, 0xF5, 0xE5, 0xDE, 0xBC, 0xDA, 0x95,
  0x0F, 0xBE, 0x41, 0x53, 0x05, 0x3E, 0xE3, 0x8F, 0x26, 0xBE,
  0x74, 0x50, 0x8C, 0x3D, 0x25, 0xF3, 0xB6, 0x3C, 0x67, 0xB9,
  0xEC, 0x3D, 0x21, 0xA1, 0x02, 0xBE, 0xAF, 0xD3, 0xE6, 0xBD,
  0xC9, 0x55, 0xF0, 0x3D, 0x66, 0x07, 0x4B, 0xBB, 0x43, 0xAC,
  0xF0, 0x3A, 0x39, 0xBB, 0x12, 0xBE, 0x88, 0x6D, 0x3E, 0x3E,
  0xA3, 0x1D, 0x27, 0x3E, 0x11, 0x4F, 0xB6, 0xBD, 0xCE, 0xE9,
  0xF9, 0x3D, 0xFE, 0x66, 0xD4, 0x3D, 0x0E, 0x7D, 0xF7, 0xBD,
  0x0B, 0xFF, 0x40, 0x3E, 0xF7, 0x39, 0x4F, 0x3E, 0x74, 0xFE,
  0x6A, 0xBD, 0x70, 0xF8, 0x45, 0xBE, 0x5E, 0xFD, 0x1F, 0xBE,
  0x3E, 0xB7, 0x18, 0xBE, 0xB4, 0x7E, 0x95, 0xBC, 0x5F, 0x55,
  0x2F, 0xBE, 0x89, 0xD6, 0xCA, 0x3C, 0xF8, 0x2E, 0xCF, 0x3D,
  0xAA, 0x8D, 0x5F, 0xBD, 0xC2, 0x20, 0x2C, 0x3D, 0xCC, 0x34,
  0x96, 0xBD, 0xA2, 0x14, 0x3D, 0x3E, 0xE8, 0x00, 0x1E, 0x3E,
  0x46, 0x7E, 0x04, 0x3E, 0xA3, 0x8F, 0x1F, 0xBE, 0xCC, 0x5A,
  0xD5, 0x3D, 0x4B, 0xB2, 0x48, 0xBE, 0x83, 0x04, 0xA1, 0xBD,
  0x7D, 0x40, 0x4D, 0x3E, 0x20, 0x27, 0x9B, 0xBD, 0xAA, 0xE7,
  0xCD, 0x3D, 0x8A, 0xDE, 0x4F, 0xBE, 0x10, 0x77, 0x1B, 0xBE,
  0xAC, 0x7C, 0x37, 0x3A, 0xD7, 0xEB, 0x8B, 0xBD, 0xC2, 0xD7,
  0xBC, 0xBD, 0x5E, 0xFE, 0x7F, 0xBD, 0x46, 0x1E, 0x42, 0x3E,
  0x05, 0xA7, 0xF7, 0x3D, 0x22, 0x6A, 0xE1, 0x3D, 0xDD, 0x27,
  0x63, 0xBC, 0xA7, 0xFA, 0x40, 0x3E, 0x22, 0x06, 0xEF, 0x3D,
  0x6B, 0x9D, 0x26, 0xBE, 0xCF, 0x70, 0x73, 0x3D, 0xE1, 0xCC,
  0x9B, 0x3B, 0x96, 0x59, 0x4F, 0x3E, 0x04, 0xDA, 0xE4, 0x3D,
  0x60, 0xB6, 0x42, 0x3E, 0xEE, 0x4E, 0xDB, 0x3B, 0x81, 0xFE,
  0xE4, 0x3D, 0x94, 0x0E, 0xBB, 0x3C, 0xBF, 0xA7, 0x85, 0xBD,
  0x5A, 0x70, 0xE2, 0x3D, 0x73, 0x8A, 0x8E, 0x3D, 0x8A, 0x82,
  0x1F, 0x3E, 0x41, 0x9F, 0x37, 0x3D, 0x4D, 0x4F, 0x31, 0x3E,
  0xBC, 0x2F, 0xD5, 0x3D, 0x71, 0xAF, 0x3F, 0xBE, 0x3B, 0x7A,
  0x48, 0xBD, 0xB1, 0x22, 0x2F, 0xBD, 0x57, 0xA6, 0x4C, 0xBE,
  0x24, 0x1C, 0x10, 0x3E, 0x45, 0x0E, 0xE4, 0x3C, 0x0D, 0xAF,
  0x7F, 0xBB, 0x77, 0xF9, 0xD7, 0xBD, 0x1F, 0xAA, 0x35, 0xBE,
  0x60, 0xF2, 0x2D, 0x3C, 0x59, 0x2D, 0x92, 0xBD, 0xD5, 0x1C,
  0x08, 0xBE, 0x37, 0xDC, 0x0C, 0xBD, 0x2F, 0x98, 0x0A, 0xBE,
  0x92, 0x30, 0x40, 0xBE, 0x50, 0x49, 0x1B, 0xBE, 0x07, 0xF3,
  0x2B, 0x3E, 0x08, 0x7E, 0xE5, 0x3D, 0x3D, 0xBC, 0x3F, 0x3D,
  0x8E, 0x2C, 0xBC, 0x3D, 0x49, 0xE0, 0x9D, 0xBD, 0x3E, 0x6D,
  0x4A, 0x3E, 0xDA, 0xAB, 0x99, 0xBD, 0x0C, 0x4A, 0xC0, 0x3D,
  0x0F, 0x56, 0x4B, 0xBE, 0x33, 0xBA, 0xB8, 0xBC, 0xB5, 0xF6,
  0xF5, 0xBB, 0x48, 0x28, 0x7D, 0xBC, 0x32, 0x7B, 0x99, 0x3D,
  0x85, 0x65, 0x26, 0xBC, 0xA5, 0x5B, 0x1D, 0x3D, 0x5C, 0x34,
  0x98, 0xBC, 0x91, 0x47, 0x84, 0xBD, 0xD8, 0x60, 0xE6, 0x3D,
  0xD3, 0x8A, 0xB7, 0x3D, 0xDE, 0x0C, 0x00, 0x3E, 0xF6, 0xF4,
  0xB0, 0xBD, 0x33, 0x63, 0x3B, 0xBE, 0x7E, 0x00, 0x9A, 0xBA,
  0x66, 0x5F, 0x4D, 0x3E, 0x91, 0x25, 0x7F, 0xBD, 0xDB, 0x94,
  0x00, 0x3D, 0xF6, 0xF0, 0xFB, 0x3D, 0x84, 0xA9, 0xB4, 0xBD,
  0x04, 0x3F, 0x6A, 0xBA, 0xE3, 0x9D, 0xCA, 0x3D, 0xD4, 0xC9,
  0x77, 0xBD, 0x24, 0x57, 0x0B, 0xBD, 0x2C, 0x99, 0x26, 0xBE,
  0x7E, 0x64, 0xE8, 0x3D, 0x3B, 0x41, 0x70, 0x3D, 0xB2, 0x5C,
  0x4A, 0x3E, 0x90, 0x18, 0x52, 0xBD, 0x97, 0x91, 0xBE, 0xBD,
  0x9D, 0xAC, 0xA6, 0x3D, 0x5D, 0x25, 0x2B, 0xBE, 0xE8, 0x6C,
  0xD0, 0x3D, 0xCB, 0x68, 0x24, 0xBD, 0xBC, 0x01, 0x99, 0xBC,
  0x1A, 0x31, 0x68, 0xBC, 0x64, 0x2A, 0x49, 0x3B, 0xCE, 0x55,
  0x43, 0x3D, 0xD3, 0x41, 0x0F, 0xBE, 0x48, 0x64, 0x50, 0xBD,
  0xE2, 0x54, 0x2A, 0xBE, 0xC4, 0xF2, 0x37, 0x3D, 0x65, 0x8D,
  0xDA, 0x3D, 0x0E, 0xAF, 0xE9, 0x3D, 0x44, 0x98, 0xBC, 0xBD,
  0x98, 0x94, 0x2B, 0x3C, 0xB5, 0xD9, 0x31, 0xBE, 0xBD, 0xB9,
  0x1A, 0x3E, 0x8A, 0x13, 0x15, 0x3D, 0x00, 0xBE, 0x57, 0x3E,
  0x7B, 0x5A, 0x44, 0x3E, 0xC1, 0x65, 0xE3, 0x3A, 0x1A, 0xA7,
  0x0C, 0x3E, 0xDF, 0xA6, 0x02, 0x3E, 0x99, 0xBB, 0xAA, 0xBD,
  0xDB, 0xF0, 0x1B, 0x3E, 0x75, 0xB1, 0x28, 0x3E, 0xBA, 0x83,
  0x61, 0x3D, 0x8F, 0xFD, 0x3B, 0x3D, 0x49, 0xEB, 0x81, 0x3D,
  0xC4, 0x27, 0xD0, 0x3D, 0x5B, 0x0C, 0xD7, 0x3D, 0x7B, 0x17,
  0xF7, 0x3D, 0xE9, 0x32, 0xD8, 0xBD, 0xC4, 0x28, 0xC4, 0xBD,
  0x28, 0x78, 0x1A, 0xBE, 0x50, 0xB2, 0x99, 0xBD, 0xD1, 0x6B,
  0x3D, 0x3D, 0xDC, 0x55, 0x13, 0xBE, 0x3A, 0x2D, 0x29, 0x3E,
  0xBC, 0x82, 0x04, 0xBE, 0x7D, 0x59, 0x18, 0x3E, 0x80, 0x56,
  0x59, 0xBD, 0xD4, 0xE9, 0x05, 0x3E, 0x36, 0x37, 0x61, 0xBD,
  0x6D, 0xC2, 0xF2, 0xBD, 0x00, 0xE3, 0x17, 0x3D, 0x56, 0x49,
  0xF8, 0x3D, 0x74, 0xD3, 0x3B, 0xBE, 0x90, 0xBF, 0x1E, 0xBE,
  0x15, 0xA3, 0x0D, 0x3E, 0x66, 0x61, 0xB6, 0x3C, 0x58, 0x56,
  0x9E, 0x3D, 0x49, 0xD2, 0xD2, 0xBD, 0xE1, 0x97, 0x4B, 0xBE,
  0x03, 0x05, 0xDB, 0x3D, 0x5D, 0x8A, 0xE9, 0xBC, 0x1B, 0xC3,
  0x41, 0x3C, 0xF2, 0xE8, 0x8C, 0x3D, 0x24, 0xD7, 0x93, 0xBD,
  0x5D, 0x10, 0x05, 0x3E, 0xC3, 0x06, 0x24, 0xBD, 0x7F, 0xF0,
  0xCA, 0xBD, 0x89, 0x18, 0x28, 0x3D, 0xF0, 0x8D, 0xB2, 0x3D,
  0x24, 0x77, 0x3D, 0xBD, 0x79, 0x0B, 0x11, 0x3E, 0xF0, 0xBF,
  0xD0, 0xBD, 0xF1, 0x67, 0x39, 0x3D, 0x4E, 0x86, 0x0A, 0xBC,
  0x06, 0x4F, 0x3C, 0x3C, 0x16, 0xB6, 0x21, 0xBE, 0x95, 0x60,
  0x07, 0x3D, 0xEF, 0x1A, 0x17, 0xBE, 0x5E, 0x74, 0x3F, 0xBE,
  0xBB, 0xFF, 0x7D, 0x3C, 0xE3, 0x02, 0x26, 0x3D, 0xB2, 0x31,
  0x08, 0xBE, 0x51, 0xE4, 0x88, 0xBD, 0x85, 0xED, 0x0B, 0xBE,
  0x1C, 0xBF, 0xFD, 0x3D, 0xAC, 0xDB, 0x23, 0xBE, 0x24, 0x4C,
  0x31, 0xBE, 0x1B, 0x03, 0x49, 0xBE, 0xC1, 0xC8, 0x91, 0x3C,
  0x2A, 0x44, 0xB1, 0xBB, 0xF7, 0xB0, 0x3B, 0x3E, 0xF5, 0x5C,
  0x4F, 0xBE, 0xDB, 0xEE, 0xCA, 0x3D, 0xEF, 0xE4, 0x4E, 0x3D,
  0x07, 0xAC, 0x4E, 0x3D, 0xAF, 0xE2, 0xE1, 0x3B, 0x74, 0xF0,
  0x5F, 0x3D, 0x53, 0x7C, 0x2E, 0x3E, 0x1D, 0xB0, 0x27, 0x3E,
  0x4A, 0x4B, 0xFD, 0xBD, 0xB2, 0x23, 0x39, 0xBE, 0x59, 0x7F,
  0xC4, 0x3D, 0xA4, 0x54, 0xAE, 0xBD, 0x1F, 0x01, 0x17, 0x3D,
  0xF4, 0x97, 0xDF, 0x3D, 0x86, 0x21, 0x3D, 0x3E, 0xC9, 0x8C,
  0xB9, 0x3D, 0xCC, 0x51, 0x31, 0x3D, 0x60, 0xFF, 0x1B, 0xBE,
  0xD6, 0xF2, 0xFF, 0xFF, 0x04, 0x00, 0x00, 0x00, 0x00, 0x09,
  0x00, 0x00, 0x01, 0x69, 0x39, 0x3D, 0xA3, 0x5C, 0xD3, 0x3C,
  0x25, 0x36, 0x39, 0x3E, 0x20, 0x42, 0xBE, 0xBA, 0xC4, 0x66,
  0x49, 0x3E, 0x3F, 0x56, 0x59, 0x3E, 0xCB, 0xA2, 0x17, 0x3E,
  0x74, 0xEC, 0x0F, 0x3E, 0xA3, 0x07, 0x3F, 0x3D, 0x8C, 0x36,
  0x3B, 0x3E, 0xCD, 0x15, 0x3E, 0xBD, 0x33, 0x65, 0x03, 0x3E,
  0xC7, 0x51, 0x21, 0xBD, 0x37, 0xD1, 0x27, 0xBE, 0x3B, 0xB4,
  0xB2, 0x3B, 0xE9, 0xFF, 0xFC, 0x3D, 0x30, 0x61, 0x18, 0xBD,
  0x0B, 0xD7, 0x8B, 0x3D, 0x8D, 0xF6, 0x12, 0xBE, 0x8D, 0xFB,
  0x2D, 0xBE, 0x9E, 0xAA, 0xF4, 0x3D, 0xAD, 0x45, 0x4E, 0xBB,
  0x3B, 0x66, 0xD4, 0xBD, 0xA2, 0x5C, 0x91, 0x3C, 0x89, 0xAC,
  0x65, 0xBD, 0x05, 0x36, 0xC9, 0xBD, 0xB9, 0x54, 0xDA, 0x3D,
  0x66, 0x0D, 0xF9, 0xBD, 0xF8, 0xEB, 0x12, 0xBE, 0x6B, 0xD8,
  0x1A, 0x3E, 0x32, 0xDC, 0xCA, 0x3D, 0x69, 0xCF, 0xA1, 0x3C,
  0xD4, 0x1B, 0x8B, 0x3D, 0x79, 0x01, 0x50, 0x3E, 0x69, 0xA6,
  0x4B, 0xBE, 0x81, 0xE2, 0x07, 0x3D, 0x03, 0xB6, 0x1B, 0xBE,
  0x71, 0x17, 0x65, 0x3D, 0x00, 0x09, 0x48, 0xBE, 0xBD, 0xFD,
  0xFC, 0x3D, 0xEB, 0x87, 0x06, 0x3E, 0xBB, 0x03, 0x99, 0xBC,
  0xBA, 0x4B, 0x13, 0xBE, 0x32, 0xB3, 0x48, 0xBD, 0xC8, 0x30,
  0xFA, 0xBC, 0x6F, 0xF8, 0x03, 0x3D, 0xBC, 0x94, 0xFC, 0x3C,
  0x20, 0xD4, 0xC7, 0xBC, 0x64, 0x60, 0x06, 0xBE, 0x67, 0x6D,
  0x16, 0x3D, 0x18, 0xE8, 0x42, 0x3D, 0x48, 0x0A, 0x47, 0xBE,
  0x12, 0xA8, 0xFB, 0x3D, 0x8C, 0xA3, 0xD7, 0xBD, 0xFF, 0x38,
  0x07, 0xBE, 0xAE, 0xFC, 0x02, 0xBD, 0x62, 0xFB, 0x96, 0x3D,
  0xC3, 0x47, 0xB2, 0x3C, 0x43, 0xF2, 0x50, 0x3E, 0x6C, 0xE6,
  0x68, 0xBD, 0x7D, 0xDB, 0x25, 0xBE, 0xA2, 0xBA, 0x08, 0x3C,
  0x86, 0x20, 0x4C, 0x3D, 0xFA, 0xC8, 0xB4, 0x3D, 0x6E, 0x2F,
  0xFB, 0xBD, 0x7C, 0x71, 0x69, 0x3D, 0x83, 0xD5, 0xDB, 0x3D,
  0x21, 0x08, 0x05, 0x3D, 0x26, 0xFA, 0xC2, 0xBB, 0x8E, 0x34,
  0x38, 0x3D, 0xCB, 0x80, 0xAB, 0x3D, 0x02, 0x79, 0x0F, 0xBE,
  0x67, 0xE8, 0x24, 0x3E, 0x82, 0xC1, 0x23, 0xBE, 0x93, 0x1B,
  0xB5, 0xBD, 0xAB, 0x7E, 0x1B, 0xBE, 0xF5, 0x78, 0xDB, 0xBD,
  0x50, 0x54, 0xAC, 0xBC, 0xEB, 0xBD, 0x33, 0xBC, 0x6F, 0xCA,
  0xE5, 0xBD, 0x4D, 0x5D, 0x1F, 0xBD, 0xBF, 0xAE, 0x35, 0xBE,
  0xAD, 0x0B, 0x23, 0x3C, 0xA2, 0x14, 0xC5, 0x3D, 0xCA, 0x4C,
  0x22, 0xBE, 0x51, 0x4E, 0x01, 0xBE, 0x25, 0xE4, 0x98, 0x3C,
  0xAA, 0x62, 0x3E, 0x3E, 0x76, 0x75, 0xC0, 0xBD, 0x1F, 0x63,
  0x14, 0x3E, 0xD8, 0xE3, 0x94, 0x3D, 0x38, 0x1F, 0x8D, 0xBD,
  0xBF, 0xE3, 0x03, 0xBE, 0xC1, 0x5A, 0x19, 0x3D, 0xA8, 0xFF,
  0x8C, 0x3B, 0xF9, 0x5F, 0xA1, 0x3D, 0x7F, 0xE9, 0xA7, 0xBB,
  0x77, 0x85, 0x4D, 0x3E, 0x0B, 0x6D, 0x83, 0xBC, 0x4D, 0xCC,
  0xB3, 0x3D, 0x86, 0xE0, 0xDB, 0x3C, 0xCC, 0x18, 0xB9, 0x3C,
  0x40, 0xDD, 0x48, 0x3E, 0x54, 0xBE, 0x73, 0x3D, 0x5D, 0x64,
  0x3A, 0x3D, 0x07, 0x97, 0xFD, 0x3C, 0x3E, 0xFC, 0x86, 0xBD,
  0xFE, 0x36, 0xE3, 0x3D, 0x44, 0x70, 0x0A, 0x3E, 0x87, 0x3E,
  0x1C, 0x3E, 0xC9, 0xA8, 0xE8, 0xBD, 0xDF, 0x2D, 0xB7, 0x3D,
  0x31, 0x18, 0xB7, 0x3C, 0xD9, 0x9E, 0xA5, 0x3D, 0xFF, 0x55,
  0xE3, 0xBC, 0x36, 0x06, 0x2B, 0x3E, 0x85, 0xA8, 0x80, 0xBD,
  0x82, 0x4C, 0x09, 0x3E, 0x7A, 0x01, 0x30, 0x3E, 0x26, 0x63,
  0xE9, 0x3D, 0x1A, 0x6F, 0x96, 0x3C, 0xC5, 0x70, 0xAF, 0x3D,
  0x48, 0xEA, 0x9A, 0xBD, 0xF0, 0xE1, 0x42, 0x3C, 0x20, 0xCE,
  0x34, 0xBE, 0xE3, 0x7B, 0xF6, 0x3A, 0xEE, 0x68, 0x6C, 0x3D,
  0xF0, 0x09, 0xBC, 0x3C, 0x6A, 0xE3, 0x1C, 0xBD, 0xE4, 0x06,
  0x2F, 0x3E, 0x0E, 0x28, 0xF7, 0x3D, 0x62, 0xFD, 0x0D, 0xBE,
  0xE3, 0x18, 0x43, 0xBE, 0x3B, 0xC5, 0x62, 0x3E, 0xDA, 0xB4,
  0x06, 0xBE, 0x7A, 0x8E, 0xD6, 0x3C, 0xD1, 0xE8, 0xBE, 0xBD,
  0x70, 0xB0, 0x80, 0x3C, 0x7C, 0xFF, 0x02, 0x3E, 0x12, 0x1A,
  0x8C, 0x3C, 0xDB, 0x09, 0xAD, 0xBD, 0xCF, 0x59, 0x15, 0xBA,
  0x7F, 0xD2, 0x43, 0xBC, 0xBA, 0x82, 0x94, 0x3D, 0xA8, 0xA3,
  0xD9, 0x3D, 0x12, 0xB7, 0x2B, 0x3D, 0xFE, 0xF9, 0xB8, 0xBD,
  0x5C, 0x2F, 0x45, 0x3E, 0x0D, 0x60, 0x06, 0xBD, 0x01, 0x0A,
  0xAB, 0xBD, 0xC2, 0x0F, 0x98, 0x3D, 0xCB, 0x0A, 0x82, 0xBC,
  0xFA, 0x3C, 0x8E, 0x3D, 0xB2, 0x93, 0x49, 0xBE, 0x28, 0x1E,
  0x52, 0xBD, 0x47, 0xD8, 0x1E, 0xBE, 0xEB, 0x9E, 0xEB, 0xBD,
  0xCA, 0xC9, 0xFA, 0x3D, 0xDF, 0xF3, 0xE6, 0xBD, 0x13, 0xFA,
  0xA3, 0x3B, 0xC9, 0x80, 0x2E, 0x3C, 0x78, 0xF6, 0xAF, 0x3B,
  0xE0, 0x1B, 0x44, 0xBE, 0x93, 0xB7, 0xDB, 0xBD, 0xF1, 0xC2,
  0xBE, 0x3C, 0x6A, 0xCF, 0xC8, 0x3D, 0x49, 0x88, 0x41, 0x3E,
  0xCB, 0xA0, 0xE8, 0x3C, 0x64, 0x48, 0x28, 0x3D, 0x27, 0x8F,
  0x80, 0xBC, 0xED, 0x43, 0x5B, 0x3D, 0xCD, 0x12, 0x12, 0x3E,
  0x04, 0x72, 0x4A, 0xBE, 0x85, 0x02, 0x22, 0x3E, 0x58, 0x24,
  0x33, 0xBE, 0x68, 0x78, 0xB6, 0xBD, 0xA1, 0x50, 0x26, 0xBD,
  0x32, 0x3F, 0xDE, 0x3A, 0x27, 0x2F, 0x19, 0xBE, 0x9D, 0xD1,
  0x7E, 0x3D, 0x22, 0xD3, 0xFD, 0x3D, 0x64, 0x0E, 0x72, 0x3E,
  0x1A, 0x65, 0x54, 0x3D, 0x19, 0xA6, 0x27, 0xBE, 0x33, 0xAC,
  0x4F, 0xBC, 0xB6, 0x8A, 0x97, 0xBD, 0xD0, 0x95, 0x40, 0x3E,
  0x3C, 0x40, 0x41, 0x3E, 0x6E, 0x14, 0xA2, 0xBD, 0xE9, 0xAF,
  0x43, 0x3E, 0xA7, 0x02, 0xC1, 0xBD, 0x8E, 0x15, 0x20, 0x3E,
  0x75, 0x4B, 0x18, 0x3E, 0x55, 0x95, 0xBE, 0x3D, 0x27, 0x5F,
  0xB6, 0x3C, 0x3B, 0x92, 0xFE, 0xBD, 0x2A, 0xFF, 0x1D, 0xBE,
  0xFA, 0x3A, 0x20, 0xBE, 0x48, 0x30, 0x35, 0x3E, 0xEB, 0x09,
  0x16, 0xBE, 0x67, 0xB8, 0x4F, 0xBE, 0x16, 0xCA, 0xF9, 0x3D,
  0x1A, 0xC1, 0x37, 0xBE, 0x1A, 0x28, 0x85, 0xBD, 0xE8, 0xDC,
  0x6B, 0x3D, 0x37, 0xBF, 0x31, 0x3E, 0xE1, 0x78, 0x61, 0x3D,
  0xC1, 0x06, 0x8B, 0xBD, 0x8A, 0x4F, 0x53, 0xBD, 0x36, 0xA3,
  0x58, 0xBB, 0xE1, 0x1E, 0xB0, 0xBD, 0x6B, 0x32, 0x1C, 0xBE,
  0x94, 0x45, 0x71, 0x3C, 0xAF, 0xB8, 0x3C, 0x3E, 0xA7, 0xA8,
  0xA1, 0xBD, 0xC7, 0x7A, 0x2E, 0xBE, 0x42, 0x84, 0x29, 0xBC,
  0x76, 0xAF, 0x00, 0x3D, 0x9E, 0xEE, 0x3F, 0xBC, 0x59, 0x69,
  0x40, 0x3D, 0xD2, 0x91, 0x8F, 0x3D, 0xBD, 0xC1, 0x2A, 0xBE,
  0x5C, 0x9C, 0x2F, 0x3E, 0xA2, 0x4C, 0x3C, 0xBD, 0xF4, 0x2F,
  0xE7, 0x3C, 0xDD, 0x73, 0xAE, 0xBD, 0x35, 0x1A, 0xF0, 0xBC,
  0x22, 0x5D, 0x3A, 0x3E, 0xB6, 0x53, 0x9F, 0x3D, 0x85, 0x0A,
  0xC2, 0xBC, 0xB1, 0x83, 0x3C, 0xBE, 0x1D, 0x46, 0xC8, 0xBD,
  0xFF, 0xF2, 0xF6, 0x3D, 0x60, 0x72, 0x20, 0x3D, 0xF4, 0x2B,
  0x5B, 0x3D, 0xEB, 0x31, 0x90, 0xBD, 0xDF, 0x5E, 0x89, 0xBC,
  0x4E, 0x3B, 0x34, 0x3E, 0x41, 0x2D, 0x47, 0x3E, 0xDD, 0xF9,
  0x0A, 0xBD, 0xFA, 0xC8, 0x4A, 0x3E, 0x4B, 0x63, 0x3E, 0xBE,
  0x22, 0x40, 0x03, 0x3E, 0xC4, 0x83, 0xAF, 0x3D, 0x11, 0x53,
  0x5A, 0xBE, 0xFF, 0x47, 0x98, 0x3D, 0xDB, 0x1D, 0x07, 0x3E,
  0x25, 0xAC, 0x42, 0x3D, 0x71, 0x46, 0x39, 0xBE, 0x9D, 0x58,
  0x0B, 0xBE, 0xC3, 0x20, 0x4A, 0xBE, 0x12, 0x9C, 0x06, 0x3E,
  0xAF, 0x3D, 0xD9, 0x39, 0xD3, 0x10, 0x4B, 0xBE, 0xB6, 0xBA,
  0x35, 0x3D, 0x9B, 0xA5, 0x02, 0x3D, 0x43, 0x81, 0xE8, 0x3D,
  0xF2, 0x92, 0x4F, 0x3C, 0x05, 0x79, 0xC9, 0x3D, 0x7B, 0xF2,
  0xC6, 0x3D, 0x61, 0xC4, 0x6A, 0x3D, 0xBF, 0xCA, 0xD9, 0xBC,
  0xA6, 0x67, 0x8E, 0xBD, 0x54, 0x25, 0x03, 0xBE, 0x08, 0xF7,
  0x86, 0xBD, 0x26, 0xD6, 0xE7, 0x3D, 0x77, 0x1F, 0x63, 0xBD,
  0x95, 0xA9, 0xBD, 0x3D, 0xB9, 0x3F, 0x29, 0xBE, 0x02, 0x12,
  0x0B, 0xBE, 0x4D, 0x4A, 0xB1, 0x3D, 0xB3, 0x3F, 0x19, 0x3E,
  0xBB, 0x56, 0xB0, 0x3D, 0xD3, 0xFF, 0x25, 0x3E, 0x3A, 0xEE,
  0x44, 0x3E, 0xD2, 0x43, 0xA0, 0xBC, 0xC6, 0x68, 0x14, 0x3D,
  0x3E, 0x95, 0x81, 0xBD, 0xFF, 0x4F, 0x49, 0x3E, 0x29, 0x12,
  0x05, 0xBD, 0x00, 0x22, 0x0D, 0xBC, 0x6B, 0xFB, 0xE0, 0x3D,
  0x80, 0x63, 0x34, 0x3E, 0xC5, 0xF6, 0xF8, 0xBD, 0x73, 0x37,
  0xC7, 0x3D, 0xF1, 0x9B, 0x05, 0x3D, 0xC6, 0xB0, 0xB7, 0xBD,
  0x7A, 0x03, 0x1D, 0xBE, 0x0F, 0x3B, 0xB5, 0x3D, 0xDA, 0x4C,
  0x4B, 0x3B, 0x46, 0xE1, 0xFD, 0xBD, 0xC2, 0x1A, 0x3A, 0xBE,
  0xE1, 0x9F, 0x5C, 0xBD, 0xB7, 0x03, 0xF1, 0xBD, 0xEF, 0x98,
  0x64, 0x3C, 0x1C, 0xF9, 0x35, 0x3D, 0xD8, 0x4A, 0xA7, 0x3C,
  0x1C, 0x6E, 0xFC, 0xBD, 0xFC, 0xDC, 0x7E, 0x3C, 0xE1, 0x69,
  0x07, 0x3E, 0xD3, 0x31, 0xC5, 0x3B, 0x1F, 0xFF, 0x15, 0x3E,
  0x60, 0xAD, 0xBE, 0xBD, 0xCA, 0xB7, 0x31, 0x3E, 0xEA, 0xC9,
  0xCA, 0xBD, 0x6B, 0xB3, 0x2D, 0xBE, 0xCA, 0x16, 0x4E, 0xBE,
  0x6B, 0xDB, 0x11, 0x3E, 0x64, 0x23, 0x14, 0xBC, 0x7F, 0x19,
  0x22, 0xBD, 0x81, 0x33, 0x31, 0xBD, 0x8A, 0x3D, 0x50, 0xBD,
  0xD6, 0x28, 0x50, 0xBE, 0xEA, 0xFB, 0x35, 0xBE, 0x39, 0xA2,
  0x0D, 0x3E, 0x6F, 0xA2, 0x1A, 0x3E, 0xBE, 0x04, 0xDD, 0xBD,
  0x96, 0x1E, 0x42, 0xBE, 0xC4, 0x21, 0x3C, 0x3E, 0x08, 0x0D,
  0xB9, 0xBD, 0x6B, 0x2A, 0x94, 0xBD, 0xFD, 0xDF, 0x95, 0xBD,
  0x33, 0x93, 0x1E, 0xBC, 0x24, 0x1C, 0x42, 0x3E, 0x13, 0x10,
  0x21, 0x3E, 0x8D, 0x5E, 0x2E, 0xBE, 0x4B, 0x4A, 0x8B, 0x3D,
  0x5D, 0x76, 0xE9, 0x3C, 0x28, 0xA6, 0x0B, 0xBE, 0x15, 0x1D,
  0x21, 0xBE, 0xAD, 0xF9, 0xCB, 0xBC, 0x3B, 0xA9, 0x23, 0xBE,
  0x14, 0xF7, 0xA3, 0xBD, 0x64, 0x0E, 0x0E, 0xBE, 0x85, 0x2F,
  0x33, 0x3E, 0x54, 0x5B, 0x50, 0xBC, 0x92, 0x18, 0x17, 0x3D,
  0xC6, 0xB1, 0x88, 0xBD, 0x00, 0x70, 0x93, 0xBD, 0x35, 0xCF,
  0xD4, 0x3D, 0x15, 0xBC, 0x74, 0xBD, 0x15, 0x22, 0x0E, 0xBE,
  0x03, 0xBE, 0x8B, 0x3D, 0x95, 0x4B, 0x38, 0x3E, 0xB8, 0xC7,
  0x63, 0x3D, 0xDC, 0x25, 0x81, 0x3B, 0xC2, 0x1D, 0xA0, 0xBD,
  0xCA, 0x42, 0x3C, 0xBE, 0xFB, 0xDB, 0xF0, 0xBD, 0x16, 0x84,
  0x00, 0x3E, 0x39, 0x82, 0x85, 0x3C, 0xCF, 0xC9, 0xB7, 0xBD,
  0xE8, 0x44, 0xFA, 0xBC, 0x8B, 0xEB, 0x0D, 0x3E, 0xA9, 0x73,
  0x31, 0xBE, 0x77, 0x39, 0x30, 0x3E, 0xFC, 0xF5, 0xCB, 0x3D,
  0xB6, 0x06, 0x33, 0xBD, 0x8F, 0xA6, 0xB1, 0xBD, 0x2B, 0x07,
  0x4F, 0x3E, 0x28, 0xD8, 0x34, 0x3E, 0x9C, 0x8C, 0xAF, 0xBD,
  0x5F, 0x51, 0x17, 0xBE, 0x4E, 0x54, 0x35, 0x3D, 0x93, 0x93,
  0x2E, 0x3E, 0x02, 0x63, 0xD1, 0xBD, 0x39, 0x7D, 0x22, 0x3E,
  0x16, 0x49, 0x52, 0x3D, 0xFF, 0xCD, 0xCF, 0xBD, 0x21, 0x1D,
  0x23, 0xBE, 0xB0, 0xEA, 0x07, 0x3D, 0x61, 0xA9, 0x29, 0x3D,
  0xD5, 0x93, 0xB0, 0x3D, 0xB2, 0xDB, 0x1A, 0xBE, 0xF2, 0x6E,
  0x37, 0x3E, 0xA2, 0x39, 0x05, 0x3E, 0x66, 0x79, 0x72, 0xBD,
  0x05, 0x62, 0x46, 0xBE, 0x27, 0x7B, 0x19, 0xBD, 0xD5, 0x67,
  0x4D, 0x3D, 0x7F, 0xB6, 0x1A, 0x3E, 0xCF, 0x7A, 0xA0, 0xBD,
  0x24, 0x63, 0x37, 0x3C, 0x4C, 0xDE, 0x17, 0x3E, 0xC1, 0x95,
  0x52, 0xBE, 0xBC, 0x7E, 0xC9, 0xBD, 0xE2, 0x9C, 0x2D, 0x3E,
  0xD9, 0xB4, 0x25, 0x3E, 0x74, 0xAA, 0x4A, 0x3E, 0xAF, 0x0D,
  0x1A, 0xBE, 0xBB, 0x65, 0x8C, 0xBB, 0x8E, 0x5E, 0xD0, 0x3D,
  0x70, 0x91, 0x96, 0xBD, 0x5D, 0x91, 0x55, 0xBE, 0x11, 0xC6,
  0x55, 0xBD, 0x3A, 0x0B, 0x70, 0xBB, 0xB5, 0x0D, 0x11, 0xBE,
  0x03, 0xDA, 0x01, 0xBE, 0x2E, 0x03, 0xD0, 0x3D, 0x15, 0x94,
  0x33, 0x3D, 0x5A, 0x56, 0x00, 0xBE, 0x05, 0x6F, 0xEF, 0x3D,
  0x86, 0xE8, 0x04, 0x3E, 0xD3, 0xF9, 0x35, 0x3E, 0x64, 0xEA,
  0xA9, 0xBD, 0xDD, 0x0D, 0x44, 0x3D, 0x3B, 0x21, 0x2E, 0xBE,
  0xCC, 0x72, 0x20, 0xBE, 0x70, 0x5C, 0xC8, 0x3D, 0x04, 0x3B,
  0x10, 0x3E, 0x8B, 0x8E, 0x03, 0xBC, 0xEE, 0x7E, 0xF6, 0x3D,
  0xA9, 0x1A, 0x55, 0xBD, 0x79, 0xE4, 0xFD, 0x3D, 0x52, 0xEC,
  0x88, 0xBB, 0x36, 0xFF, 0x4C, 0xBE, 0xAC, 0xBA, 0x46, 0x3D,
  0xCF, 0xAA, 0xB5, 0xBD, 0xE9, 0x85, 0xCF, 0xBD, 0x97, 0xA8,
  0x31, 0x3E, 0x93, 0x15, 0x2E, 0xBE, 0x34, 0x4A, 0xBD, 0xBD,
  0xBF, 0x17, 0x44, 0xBE, 0x6E, 0x02, 0x26, 0xBD, 0x74, 0x1A,
  0x4F, 0xBE, 0x65, 0x14, 0xA8, 0x3D, 0x0F, 0x0C, 0x0D, 0x3E,
  0x34, 0xB9, 0xAD, 0x3D, 0x26, 0x30, 0x17, 0x3D, 0x97, 0x6B,
  0x02, 0xBD, 0x62, 0xF2, 0xD8, 0x3D, 0x39, 0xA2, 0x15, 0x3E,
  0x52, 0x53, 0x35, 0xBE, 0x8A, 0x7D, 0x07, 0x3E, 0x5B, 0xFB,
  0xF6, 0xBC, 0x4E, 0xB0, 0x10, 0xBE, 0x8F, 0x49, 0x6D, 0xBD,
  0xF7, 0x71, 0x4E, 0xBD, 0xCF, 0x3E, 0xB9, 0x3D, 0x4C, 0xA3,
  0xAB, 0x3C, 0x35, 0x6C, 0xB9, 0xBD, 0x43, 0xAD, 0x99, 0xBD,
  0xBD, 0x1F, 0xF5, 0x3D, 0x03, 0x76, 0x22, 0x3D, 0xD8, 0x76,
  0x1C, 0x3D, 0xEC, 0x7D, 0x55, 0x3B, 0x99, 0xC8, 0x30, 0x3E,
  0x2E, 0xFE, 0x50, 0x3E, 0x0E, 0x5C, 0x53, 0x3E, 0xE6, 0x79,
  0x50, 0x3D, 0x32, 0x12, 0xD6, 0xBD, 0x20, 0x0F, 0xA5, 0x3D,
  0x07, 0x91, 0x32, 0x3D, 0x46, 0x14, 0x22, 0x3E, 0x46, 0xC9,
  0x3E, 0xBE, 0xAA, 0x89, 0x24, 0xBE, 0x7F, 0xDA, 0x52, 0xBD,
  0x3F, 0x75, 0x89, 0x3D, 0x05, 0x3B, 0xA8, 0x3C, 0x4B, 0x66,
  0xF8, 0x3D, 0xA2, 0xF6, 0x3D, 0x3E, 0x0D, 0xED, 0x06, 0xBE,
  0xC6, 0x29, 0xAD, 0x3D, 0x6F, 0xDF, 0x5C, 0x3D, 0x50, 0xA0,
  0xD8, 0xBD, 0x38, 0x2F, 0x93, 0x3B, 0x8C, 0xBA, 0xBB, 0x3C,
  0xC4, 0xC9, 0xC9, 0xBC, 0x27, 0x70, 0x24, 0xBD, 0xCF, 0x6E,
  0xD8, 0x3D, 0xCC, 0xCC, 0xD3, 0x3D, 0x75, 0xD5, 0xEC, 0x3C,
  0xF3, 0xE0, 0x2B, 0xBE, 0x34, 0x87, 0x3F, 0x3E, 0x3D, 0x76,
  0xB0, 0xBD, 0xDB, 0x09, 0x71, 0xBB, 0xBC, 0xD9, 0x40, 0xBE,
  0xCA, 0xE1, 0x53, 0x3E, 0x54, 0x9A, 0x03, 0xBD, 0x6B, 0xAA,
  0x47, 0x3E, 0xBB, 0x96, 0x9D, 0xBD, 0xDF, 0x21, 0x41, 0xBE,
  0x44, 0xF6, 0x0F, 0x3E, 0xAA, 0xD6, 0x32, 0x3E, 0xE1, 0x01,
  0xE7, 0xBD, 0x86, 0x80, 0x99, 0xBD, 0x35, 0xF4, 0xF1, 0x3C,
  0xAC, 0x3D, 0x18, 0xBE, 0x22, 0x59, 0x9E, 0x3D, 0x3D, 0x11,
  0x95, 0xBD, 0xF3, 0x02, 0x4C, 0x3E, 0xC5, 0x74, 0x38, 0xBE,
  0x34, 0x98, 0x80, 0x3C, 0x8B, 0xD2, 0x5C, 0x3D, 0x44, 0xAA,
  0xA0, 0x3D, 0x27, 0x41, 0x05, 0x3D, 0x6C, 0xCA, 0x40, 0x3E,
  0xB1, 0x32, 0x1D, 0xBE, 0x5C, 0x4B, 0x49, 0x3E, 0xA0, 0x72,
  0x3B, 0xBC, 0xFD, 0x26, 0xC5, 0xBD, 0x46, 0xB0, 0x2F, 0xBE,
  0x35, 0xF2, 0x3C, 0x3E, 0x8E, 0x10, 0xCF, 0x3D, 0x47, 0x38,
  0xB4, 0xBD, 0x7F, 0xE8, 0x0A, 0x3E, 0x93, 0x25, 0x44, 0x3E,
  0xCB, 0x91, 0xC7, 0xBD, 0x05, 0x52, 0xB4, 0xBD, 0xE3, 0x90,
  0xD0, 0x3C, 0x01, 0xC6, 0x4E, 0xBE, 0x5B, 0x76, 0x59, 0xBD,
  0xEE, 0x12, 0x3D, 0xBE, 0x8B, 0x51, 0xE1, 0x3D, 0xE2, 0x8A,
  0x8C, 0x3D, 0xDB, 0x4C, 0xF5, 0x3D, 0x3A, 0xCD, 0x2B, 0x3D,
  0xFA, 0x1F, 0x46, 0x3E, 0x28, 0x6B, 0xB4, 0xBD, 0x6F, 0xDA,
  0x55, 0x3D, 0x9E, 0xE2, 0x10, 0x3E, 0xB4, 0xFF, 0xF4, 0xBC,
  0xA4, 0x23, 0x19, 0xBE, 0x2A, 0xD6, 0x3C, 0x3E, 0x72, 0x71,
  0x7E, 0x3D, 0x2F, 0xA8, 0x94, 0x3D, 0xD3, 0x46, 0xD8, 0xBB,
  0x07, 0xF2, 0x9A, 0x3D, 0x76, 0xBF, 0x78, 0x3C, 0x35, 0x3F,
  0x1E, 0xBE, 0xDC, 0xDD, 0x2B, 0x3E, 0x3D, 0xB9, 0x17, 0x3E,
  0xE8, 0xD0, 0x9E, 0x3C, 0x19, 0x8A, 0xD8, 0x3D, 0x22, 0x4F,
  0xBF, 0x3D, 0xEC, 0xDC, 0x3E, 0x3E, 0xDF, 0xF2, 0x39, 0xBE,
  0x16, 0x55, 0x26, 0xBE, 0x6C, 0x5F, 0x0E, 0xBE, 0xE2, 0x78,
  0x46, 0xBE, 0x76, 0x65, 0x19, 0xBE, 0x27, 0xE7, 0x2F, 0xBD,
  0xF7, 0x7C, 0x23, 0x3D, 0xF1, 0xFE, 0x39, 0xBE, 0x37, 0x24,
  0x96, 0xBD, 0x83, 0xE4, 0xFF, 0xBD, 0x7C, 0xFF, 0x7B, 0x3D,
  0x29, 0x89, 0x4D, 0x3D, 0xBE, 0x8D, 0x25, 0xBE, 0x07, 0xE2,
  0x1D, 0x3E, 0x6D, 0xA8, 0x1D, 0xBD, 0xD9, 0xF5, 0x3F, 0xBE,
  0x8B, 0xD7, 0x43, 0xBE, 0x29, 0x89, 0x13, 0xBE, 0x74, 0x66,
  0x8C, 0x3C, 0xC0, 0xFD, 0xD7, 0xBD, 0x57, 0x6F, 0x8B, 0xBD,
  0x44, 0x2C, 0x07, 0x3E, 0x84, 0xFE, 0x0E, 0x3E, 0xF1, 0xA1,
  0xFB, 0x3C, 0x95, 0xBD, 0x4A, 0xBD, 0x10, 0xD4, 0x31, 0xBE,
  0xF5, 0xE2, 0x32, 0x3E, 0xB9, 0x75, 0x4F, 0xBE, 0xBD, 0xDB,
  0x8E, 0xBD, 0xB7, 0xF3, 0xD2, 0x3C, 0xDC, 0x8B, 0x57, 0xBB,
  0x9D, 0x92, 0x2E, 0xBE, 0x80, 0x82, 0x21, 0x3E, 0x35, 0xD9,
  0x83, 0x3D, 0xD9, 0xFF, 0x43, 0xBE, 0x9B, 0xA0, 0x33, 0xBE,
  0x76, 0xB4, 0xE8, 0x3D, 0x90, 0x34, 0x30, 0x3E, 0xA5, 0xFA,
  0x0B, 0x3D, 0x02, 0x4D, 0x15, 0x3D, 0xE2, 0xFB, 0xFF, 0xFF,
  0x04, 0x00, 0x00, 0x00, 0x60, 0x03, 0x00, 0x00, 0x7D, 0xA3,
  0x69, 0x3E, 0x2F, 0x27, 0x60, 0x3E, 0x49, 0xF2, 0x1E, 0x3E,
  0x36, 0x36, 0x0D, 0x3E, 0x2A, 0x2A, 0xF0, 0x3D, 0xF8, 0x60,
  0x34, 0x3E, 0x33, 0xD5, 0xD6, 0x3D, 0xCC, 0x31, 0xB2, 0xBC,
  0x5F, 0xDD, 0x47, 0xBE, 0x3E, 0x24, 0x0B, 0x3E, 0xC6, 0x7D,
  0x94, 0xBD, 0x96, 0x99, 0x2C, 0xBD, 0x8D, 0x11, 0x49, 0x3E,
  0x0B, 0x87, 0x4A, 0x3D, 0x9D, 0xFF, 0x63, 0x3E, 0xBA, 0x6C,
  0xA1, 0x3D, 0x66, 0x37, 0x2A, 0xBD, 0xFE, 0x63, 0x8A, 0x3D,
  0xB2, 0xF2, 0x79, 0x3C, 0xF8, 0xB2, 0x2F, 0xBE, 0x0B, 0x21,
  0x32, 0xBE, 0xC7, 0x0E, 0x06, 0xBE, 0x3B, 0x39, 0x5F, 0xBD,
  0xBB, 0x7F, 0x3C, 0x3B, 0x04, 0xFD, 0x42, 0xBE, 0x0A, 0x3F,
  0x3D, 0xBE, 0x30, 0xC5, 0xC9, 0xBD, 0xE4, 0x92, 0x33, 0xBE,
  0x3A, 0xFF, 0x4F, 0x3D, 0xB2, 0xC1, 0x88, 0x3C, 0xB2, 0xE9,
  0x58, 0x3E, 0x38, 0xA6, 0x44, 0x3E, 0xC7, 0xAE, 0xD6, 0x3D,
  0xA1, 0x47, 0xC5, 0x3B, 0x04, 0x78, 0x4D, 0xBB, 0x52, 0x8D,
  0x23, 0x3D, 0x4D, 0x93, 0x22, 0xBE, 0x78, 0xD1, 0xFF, 0x3D,
  0xD9, 0x4E, 0x38, 0x3E, 0xB5, 0x84, 0xD7, 0xBD, 0x6D, 0x73,
  0x52, 0x3E, 0xD4, 0xFB, 0x3E, 0x3C, 0x00, 0xB1, 0xA7, 0xBD,
  0xE3, 0xDE, 0x63, 0xBE, 0x0B, 0xC2, 0x0B, 0xBD, 0x25, 0x5F,
  0x71, 0x3E, 0xB5, 0x29, 0x32, 0x3D, 0x41, 0xA5, 0x5F, 0x3C,
  0x3E, 0x89, 0x59, 0xBE, 0x85, 0x0C, 0x27, 0xBC, 0xA6, 0x19,
  0x41, 0x3E, 0x82, 0x26, 0x87, 0x3D, 0x82, 0x37, 0xAF, 0x3D,
  0x80, 0x5F, 0xC5, 0xBD, 0xA0, 0x3C, 0xC7, 0x3D, 0x2F, 0x18,
  0x0A, 0x3D, 0x31, 0xCC, 0x1A, 0xBD, 0x79, 0xCE, 0x5E, 0x3E,
  0x89, 0xC1, 0x72, 0x3D, 0x33, 0x41, 0x5F, 0x3D, 0x76, 0x44,
  0xA2, 0xBC, 0xDD, 0x68, 0x06, 0x3D, 0x62, 0xAF, 0xB8, 0xBD,
  0x51, 0x11, 0x20, 0xBD, 0x6F, 0xFB, 0x01, 0x3E, 0xB0, 0x3C,
  0x29, 0xBE, 0xEB, 0x92, 0x3D, 0x3E, 0x31, 0x3C, 0x4F, 0xBE,
  0x69, 0x46, 0x49, 0xBE, 0x63, 0xB8, 0x98, 0x3D, 0xBB, 0xE5,
  0x14, 0xBE, 0x84, 0x1F, 0x3E, 0xBE, 0xC1, 0x15, 0x4E, 0xBE,
  0x4F, 0x49, 0x74, 0x3D, 0x0B, 0xAA, 0xCA, 0xBD, 0x1B, 0xD5,
  0xC9, 0x3D, 0x88, 0x16, 0x36, 0xBE, 0xF3, 0xF1, 0x36, 0x3C,
  0xA6, 0x95, 0xAF, 0xBD, 0xCA, 0xD1, 0xF9, 0x3D, 0x50, 0x2C,
  0x60, 0xBE, 0x2D, 0x80, 0x81, 0x3D, 0xE1, 0x9F, 0x0C, 0x3E,
  0xB3, 0x28, 0x99, 0x3B, 0x87, 0xD7, 0x58, 0x3E, 0xDB, 0x86,
  0x60, 0x3E, 0x02, 0xB1, 0x12, 0xBE, 0xAE, 0x25, 0x33, 0x3D,
  0xA0, 0x29, 0x4E, 0x3E, 0x09, 0x4F, 0x00, 0x3E, 0x7A, 0x1B,
  0xC4, 0xBD, 0x1A, 0x19, 0x81, 0xBE, 0xC9, 0xD2, 0x80, 0xBE,
  0x94, 0xC0, 0x60, 0x3E, 0x95, 0xDB, 0x74, 0xBD, 0x46, 0x97,
  0x03, 0xBE, 0x00, 0xC0, 0x0A, 0x3E, 0x4E, 0x03, 0x67, 0x3E,
  0x63, 0xF8, 0x67, 0xBE, 0x5E, 0xCE, 0xCF, 0xBD, 0x9A, 0x18,
  0x68, 0x3D, 0x8B, 0xB4, 0x1E, 0x3E, 0x88, 0x05, 0xCF, 0xBD,
  0xD7, 0xBC, 0x1B, 0x3E, 0xA0, 0x83, 0xE9, 0xBD, 0xEE, 0x05,
  0x56, 0x3D, 0x52, 0x05, 0x9A, 0x3D, 0x2F, 0x3C, 0x27, 0x3E,
  0xEA, 0x85, 0xC1, 0xBC, 0x94, 0x09, 0x7F, 0xBD, 0x89, 0xD7,
  0x93, 0xBD, 0x98, 0x35, 0xBE, 0xBD, 0x9D, 0xC8, 0x0F, 0xBE,
  0xE5, 0x48, 0x56, 0xBD, 0x41, 0x52, 0xD9, 0xBD, 0x4C, 0x68,
  0x31, 0xBE, 0x5A, 0xED, 0x21, 0x3E, 0x9B, 0xAA, 0x61, 0x3B,
  0xC2, 0x30, 0xED, 0x3D, 0x15, 0x5A, 0x5B, 0xBE, 0x3B, 0x2A,
  0x14, 0x3E, 0xEC, 0xEA, 0x3A, 0xBC, 0xB9, 0xBA, 0x35, 0x3D,
  0x50, 0x19, 0xDD, 0x3D, 0xB5, 0x14, 0x2C, 0xBE, 0x1F, 0x76,
  0x4F, 0x3E, 0xC2, 0x60, 0x5C, 0xBE, 0xF4, 0x5F, 0x27, 0xBE,
  0x3A, 0xDF, 0x3E, 0xBD, 0xB5, 0xC2, 0x1D, 0xBD, 0x0D, 0x12,
  0x12, 0xBD, 0x52, 0x63, 0x6B, 0x3E, 0x4E, 0xD8, 0xC1, 0x3D,
  0xB5, 0x37, 0x27, 0x3D, 0x77, 0x6A, 0xF8, 0x3C, 0xB0, 0x51,
  0x62, 0xBE, 0x8E, 0xF6, 0xAE, 0x3D, 0xFE, 0xA6, 0xFA, 0xBD,
  0x2B, 0x70, 0x01, 0x3E, 0xE1, 0xDC, 0x58, 0xBE, 0xDD, 0xEB,
  0x49, 0x3E, 0xA5, 0xF3, 0x0B, 0x3E, 0xB6, 0xD6, 0x34, 0xBD,
  0x40, 0x58, 0xFF, 0xBC, 0xC8, 0xD0, 0x9B, 0xBD, 0x28, 0xAF,
  0x73, 0xBE, 0xB1, 0x90, 0x30, 0xBE, 0x51, 0x06, 0xE9, 0xBD,
  0x5D, 0x90, 0x7B, 0x3B, 0x60, 0x24, 0x06, 0xBE, 0x0F, 0xFE,
  0x1A, 0x3E, 0xA6, 0x37, 0x78, 0xBC, 0x33, 0xE5, 0x25, 0xBE,
  0xD5, 0xE3, 0x43, 0x3E, 0xDB, 0x3F, 0x49, 0xBD, 0x3C, 0xCD,
  0xD9, 0x3D, 0xE0, 0x30, 0x47, 0x3E, 0x27, 0x59, 0xCE, 0xBD,
  0x4B, 0xC0, 0x42, 0xBD, 0x2F, 0x75, 0x7E, 0x3E, 0xAF, 0x98,
  0x18, 0x3E, 0xD5, 0x3D, 0x15, 0x3E, 0x8A, 0x53, 0x59, 0xBE,
  0x34, 0xA2, 0x42, 0x3E, 0x35, 0x0C, 0xBD, 0x3C, 0xBB, 0x96,
  0xE0, 0xBB, 0x3F, 0x1F, 0xAC, 0x3C, 0xC8, 0xE1, 0x64, 0xBD,
  0xC5, 0xD5, 0x01, 0xBE, 0xF8, 0xDB, 0xAC, 0x3D, 0xB0, 0xFA,
  0xF3, 0xBD, 0xFB, 0x9D, 0x82, 0x3D, 0x99, 0x51, 0x39, 0xBD,
  0xA9, 0x91, 0xC7, 0x3D, 0x6E, 0x91, 0x27, 0x3E, 0x42, 0xE8,
  0x35, 0x3E, 0xA7, 0x8E, 0x5D, 0xBE, 0xB2, 0x36, 0x3A, 0x3E,
  0x87, 0x54, 0xDF, 0xBD, 0xD7, 0x7A, 0x8B, 0xBD, 0xAA, 0x25,
  0x47, 0x3E, 0x6A, 0xC6, 0xA0, 0x3C, 0x43, 0xFD, 0x61, 0xBD,
  0xA2, 0x3D, 0xE2, 0xBA, 0x42, 0x07, 0x02, 0x3E, 0x08, 0x36,
  0xBB, 0xBD, 0x90, 0x82, 0x63, 0x3D, 0xD5, 0xA7, 0x1A, 0xBE,
  0x1D, 0x81, 0xC9, 0x3D, 0xE9, 0xC6, 0x25, 0x3E, 0x7D, 0xF5,
  0x77, 0xBE, 0x9B, 0x82, 0x47, 0xBE, 0x42, 0x8B, 0xED, 0xBD,
  0x85, 0x82, 0x75, 0xBE, 0x9D, 0x28, 0x23, 0xBD, 0xE5, 0xFF,
  0x86, 0x3D, 0x96, 0x59, 0x40, 0xBE, 0xC4, 0x40, 0xFA, 0xBC,
  0xDD, 0x5D, 0xB7, 0x3D, 0x97, 0x4B, 0x1C, 0xBE, 0xB9, 0x1A,
  0x14, 0x3E, 0xDD, 0x0F, 0x28, 0x3E, 0x81, 0xC3, 0x4D, 0xBE,
  0x15, 0x49, 0x5B, 0xBE, 0x92, 0x0F, 0x30, 0xBE, 0x77, 0x86,
  0x69, 0xBD, 0xF4, 0x65, 0xDC, 0x3D, 0x5F, 0xB8, 0x89, 0x3D,
  0x9C, 0x44, 0xB4, 0x3D, 0x34, 0xC1, 0x20, 0xBE, 0x2B, 0x71,
  0x72, 0x3E, 0x89, 0x0A, 0x35, 0xBE, 0x4D, 0x90, 0x41, 0x3E,
  0x7A, 0x28, 0x29, 0xBE, 0xF6, 0xC1, 0x27, 0x3E, 0x74, 0x9B,
  0x14, 0xBE, 0x4E, 0xFF, 0xFF, 0xFF, 0x04, 0x00, 0x00, 0x00,
  0x20, 0x00, 0x00, 0x00, 0x30, 0xAF, 0x9C, 0x3B, 0x49, 0xD5,
  0xBA, 0xBA, 0x7C, 0xDE, 0x59, 0xB7, 0xEF, 0xE1, 0x6E, 0xBB,
  0x72, 0x2D, 0x7F, 0xBB, 0x21, 0xD5, 0x28, 0xBB, 0x76, 0x58,
  0x99, 0xBB, 0x29, 0xBA, 0x9B, 0x3B, 0x7A, 0xFF, 0xFF, 0xFF,
  0x04, 0x00, 0x00, 0x00, 0x20, 0x00, 0x00, 0x00, 0x8D, 0x3F,
  0x90, 0x3B, 0x42, 0x01, 0x73, 0xBB, 0x44, 0x5A, 0xA9, 0xBA,
  0xF1, 0x48, 0x1A, 0xBC, 0xC5, 0xAD, 0x16, 0x3C, 0xA3, 0x10,
  0x23, 0xBB, 0x3B, 0xA2, 0xE5, 0x3A, 0x26, 0x7C, 0xB0, 0x3B,
  0xA6, 0xFF, 0xFF, 0xFF, 0x04, 0x00, 0x00, 0x00, 0x20, 0x00,
  0x00, 0x00, 0xA3, 0xAA, 0x48, 0x3C, 0x4F, 0xB3, 0x9D, 0xBB,
  0x09, 0x26, 0x8B, 0x3B, 0xE5, 0xA6, 0x88, 0xB9, 0xC6, 0x11,
  0xA4, 0xBB, 0x75, 0x86, 0xDE, 0xBB, 0x53, 0x81, 0xB1, 0xBB,
  0x09, 0x92, 0xF4, 0xBB, 0xD2, 0xFF, 0xFF, 0xFF, 0x04, 0x00,
  0x00, 0x00, 0x20, 0x00, 0x00, 0x00, 0x15, 0x80, 0xD6, 0x3B,
  0x5C, 0x74, 0x81, 0x3B, 0x8C, 0x61, 0x20, 0xB9, 0xA1, 0x59,
  0xAF, 0x39, 0x22, 0x3C, 0x8A, 0xBB, 0x12, 0xD4, 0x38, 0xBB,
  0xC5, 0x29, 0xE7, 0x3B, 0x0C, 0x07, 0x97, 0xBB, 0x00, 0x00,
  0x06, 0x00, 0x08, 0x00, 0x04, 0x00, 0x06, 0x00, 0x00, 0x00,
  0x04, 0x00, 0x00, 0x00, 0x20, 0x00, 0x00, 0x00, 0x56, 0x89,
  0xD3, 0xB9, 0xAA, 0x88, 0xCA, 0x3B, 0xB4, 0xAE, 0x05, 0xBB,
  0x89, 0x15, 0xBE, 0xBA, 0xF3, 0xFB, 0x46, 0xBB, 0x1B, 0x75,
  0x6E, 0x3C, 0x28, 0x5E, 0x7F, 0x3B, 0x5F, 0x23, 0x85, 0x3B,
  0x2C, 0xEE, 0xFF, 0xFF, 0x30, 0xEE, 0xFF, 0xFF, 0x0F, 0x00,
  0x00, 0x00, 0x4D, 0x4C, 0x49, 0x52, 0x20, 0x43, 0x6F, 0x6E,
  0x76, 0x65, 0x72, 0x74, 0x65, 0x64, 0x2E, 0x00, 0x01, 0x00,
  0x00, 0x00, 0x14, 0x00, 0x00, 0x00, 0x00, 0x00, 0x0E, 0x00,
  0x18, 0x00, 0x14, 0x00, 0x10, 0x00, 0x0C, 0x00, 0x08, 0x00,
  0x04, 0x00, 0x0E, 0x00, 0x00, 0x00, 0x14, 0x00, 0x00, 0x00,
  0x1C, 0x00, 0x00, 0x00, 0xA8, 0x03, 0x00, 0x00, 0xAC, 0x03,
  0x00, 0x00, 0xB0, 0x03, 0x00, 0x00, 0x04, 0x00, 0x00, 0x00,
  0x6D, 0x61, 0x69, 0x6E, 0x00, 0x00, 0x00, 0x00, 0x0E, 0x00,
  0x00, 0x00, 0x44, 0x03, 0x00, 0x00, 0xE4, 0x02, 0x00, 0x00,
  0x94, 0x02, 0x00, 0x00, 0x54, 0x02, 0x00, 0x00, 0x14, 0x02,
  0x00, 0x00, 0xD4, 0x01, 0x00, 0x00, 0x94, 0x01, 0x00, 0x00,
  0x54, 0x01, 0x00, 0x00, 0x14, 0x01, 0x00, 0x00, 0xD4, 0x00,
  0x00, 0x00, 0x94, 0x00, 0x00, 0x00, 0x6C, 0x00, 0x00, 0x00,
  0x28, 0x00, 0x00, 0x00, 0x04, 0x00, 0x00, 0x00, 0xAA, 0xFF,
  0xFF, 0xFF, 0x0C, 0x00, 0x00, 0x00, 0x10, 0x00, 0x00, 0x00,
  0x04, 0x00, 0x00, 0x00, 0x01, 0x00, 0x00, 0x00, 0x1B, 0x00,
  0x00, 0x00, 0x01, 0x00, 0x00, 0x00, 0x1A, 0x00, 0x00, 0x00,
  0x7E, 0xFD, 0xFF, 0xFF, 0x14, 0x00, 0x00, 0x00, 0x00, 0x00,
  0x00, 0x08, 0x10, 0x00, 0x00, 0x00, 0x14, 0x00, 0x00, 0x00,
  0x03, 0x00, 0x00, 0x00, 0xF8, 0xEE, 0xFF, 0xFF, 0x01, 0x00,
  0x00, 0x00, 0x1A, 0x00, 0x00, 0x00, 0x03, 0x00, 0x00, 0x00,
  0x19, 0x00, 0x00, 0x00, 0x0D, 0x00, 0x00, 0x00, 0x0B, 0x00,
  0x00, 0x00, 0x00, 0x00, 0x0A, 0x00, 0x10, 0x00, 0x0C, 0x00,
  0x08, 0x00, 0x04, 0x00, 0x0A, 0x00, 0x00, 0x00, 0x0C, 0x00,
  0x00, 0x00, 0x10, 0x00, 0x00, 0x00, 0x02, 0x00, 0x00, 0x00,
  0x01, 0x00, 0x00, 0x00, 0x19, 0x00, 0x00, 0x00, 0x02, 0x00,
  0x00, 0x00, 0x18, 0x00, 0x00, 0x00, 0x0C, 0x00, 0x00, 0x00,
  0xE2, 0xFD, 0xFF, 0xFF, 0x14, 0x00, 0x00, 0x00, 0x00, 0x00,
  0x00, 0x05, 0x20, 0x00, 0x00, 0x00, 0x24, 0x00, 0x00, 0x00,
  0x01, 0x00, 0x00, 0x00, 0xD2, 0xFD, 0xFF, 0xFF, 0x02, 0x00,
  0x00, 0x00, 0x02, 0x00, 0x00, 0x00, 0x02, 0x00, 0x00, 0x00,
  0x02, 0x00, 0x00, 0x00, 0x01, 0x00, 0x00, 0x00, 0x18, 0x00,
  0x00, 0x00, 0x01, 0x00, 0x00, 0x00, 0x17, 0x00, 0x00, 0x00,
  0x1E, 0xFE, 0xFF, 0xFF, 0x14, 0x00, 0x00, 0x00, 0x00, 0x00,
  0x00, 0x05, 0x20, 0x00, 0x00, 0x00, 0x24, 0x00, 0x00, 0x00,
  0x01, 0x00, 0x00, 0x00, 0x0E, 0xFE, 0xFF, 0xFF, 0x02, 0x00,
  0x00, 0x00, 0x02, 0x00, 0x00, 0x00, 0x02, 0x00, 0x00, 0x00,
  0x02, 0x00, 0x00, 0x00, 0x01, 0x00, 0x00, 0x00, 0x17, 0x00,
  0x00, 0x00, 0x01, 0x00, 0x00, 0x00, 0x16, 0x00, 0x00, 0x00,
  0xFE, 0xFD, 0xFF, 0xFF, 0x10, 0x00, 0x00, 0x00, 0x00, 0x00,
  0x00, 0x01, 0x18, 0x00, 0x00, 0x00, 0x1C, 0x00, 0x00, 0x00,
  0xF0, 0xFD, 0xFF, 0xFF, 0x00, 0x00, 0x00, 0x01, 0x01, 0x00,
  0x00, 0x00, 0x01, 0x00, 0x00, 0x00, 0x01, 0x00, 0x00, 0x00,
  0x16, 0x00, 0x00, 0x00, 0x03, 0x00, 0x00, 0x00, 0x15, 0x00,
  0x00, 0x00, 0x0A, 0x00, 0x00, 0x00, 0x05, 0x00, 0x00, 0x00,
  0x96, 0xFE, 0xFF, 0xFF, 0x14, 0x00, 0x00, 0x00, 0x00, 0x00,
  0x00, 0x05, 0x20, 0x00, 0x00, 0x00, 0x24, 0x00, 0x00, 0x00,
  0x01, 0x00, 0x00, 0x00, 0x86, 0xFE, 0xFF, 0xFF, 0x02, 0x00,
  0x00, 0x00, 0x02, 0x00, 0x00, 0x00, 0x02, 0x00, 0x00, 0x00,
  0x02, 0x00, 0x00, 0x00, 0x01, 0x00, 0x00, 0x00, 0x15, 0x00,
  0x00, 0x00, 0x01, 0x00, 0x00, 0x00, 0x14, 0x00, 0x00, 0x00,
  0x76, 0xFE, 0xFF, 0xFF, 0x10, 0x00, 0x00, 0x00, 0x00, 0x00,
  0x00, 0x01, 0x18, 0x00, 0x00, 0x00, 0x1C, 0x00, 0x00, 0x00,
  0x68, 0xFE, 0xFF, 0xFF, 0x00, 0x00, 0x00, 0x01, 0x01, 0x00,
  0x00, 0x00, 0x01, 0x00, 0x00, 0x00, 0x01, 0x00, 0x00, 0x00,
  0x14, 0x00, 0x00, 0x00, 0x03, 0x00, 0x00, 0x00, 0x13, 0x00,
  0x00, 0x00, 0x09, 0x00, 0x00, 0x00, 0x04, 0x00, 0x00, 0x00,
  0x0E, 0xFF, 0xFF, 0xFF, 0x14, 0x00, 0x00, 0x00, 0x00, 0x00,
  0x00, 0x05, 0x20, 0x00, 0x00, 0x00, 0x24, 0x00, 0x00, 0x00,
  0x01, 0x00, 0x00, 0x00, 0xFE, 0xFE, 0xFF, 0xFF, 0x02, 0x00,
  0x00, 0x00, 0x02, 0x00, 0x00, 0x00, 0x02, 0x00, 0x00, 0x00,
  0x02, 0x00, 0x00, 0x00, 0x01, 0x00, 0x00, 0x00, 0x13, 0x00,
  0x00, 0x00, 0x01, 0x00, 0x00, 0x00, 0x12, 0x00, 0x00, 0x00,
  0xEE, 0xFE, 0xFF, 0xFF, 0x10, 0x00, 0x00, 0x00, 0x00, 0x00,
  0x00, 0x01, 0x18, 0x00, 0x00, 0x00, 0x1C, 0x00, 0x00, 0x00,
  0xE0, 0xFE, 0xFF, 0xFF, 0x00, 0x00, 0x00, 0x01, 0x01, 0x00,
  0x00, 0x00, 0x01, 0x00, 0x00, 0x00, 0x01, 0x00, 0x00, 0x00,
  0x12, 0x00, 0x00, 0x00, 0x03, 0x00, 0x00, 0x00, 0x11, 0x00,
  0x00, 0x00, 0x08, 0x00, 0x00, 0x00, 0x03, 0x00, 0x00, 0x00,
  0x86, 0xFF, 0xFF, 0xFF, 0x14, 0x00, 0x00, 0x00, 0x00, 0x00,
  0x00, 0x05, 0x20, 0x00, 0x00, 0x00, 0x24, 0x00, 0x00, 0x00,
  0x01, 0x00, 0x00, 0x00, 0x76, 0xFF, 0xFF, 0xFF, 0x02, 0x00,
  0x00, 0x00, 0x02, 0x00, 0x00, 0x00, 0x02, 0x00, 0x00, 0x00,
  0x02, 0x00, 0x00, 0x00, 0x01, 0x00, 0x00, 0x00, 0x11, 0x00,
  0x00, 0x00, 0x01, 0x00, 0x00, 0x00, 0x10, 0x00, 0x00, 0x00,
  0x66, 0xFF, 0xFF, 0xFF, 0x10, 0x00, 0x00, 0x00, 0x00, 0x00,
  0x00, 0x01, 0x18, 0x00, 0x00, 0x00, 0x1C, 0x00, 0x00, 0x00,
  0x58, 0xFF, 0xFF, 0xFF, 0x00, 0x00, 0x00, 0x01, 0x01, 0x00,
  0x00, 0x00, 0x01, 0x00, 0x00, 0x00, 0x01, 0x00, 0x00, 0x00,
  0x10, 0x00, 0x00, 0x00, 0x03, 0x00, 0x00, 0x00, 0x0F, 0x00,
  0x00, 0x00, 0x07, 0x00, 0x00, 0x00, 0x02, 0x00, 0x00, 0x00,
  0x00, 0x00, 0x0E, 0x00, 0x1A, 0x00, 0x14, 0x00, 0x10, 0x00,
  0x0C, 0x00, 0x0B, 0x00, 0x04, 0x00, 0x0E, 0x00, 0x00, 0x00,
  0x24, 0x00, 0x00, 0x00, 0x00, 0x00, 0x00, 0x05, 0x30, 0x00,
  0x00, 0x00, 0x34, 0x00, 0x00, 0x00, 0x01, 0x00, 0x00, 0x00,
  0x00, 0x00, 0x0E, 0x00, 0x14, 0x00, 0x00, 0x00, 0x10, 0x00,
  0x0C, 0x00, 0x08, 0x00, 0x04, 0x00, 0x0E, 0x00, 0x00, 0x00,
  0x02, 0x00, 0x00, 0x00, 0x02, 0x00, 0x00, 0x00, 0x02, 0x00,
  0x00, 0x00, 0x02, 0x00, 0x00, 0x00, 0x01, 0x00, 0x00, 0x00,
  0x0F, 0x00, 0x00, 0x00, 0x01, 0x00, 0x00, 0x00, 0x0E, 0x00,
  0x00, 0x00, 0x00, 0x00, 0x0E, 0x00, 0x14, 0x00, 0x00, 0x00,
  0x10, 0x00, 0x0C, 0x00, 0x0B, 0x00, 0x04, 0x00, 0x0E, 0x00,
  0x00, 0x00, 0x1C, 0x00, 0x00, 0x00, 0x00, 0x00, 0x00, 0x01,
  0x24, 0x00, 0x00, 0x00, 0x28, 0x00, 0x00, 0x00, 0x0C, 0x00,
  0x10, 0x00, 0x00, 0x00, 0x0C, 0x00, 0x08, 0x00, 0x07, 0x00,
  0x0C, 0x00, 0x00, 0x00, 0x00, 0x00, 0x00, 0x01, 0x01, 0x00,
  0x00, 0x00, 0x01, 0x00, 0x00, 0x00, 0x01, 0x00, 0x00, 0x00,
  0x0E, 0x00, 0x00, 0x00, 0x03, 0x00, 0x00, 0x00, 0x00, 0x00,
  0x00, 0x00, 0x06, 0x00, 0x00, 0x00, 0x01, 0x00, 0x00, 0x00,
  0x01, 0x00, 0x00, 0x00, 0x1B, 0x00, 0x00, 0x00, 0x01, 0x00,
  0x00, 0x00, 0x00, 0x00, 0x00, 0x00, 0x1C, 0x00, 0x00, 0x00,
  0xA8, 0x0D, 0x00, 0x00, 0x34, 0x0D, 0x00, 0x00, 0xC0, 0x0C,
  0x00, 0x00, 0x64, 0x0C, 0x00, 0x00, 0x08, 0x0C, 0x00, 0x00,
  0xAC, 0x0B, 0x00, 0x00, 0x54, 0x0B, 0x00, 0x00, 0xFC, 0x0A,
  0x00, 0x00, 0xA4, 0x0A, 0x00, 0x00, 0x4C, 0x0A, 0x00, 0x00,
  0xF4, 0x09, 0x00, 0x00, 0x98, 0x09, 0x00, 0x00, 0x48, 0x09,
  0x00, 0x00, 0xE0, 0x08, 0x00, 0x00, 0xE4, 0x07, 0x00, 0x00,
  0x6C, 0x07, 0x00, 0x00, 0x70, 0x06, 0x00, 0x00, 0xF8, 0x05,
  0x00, 0x00, 0xFC, 0x04, 0x00, 0x00, 0x84, 0x04, 0x00, 0x00,
  0x88, 0x03, 0x00, 0x00, 0x10, 0x03, 0x00, 0x00, 0x34, 0x02,
  0x00, 0x00, 0xBC, 0x01, 0x00, 0x00, 0x44, 0x01, 0x00, 0x00,
  0xE0, 0x00, 0x00, 0x00, 0x60, 0x00, 0x00, 0x00, 0x04, 0x00,
  0x00, 0x00, 0xDE, 0xF2, 0xFF, 0xFF, 0x00, 0x00, 0x00, 0x01,
  0x14, 0x00, 0x00, 0x00, 0x1C, 0x00, 0x00, 0x00, 0x1C, 0x00,
  0x00, 0x00, 0x1C, 0x00, 0x00, 0x00, 0x34, 0x00, 0x00, 0x00,
  0x02, 0x00, 0x00, 0x00, 0xFF, 0xFF, 0xFF, 0xFF, 0x01, 0x00,
  0x00, 0x00, 0xC0, 0xF2, 0xFF, 0xFF, 0x19, 0x00, 0x00, 0x00,
  0x53, 0x74, 0x61, 0x74, 0x65, 0x66, 0x75, 0x6C, 0x50, 0x61,
  0x72, 0x74, 0x69, 0x74, 0x69, 0x6F, 0x6E, 0x65, 0x64, 0x43,
  0x61, 0x6C, 0x6C, 0x3A, 0x30, 0x00, 0x00, 0x00, 0x02, 0x00,
  0x00, 0x00, 0x01, 0x00, 0x00, 0x00, 0x01, 0x00, 0x00, 0x00,
  0x36, 0xF3, 0xFF, 0xFF, 0x00, 0x00, 0x00, 0x01, 0x14, 0x00,
  0x00, 0x00, 0x1C, 0x00, 0x00, 0x00, 0x1C, 0x00, 0x00, 0x00,
  0x1B, 0x00, 0x00, 0x00, 0x58, 0x00, 0x00, 0x00, 0x02, 0x00,
  0x00, 0x00, 0xFF, 0xFF, 0xFF, 0xFF, 0x01, 0x00, 0x00, 0x00,
  0x18, 0xF3, 0xFF, 0xFF, 0x3C, 0x00, 0x00, 0x00, 0x73, 0x65,
  0x71, 0x75, 0x65, 0x6E, 0x74, 0x69, 0x61, 0x6C, 0x5F, 0x31,
  0x30, 0x2F, 0x64, 0x65, 0x6E, 0x73, 0x65, 0x5F, 0x31, 0x32,
  0x2F, 0x4D, 0x61, 0x74, 0x4D, 0x75, 0x6C, 0x3B, 0x73, 0x65,
  0x71, 0x75, 0x65, 0x6E, 0x74, 0x69, 0x61, 0x6C, 0x5F, 0x31,
  0x30, 0x2F, 0x64, 0x65, 0x6E, 0x73, 0x65, 0x5F, 0x31, 0x32,
  0x2F, 0x42, 0x69, 0x61, 0x73, 0x41, 0x64, 0x64, 0x00, 0x00,
  0x00, 0x00, 0x02, 0x00, 0x00, 0x00, 0x01, 0x00, 0x00, 0x00,
  0x01, 0x00, 0x00, 0x00, 0xB2, 0xF3, 0xFF, 0xFF, 0x00, 0x00,
  0x00, 0x01, 0x14, 0x00, 0x00, 0x00, 0x1C, 0x00, 0x00, 0x00,
  0x1C, 0x00, 0x00, 0x00, 0x1A, 0x00, 0x00, 0x00, 0x3C, 0x00,
  0x00, 0x00, 0x02, 0x00, 0x00, 0x00, 0xFF, 0xFF, 0xFF, 0xFF,
  0x20, 0x00, 0x00, 0x00, 0x94, 0xF3, 0xFF, 0xFF, 0x20, 0x00,
  0x00, 0x00, 0x73, 0x65, 0x71, 0x75, 0x65, 0x6E, 0x74, 0x69,
  0x61, 0x6C, 0x5F, 0x31, 0x30, 0x2F, 0x66, 0x6C, 0x61, 0x74,
  0x74, 0x65, 0x6E, 0x5F, 0x31, 0x30, 0x2F, 0x52, 0x65, 0x73,
  0x68, 0x61, 0x70, 0x65, 0x00, 0x00, 0x00, 0x00, 0x02, 0x00,
  0x00, 0x00, 0x01, 0x00, 0x00, 0x00, 0x20, 0x00, 0x00, 0x00,
  0x12, 0xF4, 0xFF, 0xFF, 0x00, 0x00, 0x00, 0x01, 0x14, 0x00,
  0x00, 0x00, 0x24, 0x00, 0x00, 0x00, 0x24, 0x00, 0x00, 0x00,
  0x19, 0x00, 0x00, 0x00, 0x48, 0x00, 0x00, 0x00, 0x04, 0x00,
  0x00, 0x00, 0xFF, 0xFF, 0xFF, 0xFF, 0x02, 0x00, 0x00, 0x00,
  0x02, 0x00, 0x00, 0x00, 0x08, 0x00, 0x00, 0x00, 0xFC, 0xF3,
  0xFF, 0xFF, 0x26, 0x00, 0x00, 0x00, 0x73, 0x65, 0x71, 0x75,
  0x65, 0x6E, 0x74, 0x69, 0x61, 0x6C, 0x5F, 0x31, 0x30, 0x2F,
  0x6D, 0x61, 0x78, 0x5F, 0x70, 0x6F, 0x6F, 0x6C, 0x69, 0x6E,
  0x67, 0x32, 0x64, 0x5F, 0x36, 0x35, 0x2F, 0x4D, 0x61, 0x78,
  0x50, 0x6F, 0x6F, 0x6C, 0x00, 0x00, 0x04, 0x00, 0x00, 0x00,
  0x01, 0x00, 0x00, 0x00, 0x02, 0x00, 0x00, 0x00, 0x02, 0x00,
  0x00, 0x00, 0x08, 0x00, 0x00, 0x00, 0x86, 0xF4, 0xFF, 0xFF,
  0x00, 0x00, 0x00, 0x01, 0x14, 0x00, 0x00, 0x00, 0x24, 0x00,
  0x00, 0x00, 0x24, 0x00, 0x00, 0x00, 0x18, 0x00, 0x00, 0x00,
  0x48, 0x00, 0x00, 0x00, 0x04, 0x00, 0x00, 0x00, 0xFF, 0xFF,
  0xFF, 0xFF, 0x04, 0x00, 0x00, 0x00, 0x04, 0x00, 0x00, 0x00,
  0x08, 0x00, 0x00, 0x00, 0x70, 0xF4, 0xFF, 0xFF, 0x26, 0x00,
  0x00, 0x00, 0x73, 0x65, 0x71, 0x75, 0x65, 0x6E, 0x74, 0x69,
  0x61, 0x6C, 0x5F, 0x31, 0x30, 0x2F, 0x6D, 0x61, 0x78, 0x5F,
  0x70, 0x6F, 0x6F, 0x6C, 0x69, 0x6E, 0x67, 0x32, 0x64, 0x5F,
  0x36, 0x34, 0x2F, 0x4D, 0x61, 0x78, 0x50, 0x6F, 0x6F, 0x6C,
  0x00, 0x00, 0x04, 0x00, 0x00, 0x00, 0x01, 0x00, 0x00, 0x00,
  0x04, 0x00, 0x00, 0x00, 0x04, 0x00, 0x00, 0x00, 0x08, 0x00,
  0x00, 0x00, 0xFA, 0xF4, 0xFF, 0xFF, 0x00, 0x00, 0x00, 0x01,
  0x14, 0x00, 0x00, 0x00, 0x24, 0x00, 0x00, 0x00, 0x24, 0x00,
  0x00, 0x00, 0x17, 0x00, 0x00, 0x00, 0xAC, 0x00, 0x00, 0x00,
  0x04, 0x00, 0x00, 0x00, 0xFF, 0xFF, 0xFF, 0xFF, 0x08, 0x00,
  0x00, 0x00, 0x08, 0x00, 0x00, 0x00, 0x08, 0x00, 0x00, 0x00,
  0xE4, 0xF4, 0xFF, 0xFF, 0x8A, 0x00, 0x00, 0x00, 0x73, 0x65,
  0x71, 0x75, 0x65, 0x6E, 0x74, 0x69, 0x61, 0x6C, 0x5F, 0x31,
  0x30, 0x2F, 0x63, 0x6F, 0x6E, 0x76, 0x32, 0x64, 0x5F, 0x35,
  0x34, 0x2F, 0x52, 0x65, 0x6C, 0x75, 0x3B, 0x73, 0x65, 0x71,
  0x75, 0x65, 0x6E, 0x74, 0x69, 0x61, 0x6C, 0x5F, 0x31, 0x30,
  0x2F, 0x63, 0x6F, 0x6E, 0x76, 0x32, 0x64, 0x5F, 0x35, 0x34,
  0x2F, 0x42, 0x69, 0x61, 0x73, 0x41, 0x64, 0x64, 0x3B, 0x73,
  0x65, 0x71, 0x75, 0x65, 0x6E, 0x74, 0x69, 0x61, 0x6C, 0x5F,
  0x31, 0x30, 0x2F, 0x63, 0x6F, 0x6E, 0x76, 0x32, 0x64, 0x5F,
  0x35, 0x34, 0x2F, 0x43, 0x6F, 0x6E, 0x76, 0x32, 0x44, 0x3B,
  0x73, 0x65, 0x71, 0x75, 0x65, 0x6E, 0x74, 0x69, 0x61, 0x6C,
  0x5F, 0x31, 0x30, 0x2F, 0x63, 0x6F, 0x6E, 0x76, 0x32, 0x64,
  0x5F, 0x35, 0x34, 0x2F, 0x42, 0x69, 0x61, 0x73, 0x41, 0x64,
  0x64, 0x2F, 0x52, 0x65, 0x61, 0x64, 0x56, 0x61, 0x72, 0x69,
  0x61, 0x62, 0x6C, 0x65, 0x4F, 0x70, 0x00, 0x00, 0x04, 0x00,
  0x00, 0x00, 0x01, 0x00, 0x00, 0x00, 0x08, 0x00, 0x00, 0x00,
  0x08, 0x00, 0x00, 0x00, 0x08, 0x00, 0x00, 0x00, 0xD2, 0xF5,
  0xFF, 0xFF, 0x00, 0x00, 0x00, 0x01, 0x14, 0x00, 0x00, 0x00,
  0x24, 0x00, 0x00, 0x00, 0x24, 0x00, 0x00, 0x00, 0x16, 0x00,
  0x00, 0x00, 0x48, 0x00, 0x00, 0x00, 0x04, 0x00, 0x00, 0x00,
  0xFF, 0xFF, 0xFF, 0xFF, 0x08, 0x00, 0x00, 0x00, 0x08, 0x00,
  0x00, 0x00, 0x08, 0x00, 0x00, 0x00, 0xBC, 0xF5, 0xFF, 0xFF,
  0x26, 0x00, 0x00, 0x00, 0x73, 0x65, 0x71, 0x75, 0x65, 0x6E,
  0x74, 0x69, 0x61, 0x6C, 0x5F, 0x31, 0x30, 0x2F, 0x6D, 0x61,
  0x78, 0x5F, 0x70, 0x6F, 0x6F, 0x6C, 0x69, 0x6E, 0x67, 0x32,
  0x64, 0x5F, 0x36, 0x33, 0x2F, 0x4D, 0x61, 0x78, 0x50, 0x6F,
  0x6F, 0x6C, 0x00, 0x00, 0x04, 0x00, 0x00, 0x00, 0x01, 0x00,
  0x00, 0x00, 0x08, 0x00, 0x00, 0x00, 0x08, 0x00, 0x00, 0x00,
  0x08, 0x00, 0x00, 0x00, 0x46, 0xF6, 0xFF, 0xFF, 0x00, 0x00,
  0x00, 0x01, 0x14, 0x00, 0x00, 0x00, 0x24, 0x00, 0x00, 0x00,
  0x24, 0x00, 0x00, 0x00, 0x15, 0x00, 0x00, 0x00, 0xCC, 0x00,
  0x00, 0x00, 0x04, 0x00, 0x00, 0x00, 0xFF, 0xFF, 0xFF, 0xFF,
  0x10, 0x00, 0x00, 0x00, 0x10, 0x00, 0x00, 0x00, 0x08, 0x00,
  0x00, 0x00, 0x30, 0xF6, 0xFF, 0xFF, 0xA9, 0x00, 0x00, 0x00,
  0x73, 0x65, 0x71, 0x75, 0x65, 0x6E, 0x74, 0x69, 0x61, 0x6C,
  0x5F, 0x31, 0x30, 0x2F, 0x63, 0x6F, 0x6E, 0x76, 0x32, 0x64,
  0x5F, 0x35, 0x33, 0x2F, 0x52, 0x65, 0x6C, 0x75, 0x3B, 0x73,
  0x65, 0x71, 0x75, 0x65, 0x6E, 0x74, 0x69, 0x61, 0x6C, 0x5F,
  0x31, 0x30, 0x2F, 0x63, 0x6F, 0x6E, 0x76, 0x32, 0x64, 0x5F,
  0x35, 0x33, 0x2F, 0x42, 0x69, 0x61, 0x73, 0x41, 0x64, 0x64,
  0x3B, 0x73, 0x65, 0x71, 0x75, 0x65, 0x6E, 0x74, 0x69, 0x61,
  0x6C, 0x5F, 0x31, 0x30, 0x2F, 0x63, 0x6F, 0x6E, 0x76, 0x32,
  0x64, 0x5F, 0x35, 0x34, 0x2F, 0x43, 0x6F, 0x6E, 0x76, 0x32,
  0x44, 0x3B, 0x73, 0x65, 0x71, 0x75, 0x65, 0x6E, 0x74, 0x69,
  0x61, 0x6C, 0x5F, 0x31, 0x30, 0x2F, 0x63, 0x6F, 0x6E, 0x76,
  0x32, 0x64, 0x5F, 0x35, 0x33, 0x2F, 0x43, 0x6F, 0x6E, 0x76,
  0x32, 0x44, 0x3B, 0x73, 0x65, 0x71, 0x75, 0x65, 0x6E, 0x74,
  0x69, 0x61, 0x6C, 0x5F, 0x31, 0x30, 0x2F, 0x63, 0x6F, 0x6E,
  0x76, 0x32, 0x64, 0x5F, 0x35, 0x33, 0x2F, 0x42, 0x69, 0x61,
  0x73, 0x41, 0x64, 0x64, 0x2F, 0x52, 0x65, 0x61, 0x64, 0x56,
  0x61, 0x72, 0x69, 0x61, 0x62, 0x6C, 0x65, 0x4F, 0x70, 0x00,
  0x00, 0x00, 0x04, 0x00, 0x00, 0x00, 0x01, 0x00, 0x00, 0x00,
  0x10, 0x00, 0x00, 0x00, 0x10, 0x00, 0x00, 0x00, 0x08, 0x00,
  0x00, 0x00, 0x3E, 0xF7, 0xFF, 0xFF, 0x00, 0x00, 0x00, 0x01,
  0x14, 0x00, 0x00, 0x00, 0x24, 0x00, 0x00, 0x00, 0x24, 0x00,
  0x00, 0x00, 0x14, 0x00, 0x00, 0x00, 0x48, 0x00, 0x00, 0x00,
  0x04, 0x00, 0x00, 0x00, 0xFF, 0xFF, 0xFF, 0xFF, 0x10, 0x00,
  0x00, 0x00, 0x10, 0x00, 0x00, 0x00, 0x08, 0x00, 0x00, 0x00,
  0x28, 0xF7, 0xFF, 0xFF, 0x26, 0x00, 0x00, 0x00, 0x73, 0x65,
  0x71, 0x75, 0x65, 0x6E, 0x74, 0x69, 0x61, 0x6C, 0x5F, 0x31,
  0x30, 0x2F, 0x6D, 0x61, 0x78, 0x5F, 0x70, 0x6F, 0x6F, 0x6C,
  0x69, 0x6E, 0x67, 0x32, 0x64, 0x5F, 0x36, 0x32, 0x2F, 0x4D,
  0x61, 0x78, 0x50, 0x6F, 0x6F, 0x6C, 0x00, 0x00, 0x04, 0x00,
  0x00, 0x00, 0x01, 0x00, 0x00, 0x00, 0x10, 0x00, 0x00, 0x00,
  0x10, 0x00, 0x00, 0x00, 0x08, 0x00, 0x00, 0x00, 0xB2, 0xF7,
  0xFF, 0xFF, 0x00, 0x00, 0x00, 0x01, 0x14, 0x00, 0x00, 0x00,
  0x24, 0x00, 0x00, 0x00, 0x24, 0x00, 0x00, 0x00, 0x13, 0x00,
  0x00, 0x00, 0xCC, 0x00, 0x00, 0x00, 0x04, 0x00, 0x00, 0x00,
  0xFF, 0xFF, 0xFF, 0xFF, 0x20, 0x00, 0x00, 0x00, 0x20, 0x00,
  0x00, 0x00, 0x08, 0x00, 0x00, 0x00, 0x9C, 0xF7, 0xFF, 0xFF,
  0xA9, 0x00, 0x00, 0x00, 0x73, 0x65, 0x71, 0x75, 0x65, 0x6E,
  0x74, 0x69, 0x61, 0x6C, 0x5F, 0x31, 0x30, 0x2F, 0x63, 0x6F,
  0x6E, 0x76, 0x32, 0x64, 0x5F, 0x35, 0x32, 0x2F, 0x52, 0x65,
  0x6C, 0x75, 0x3B, 0x73, 0x65, 0x71, 0x75, 0x65, 0x6E, 0x74,
  0x69, 0x61, 0x6C, 0x5F, 0x31, 0x30, 0x2F, 0x63, 0x6F, 0x6E,
  0x76, 0x32, 0x64, 0x5F, 0x35, 0x32, 0x2F, 0x42, 0x69, 0x61,
  0x73, 0x41, 0x64, 0x64, 0x3B, 0x73, 0x65, 0x71, 0x75, 0x65,
  0x6E, 0x74, 0x69, 0x61, 0x6C, 0x5F, 0x31, 0x30, 0x2F, 0x63,
  0x6F, 0x6E, 0x76, 0x32, 0x64, 0x5F, 0x35, 0x34, 0x2F, 0x43,
  0x6F, 0x6E, 0x76, 0x32, 0x44, 0x3B, 0x73, 0x65, 0x71, 0x75,
  0x65, 0x6E, 0x74, 0x69, 0x61, 0x6C, 0x5F, 0x31, 0x30, 0x2F,
  0x63, 0x6F, 0x6E, 0x76, 0x32, 0x64, 0x5F, 0x35, 0x32, 0x2F,
  0x43, 0x6F, 0x6E, 0x76, 0x32, 0x44, 0x3B, 0x73, 0x65, 0x71,
  0x75, 0x65, 0x6E, 0x74, 0x69, 0x61, 0x6C, 0x5F, 0x31, 0x30,
  0x2F, 0x63, 0x6F, 0x6E, 0x76, 0x32, 0x64, 0x5F, 0x35, 0x32,
  0x2F, 0x42, 0x69, 0x61, 0x73, 0x41, 0x64, 0x64, 0x2F, 0x52,
  0x65, 0x61, 0x64, 0x56, 0x61, 0x72, 0x69, 0x61, 0x62, 0x6C,
  0x65, 0x4F, 0x70, 0x00, 0x00, 0x00, 0x04, 0x00, 0x00, 0x00,
  0x01, 0x00, 0x00, 0x00, 0x20, 0x00, 0x00, 0x00, 0x20, 0x00,
  0x00, 0x00, 0x08, 0x00, 0x00, 0x00, 0xAA, 0xF8, 0xFF, 0xFF,
  0x00, 0x00, 0x00, 0x01, 0x14, 0x00, 0x00, 0x00, 0x24, 0x00,
  0x00, 0x00, 0x24, 0x00, 0x00, 0x00, 0x12, 0x00, 0x00, 0x00,
  0x48, 0x00, 0x00, 0x00, 0x04, 0x00, 0x00, 0x00, 0xFF, 0xFF,
  0xFF, 0xFF, 0x20, 0x00, 0x00, 0x00, 0x20, 0x00, 0x00, 0x00,
  0x08, 0x00, 0x00, 0x00, 0x94, 0xF8, 0xFF, 0xFF, 0x26, 0x00,
  0x00, 0x00, 0x73, 0x65, 0x71, 0x75, 0x65, 0x6E, 0x74, 0x69,
  0x61, 0x6C, 0x5F, 0x31, 0x30, 0x2F, 0x6D, 0x61, 0x78, 0x5F,
  0x70, 0x6F, 0x6F, 0x6C, 0x69, 0x6E, 0x67, 0x32, 0x64, 0x5F,
  0x36, 0x31, 0x2F, 0x4D, 0x61, 0x78, 0x50, 0x6F, 0x6F, 0x6C,
  0x00, 0x00, 0x04, 0x00, 0x00, 0x00, 0x01, 0x00, 0x00, 0x00,
  0x20, 0x00, 0x00, 0x00, 0x20, 0x00, 0x00, 0x00, 0x08, 0x00,
  0x00, 0x00, 0x1E, 0xF9, 0xFF, 0xFF, 0x00, 0x00, 0x00, 0x01,
  0x14, 0x00, 0x00, 0x00, 0x24, 0x00, 0x00, 0x00, 0x24, 0x00,
  0x00, 0x00, 0x11, 0x00, 0x00, 0x00, 0xCC, 0x00, 0x00, 0x00,
  0x04, 0x00, 0x00, 0x00, 0xFF, 0xFF, 0xFF, 0xFF, 0x40, 0x00,
  0x00, 0x00, 0x40, 0x00, 0x00, 0x00, 0x08, 0x00, 0x00, 0x00,
  0x08, 0xF9, 0xFF, 0xFF, 0xA9, 0x00, 0x00, 0x00, 0x73, 0x65,
  0x71, 0x75, 0x65, 0x6E, 0x74, 0x69, 0x61, 0x6C, 0x5F, 0x31,
  0x30, 0x2F, 0x63, 0x6F, 0x6E, 0x76, 0x32, 0x64, 0x5F, 0x35,
  0x31, 0x2F, 0x52, 0x65, 0x6C, 0x75, 0x3B, 0x73, 0x65, 0x71,
  0x75, 0x65, 0x6E, 0x74, 0x69, 0x61, 0x6C, 0x5F, 0x31, 0x30,
  0x2F, 0x63, 0x6F, 0x6E, 0x76, 0x32, 0x64, 0x5F, 0x35, 0x31,
  0x2F, 0x42, 0x69, 0x61, 0x73, 0x41, 0x64, 0x64, 0x3B, 0x73,
  0x65, 0x71, 0x75, 0x65, 0x6E, 0x74, 0x69, 0x61, 0x6C, 0x5F,
  0x31, 0x30, 0x2F, 0x63, 0x6F, 0x6E, 0x76, 0x32, 0x64, 0x5F,
  0x35, 0x34, 0x2F, 0x43, 0x6F, 0x6E, 0x76, 0x32, 0x44, 0x3B,
  0x73, 0x65, 0x71, 0x75, 0x65, 0x6E, 0x74, 0x69, 0x61, 0x6C,
  0x5F, 0x31, 0x30, 0x2F, 0x63, 0x6F, 0x6E, 0x76, 0x32, 0x64,
  0x5F, 0x35, 0x31, 0x2F, 0x43, 0x6F, 0x6E, 0x76, 0x32, 0x44,
  0x3B, 0x73, 0x65, 0x71, 0x75, 0x65, 0x6E, 0x74, 0x69, 0x61,
  0x6C, 0x5F, 0x31, 0x30, 0x2F, 0x63, 0x6F, 0x6E, 0x76, 0x32,
  0x64, 0x5F, 0x35, 0x31, 0x2F, 0x42, 0x69, 0x61, 0x73, 0x41,
  0x64, 0x64, 0x2F, 0x52, 0x65, 0x61, 0x64, 0x56, 0x61, 0x72,
  0x69, 0x61, 0x62, 0x6C, 0x65, 0x4F, 0x70, 0x00, 0x00, 0x00,
  0x04, 0x00, 0x00, 0x00, 0x01, 0x00, 0x00, 0x00, 0x40, 0x00,
  0x00, 0x00, 0x40, 0x00, 0x00, 0x00, 0x08, 0x00, 0x00, 0x00,
  0x16, 0xFA, 0xFF, 0xFF, 0x00, 0x00, 0x00, 0x01, 0x14, 0x00,
  0x00, 0x00, 0x24, 0x00, 0x00, 0x00, 0x24, 0x00, 0x00, 0x00,
  0x10, 0x00, 0x00, 0x00, 0x48, 0x00, 0x00, 0x00, 0x04, 0x00,
  0x00, 0x00, 0xFF, 0xFF, 0xFF, 0xFF, 0x40, 0x00, 0x00, 0x00,
  0x40, 0x00, 0x00, 0x00, 0x08, 0x00, 0x00, 0x00, 0x00, 0xFA,
  0xFF, 0xFF, 0x26, 0x00, 0x00, 0x00, 0x73, 0x65, 0x71, 0x75,
  0x65, 0x6E, 0x74, 0x69, 0x61, 0x6C, 0x5F, 0x31, 0x30, 0x2F,
  0x6D, 0x61, 0x78, 0x5F, 0x70, 0x6F, 0x6F, 0x6C, 0x69, 0x6E,
  0x67, 0x32, 0x64, 0x5F, 0x36, 0x30, 0x2F, 0x4D, 0x61, 0x78,
  0x50, 0x6F, 0x6F, 0x6C, 0x00, 0x00, 0x04, 0x00, 0x00, 0x00,
  0x01, 0x00, 0x00, 0x00, 0x40, 0x00, 0x00, 0x00, 0x40, 0x00,
  0x00, 0x00, 0x08, 0x00, 0x00, 0x00, 0x8A, 0xFA, 0xFF, 0xFF,
  0x00, 0x00, 0x00, 0x01, 0x14, 0x00, 0x00, 0x00, 0x24, 0x00,
  0x00, 0x00, 0x24, 0x00, 0x00, 0x00, 0x0F, 0x00, 0x00, 0x00,
  0xCC, 0x00, 0x00, 0x00, 0x04, 0x00, 0x00, 0x00, 0xFF, 0xFF,
  0xFF, 0xFF, 0x80, 0x00, 0x00, 0x00, 0x80, 0x00, 0x00, 0x00,
  0x08, 0x00, 0x00, 0x00, 0x74, 0xFA, 0xFF, 0xFF, 0xA9, 0x00,
  0x00, 0x00, 0x73, 0x65, 0x71, 0x75, 0x65, 0x6E, 0x74, 0x69,
  0x61, 0x6C, 0x5F, 0x31, 0x30, 0x2F, 0x63, 0x6F, 0x6E, 0x76,
  0x32, 0x64, 0x5F, 0x35, 0x30, 0x2F, 0x52, 0x65, 0x6C, 0x75,
  0x3B, 0x73, 0x65, 0x71, 0x75, 0x65, 0x6E, 0x74, 0x69, 0x61,
  0x6C, 0x5F, 0x31, 0x30, 0x2F, 0x63, 0x6F, 0x6E, 0x76, 0x32,
  0x64, 0x5F, 0x35, 0x30, 0x2F, 0x42, 0x69, 0x61, 0x73, 0x41,
  0x64, 0x64, 0x3B, 0x73, 0x65, 0x71, 0x75, 0x65, 0x6E, 0x74,
  0x69, 0x61, 0x6C, 0x5F, 0x31, 0x30, 0x2F, 0x63, 0x6F, 0x6E,
  0x76, 0x32, 0x64, 0x5F, 0x35, 0x34, 0x2F, 0x43, 0x6F, 0x6E,
  0x76, 0x32, 0x44, 0x3B, 0x73, 0x65, 0x71, 0x75, 0x65, 0x6E,
  0x74, 0x69, 0x61, 0x6C, 0x5F, 0x31, 0x30, 0x2F, 0x63, 0x6F,
  0x6E, 0x76, 0x32, 0x64, 0x5F, 0x35, 0x30, 0x2F, 0x43, 0x6F,
  0x6E, 0x76, 0x32, 0x44, 0x3B, 0x73, 0x65, 0x71, 0x75, 0x65,
  0x6E, 0x74, 0x69, 0x61, 0x6C, 0x5F, 0x31, 0x30, 0x2F, 0x63,
  0x6F, 0x6E, 0x76, 0x32, 0x64, 0x5F, 0x35, 0x30, 0x2F, 0x42,
  0x69, 0x61, 0x73, 0x41, 0x64, 0x64, 0x2F, 0x52, 0x65, 0x61,
  0x64, 0x56, 0x61, 0x72, 0x69, 0x61, 0x62, 0x6C, 0x65, 0x4F,
  0x70, 0x00, 0x00, 0x00, 0x04, 0x00, 0x00, 0x00, 0x01, 0x00,
  0x00, 0x00, 0x80, 0x00, 0x00, 0x00, 0x80, 0x00, 0x00, 0x00,
  0x08, 0x00, 0x00, 0x00, 0xF2, 0xFB, 0xFF, 0xFF, 0x00, 0x00,
  0x00, 0x01, 0x10, 0x00, 0x00, 0x00, 0x10, 0x00, 0x00, 0x00,
  0x0E, 0x00, 0x00, 0x00, 0x2C, 0x00, 0x00, 0x00, 0x54, 0xFB,
  0xFF, 0xFF, 0x1D, 0x00, 0x00, 0x00, 0x73, 0x65, 0x71, 0x75,
  0x65, 0x6E, 0x74, 0x69, 0x61, 0x6C, 0x5F, 0x31, 0x30, 0x2F,
  0x64, 0x65, 0x6E, 0x73, 0x65, 0x5F, 0x31, 0x32, 0x2F, 0x4D,
  0x61, 0x74, 0x4D, 0x75, 0x6C, 0x00, 0x00, 0x00, 0x02, 0x00,
  0x00, 0x00, 0x01, 0x00, 0x00, 0x00, 0x20, 0x00, 0x00, 0x00,
  0x00, 0x00, 0x16, 0x00, 0x1C, 0x00, 0x18, 0x00, 0x17, 0x00,
  0x10, 0x00, 0x0C, 0x00, 0x08, 0x00, 0x00, 0x00, 0x00, 0x00,
  0x00, 0x00, 0x07, 0x00, 0x16, 0x00, 0x00, 0x00, 0x00, 0x00,
  0x00, 0x01, 0x14, 0x00, 0x00, 0x00, 0x14, 0x00, 0x00, 0x00,
  0x0D, 0x00, 0x00, 0x00, 0x00, 0x00, 0x00, 0x02, 0x2C, 0x00,
  0x00, 0x00, 0xBC, 0xFB, 0xFF, 0xFF, 0x1E, 0x00, 0x00, 0x00,
  0x73, 0x65, 0x71, 0x75, 0x65, 0x6E, 0x74, 0x69, 0x61, 0x6C,
  0x5F, 0x31, 0x30, 0x2F, 0x66, 0x6C, 0x61, 0x74, 0x74, 0x65,
  0x6E, 0x5F, 0x31, 0x30, 0x2F, 0x43, 0x6F, 0x6E, 0x73, 0x74,
  0x00, 0x00, 0x01, 0x00, 0x00, 0x00, 0x02, 0x00, 0x00, 0x00,
  0xA2, 0xFC, 0xFF, 0xFF, 0x00, 0x00, 0x00, 0x01, 0x10, 0x00,
  0x00, 0x00, 0x10, 0x00, 0x00, 0x00, 0x0C, 0x00, 0x00, 0x00,
  0x3C, 0x00, 0x00, 0x00, 0x04, 0xFC, 0xFF, 0xFF, 0x2D, 0x00,
  0x00, 0x00, 0x73, 0x65, 0x71, 0x75, 0x65, 0x6E, 0x74, 0x69,
  0x61, 0x6C, 0x5F, 0x31, 0x30, 0x2F, 0x64, 0x65, 0x6E, 0x73,
  0x65, 0x5F, 0x31, 0x32, 0x2F, 0x42, 0x69, 0x61, 0x73, 0x41,
  0x64, 0x64, 0x2F, 0x52, 0x65, 0x61, 0x64, 0x56, 0x61, 0x72,
  0x69, 0x61, 0x62, 0x6C, 0x65, 0x4F, 0x70, 0x00, 0x00, 0x00,
  0x01, 0x00, 0x00, 0x00, 0x01, 0x00, 0x00, 0x00, 0xFA, 0xFC,
  0xFF, 0xFF, 0x00, 0x00, 0x00, 0x01, 0x10, 0x00, 0x00, 0x00,
  0x10, 0x00, 0x00, 0x00, 0x0B, 0x00, 0x00, 0x00, 0x2C, 0x00,
  0x00, 0x00, 0x5C, 0xFC, 0xFF, 0xFF, 0x1E, 0x00, 0x00, 0x00,
  0x73, 0x65, 0x71, 0x75, 0x65, 0x6E, 0x74, 0x69, 0x61, 0x6C,
  0x5F, 0x31, 0x30, 0x2F, 0x63, 0x6F, 0x6E, 0x76, 0x32, 0x64,
  0x5F, 0x35, 0x34, 0x2F, 0x43, 0x6F, 0x6E, 0x76, 0x32, 0x44,
  0x00, 0x00, 0x04, 0x00, 0x00, 0x00, 0x08, 0x00, 0x00, 0x00,
  0x03, 0x00, 0x00, 0x00, 0x03, 0x00, 0x00, 0x00, 0x08, 0x00,
  0x00, 0x00, 0x4E, 0xFD, 0xFF, 0xFF, 0x00, 0x00, 0x00, 0x01,
  0x10, 0x00, 0x00, 0x00, 0x10, 0x00, 0x00, 0x00, 0x0A, 0x00,
  0x00, 0x00, 0x2C, 0x00, 0x00, 0x00, 0xB0, 0xFC, 0xFF, 0xFF,
  0x1E, 0x00, 0x00, 0x00, 0x73, 0x65, 0x71, 0x75, 0x65, 0x6E,
  0x74, 0x69, 0x61, 0x6C, 0x5F, 0x31, 0x30, 0x2F, 0x63, 0x6F,
  0x6E, 0x76, 0x32, 0x64, 0x5F, 0x35, 0x33, 0x2F, 0x43, 0x6F,
  0x6E, 0x76, 0x32, 0x44, 0x00, 0x00, 0x04, 0x00, 0x00, 0x00,
  0x08, 0x00, 0x00, 0x00, 0x03, 0x00, 0x00, 0x00, 0x03, 0x00,
  0x00, 0x00, 0x08, 0x00, 0x00, 0x00, 0xA2, 0xFD, 0xFF, 0xFF,
  0x00, 0x00, 0x00, 0x01, 0x10, 0x00, 0x00, 0x00, 0x10, 0x00,
  0x00, 0x00, 0x09, 0x00, 0x00, 0x00, 0x2C, 0x00, 0x00, 0x00,
  0x04, 0xFD, 0xFF, 0xFF, 0x1E, 0x00, 0x00, 0x00, 0x73, 0x65,
  0x71, 0x75, 0x65, 0x6E, 0x74, 0x69, 0x61, 0x6C, 0x5F, 0x31,
  0x30, 0x2F, 0x63, 0x6F, 0x6E, 0x76, 0x32, 0x64, 0x5F, 0x35,
  0x32, 0x2F, 0x43, 0x6F, 0x6E, 0x76, 0x32, 0x44, 0x00, 0x00,
  0x04, 0x00, 0x00, 0x00, 0x08, 0x00, 0x00, 0x00, 0x03, 0x00,
  0x00, 0x00, 0x03, 0x00, 0x00, 0x00, 0x08, 0x00, 0x00, 0x00,
  0xF6, 0xFD, 0xFF, 0xFF, 0x00, 0x00, 0x00, 0x01, 0x10, 0x00,
  0x00, 0x00, 0x10, 0x00, 0x00, 0x00, 0x08, 0x00, 0x00, 0x00,
  0x2C, 0x00, 0x00, 0x00, 0x58, 0xFD, 0xFF, 0xFF, 0x1E, 0x00,
  0x00, 0x00, 0x73, 0x65, 0x71, 0x75, 0x65, 0x6E, 0x74, 0x69,
  0x61, 0x6C, 0x5F, 0x31, 0x30, 0x2F, 0x63, 0x6F, 0x6E, 0x76,
  0x32, 0x64, 0x5F, 0x35, 0x31, 0x2F, 0x43, 0x6F, 0x6E, 0x76,
  0x32, 0x44, 0x00, 0x00, 0x04, 0x00, 0x00, 0x00, 0x08, 0x00,
  0x00, 0x00, 0x03, 0x00, 0x00, 0x00, 0x03, 0x00, 0x00, 0x00,
  0x08, 0x00, 0x00, 0x00, 0x4A, 0xFE, 0xFF, 0xFF, 0x00, 0x00,
  0x00, 0x01, 0x10, 0x00, 0x00, 0x00, 0x10, 0x00, 0x00, 0x00,
  0x07, 0x00, 0x00, 0x00, 0x2C, 0x00, 0x00, 0x00, 0xAC, 0xFD,
  0xFF, 0xFF, 0x1E, 0x00, 0x00, 0x00, 0x73, 0x65, 0x71, 0x75,
  0x65, 0x6E, 0x74, 0x69, 0x61, 0x6C, 0x5F, 0x31, 0x30, 0x2F,
  0x63, 0x6F, 0x6E, 0x76, 0x32, 0x64, 0x5F, 0x35, 0x30, 0x2F,
  0x43, 0x6F, 0x6E, 0x76, 0x32, 0x44, 0x00, 0x00, 0x04, 0x00,
  0x00, 0x00, 0x08, 0x00, 0x00, 0x00, 0x03, 0x00, 0x00, 0x00,
  0x03, 0x00, 0x00, 0x00, 0x03, 0x00, 0x00, 0x00, 0x9E, 0xFE,
  0xFF, 0xFF, 0x00, 0x00, 0x00, 0x01, 0x10, 0x00, 0x00, 0x00,
  0x10, 0x00, 0x00, 0x00, 0x06, 0x00, 0x00, 0x00, 0x3C, 0x00,
  0x00, 0x00, 0x00, 0xFE, 0xFF, 0xFF, 0x2E, 0x00, 0x00, 0x00,
  0x73, 0x65, 0x71, 0x75, 0x65, 0x6E, 0x74, 0x69, 0x61, 0x6C,
  0x5F, 0x31, 0x30, 0x2F, 0x63, 0x6F, 0x6E, 0x76, 0x32, 0x64,
  0x5F, 0x35, 0x34, 0x2F, 0x42, 0x69, 0x61, 0x73, 0x41, 0x64,
  0x64, 0x2F, 0x52, 0x65, 0x61, 0x64, 0x56, 0x61, 0x72, 0x69,
  0x61, 0x62, 0x6C, 0x65, 0x4F, 0x70, 0x00, 0x00, 0x01, 0x00,
  0x00, 0x00, 0x08, 0x00, 0x00, 0x00, 0xF6, 0xFE, 0xFF, 0xFF,
  0x00, 0x00, 0x00, 0x01, 0x10, 0x00, 0x00, 0x00, 0x10, 0x00,
  0x00, 0x00, 0x05, 0x00, 0x00, 0x00, 0x3C, 0x00, 0x00, 0x00,
  0x58, 0xFE, 0xFF, 0xFF, 0x2E, 0x00, 0x00, 0x00, 0x73, 0x65,
  0x71, 0x75, 0x65, 0x6E, 0x74, 0x69, 0x61, 0x6C, 0x5F, 0x31,
  0x30, 0x2F, 0x63, 0x6F, 0x6E, 0x76, 0x32, 0x64, 0x5F, 0x35,
  0x33, 0x2F, 0x42, 0x69, 0x61, 0x73, 0x41, 0x64, 0x64, 0x2F,
  0x52, 0x65, 0x61, 0x64, 0x56, 0x61, 0x72, 0x69, 0x61, 0x62,
  0x6C, 0x65, 0x4F, 0x70, 0x00, 0x00, 0x01, 0x00, 0x00, 0x00,
  0x08, 0x00, 0x00, 0x00, 0x4E, 0xFF, 0xFF, 0xFF, 0x00, 0x00,
  0x00, 0x01, 0x10, 0x00, 0x00, 0x00, 0x10, 0x00, 0x00, 0x00,
  0x04, 0x00, 0x00, 0x00, 0x3C, 0x00, 0x00, 0x00, 0xB0, 0xFE,
  0xFF, 0xFF, 0x2E, 0x00, 0x00, 0x00, 0x73, 0x65, 0x71, 0x75,
  0x65, 0x6E, 0x74, 0x69, 0x61, 0x6C, 0x5F, 0x31, 0x30, 0x2F,
  0x63, 0x6F, 0x6E, 0x76, 0x32, 0x64, 0x5F, 0x35, 0x32, 0x2F,
  0x42, 0x69, 0x61, 0x73, 0x41, 0x64, 0x64, 0x2F, 0x52, 0x65,
  0x61, 0x64, 0x56, 0x61, 0x72, 0x69, 0x61, 0x62, 0x6C, 0x65,
  0x4F, 0x70, 0x00, 0x00, 0x01, 0x00, 0x00, 0x00, 0x08, 0x00,
  0x00, 0x00, 0xA6, 0xFF, 0xFF, 0xFF, 0x00, 0x00, 0x00, 0x01,
  0x10, 0x00, 0x00, 0x00, 0x10, 0x00, 0x00, 0x00, 0x03, 0x00,
  0x00, 0x00, 0x3C, 0x00, 0x00, 0x00, 0x08, 0xFF, 0xFF, 0xFF,
  0x2E, 0x00, 0x00, 0x00, 0x73, 0x65, 0x71, 0x75, 0x65, 0x6E,
  0x74, 0x69, 0x61, 0x6C, 0x5F, 0x31, 0x30, 0x2F, 0x63, 0x6F,
  0x6E, 0x76, 0x32, 0x64, 0x5F, 0x35, 0x31, 0x2F, 0x42, 0x69,
  0x61, 0x73, 0x41, 0x64, 0x64, 0x2F, 0x52, 0x65, 0x61, 0x64,
  0x56, 0x61, 0x72, 0x69, 0x61, 0x62, 0x6C, 0x65, 0x4F, 0x70,
  0x00, 0x00, 0x01, 0x00, 0x00, 0x00, 0x08, 0x00, 0x00, 0x00,
  0x00, 0x00, 0x16, 0x00, 0x18, 0x00, 0x14, 0x00, 0x00, 0x00,
  0x10, 0x00, 0x0C, 0x00, 0x08, 0x00, 0x00, 0x00, 0x00, 0x00,
  0x00, 0x00, 0x07, 0x00, 0x16, 0x00, 0x00, 0x00, 0x00, 0x00,
  0x00, 0x01, 0x10, 0x00, 0x00, 0x00, 0x10, 0x00, 0x00, 0x00,
  0x02, 0x00, 0x00, 0x00, 0x3C, 0x00, 0x00, 0x00, 0x78, 0xFF,
  0xFF, 0xFF, 0x2E, 0x00, 0x00, 0x00, 0x73, 0x65, 0x71, 0x75,
  0x65, 0x6E, 0x74, 0x69, 0x61, 0x6C, 0x5F, 0x31, 0x30, 0x2F,
  0x63, 0x6F, 0x6E, 0x76, 0x32, 0x64, 0x5F, 0x35, 0x30, 0x2F,
  0x42, 0x69, 0x61, 0x73, 0x41, 0x64, 0x64, 0x2F, 0x52, 0x65,
  0x61, 0x64, 0x56, 0x61, 0x72, 0x69, 0x61, 0x62, 0x6C, 0x65,
  0x4F, 0x70, 0x00, 0x00, 0x01, 0x00, 0x00, 0x00, 0x08, 0x00,
  0x00, 0x00, 0x00, 0x00, 0x16, 0x00, 0x1C, 0x00, 0x18, 0x00,
  0x00, 0x00, 0x14, 0x00, 0x10, 0x00, 0x0C, 0x00, 0x00, 0x00,
  0x00, 0x00, 0x08, 0x00, 0x07, 0x00, 0x16, 0x00, 0x00, 0x00,
  0x00, 0x00, 0x00, 0x01, 0x14, 0x00, 0x00, 0x00, 0x28, 0x00,
  0x00, 0x00, 0x28, 0x00, 0x00, 0x00, 0x01, 0x00, 0x00, 0x00,
  0x40, 0x00, 0x00, 0x00, 0x04, 0x00, 0x00, 0x00, 0xFF, 0xFF,
  0xFF, 0xFF, 0x80, 0x00, 0x00, 0x00, 0x80, 0x00, 0x00, 0x00,
  0x03, 0x00, 0x00, 0x00, 0x04, 0x00, 0x04, 0x00, 0x04, 0x00,
  0x00, 0x00, 0x1A, 0x00, 0x00, 0x00, 0x73, 0x65, 0x72, 0x76,
  0x69, 0x6E, 0x67, 0x5F, 0x64, 0x65, 0x66, 0x61, 0x75, 0x6C,
  0x74, 0x5F, 0x69, 0x6E, 0x70, 0x75, 0x74, 0x5F, 0x31, 0x31,
  0x3A, 0x30, 0x00, 0x00, 0x04, 0x00, 0x00, 0x00, 0x01, 0x00,
  0x00, 0x00, 0x80, 0x00, 0x00, 0x00, 0x80, 0x00, 0x00, 0x00,
  0x03, 0x00, 0x00, 0x00, 0x05, 0x00, 0x00, 0x00, 0x50, 0x00,
  0x00, 0x00, 0x34, 0x00, 0x00, 0x00, 0x24, 0x00, 0x00, 0x00,
  0x14, 0x00, 0x00, 0x00, 0x04, 0x00, 0x00, 0x00, 0xD0, 0xFF,
  0xFF, 0xFF, 0x0E, 0x00, 0x00, 0x00, 0x00, 0x00, 0x00, 0x0E,
  0xDC, 0xFF, 0xFF, 0xFF, 0x09, 0x00, 0x00, 0x00, 0x00, 0x00,
  0x00, 0x09, 0xE8, 0xFF, 0xFF, 0xFF, 0x16, 0x00, 0x00, 0x00,
  0x00, 0x00, 0x00, 0x16, 0xF4, 0xFF, 0xFF, 0xFF, 0x11, 0x00,
  0x00, 0x00, 0x00, 0x00, 0x00, 0x11, 0x0C, 0x00, 0x0C, 0x00,
  0x0B, 0x00, 0x00, 0x00, 0x00, 0x00, 0x04, 0x00, 0x0C, 0x00,
  0x00, 0x00, 0x03, 0x00, 0x00, 0x00, 0x00, 0x00, 0x00, 0x03
};
unsigned int model_tflite_len = 15840;